194	62.121
▁冷蔵の商品	49.287
▁冷凍商品	49.287
商品代金が	48.451
梱包分の送料をサービス	48.451
冷凍の商品を同時にご注文	48.451
この商品に関するサービス内容	48.451
別途送料が必要です	48.451
梱包分の送料をサービス致します	48.451
冷凍商品混合でのお買い物でも	48.451
別途必要	47.616
日後のお届け	45.109
コル	38.426
eight	37.590
▁常温の商品	37.177
冷蔵商品との同梱が可能です	37.177
菓	35.084
▁ポテトチップチョコレート	34.252
慶	32.578
フロマージュブラン	30.072
露	30.072
▁その他注意事項	29.236
日後のお届けになります	27.565
▁通常はご注文より	27.565
カンナッツ	27.407
伴	26.730
阪	26.314
▁詳しくは	25.897
▁同梱すれば	25.895
&#	25.800
想	25.065
回分の送料で複数の商品が送れます	25.059
▁同梱不可	24.643
入力下さい	24.226
ピュアチョコレート	24.224
ロマージュ	23.389
▁特定原材料	22.972
ユウカ	22.553
袋は	21.719
規定	21.718
製品の	21.718
▁このページ	21.718
範囲	21.718
〔	21.718
の商品詳細	21.301
支え	20.882
が変わります	20.882
ゴー	20.882
捜	20.882
官	20.882
挑戦	20.882
kcaL	20.048
およそ	20.047
株式会社爽快ドラッグ	19.631
は下記までお願いします	19.631
マイルド	19.631
▁本品は季節限定販売	19.213
取扱い	19.212
ブラウザ	19.212
項	18.378
施設	18.376
公式	18.376
▁115	18.376
以下の場所	18.376
ご希望の	17.960
に関する詳細なお問合せ	17.542
▁ポテトチップ	17.542
生産国	17.541
▁この部分はインラインフレーム	17.541
▁大阪	17.541
コンフェクト	16.706
冷蔵商品	16.429
こちらの商品	16.295
いただく場合は	16.150
▁発送温度帯	15.873
▁【2	15.870
フリーズドライ苺	15.870
お送り	15.870
▁到着の目安	15.456
▁ストロベリーチョコ	15.453
ワイヤ	15.453
商品詳細情報	15.317
▁+	15.251
▁アレルギー品目	15.038
するため	15.036
キャラメルパウダー	15.036
ーフ	15.036
ドライクランベリー	15.035
を引く	15.035
TA	15.035
720	14.758
保持	14.479
▁←	14.201
珠玉	14.200
▁とても	14.200
くま	14.200
のし掛け	14.200
お菓子の	14.200
備考欄にご	13.922
no	13.644
墓	13.364
突	13.364
ったチョコレートは冷えて固まると	13.364
を構	13.364
たまご	13.364
Gr	13.087
とさせていただいております	13.087
神戸	12.784
弔	12.531
六花亭	12.530
▁ズ	12.530
命日	12.530
アレルギー物質	12.530
▁マースジャパンリミテッド	12.529
参り	12.529
オーレ	12.529
繰	12.529
ちょうど	12.529
ミナ	12.529
)[	12.529
壇	12.529
葬儀	12.529
クランキー	11.694
浦	11.694
デラックス	11.694
高温多湿な	11.694
ピエール	11.694
の高さ	11.694
▁缶	11.694
職人の	11.694
この商品には	11.694
郷	11.694
おかし	11.694
▁-	11.559
恋	11.556
▁マイルド	11.417
シール	11.416
をまぶ	11.277
狭	11.277
気温が高	11.277
のクリスマス	10.860
配送となります	10.859
▁1500	10.859
▁0120	10.859
じゃがポックル	10.859
他の商品と同梱	10.859
差し支え	10.859
束	10.859
お試しください	10.859
ォ	10.859
▁生チョコレート	10.786
98	10.490
事用	10.441
季節の	10.441
丁寧に作り	10.441
庁	10.441
兵庫	10.441
草分け的存在	10.441
された場合	10.191
ジャガイモ	10.025
▁ショーコラ	10.024
裁	10.024
は全て	10.024
▁あらかじめご了承ください	10.024
続けて	10.023
▁季節限定	10.023
▁神戸フランツ	10.023
カルディ	10.023
.02	10.023
高温でやわらかくな	10.023
劣ります	10.023
われます	10.023
ブルームとい	10.023
テム	10.023
生活雑貨	10.023
クー	10.023
ハーモニーをお楽しみください	10.023
予めご了承ください	9.885
▁神戸	9.607
賞味	9.606
片面に	9.606
賞味期限に関わらず	9.606
個まで	9.523
ROYCE	9.468
ちょこれーと	9.467
▁東京	9.356
▁外	9.189
ご希望の場合は	9.189
クリーミーミルク	9.188
▁300	9.188
補	9.188
が約	9.188
`	9.188
ウカ	9.188
処	9.188
避け	9.188
備考欄へ	9.188
召上がり	9.188
ボンボンショコラ	9.188
甘酸っぱ	9.188
トンクッキー	9.188
商店	9.188
お買い	9.188
色が	9.188
円以上で	9.051
コチラ	8.910
欄に	8.771
▁注意	8.771
’	8.690
逃	8.631
ナッティ	8.631
ショーコラ	8.605
マカデミアン	8.562
〕	8.562
早め	8.520
▁=	8.402
スカ	8.353
ぴ	8.353
高温多湿な場所	8.353
ざまな	8.353
は約	8.353
グル	8.353
▁フェイバリット	8.353
ンパン	8.353
導	8.353
アドル	8.353
以下の涼しい場所で保存	8.353
固ま	8.353
▁トッポ	8.353
留	8.353
じっくりと	8.353
知らせいたします	8.353
ーヤ	8.353
砂	8.353
カラーの	8.353
アンサン	8.353
重な	8.353
▁リキュール	8.353
歌	8.353
ナッツチョコレート	8.214
備考欄に詳細をご記入ください	8.075
ご注文後の	8.075
芳醇	7.935
ople	7.935
の酸味と	7.935
hocolate	7.935
引き菓子	7.852
ペカンナッツ	7.796
どちらも無料にて承っております	7.796
乾燥苺	7.727
>[	7.595
▁価格	7.522
)]	7.518
にお届けする	7.518
にチョコレート	7.518
インラインフレーム	7.518
年も	7.518
高島	7.518
CC	7.518
にもおすすめ	7.518
この製品は	7.518
問い	7.518
ミル	7.517
がら	7.517
杭	7.517
必見	7.517
兵庫県	7.517
ナイ	7.517
返品はお受け	7.517
の注意事項	7.517
-34	7.517
合わせました	7.517
を頂戴いたします	7.517
位置	7.517
カバ	7.517
駅	7.517
mt	7.517
-30	7.517
ロア	7.517
を記載	7.517
農業	7.517
遺伝子組換え	7.517
ホスト	7.517
▁東京都港区	7.517
に運	7.517
お子様やアルコールに弱い方	7.517
贈り	7.399
▁洋酒	7.399
▁冷蔵便	7.391
▁25°	7.351
▁株式会社ロイズコンフェクト	7.351
▁同梱可	7.309
兵庫県神戸市東灘区	7.309
札幌市北区あいの里	7.239
JA	7.239
▁06-6	7.239
外装サイズ	7.239
ございます	7.205
ピー	7.150
パリチョコ	7.100
本品製造	7.100
650	7.100
召し上がってもさしつかえ	7.100
樹	7.100
にご注意ください	7.100
金賞	7.041
▁重量	7.041
せんべい	6.996
時期は	6.961
同梱が出来	6.961
表現	6.961
最安値	6.961
にて発送	6.961
温度帯	6.961
に未	6.961
▁白い	6.921
2、3	6.891
をご選択	6.891
)&	6.850
寸	6.759
ポテトチップ	6.683
▁特定原材料等	6.683
っとも	6.683
対応の	6.682
▁ご希望により	6.682
じゃが	6.682
つか	6.682
只今	6.682
年創業	6.682
斬	6.682
兵庫県神戸	6.682
鎌倉	6.682
157	6.682
本品は卵を含む製品	6.682
▁GIFT	6.682
同数	6.682
包装紙で	6.682
特別価格でご提供	6.682
紅花色素	6.682
どうか	6.682
シード	6.682
撰	6.682
の味わいが	6.682
塩キャラメル	6.682
殊	6.682
しっと	6.682
ヴェル	6.682
当店の	6.682
寝	6.682
×80	6.682
▁(12	6.682
心を込めて	6.682
容	6.497
オーロ	6.474
▁マセズ	6.404
匠	6.404
北海道お土産	6.379
恋人	6.370
▁ロイズ	6.312
▁ROYCE	6.265
▁シン	6.265
議	6.265
▁入荷	6.265
悔	6.265
ビニール	6.265
ドライマンゴー	6.265
ゅ	6.265
京都	6.182
日まで	6.126
▁大人気	6.125
1-1	6.125
参	6.056
RO	6.056
▁ナッティ	6.056
首	6.056
お供え	5.986
材	5.986
▁Ca	5.848
進物	5.848
]<	5.847
はお受けできません	5.847
▁ポテトチップス	5.847
京	5.847
▁プロ	5.847
▁お願い	5.847
百	5.847
筒	5.847
特定	5.847
自動計	5.847
用い	5.847
.11	5.847
犬	5.847
訪	5.847
弱い	5.847
スポ	5.847
忌	5.847
招	5.847
ひか	5.847
季節により	5.847
白く固まることがあります	5.847
ジャンド	5.847
もち粉	5.847
▁ME	5.847
ネーション	5.847
磨	5.847
奈川	5.847
キュー	5.847
カフェオレ	5.847
発酵乳	5.847
甘すぎない	5.847
の種	5.847
ルディ	5.847
18×	5.847
っく	5.847
を頂く場合がございます	5.847
ギフトボックス	5.847
、23	5.847
▁可愛らしい	5.847
1-2-10	5.847
香り豊かな	5.847
さしさわりはありませんが	5.847
商品の為	5.847
礎	5.847
コーティングして	5.847
移動	5.847
末	5.847
、『	5.847
口いっぱい	5.847
休業日	5.847
ロイズコンフェクト	5.772
ワール	5.743
獲得	5.728
に対応	5.708
3〜4	5.680
可能な	5.662
かき	5.662
で保存して下さい	5.639
▁通常ご注文	5.638
▁のし	5.638
▁季節	5.638
いも	5.638
またはご入金の確認から	5.638
営業日でお届けいたします	5.638
街	5.620
ひ	5.581
養	5.569
替	5.569
ミルクチョコレートと	5.569
小袋	5.569
テチ	5.569
博	5.430
週間以上	5.430
▁パリ	5.430
▁大阪府	5.430
快気内祝い	5.430
▁住所	5.429
▁国際	5.429
分離	5.429
影	5.429
とミルクチョコレートの	5.429
ファット	5.429
・・・4	5.429
はご容赦	5.429
バーチョコレート	5.370
にこだわ	5.346
レス	5.325
-16	5.290
は冷蔵便	5.290
にも最適	5.290
慶事用	5.290
盆	5.263
オーダー	5.251
イメージ	5.240
常温商品	5.221
抹茶パウダー	5.221
珈琲	5.198
メリーチョコレート	5.179
さま	5.164
ヘーゼル	5.151
られ	5.127
ロイズ	5.086
賞	5.041
▁保	5.012
越	5.012
をお付け	5.012
とともに	5.012
▁32	5.012
アソートメント	5.012
の中は	5.012
オランジュ	5.012
度以下で保存	5.012
製品は	5.012
気持ち	5.012
勧めいたします	5.012
トッポ	5.012
イツ	5.012
卵を含む製品を生産しています	5.012
▁を	5.012
朴	5.012
▁フリーダイヤル	5.012
▁ローストした	5.012
アジア	5.012
17.5	5.012
軽い食感	5.012
うえ	5.012
パプリカ色素	5.012
コーヒー豆を	5.012
ナル	5.012
・・・27	5.012
適温	5.012
はその	5.012
さしさわりはありません	5.012
ブルーベリーパウダー	5.012
さしさわり	5.012
フルール	5.012
ゲル	5.012
でやさしく	5.012
ールド	5.012
が際立つ	5.012
グミ	5.012
▁(10	5.012
パイの実	5.012
印刷	5.012
ブラウザで	5.012
▁特典有料プチシールで対応詳細	5.012
コ入	5.012
▁ファンシーチョコレート	5.012
運転時	5.012
シックな	5.012
と言わ	5.012
可能性	5.012
特選	5.012
アガ	5.012
クリーミングパウダー	5.012
冷凍商品	5.012
やプレゼント	5.012
まろやかな味わい	5.012
▁製造者	4.940
ST	4.929
法事	4.929
チョコレートで	4.919
ご自宅用	4.908
フランツ	4.893
25°	4.881
▁乳製品	4.873
表面	4.873
Mar	4.845
を受けて	4.845
の方は	4.823
屋さん	4.803
とに	4.803
▁クリスマス限定	4.803
の味わいを	4.803
なります	4.803
クロース	4.803
当店で	4.784
をご確認下さい	4.761
日時	4.734
デリケート	4.733
ってお	4.733
▁ドラジェ	4.733
行っておりません	4.733
▁北海道限定	4.733
・・・0	4.733
▁甘	4.733
別途商品ラベルに記載	4.733
▁商品に記載	4.733
先が	4.733
(28°	4.733
にて保存	4.733
魔法の	4.733
皆様	4.733
▁同梱	4.714
▁洋菓子	4.699
工	4.678
満中陰志	4.678
吟	4.678
手提袋	4.654
常温で保存	4.654
▁同梱について	4.642
に関するお知らせ	4.632
▁ご希望	4.622
94	4.594
▁のし対応	4.594
生地を	4.594
の風味を	4.594
の美味しさを	4.594
◎	4.594
ニア	4.594
ピーナッツバター	4.594
チョコレートの中に	4.594
▁神戸市中央区	4.594
▁カテゴリ	4.594
方に	4.594
▁チョコと	4.594
こだわ	4.594
の際に	4.594
幸せな	4.594
▁クリーミーな	4.594
早めにお	4.594
むそう	4.594
ストーク	4.594
吸	4.594
卵を含む製品	4.594
】※	4.594
究極	4.594
を含む製品を製造しております	4.594
日本語	4.594
秘伝の	4.594
旭川	4.594
,500	4.556
▁全国	4.511
のチョコレートの	4.511
枚数	4.511
昭	4.511
>>	4.490
が可能です	4.455
くり	4.455
マセズ	4.455
▁熱量	4.455
煎	4.455
バラエティ	4.455
みつきになる	4.455
黒い	4.455
ことを	4.455
におすすめ	4.455
何卒ご了承下さい	4.455
均	4.455
RF	4.455
込みました	4.455
破	4.455
吉	4.455
ぬ	4.455
宇治	4.427
供	4.416
東京	4.400
お使い	4.400
手提げ袋	4.400
数量限定	4.386
アーモンドパフ	4.385
▁午前	4.385
勢	4.385
テト	4.385
円となります	4.385
お世話	4.385
儀	4.385
×11	4.385
冷えると白く固まることがあります	4.385
法要	4.362
大阪	4.356
戚	4.344
厚み	4.344
福袋	4.344
はお断り	4.344
▁第	4.316
占	4.316
追加料金	4.281
省	4.281
植物レシチン	4.269
和風	4.269
ぼ	4.260
1,000	4.260
アーモンドチョコレート	4.177
平	4.177
いただけません	4.177
サンタ	4.177
仏	4.177
の一	4.177
まれた	4.176
賞味期限は	4.176
みな	4.176
▁備	4.176
まれ	4.176
が登場	4.176
分までのご注文で	4.176
翌日にお届け可能です	4.176
あす楽サービスの注意事項について	4.176
▁詳しくは下記の	4.176
▁※【	4.176
外装	4.176
▁冷暗所	4.176
の商品となります	4.176
査	4.176
なくな	4.176
画面上と実物では多少色	4.176
んでいます	4.176
▁商品情報	4.176
▁〔	4.176
若	4.176
レーション	4.176
札	4.176
本品は	4.176
可愛らしい	4.176
ョン	4.176
磯	4.176
トラガントガム	4.176
ーション	4.176
かれた	4.176
まろやかに	4.176
20%	4.176
貿易	4.176
▁す	4.176
灘区	4.176
を得	4.176
貼	4.176
▁0.5	4.176
居	4.176
クール便発送	4.176
の贈り物	4.176
せる	4.176
なめらかに	4.176
固	4.176
2.8	4.176
炒	4.176
妊娠	4.176
-22	4.176
リュフ	4.176
挙	4.176
フワ	4.176
百貨店用	4.176
8.5	4.176
ーリー	4.176
一粒ずつ	4.176
住所	4.176
ナポリタン	4.176
▁41	4.176
▁チェリー	4.176
鋭	4.176
を練り込み	4.176
▁キャドバリー	4.176
一定温度の	4.176
の原料	4.176
用達	4.176
販売しております	4.176
の美しい	4.176
熊本	4.176
マト	4.176
▁小悪魔	4.176
▁今まで	4.176
宗	4.176
:27	4.176
萬	4.176
・・・26	4.176
.28	4.176
ッコ	4.176
札幌	4.176
駄	4.176
Hawai	4.176
乃	4.176
配信	4.176
ビタ	4.176
▁たくさん	4.176
農薬や化学肥料	4.176
146	4.176
込められた	4.176
メール便は	4.176
授乳	4.176
丘	4.176
アメ	4.176
腔	4.176
シェアパック	4.176
コーヒーの	4.176
ザクザク	4.176
んど	4.176
くつ	4.176
クリスマス	4.147
ほうじ茶	4.125
原材料の一部に乳	4.101
資	4.084
もち	4.072
秀	4.057
意	4.057
のチョコレートで	4.037
ちょっとした	4.037
お届けする	4.037
▁保存	4.037
ファンシーチョコレート	4.009
ストロベリーパウダー	4.009
まるごと	4.009
のサイズ	4.009
頂いております	3.968
9.5	3.968
ージー	3.968
フルーツバーチョコレート	3.968
ご用意	3.968
が生	3.968
ブラン	3.945
フェレロ	3.938
▁インラインフレーム	3.938
はフランス	3.938
配達	3.926
▁◇	3.920
薄	3.920
不使用	3.898
基づ	3.898
保存方法直射日光	3.898
涼しいところで保管	3.898
曜営業	3.898
キャン	3.898
▁千葉県	3.898
害	3.898
あふれる	3.898
製菓	3.878
モロゾフ	3.863
▁ユ	3.842
笑顔	3.842
ご連絡いたします	3.842
軽快な	3.842
召し上がりください	3.842
日持ち	3.829
▁ご注文より	3.819
ティラミスチョコ	3.819
企画	3.805
ヵ月	3.797
コート	3.791
三	3.772
限	3.759
栄	3.759
▁高温多湿	3.759
▁東京都	3.759
階	3.759
目黒	3.759
ご用途	3.759
大切な	3.759
スタッフ	3.759
▁配達日指定	3.759
▁専用	3.759
ぞろ	3.759
毎	3.759
▁規格	3.759
ブランドの	3.759
看	3.759
エム	3.759
で有名な	3.759
ほぼ	3.759
風味は劣ります	3.759
▁いつも	3.759
人気商品です	3.759
▁0120-0	3.759
クセレント	3.759
させていただく	3.759
モード	3.759
封	3.759
▁福島県	3.759
115	3.759
赤の	3.759
が送	3.759
輝き	3.759
迷	3.759
908	3.759
税込	3.756
▁賞	3.721
ものを	3.721
プチ	3.721
▁サ	3.705
を使って	3.699
をご確認	3.699
、25°	3.693
法	3.675
240	3.675
ギフト対応について	3.675
甘みが	3.675
▁INF	3.675
個ずつ	3.675
MATION	3.675
キロ	3.654
▁より	3.654
キットカット	3.654
切り	3.620
宅配	3.620
合せ	3.620
の中から	3.620
トラ	3.620
扱	3.620
適	3.620
楽しむ	3.619
常温で保存してください	3.619
確定	3.619
▁メッセージカード	3.619
られています	3.619
加工澱粉	3.619
野区	3.619
個数分の	3.619
早めに	3.619
ショー	3.619
到着後	3.619
▁容器	3.619
包装紙	3.607
ご注文を	3.580
choco	3.580
条	3.580
マンゴー	3.550
やす	3.550
変	3.550
脱脂ココアパウダー	3.550
Pe	3.550
▁毎年	3.550
▁ポテトチップチョコ	3.550
▁ナチュラルチョコレート	3.550
度以下の涼しい場所	3.550
ゥ	3.550
加工油脂	3.550
様の	3.527
▁ー	3.527
一層	3.527
際に	3.527
を避け	3.520
▁京都	3.520
日以上	3.508
ボタン	3.508
テーマ	3.508
迄	3.508
屋製菓	3.508
ミルフィーユ	3.493
シャンパン	3.493
▁商品サイズ	3.489
仏事	3.481
▁な	3.480
場合がございます	3.461
ギフトに	3.460
やさしく	3.446
▁アレルギー特定原材料	3.446
上記	3.434
記入	3.425
自	3.425
板チョコ	3.411
追加	3.342
急	3.341
語で	3.341
でコーティングしました	3.341
遺伝子組換えでない	3.341
の数	3.341
十分	3.341
送信	3.341
草	3.341
・・・2	3.341
ご注意下さい	3.341
本町	3.341
▁コメント	3.341
マッチ	3.341
シュー	3.341
試	3.341
竹	3.341
ree	3.341
▁東京都中央区	3.341
▁高さ	3.341
楽しみください	3.341
デザインの	3.341
送料込	3.341
のこと	3.341
▁ちょっとした	3.341
開封後は早めにお	3.341
仕上げた	3.341
46	3.341
オランジェット	3.341
残り	3.341
しており	3.341
▁サクッとした	3.341
ホリ	3.341
ョ	3.341
猫	3.341
ラスト	3.341
39	3.341
玉子	3.341
日付	3.341
を練り	3.341
波	3.341
プライス	3.341
はいかがですか	3.341
▁ティラミスアモーレ	3.341
レーズンを	3.341
謝	3.341
キウイフルーツ	3.341
.12	3.341
カジュアル	3.341
カレンダー	3.341
きいた	3.341
在宅	3.341
小箱	3.341
とさせて頂きます	3.341
テイストの	3.341
は可能です	3.341
マスコット	3.341
▁食品名称	3.341
天使の	3.341
ジャンドゥ	3.341
▁メルシー	3.341
-000	3.341
極上	3.341
▁大阪市	3.341
まとめて	3.341
ぷ	3.341
吹	3.341
耳	3.341
出荷となります	3.341
リッとした	3.341
3】	3.341
でクール便	3.341
虫歯	3.341
の色は	3.341
昨	3.341
その後	3.341
パウ	3.341
コラ	3.341
バナ	3.341
脂肪分が	3.341
off	3.341
スタンダード	3.341
:940	3.341
菓子です	3.341
の食感と	3.341
は不可となります	3.341
リッと	3.341
年月	3.341
フィーユ	3.341
大変人気があります	3.341
の上品	3.341
ができる	3.341
▁水	3.341
手数	3.341
遠方	3.341
カリッ	3.341
▁145	3.341
ミッシェル	3.341
族	3.341
でお願い	3.341
焦	3.341
よろ	3.341
ヴァン	3.341
レットチョコ	3.341
虫	3.341
オーガ	3.341
をたっぷり使って	3.341
ゼロ	3.341
後のキャンセル	3.341
凡	3.341
習	3.341
蛍	3.341
▁ナチュラル	3.341
ご遠慮	3.341
に似	3.341
ポリス	3.341
注文時に	3.341
域	3.341
灯	3.341
×35	3.341
最適です	3.341
メモ	3.341
順	3.341
ばれる	3.341
授乳期の方	3.341
かかった	3.341
ログ	3.341
をプラス	3.341
ほどよい甘さの	3.341
▁バラエティミックス	3.341
ライオン	3.341
:43	3.341
伝えます	3.341
人工	3.341
▁せっかく	3.341
のご指定は承れません	3.341
佐川	3.341
▁東洋	3.341
▁44	3.341
至福	3.341
悪く	3.341
11/	3.341
アート	3.341
祥	3.341
とさせて頂いております	3.341
クリー	3.341
□	3.341
×125	3.341
長	3.316
常温商品と	3.258
環境	3.258
メーカーの	3.252
にも最適です	3.248
倉	3.243
とチョコの	3.237
大切	3.237
つま	3.237
、23°	3.237
】[	3.237
次第	3.237
技術	3.222
製菓株式会社	3.222
含	3.222
.5×	3.202
科	3.202
▁税込	3.202
奥行	3.202
食べると	3.202
検	3.202
ストロベリーチョコ	3.202
▁商	3.189
▁関連	3.174
▁梱	3.174
▁カラフル	3.174
方へ	3.174
に仕上げた	3.174
▁シェアパック	3.174
召し上がっても身体に	3.174
Kg	3.174
OK	3.162
ショコラティエ	3.156
工場	3.156
影響	3.156
X	3.152
ップ	3.138
多く	3.133
プレーン	3.132
▁▲	3.132
:59	3.132
いただいて	3.132
▁フェアトレード	3.132
上が	3.132
ケンコーコム	3.132
具合が異なって見え	3.132
バン	3.132
▁超	3.132
はじめ	3.132
バック	3.132
入力	3.132
シルバー	3.132
紙袋をお付け	3.132
織りなす	3.132
林	3.132
は一切	3.132
簡易	3.132
ありませんが	3.132
鮮やかな	3.132
に関わらず	3.132
MI	3.132
珈琲豆	3.132
結	3.122
涼しいところ	3.113
銀座	3.109
▁称	3.103
ec	3.102
がございましたら	3.102
もの	3.100
▁高温	3.091
において	3.091
▁】	3.063
添加	3.063
の商品と同梱	3.063
クル	3.063
を贅沢に	3.063
送料込み	3.063
が特徴の	3.063
ビック	3.063
▁お問い合わせ	3.063
ご注文確認メールにて	3.063
▁やわらか	3.063
巻	3.063
高温で	3.063
密閉	3.063
制	3.063
キュート	3.063
アガベシロップ	3.063
をご用意しております	3.063
が発生	3.063
しくなりました	3.063
機関	3.063
お届けは	3.063
香りを	3.063
に配	3.063
絶妙なハーモニー	3.063
杯	3.063
ott	3.063
ホワイトの	3.063
開封後はなるべく	3.063
パリ	3.052
▁原材料名	3.050
やすい	3.049
▁≪	3.043
すぐ	3.037
岡	3.037
などに	3.028
¥	3.028
名入れ	3.028
チョコレートは高温になると	3.028
を意味	3.028
雑誌で	3.028
出産祝い	3.020
19	3.020
AR	3.017
素材	3.008
▁ゴールド	3.007
athez	3.007
×9	3.007
お彼岸	3.007
▁指定可	3.007
上の注意	3.007
くる	2.997
割れチョコ	2.993
:2014.0	2.983
ニア市場	2.983
リッチ	2.983
総	2.976
パッションフルーツ	2.970
シーズン	2.970
多数	2.962
の原材料	2.956
商	2.951
してください	2.946
カファレル	2.941
堂	2.924
つけ	2.924
香る	2.924
ミルクと	2.924
ない場合もございます	2.924
開発	2.923
↑	2.923
おも	2.923
▁考	2.923
中身	2.923
ピンクの	2.923
サー	2.923
:0570-200226	2.923
▁PHS	2.923
婚	2.923
訳アリ	2.923
みず	2.923
感謝の気持ち	2.923
。【	2.923
▁x	2.923
保管してください	2.923
▁店舗	2.923
ケンコーコム株式会社	2.923
とご	2.923
医	2.923
いただけ	2.923
お早めにお召上がり	2.923
:03-3584-4157	2.923
▁同じ	2.923
電話から	2.923
感と	2.923
226	2.923
リーフメモリー	2.923
置いて	2.923
(210	2.923
ウェディング二次会	2.923
確認下さい	2.923
ロイヤル	2.923
のこだわり	2.923
時間指定	2.923
野菜色素	2.923
▁東京都江東区新砂	2.923
560	2.923
機構	2.923
調整	2.923
が変わる場合があります	2.923
82	2.923
ルウェー	2.923
票	2.923
ジュー	2.923
さず	2.923
パステル	2.923
製造から	2.923
の絶妙な	2.923
誘	2.923
プレゼ	2.923
焙	2.923
インター	2.923
糖類ゼロ	2.923
終わ	2.923
に美味しい	2.923
▲	2.923
リッター	2.923
キャンディ	2.907
≫	2.888
2.5	2.886
画	2.886
詰合せ	2.882
リアル	2.877
に最適です	2.877
料	2.871
月から	2.864
ダイ	2.864
▁バニラ	2.864
お問い合わせ	2.864
がけ	2.848
↓	2.840
mas	2.840
安定	2.840
季	2.840
1.2	2.840
▁シングル	2.840
カロチノイド	2.840
は別途	2.840
めの	2.840
製菓材料	2.840
▁g	2.840
全国	2.835
目	2.819
▁ティラミスチョコ	2.819
バターパウダー	2.819
を含む製品を	2.819
ッと	2.819
チョコレートメーカー	2.819
返	2.819
お祝い	2.814
くなります	2.814
不	2.810
回	2.803
ドラジェ	2.801
同じ	2.798
.0	2.785
いたしますので	2.784
▁存	2.784
湿度	2.784
遽	2.784
福	2.784
寸法	2.784
赤い	2.784
どこ	2.784
62	2.784
(60	2.784
オリゴ糖	2.784
▁ピュアチョコレート	2.784
覆	2.784
ティータイム	2.784
選べる	2.784
口どけのよい	2.784
マスカルポーネ	2.784
年間	2.784
ロシェ	2.784
催	2.784
モル	2.784
真っ赤な	2.784
別名称	2.784
油脂分が白く固まることがあります	2.784
デキ	2.784
くお召し上がりください	2.784
お子様にも	2.784
▁あなた	2.784
ワン	2.784
日後	2.784
聖	2.784
で登場	2.784
きれ	2.784
リス	2.784
2-4-	2.784
冷凍商品と	2.784
ワンランク	2.784
薦	2.784
できる	2.773
日より	2.771
会	2.769
完売	2.767
動	2.763
事	2.756
期	2.745
(10°	2.745
に入っています	2.744
ざ	2.744
近畿	2.744
話題の	2.744
呼吸	2.744
93	2.744
▁原	2.738
粗	2.738
▁190	2.734
im	2.729
めて	2.727
フード	2.726
きの	2.726
35	2.716
固形	2.715
▁プチギフト	2.715
二次会	2.715
谷	2.715
知らせ	2.715
送り	2.715
▁モロゾフ	2.715
カカオの種子を発酵	2.715
品質には	2.715
室	2.715
無添加	2.715
焙煎したカカオマスを主原料に	2.715
練り固めたお菓子です	2.715
個装	2.715
国内土産	2.715
の森	2.715
▁チョコレートとはチョコレートは	2.715
柔らかな	2.715
粉乳などを混ぜて	2.715
▁芳醇な	2.715
年末年始	2.715
▁エク	2.715
砂糖やココアバター	2.715
賞味期限等の表記について	2.715
▁クリスマス	2.711
冬	2.705
高温多湿を避け	2.703
よりも	2.699
食感の	2.685
あす楽	2.685
創業	2.673
ポップ	2.673
および	2.673
厚	2.673
ッとした	2.673
活躍	2.673
ベー	2.673
ほろ	2.673
〜♪	2.673
の配送	2.673
共	2.673
コーン	2.665
プチギフト	2.660
▁包装	2.653
オン	2.645
▁プレミアム	2.645
帰	2.645
八	2.645
たちが	2.645
収	2.645
意外	2.645
ロゴ	2.645
▁塩	2.645
を避けて	2.645
の日時	2.645
▁意	2.645
伝統	2.638
袋入り	2.638
1000	2.634
ヨコ	2.625
▁有	2.625
風味は劣りますが	2.625
白くなることがあります	2.625
▁ロシェ	2.625
たせ	2.625
んと	2.610
こな	2.610
お気軽にお	2.610
召し上がり下さい	2.610
お楽しみいただけます	2.610
のデザイン	2.610
府	2.610
▁小	2.599
小粒	2.599
1−	2.599
CA	2.599
▁レーズン	2.599
株式会社	2.598
位	2.596
のし紙	2.589
の同梱	2.589
▁クール冷蔵便	2.589
▁さ	2.582
いただき	2.570
ひと	2.566
▁-->	2.563
]【	2.562
▁箱	2.562
記載	2.555
組み合わせ	2.550
▁ホワイト	2.522
りました	2.506
▁縦	2.506
広告文責	2.506
そして	2.506
月末	2.506
一つ	2.506
▁御	2.506
詰め	2.506
からも	2.506
▁期	2.506
関西	2.506
なかった	2.506
▁冷蔵商品	2.506
表面が	2.506
引出物	2.506
ソーテルヌ	2.506
-00	2.506
と思	2.506
備考欄にご記入	2.506
中に	2.506
▁フェレロ	2.506
ベスト	2.506
IC	2.506
ウエディング	2.506
お菓子です	2.506
3.5	2.506
餡	2.506
賃	2.506
本品	2.506
いに	2.506
」、	2.506
手配	2.506
4.5	2.506
のよう	2.506
▁福	2.506
つくり	2.506
▁お盆	2.506
ドル	2.506
されております	2.506
れど	2.506
直射日光を避けて	2.506
よい	2.506
工場は	2.506
ポー	2.506
屋の	2.506
記入下さい	2.506
、27°	2.506
イク	2.506
たくさんの	2.506
ME	2.506
ほろ苦さが	2.506
贈物	2.506
▁ピ	2.506
チョコレートでコーティング	2.506
度以下で保存して下さい	2.506
ホワイトチョコレートを	2.506
でコーティングし	2.506
をご希望の場合	2.506
▁アーモンドロカ	2.506
聞	2.506
ご注文いただき	2.506
願	2.506
エクアドル	2.506
▁カロ	2.506
話	2.506
酸味と	2.506
駄菓子	2.506
41-082	2.506
寺	2.506
向上	2.506
トリュフチョコレートです	2.506
恩	2.506
/0	2.506
透	2.506
枝	2.506
をご参照	2.506
▁メール便	2.506
ッキー	2.506
の原	2.506
奥行き	2.506
種類から	2.506
はお選び	2.506
累	2.506
してしまう	2.506
総重量	2.506
▁アレルギー物質	2.506
少量	2.506
の葉	2.506
サトウキビ	2.506
専	2.506
即	2.506
チョコバーです	2.506
が描かれた	2.506
ソル	2.506
到	2.506
丹念	2.506
はご遠慮下さい	2.506
ッピング	2.506
食品株式会社	2.506
:70	2.506
ヤマト	2.506
▁※2	2.506
織	2.506
ボリ	2.506
硫	2.506
で下さい	2.506
▁【10500	2.506
・・・9	2.506
種類の味が	2.506
落ち着いた	2.506
投函	2.506
が絶妙な	2.506
十分に	2.506
のご都合による	2.506
錯	2.506
碾	2.506
同梱発送	2.506
ゼル	2.506
ig	2.506
卓	2.506
友人に贈る	2.506
ることを	2.506
務	2.506
レル	2.506
トブラローネ	2.506
・・・0.3	2.506
摘み	2.506
社が	2.506
ぎゅっと	2.506
と言われる	2.506
互	2.506
くせになる	2.506
▁Gift	2.506
加算されます	2.506
▁宅配便	2.506
:2014.07	2.506
▁96	2.506
模様	2.506
ちょっとしたプレゼント	2.506
いかがでしょう	2.506
白く固まる事があります	2.506
日前後	2.506
堅	2.506
14】	2.506
どけ	2.506
定価	2.506
入ります	2.506
発送の	2.506
▁ふんわり	2.506
最後まで	2.506
アントロー	2.506
new	2.506
お手頃	2.506
財	2.506
▁フレー	2.506
予告なく	2.506
助	2.506
拘	2.506
高温でやわらかくなった	2.506
ぶどう糖液糖	2.506
▁原材料表示	2.506
召しあ	2.506
価格が	2.506
μ	2.506
幸福	2.506
くず	2.506
478	2.506
椰	2.506
詳しく	2.506
2.4	2.506
軒	2.506
押し	2.506
の裏	2.506
セット販売	2.506
としても最適です	2.506
暗	2.506
ローバー	2.506
マスカル	2.506
ルック	2.506
酒精飲料	2.506
マイ	2.506
鳳	2.506
ウンド	2.506
ちりばめた	2.506
筋	2.506
具合	2.506
ココアビスケット	2.506
策	2.506
でお作り	2.506
▁メッセ	2.506
の大袋	2.506
ブラローネ	2.506
川区	2.506
召し上がっても安心ですが	2.506
択	2.506
農家の	2.506
新鮮なミルク	2.506
ほろ苦く	2.506
紛失	2.506
失	2.506
製品です	2.506
2-10	2.506
【12	2.506
撮影	2.506
魔法	2.506
2×	2.506
COSTCO	2.506
:23	2.506
のぬいぐるみ	2.506
/3	2.506
でくるんだ	2.506
冷蔵庫で保管	2.506
響	2.506
をあしらった	2.506
正方形	2.506
敷	2.506
エスプリ	2.506
華やかに	2.506
順次発送	2.506
に包み	2.506
ぺ	2.506
が予告なく変更	2.506
IND	2.506
できました	2.506
妊	2.506
在庫がなくなり次第	2.506
と共通の	2.506
4-6	2.506
を使う	2.506
論	2.506
▁モノ	2.506
これは油脂分が分離したもので	2.506
ございましたら	2.506
与	2.506
凰	2.506
への	2.482
進	2.480
高い	2.474
ブランド	2.474
の人気	2.471
町	2.463
挨拶	2.450
)。	2.446
マル	2.446
タイム	2.446
トロ	2.442
なのです	2.442
称	2.442
関東	2.442
75	2.439
重ね	2.436
▁プレーン	2.436
甘酸っぱい	2.436
希望	2.435
▁各	2.430
times	2.430
▁限	2.422
コーヒー豆	2.422
歴史	2.422
の老舗	2.422
OR	2.413
ビーンズ	2.413
東海	2.413
甲信越	2.413
発送日	2.413
▁J	2.413
el	2.405
ロースト	2.401
枠外下部に記載	2.401
▁販売価格	2.401
ひととき	2.401
絶妙	2.401
登場です	2.401
んな	2.397
上げ	2.395
っちゃ	2.395
ヨーロッパ	2.392
作られた	2.387
皮	2.387
▁X	2.386
えび	2.386
▁説明	2.386
が適温です	2.386
個入	2.383
準	2.377
南	2.374
ゴディバ	2.372
楽天	2.367
内祝	2.367
お茶	2.367
左	2.367
などにより	2.367
引	2.367
アナトー	2.367
期間は	2.367
っとした	2.367
リンク	2.367
幅	2.359
北陸	2.354
和菓子	2.354
そ	2.351
使い	2.343
45	2.339
▁dk	2.339
内で	2.339
§	2.339
個包装込み	2.339
標	2.339
で人気	2.339
▁。	2.339
幸	2.339
徳島	2.339
まと	2.339
限定商品	2.339
カリッとした	2.339
コーティングしました	2.339
Z	2.339
感謝	2.339
オール	2.339
4】	2.339
を頂戴	2.339
▁発送日	2.339
▁重	2.339
ポーショコラ	2.339
を希望	2.332
対象外	2.327
番	2.320
用途	2.320
コーンフレーク	2.320
のです	2.320
の種類	2.320
大人の	2.320
マルチトール	2.320
独特の	2.320
ころ	2.320
内祝い	2.319
市	2.319
リボン	2.317
専門店	2.316
召し上がり	2.313
摂取	2.313
粗品	2.309
▁名	2.297
▁オリジナル	2.297
等の	2.297
ぬいぐるみ	2.297
シン	2.297
▁フード	2.297
向け	2.297
贈答	2.297
▁注	2.297
同時に	2.297
香典返し	2.297
味わいです	2.297
され続ける	2.297
の中身	2.297
▁数	2.297
▁ネスレ日本	2.297
労	2.297
ギフト対応の詳細はこちらへ	2.297
7.5	2.297
ERRERO	2.297
▁という	2.297
▁丸ごと	2.297
ON	2.297
83	2.297
▁不可	2.297
てください	2.297
気温が	2.297
▁ピュアレ	2.297
ほんの	2.297
クッキーに	2.297
特別価格	2.297
歩	2.297
▁☆★	2.297
ご案内	2.297
相	2.297
温度	2.290
に入	2.286
。●	2.278
お知らせ	2.276
※	2.273
常温便	2.267
使わ	2.267
▁法	2.267
させて	2.267
単	2.267
程よい	2.267
荷	2.267
ノー	2.267
管理	2.267
ではなく	2.267
円が	2.267
誕生した	2.267
橋	2.267
和	2.262
fs	2.255
ティラミスチョコレート	2.255
いきます	2.255
▁円	2.254
溶けやす	2.249
掛け	2.249
歯ごたえ	2.249
▁方	2.249
商品について	2.245
できるだけ	2.245
評価	2.245
〜3	2.242
ロン	2.228
54	2.227
農	2.227
ペン	2.227
▁カフェ	2.227
サク	2.227
ホワイトチョコレートに	2.227
▁“	2.227
本品製造工場では小麦	2.227
ホワイトチョコレートの	2.227
、5	2.227
ひと粒	2.227
区分	2.227
珍	2.227
違	2.227
-6	2.227
抹茶の	2.227
を贅沢に使用した	2.227
明細書	2.227
持つ	2.227
賛	2.227
砕	2.227
脱	2.227
ドーナツ	2.227
配送方法を	2.227
お口で	2.227
ベント	2.227
願います	2.227
▁種類	2.227
広が	2.227
食品です	2.227
OKSIDE	2.227
忙	2.227
塗	2.227
タリア	2.227
贅沢な味わい	2.227
&#12316;	2.227
設備	2.227
小物	2.227
個前後	2.227
富	2.227
▁しかも	2.227
快気	2.227
をパウダー	2.227
柚子	2.227
のラッピング	2.227
際立つ	2.227
有料	2.227
帯	2.227
が異なる場合がございます	2.227
くなることがあります	2.227
焙煎	2.227
128	2.227
つの味	2.227
ラ	2.226
)」	2.219
としても	2.215
選択	2.215
前に	2.208
こちらの	2.208
風	2.205
すること	2.202
切れ	2.202
志	2.202
販	2.193
同梱可能です	2.193
多湿を避けて保存してください	2.193
焼き上げ	2.193
▁何	2.193
包装	2.185
送料に	2.185
通常便	2.185
使	2.183
2-	2.181
ステ	2.178
び	2.176
▁送料	2.175
▁夏季	2.172
フル	2.172
アーモンドを	2.172
保管	2.172
を引き	2.172
59	2.172
絡	2.172
スイーツです	2.172
ヶ月以上のものをお送り	2.172
透明	2.172
むそう商事	2.172
▁5,	2.172
▁お口の中で	2.172
エレガント	2.172
を保	2.172
納品書	2.172
ハートチョコレート	2.172
芳	2.172
円が別途かかります	2.172
ほう	2.172
3-	2.167
熨斗	2.164
らない	2.164
る場合は	2.164
アル	2.164
▁商品名	2.161
風味が	2.158
週間程度	2.158
可能です	2.154
31	2.154
め	2.151
高さ	2.150
表	2.148
誉	2.148
▁横	2.148
、28	2.148
▁も	2.148
焼き上げた	2.148
想い	2.148
標準	2.140
結婚内祝い	2.140
出産内祝い	2.140
210	2.138
コーティング	2.137
お早めにお召し上がりください	2.137
楽し	2.135
▁と	2.135
抹茶チョコレート	2.135
▁分	2.135
砕いた	2.135
小さな	2.135
ています	2.130
お取り寄せ	2.130
立	2.126
-1	2.126
▁とろける	2.126
で発送させて頂きます	2.126
日に	2.126
スイート	2.125
▁今	2.118
高く	2.116
とき	2.116
ショ	2.116
西	2.113
37	2.113
必要	2.110
クーベルチュール	2.097
生チョコレート	2.097
メール便	2.088
▁冷蔵庫	2.088
お試し	2.088
以外の	2.088
につき	2.088
表記	2.088
チップ	2.088
▁パーティー	2.088
カフェ	2.088
損な	2.088
qu	2.088
あげ	2.088
を受賞	2.088
たっぷりと	2.088
高さ約	2.088
▁2011	2.088
▁GODIVA	2.088
現在	2.088
みつ	2.088
▁お届けは	2.088
▁山	2.088
4-	2.088
文化	2.088
本命	2.088
参照	2.088
に保存して下さい	2.088
を中心に	2.088
スプーン	2.088
生チョコレートです	2.088
どら	2.088
≪	2.088
使い頂けます	2.088
欲張	2.088
張	2.088
アソートパック	2.088
そこ	2.088
商品担当者がおすすめする商品です	2.088
月上旬	2.088
その他の	2.088
暖	2.088
更に	2.088
▁なんと	2.088
11.5	2.088
柔らかくな	2.088
箔	2.088
チック	2.088
▁冷蔵保存	2.088
アーモンドが	2.088
【5	2.088
▁袋サイズ	2.088
良品	2.088
をご堪能	2.088
関	2.088
ご自分	2.088
パッケージです	2.088
ガーデン	2.088
滝	2.088
至福の	2.088
ゴージャスな	2.088
スクラロース	2.088
丹念に	2.088
で包んで	2.088
はお付けできません	2.088
士	2.088
スターチ	2.088
ハロウィン	2.088
高温多湿を避けてください	2.088
▁64	2.088
あらかじめご了承くださいませ	2.088
整	2.088
クール料金	2.088
クリス	2.088
慣	2.088
×3.5	2.088
▁本品は	2.088
▁爽やかな	2.088
じゃ	2.088
うす	2.088
王室	2.088
や形	2.088
▁メープル	2.088
で包	2.088
(-18°	2.088
を加えた	2.088
タル	2.088
をあしら	2.088
まつ	2.088
変更にな	2.088
お支払方法	2.088
ひまわり	2.088
▁コーンフレーク	2.088
漂	2.088
▁大阪市中央区	2.088
▁南米	2.088
偏	2.088
ANA	2.088
有機カカオバター	2.088
▁DI	2.088
大きさは	2.088
▁バッチ	2.088
色合い	2.088
タオル	2.088
読	2.088
饅	2.088
リーン	2.088
誇	2.088
諾	2.088
ゾン	2.088
柿チョコ	2.088
p	2.074
家	2.070
▁オー	2.064
着	2.064
▁プラリネ	2.064
求	2.058
御礼	2.056
と共通の設備で製造しています	2.056
なる	2.050
礼	2.050
クランチチョコレート	2.050
づ	2.050
大豆	2.049
パー	2.046
厳選された	2.046
シンガポール	2.042
乾燥	2.042
純	2.042
ーモ	2.042
市西	2.042
しれません	2.042
大福	2.042
ご注文の際	2.036
得	2.034
カン	2.034
▁同	2.029
▁製造から	2.029
しろ	2.029
NG	2.029
ヶ国	2.029
アフリカ	2.029
チロルチョコ	2.029
軽やかな	2.029
▁詳しく	2.029
ピュア	2.029
フランス産	2.029
を使	2.029
SH	2.029
縦約	2.029
御	2.027
シーン	2.022
異性化液糖	2.019
一粒	2.015
軽い	2.015
レ	2.014
のは	2.013
×14	2.012
存	2.005
▁トリュフチョコレート	2.005
許	2.005
バル	2.005
さんの	2.005
▁直射日光や	2.005
片	2.005
実店舗	2.005
味を	2.005
で仕上げた	2.005
自信	2.005
傷	2.005
box	2.005
包装選択	2.005
いかがですか	2.005
人に贈る	2.005
愛らしい	2.005
準チョコレート	2.005
渡	2.005
の菓子	2.005
祭	2.005
ハニー	2.005
。>>	2.005
の味が	2.005
洋	1.995
粉末	1.993
レーズン	1.993
mm	1.993
▁W	1.992
とも	1.992
くらい	1.992
][	1.989
〜10	1.987
以上	1.987
cmx	1.984
後味	1.984
基本	1.984
以下で保存してください	1.982
合う	1.980
紹介	1.978
▁クール便	1.978
覧	1.974
チーズパウダー	1.974
パッケージが	1.974
義理	1.974
ヘーゼルナッツペースト	1.969
界	1.969
茶	1.968
引き出物	1.963
宇治抹茶	1.961
!<	1.959
ff	1.956
ご希望	1.949
田	1.949
期間限定	1.949
結婚式	1.949
楽天市場	1.949
贈答品	1.949
景品	1.949
認	1.949
番地	1.949
売り	1.949
還元水飴	1.949
一般	1.949
まるで	1.949
参加	1.949
苦み	1.949
することで	1.949
る場合もございます	1.949
のプレゼント	1.949
験	1.949
師	1.949
油脂分が溶け	1.949
無糖	1.949
▁ドライフルーツ	1.949
アルミ	1.949
離島へのお届け	1.949
なか	1.949
cal	1.949
ベストマッチ	1.949
アソートです	1.949
異なる	1.949
蒸	1.949
パッケージの	1.949
概	1.949
▁光沢剤	1.949
送料が自動計算されますが	1.949
はご遠慮ください	1.949
カリフォルニア	1.949
とり	1.949
10.5	1.949
▁セ	1.949
月までの期間はクール便	1.949
を探	1.949
疲	1.949
慮	1.949
送料を訂正させて頂きます	1.949
後程お送りいたします	1.949
▁お早めにお	1.949
っぽ	1.949
塚	1.949
久	1.949
渡し	1.949
余韻	1.949
理	1.949
仁	1.949
出来ます	1.949
マカダミアナッツチョコレート	1.949
紫	1.949
リーム	1.949
パッション	1.949
列	1.949
▁こちらの商品はおよそ	1.949
▁など	1.949
そのままに	1.949
本品製造ラインでは	1.949
なめらかな口どけ	1.949
液糖	1.949
▁お買上げ時に	1.949
種類があります	1.949
ラスク	1.949
溶けてしまう	1.949
8	1.948
抹茶	1.940
ティラミス	1.940
セレクション	1.934
ランキング	1.933
高品質	1.932
▁ビター	1.928
入荷	1.928
:14	1.928
クランチチョコ	1.928
のチョコレートは	1.928
います	1.921
予約	1.921
迎	1.921
単品	1.921
リンドール	1.921
amp	1.918
香ばしい	1.912
H	1.909
1-	1.909
メールにて	1.909
出す	1.909
49	1.909
を含む製品	1.909
マサ	1.909
人々に愛	1.909
技	1.909
度以下の	1.909
▁ブルーベリー	1.909
マスカルポーネチーズ	1.909
横約	1.909
この商品	1.909
円以上お買い上げ	1.909
知ら	1.909
▁コレクション	1.909
▁抹茶	1.906
のみ	1.903
ツリー	1.903
素材の	1.903
-3	1.901
お届けします	1.898
女性	1.898
そば	1.898
したい	1.898
のため	1.897
▁こちら	1.896
▁ル	1.896
運	1.893
▁常温	1.892
不可	1.890
A	1.885
箱の大きさ	1.879
六	1.879
を目	1.879
強い	1.879
な方への	1.879
をどうぞ	1.879
出します	1.879
雑誌	1.879
で愛	1.879
▁ご購入	1.879
完熟	1.879
配送先	1.879
▁グラン	1.879
向上に	1.879
キョウ	1.879
:180	1.879
をあ	1.879
×40	1.879
を必ず	1.879
・・・6	1.879
IG	1.879
は避け	1.879
設立	1.879
の通り	1.879
忠	1.879
基	1.879
熟練	1.879
独	1.879
チョコレート菓子です	1.879
幾	1.879
高温多湿をお避け下さい	1.879
菓子の	1.879
レルゲン	1.879
▁金	1.879
当商品は	1.879
エイ	1.879
>【	1.874
ヤ	1.871
▁料	1.871
地	1.870
▁宇治抹茶	1.867
箱に	1.863
ではありません	1.863
されます	1.863
のところ	1.863
道	1.863
バニラビーンズ	1.863
スイーツ	1.861
冷凍便	1.856
性	1.856
にした	1.856
一度	1.856
サンダー	1.856
世界中の	1.856
ほんのり	1.856
地方	1.856
止ま	1.856
冬季	1.856
EL	1.856
取引	1.856
用の	1.856
▁プチ	1.856
の風味と	1.856
横	1.853
目安	1.852
▁製造日より	1.851
▁本	1.846
▁デ	1.838
▁2014	1.838
合わせ	1.838
企業	1.838
▁160	1.838
中から	1.838
▁有限会社	1.838
カ月	1.838
けど	1.838
▁ティラミス	1.838
▁400	1.838
壷	1.838
:2014	1.838
▁とうきび	1.838
▁保管	1.838
コクが	1.838
ミー	1.838
自由	1.838
直輸入	1.838
り込み	1.838
を引き立て	1.838
今や	1.838
の新	1.838
▁江崎グリコ	1.838
▁解凍	1.838
▁解凍後は	1.838
▁ヨーグルト	1.838
ラック	1.838
詰めた	1.838
:(	1.838
▁チョコレートに	1.838
お読み	1.838
ピエモンテ産	1.838
サクッとした	1.838
を取り	1.838
ができます	1.838
ショコラ	1.833
前後	1.832
のような	1.831
をご	1.830
▁味	1.830
クチナシ	1.827
ような	1.827
▁こちらの商品は	1.825
▁配送方法	1.823
▁つ	1.822
確認メール	1.822
夏場	1.818
要冷蔵	1.818
050	1.818
お菓子	1.815
口どけ	1.813
が入っています	1.810
ショコラは	1.810
本製品	1.810
カー	1.810
にある	1.810
腹	1.810
・・・5	1.810
で発送	1.810
ピュアレ	1.810
カンパニー	1.810
返し	1.810
ともに	1.810
芸術	1.810
のし対応	1.810
キン	1.810
ボックスに	1.810
自宅	1.810
もう	1.810
早く	1.810
▁130	1.810
使用し	1.810
チョコの	1.806
贈り物	1.804
できない	1.804
丁目	1.801
でお	1.799
のも	1.799
▁ご注意	1.799
濃縮果汁	1.799
漬け	1.799
PEC	1.799
老舗	1.796
五	1.796
みの	1.796
一覧	1.796
香りが	1.796
日の	1.793
いただけます	1.793
親	1.790
05	1.790
ございません	1.790
直射日光の当たらない	1.790
などは	1.790
ピエモンテ	1.790
モルディブ	1.790
ふく	1.790
いない	1.790
▁ヨーロッパ	1.790
チョコチップ	1.790
・(	1.790
試し	1.790
を使わず	1.790
配送	1.787
ですので	1.784
ポット	1.782
加糖練乳	1.782
▁高温多湿を避け	1.782
▁T	1.780
加算	1.780
があります	1.778
▁大	1.775
中の	1.775
▁フルーツ	1.775
学	1.775
風味豊かな	1.775
していません	1.775
▁!	1.775
の素材	1.775
サイズ約	1.775
産地	1.775
▁V	1.775
ニエ	1.775
のし	1.774
以下の	1.772
お歳暮	1.772
▁7	1.771
濃厚	1.769
小分け	1.769
をも	1.763
楽天お買い物マラソン	1.763
品目	1.763
ただし	1.763
ゆっくりと	1.763
値	1.763
Sep	1.763
洗練された	1.763
ES	1.763
天	1.763
取り扱	1.763
▁ウェディング	1.763
ou	1.760
[	1.759
袋入	1.757
豊かな	1.757
の風味	1.754
万	1.754
ファレル	1.754
。※	1.754
隠	1.754
メッセ	1.754
G	1.752
を使用しています	1.752
菓子	1.748
▁リンドール	1.747
特に	1.746
のもの	1.746
の商品が	1.746
内	1.744
菌	1.740
ナン	1.740
飾り	1.740
お選び	1.740
年の	1.737
ティー	1.735
^	1.735
のプチギフト	1.735
いっぱい	1.735
練乳パウダー	1.735
商品の	1.733
gm	1.733
数	1.731
トップ	1.730
38	1.730
▁TEL	1.728
所	1.728
寿	1.726
広がる	1.726
▁シャ	1.726
変更	1.726
付け	1.724
クール便	1.724
紙	1.723
カラー	1.723
AN	1.723
御歳暮	1.720
箱サイズ	1.720
で保存してください	1.719
開封後は	1.718
はコチラ	1.717
マロン	1.717
ために	1.715
思い	1.715
▁(1	1.710
水飴	1.709
結婚祝い	1.709
コレクション	1.709
備考欄	1.709
常温	1.703
商品詳細	1.703
120	1.701
en	1.689
gt	1.686
新	1.682
ビター	1.679
ット	1.671
える	1.671
フェアトレード	1.671
社の	1.671
▁ゴディバ	1.671
▁H	1.671
ジャンドゥーヤ	1.671
石	1.671
当たり	1.671
売	1.671
お返し	1.671
でお届け	1.671
とした	1.671
さが	1.671
溶けて	1.671
創	1.671
しない	1.671
神	1.671
出して	1.671
、4	1.671
の塩	1.671
はありません	1.671
後ほど	1.671
めました	1.671
ティーヌ	1.671
ることがあります	1.671
個以上	1.671
ぎっしり	1.671
:50	1.671
本来	1.671
生地	1.671
▁120	1.671
安	1.671
重曹	1.671
できませんので	1.671
確	1.671
産直	1.671
をぜひ	1.671
贅沢に	1.671
いの	1.671
▁カレ	1.671
加工品	1.671
下記	1.671
世紀	1.671
▁〒	1.671
SS	1.671
っき	1.671
モルトエキス	1.671
▁↓	1.671
似	1.671
食感を	1.671
78	1.671
▁現在	1.671
チュ	1.671
果肉	1.671
深	1.671
快	1.671
供え	1.671
やかな	1.671
am	1.671
he	1.671
てん	1.671
▁は	1.671
本格的な	1.671
はご	1.671
でお送り	1.671
なギフト	1.671
ぞ	1.671
47	1.671
ふわっと	1.671
温度変化	1.671
クト	1.671
人気の秘密	1.671
IP	1.671
くら	1.671
で溶け	1.671
一つ一つ	1.671
らの	1.671
▁お客様相談室	1.671
。<	1.671
を使用して	1.671
全卵	1.671
正な	1.671
横浜	1.671
▁【1	1.671
ッキリ	1.671
司	1.671
は予告なく変更され	1.671
06	1.671
以上に	1.671
▁PR	1.671
マーケット	1.671
▁マカダミア	1.671
▁通常便	1.671
570	1.671
▁夏期	1.671
ブルーム	1.671
メリー	1.671
クラ	1.671
破損	1.671
▁そのまま	1.671
▁お買い	1.671
とろけ	1.671
経	1.671
最適	1.671
祝日注文の場合は	1.671
▁中には	1.671
生まれた	1.671
低脂肪ココアパウダー	1.671
る場合がございますが	1.671
柔らかく	1.671
▁75	1.671
▁LIND	1.671
まででしたら	1.671
特製	1.671
58	1.671
クセ	1.671
夏期	1.671
柔らか	1.671
地域へのお届け	1.671
気軽	1.671
限り	1.671
大満足	1.671
当店では	1.671
▁新鮮な	1.671
するのかを	1.671
をご購入	1.671
製品を	1.671
キット	1.671
葡	1.671
説	1.671
カカオの香り	1.671
バニ	1.671
協	1.671
手配をさせていただきます	1.671
萄	1.671
抽出物	1.671
まろやかで	1.671
しません	1.671
新感覚	1.671
セルロース	1.671
保存して	1.671
の発送	1.671
ものは	1.671
のチョコが	1.671
朝	1.671
さんが	1.671
をさけて	1.671
▁Le	1.671
作業	1.671
原材料砂糖	1.671
)2	1.671
リング	1.671
やつ	1.671
もち米	1.671
シンプル	1.671
の順番でパッケージに記載	1.671
奏	1.671
エー	1.671
×110	1.671
見て	1.671
こみ	1.671
込む	1.671
らか	1.671
ヘーゼルナッツを	1.671
申し込み	1.671
▁あす楽	1.671
▁商品詳細商品番号	1.671
とうもろこし	1.671
・・・22	1.671
をさけ	1.671
▁情熱の	1.671
▁ラムレーズン	1.671
固まる	1.671
りんごを含む	1.671
▁ボンボンショコラ	1.671
アーモンドパウダー	1.671
芸	1.671
のお菓子です	1.671
豊潤	1.671
とま	1.671
西暦年	1.671
取扱	1.671
もも	1.671
▁弊社	1.671
にかか	1.671
写真と	1.671
▁二次会	1.671
セミ	1.671
小麦由来	1.671
前にご	1.671
逆	1.671
護	1.671
豪華な	1.671
王室御用達	1.671
誠	1.671
高級感のある	1.671
伝える	1.671
ときに	1.671
わせて	1.671
良質な	1.671
212	1.671
途上	1.671
送別	1.671
瞬	1.671
週	1.671
はお付け	1.671
醗	1.671
▁糖質	1.671
安全性	1.671
ilk	1.671
やわらかな	1.671
IN	1.671
酵	1.671
味わう	1.671
有機カカオマス	1.671
バラエティ豊かな	1.671
▁そのため	1.671
になる場合があります	1.671
っち	1.671
ライスクリスプ	1.671
▁ラム	1.671
写真は	1.671
アルコール分	1.671
のお気に入り	1.671
ひと口サイズ	1.671
▁札幌	1.671
日本製	1.671
練	1.671
UP	1.671
1)、	1.671
世話	1.671
16×28	1.671
多くのお客様	1.671
BO	1.671
30°	1.671
理解	1.671
辛い	1.671
230	1.671
営	1.671
はご容赦ください	1.671
▁カフェタッセ	1.671
▁おいしさ	1.671
候	1.671
運転時など	1.671
簡単	1.671
▁ザクザク	1.671
のどちらか	1.671
:500	1.671
に別途記載	1.671
ギャ	1.671
予告なしに	1.671
詳細はこちら	1.671
たる	1.671
恵	1.671
ちりば	1.671
は承	1.671
裏面	1.671
豊かに	1.671
排	1.671
効いた	1.671
抱	1.671
(45	1.671
推奨	1.671
巧	1.671
功	1.671
▁神秘のマーブル	1.671
革	1.671
モノ	1.671
神秘のマーブル	1.671
部分を	1.671
舎	1.671
独自のドライロースト	1.671
準チョコレート菓子	1.671
/100	1.671
愛されている	1.671
挟	1.671
ステム	1.671
のカフェ	1.671
仕上がっています	1.671
が生み出す	1.671
アイランド	1.671
ディベア	1.671
接	1.671
グレイ	1.671
カークランドシグネチャー	1.671
特長です	1.671
ご当地	1.671
濱	1.671
規	1.671
▁ブライダル	1.671
食べごたえ	1.671
フィナンシェ	1.671
席	1.671
事情	1.671
▁北海道の	1.671
ケーク	1.671
見立て	1.671
信越	1.671
ABA	1.671
▁クランキー	1.671
キレのある	1.671
志向	1.671
くなっております	1.671
▁ナッツの	1.671
▁ウェルカム	1.671
色の指定はできません	1.671
アニ	1.671
アラ	1.671
▁ウェルカムボード	1.671
口解	1.671
ーと	1.671
設備で製造しています	1.671
シンボル	1.671
ご安心	1.671
販売中	1.671
くし	1.671
越し	1.671
問わず	1.670
▁ノワール	1.670
との思い	1.670
風味です	1.670
▁おいしく	1.670
×90	1.670
福井	1.670
サクサクのクッキー	1.670
去	1.670
訣	1.670
四角い	1.670
alentine	1.670
古代	1.670
一定	1.670
完	1.670
よろしくお願い致します	1.670
新宿	1.670
シンプルで	1.670
年賀	1.670
九	1.670
リシテ	1.670
り次第	1.670
/20	1.670
▁秋	1.670
藷	1.670
のいちご	1.670
及	1.670
補給	1.670
員にお	1.670
コクを	1.670
ございました	1.670
食感や	1.670
の貼り	1.670
別途記載	1.670
甘酸っぱく	1.670
670	1.670
包装しました	1.670
僕	1.670
葛	1.670
日後の発送となります	1.670
▁フレーバー	1.670
鈴木	1.670
貰	1.670
高温で溶け	1.670
一口ごとに	1.670
▁くちどけ	1.670
▁オーストラリアのおみやげ	1.670
原料の一部に	1.670
度の高い	1.670
販売となります	1.670
酪農	1.670
ナス	1.670
▁取扱	1.670
涼しい所に保存してください	1.670
炭	1.670
ジューシー	1.670
▁蒜山高原	1.670
27°	1.670
25×	1.670
蝕	1.670
▁退職	1.670
ったチョコレートは	1.670
すす	1.670
冷えて固まると	1.670
貫	1.670
曇	1.670
ッカ	1.670
賢	1.670
銀行振	1.670
からのお	1.670
港区	1.670
をイメージ	1.670
選り	1.670
脳	1.670
降	1.670
かわいいコアラ	1.670
壊	1.670
マウナロア	1.670
深煎り	1.670
ウェイ	1.670
原料に	1.670
無脂肪	1.670
陰	1.670
食べられますが風味は劣ります	1.670
はご用意	1.670
亭	1.670
度前後	1.670
ペシャル	1.670
陳	1.670
ワイイ	1.670
に入り	1.670
の切れ端	1.670
ロティン	1.670
慎	1.670
バスケット	1.670
リーチョコレート	1.670
冷蔵便でお届け致します	1.670
沖縄及び	1.670
堪	1.670
チャーム	1.670
▁br	1.670
章	1.670
ギュ	1.670
ナンシェ	1.670
をチョコで	1.670
年創業のスイス	1.670
69	1.670
チアチョコリッチ	1.670
も御座います	1.670
塊	1.670
焼きあげた	1.670
▁エア	1.670
錦	1.670
を主	1.670
げん	1.670
床	1.670
・・・0.4	1.670
チョコレートを組み合わせました	1.670
損	1.670
▁お手	1.670
正栄	1.670
急激な	1.670
ございませんが	1.670
歌山県	1.670
引く	1.670
買える	1.670
南アジア	1.670
AB	1.670
西アフリカ	1.670
チョコレート製造	1.670
×	1.667
バナナ	1.652
た	1.651
セ	1.651
う	1.649
●	1.646
材料	1.645
け	1.644
洋菓子	1.644
個包装	1.643
▁キャラメル	1.642
屋	1.639
油脂	1.636
頭	1.636
30	1.634
中	1.631
種の	1.631
T	1.630
▁solid	1.629
にな	1.628
あり	1.628
をはじめ	1.627
ラー	1.621
専用	1.621
でのお届け	1.621
の良い	1.621
▁16	1.620
▁エ	1.620
品質	1.618
最高級	1.618
の大	1.618
いる	1.617
575	1.615
問い合わせ	1.615
11	1.612
取り扱い	1.611
見舞	1.611
のお菓子	1.606
ゼ	1.606
にあ	1.606
自分	1.606
ure	1.606
関係	1.606
▁涼しい場所	1.606
的な	1.601
オレンジピール	1.601
最高峰	1.601
手土産	1.601
側	1.601
2,	1.598
人気商品	1.598
ラッピング	1.596
感を	1.595
〜20	1.595
に贈る	1.595
いません	1.595
はちみつ	1.595
出荷	1.591
優	1.587
満	1.587
水分	1.587
遺伝子組み換えでない	1.587
キューブ	1.587
▁者	1.587
商品を	1.582
ナッツ	1.578
原材料の一部に小麦	1.578
贈り物に	1.578
ie	1.578
開始	1.578
香ばしさ	1.578
素敵な	1.578
っておりません	1.578
一口	1.578
60%	1.578
▁たっぷり	1.578
14.5	1.578
にてお届け	1.578
▁きのこ	1.578
・・・3	1.578
かねます	1.578
):	1.572
極	1.572
コー	1.572
▁濃厚	1.572
▁ロッテ	1.569
)(	1.569
ホエイパウダー	1.568
贅沢な	1.566
000	1.566
▁×	1.566
ヌガー	1.566
ゴールド	1.566
お届け先	1.566
弊社	1.566
厳	1.566
をご覧下さい	1.566
造	1.566
▁和	1.566
YDKG	1.566
輸送	1.566
▁ピー	1.566
ボー	1.566
形状	1.566
に戻	1.566
ばれ	1.566
▁とうもろこし	1.566
フリー	1.566
役	1.566
される	1.562
nbsp	1.562
最高	1.562
のギフト	1.562
ul	1.562
O	1.561
チョコレートは	1.560
苦	1.559
秋	1.559
月は	1.559
口当たり	1.559
▁8	1.559
枚	1.558
ギフト	1.558
▁ギフト対応	1.551
.9	1.551
バランス	1.551
カレ	1.551
きます	1.551
土日	1.551
ティムタム	1.551
と同じ	1.551
▁出荷	1.551
一品です	1.551
院	1.551
パリッと	1.551
紅麹	1.551
南米	1.551
スペシャル	1.551
▁リボン	1.551
きな	1.551
しっかり	1.551
小麦パフ	1.551
・・・1	1.551
殖	1.551
2014	1.551
触	1.551
間	1.547
をつ	1.547
それ	1.547
以下	1.544
でした	1.544
業者	1.542
以下で保存	1.542
▁約	1.539
この商品は	1.539
上品	1.539
れて	1.538
可	1.537
▁<	1.537
となりますので	1.537
である	1.537
小	1.537
60	1.536
クランチ	1.534
大	1.533
▁60	1.531
の定番	1.531
そんな	1.531
宝石	1.531
松	1.531
—	1.531
食用	1.531
▁アーモンドチョコレート	1.531
▁そして	1.531
っか	1.531
▁大人気の	1.531
以下の冷暗所で保管	1.531
同梱の場合	1.531
カロテノイド	1.531
加糖脱脂練乳	1.531
ご挨拶	1.531
一切	1.531
の期間	1.531
溶ける	1.531
フレーム	1.531
雑	1.531
深み	1.531
110	1.531
自宅用	1.531
最新	1.531
多湿を避けて	1.531
▁お使いのブラウザは	1.531
ご利用いただけます	1.531
で作られた	1.531
お早めにお召し上がり下さい	1.529
オリジナル	1.527
無	1.525
の場合は	1.525
以下で保存して下さい	1.524
.7	1.523
切	1.523
ヘル	1.523
お礼	1.523
誕生	1.523
しています	1.521
区	1.519
夢	1.519
披露宴	1.519
魅力	1.519
▁甘味料	1.519
最短	1.519
具	1.519
脂	1.516
発送に	1.514
ウェディング	1.514
1.5	1.514
作る	1.514
問題	1.514
待ち	1.514
ホワイト	1.513
エ	1.513
注意	1.511
成	1.510
紅茶	1.509
ココア	1.506
おいしい	1.504
-2	1.504
販売している	1.503
玄米	1.503
場所	1.503
クレープ	1.503
練乳	1.503
パッケージ寸法	1.503
々の	1.503
とう	1.503
・・・。	1.503
をか	1.503
クを	1.503
▁2012	1.503
ーツ	1.503
光	1.503
窓	1.503
▁石	1.503
逸品です	1.503
板	1.503
落ち	1.503
結晶	1.503
チョコレートをご購入の方は	1.503
▁結婚披露宴	1.503
揚	1.503
光沢	1.503
販売です	1.503
各種パーティー	1.503
しに	1.503
特徴の	1.503
秋冬	1.503
▁ミニチョコレート	1.503
肢	1.503
▁メ	1.503
業務用おつまみ	1.503
調和	1.503
別ウインドウで開	1.503
場合はこちらをクリック	1.503
帽子	1.503
!<<	1.503
ミルクチョコレートが	1.503
jun	1.503
のミルク	1.503
rr	1.503
5.5	1.503
順次	1.503
▁株式会社鈴木栄光堂	1.503
直射日光を避けてください	1.503
▁各種イベントなどにどうぞ	1.503
ではない	1.503
浸	1.503
祭日を除く	1.503
▁冬季	1.503
×19	1.503
▁ちょこ	1.503
入学祝	1.503
▁計	1.503
工場で	1.503
個から	1.503
見え	1.503
ドライストロベリー	1.503
みや	1.503
仕事	1.503
された	1.500
本入	1.500
人	1.498
では	1.498
ミックス	1.497
以上の	1.497
については	1.497
アサイー	1.495
▁ブラック	1.495
驚	1.495
-8	1.495
L	1.493
ミルクチョコレートの	1.492
が絶妙	1.492
のバランス	1.492
>10	1.492
るため	1.492
食物繊維	1.492
▁23	1.492
▁通常送料	1.492
ご注文	1.490
26	1.489
▁送	1.489
かも	1.489
主	1.488
il	1.488
−	1.487
し	1.487
ター	1.485
:3	1.485
原材料の一部に乳成分	1.485
秘密	1.485
添加物	1.485
日数	1.485
の美味しい	1.485
訂正	1.485
二人の	1.485
歳暮	1.485
必ずお読みください	1.485
植物	1.485
.3	1.483
分	1.482
をお	1.478
甘味料	1.478
モン	1.478
での保管	1.478
新しい	1.476
▁&	1.472
広がります	1.472
◆	1.472
▁株式会社	1.471
マカダミア	1.470
:2	1.470
的に	1.469
▁◎	1.467
な味わい	1.467
▁S	1.465
す	1.464
ユ	1.462
込	1.462
padding	1.462
違い	1.462
▁17	1.462
胡麻	1.462
マーブル	1.462
おやつ	1.462
製造工場では	1.462
舌	1.462
スイスの	1.462
割り	1.462
センス	1.462
端	1.462
に限	1.462
▁詳しくはこちらをご覧ください	1.462
もっと	1.462
レイ	1.462
に限り	1.462
が楽しめます	1.462
▁♪	1.462
▁甘さ控えめ	1.462
、19	1.462
コラボレーション	1.462
翌	1.462
だからこそ	1.462
ザー	1.462
ょ	1.462
のセットです	1.462
を受賞しました	1.462
こそ	1.462
誇る	1.462
高品質な	1.462
は承れません	1.462
蔵	1.462
セージ	1.462
英	1.462
-12	1.462
へのご	1.462
還元麦芽糖	1.462
月頃	1.462
加糖れん乳	1.462
つつ	1.462
品質で	1.462
にもぴったり	1.462
香ばしいアーモンドを	1.462
▁可愛い	1.462
誤	1.462
営業日以内	1.462
通知	1.462
▁アルコール	1.462
に変更	1.462
を練りこんだ	1.462
の風味は	1.462
カラフルな	1.462
詰合せです	1.462
ノア	1.462
お問い合わせ先	1.462
断り	1.462
広告文責有限会社自然館	1.462
▁ビッグ	1.462
_	1.461
こちら	1.455
くるみ	1.454
乳製品	1.453
ひとつ	1.453
非常に	1.453
練り	1.451
出	1.449
+	1.448
だから	1.448
がたっぷり	1.448
ない場合は	1.448
TV	1.448
大豆由来	1.447
プレゼント	1.444
風味の	1.443
te	1.443
辺	1.443
のチョコレートと	1.443
を持つ	1.443
をイメージした	1.443
リニューアル	1.443
状	1.440
やさしい	1.439
とろ	1.439
定	1.437
▁コーヒー	1.436
為	1.432
育	1.432
▁サクサク	1.432
開封後は賞味期限にかかわらず	1.432
お得	1.432
つき	1.432
スニッカーズ	1.432
掛	1.432
児	1.432
上質	1.432
洒落	1.432
高温多湿の場所を避けて	1.432
されました	1.432
▁注意事項を必ずご確認ください	1.432
そうです	1.432
しさ	1.432
原料とする食品	1.432
トン	1.432
の酸味	1.432
が生じ	1.432
っぱ	1.432
スィート	1.432
▁ガナッシュ	1.432
の香りと	1.432
季節限定	1.432
海外旅行のおみやげ可	1.432
白く	1.432
精製	1.432
さく	1.432
左画像のリンクから	1.432
br	1.429
とろける	1.427
カラメル色素	1.427
キャラメル	1.426
送料が	1.425
ダン	1.425
をたっぷり	1.425
自慢の	1.425
v	1.425
のお	1.424
規格	1.423
E	1.422
C	1.421
食	1.420
輸入元又は販売元	1.420
個数	1.420
えない	1.420
させていただく場合がございます	1.420
セス	1.420
映	1.420
ian	1.420
に愛	1.420
を考慮	1.420
日から	1.420
お買い物	1.420
ソフト	1.420
演出	1.420
カ国	1.420
ページ	1.418
)・	1.417
楽ギフ	1.415
▁フ	1.414
プリン	1.414
くなる	1.414
商品と同梱	1.414
全国一律	1.414
▁9	1.413
する場合がございます	1.411
なるべく	1.410
備考欄にご記入下さい	1.410
エル	1.410
キシリトール	1.408
▁一	1.407
x	1.406
届	1.405
の上	1.404
楽しめる	1.402
▁11	1.401
期間	1.400
▁F	1.400
チョコが	1.400
ください	1.399
致します	1.392
サービス	1.392
ほ	1.392
ガーナ	1.392
▁27	1.392
▁大きさ	1.392
即日発送	1.392
個性	1.392
▁ストロベリー	1.392
州	1.392
普	1.392
ol	1.392
数量	1.392
▁直射日光や高温多湿を避け	1.392
生乳	1.392
選び	1.392
例	1.392
マカデミア	1.392
優しい	1.392
一部地域	1.392
に関しましては	1.392
逸品	1.392
▁21	1.392
タイプです	1.392
味に	1.392
▁ファン	1.392
使って	1.392
無い	1.392
va	1.392
伝	1.392
贈る	1.392
▁モルディブ	1.392
(50	1.392
以下の冷暗所	1.392
同梱できません	1.392
あらかじめご了承ください	1.392
おいしさを	1.392
ゴールドコレクション	1.392
納	1.392
発生	1.392
輸	1.392
▁茶	1.392
キスチョコ	1.392
致しました	1.392
ポリ	1.392
チョコレートをコーティング	1.392
▁製造日から	1.392
がり	1.392
フルーティー	1.392
ンパーニュ	1.392
臼	1.392
二次会に	1.392
元気	1.392
糖質	1.392
ご記入ください	1.392
刻	1.392
残る	1.392
ナツ	1.392
働	1.392
密	1.392
月まで	1.392
▁キャンディ	1.392
民	1.392
4-6-5	1.392
けない	1.392
▁0120-917-111	1.392
を利用	1.392
ローストして	1.392
配り	1.392
▁54	1.392
▁CA	1.392
480	1.392
亜	1.392
胡	1.392
:60	1.392
をお受け	1.392
ふわ	1.392
うま	1.392
見た	1.392
販売元株式会社	1.392
が遅れ	1.392
困	1.392
淡い	1.392
クッキーと	1.392
不可です	1.392
さわ	1.392
題	1.392
▁ベルギー産の	1.392
▁黒	1.392
条件	1.392
使用の	1.392
とホワイトチョコの	1.392
風味は	1.392
集中	1.392
発行	1.392
買上げ	1.392
の訳あり	1.392
が広がる	1.392
▁アマンド	1.392
豪華	1.392
の上品な	1.392
▁魅惑の	1.392
淀川区歌島	1.392
キビ	1.392
ハートクッキー	1.392
さら	1.392
のお湯	1.392
キャドバリー	1.392
▁ロースト	1.392
▁焼き菓子	1.392
プラリネを	1.392
▁ストロベリーチョコレート	1.392
読み	1.392
】【	1.391
ストロベリー	1.388
▁開封後は	1.383
製品	1.383
マン	1.381
ペースト	1.381
お	1.381
保存	1.381
▁50	1.380
お年賀	1.380
まで	1.379
北	1.378
はございません	1.378
白い	1.378
食感と	1.378
/1	1.377
甲	1.376
放	1.376
B	1.374
300	1.372
絶妙な	1.372
とな	1.370
備考欄に	1.370
植物性油脂	1.370
などの	1.369
チョコレート菓子	1.367
良	1.367
▁歯医者さんが作った	1.367
グリーン	1.367
いただきたい	1.367
歓	1.367
:00	1.367
楽	1.367
わり	1.367
力	1.365
プレミアム	1.365
ココアバター	1.365
何	1.364
焼き菓子	1.364
▁北海道	1.364
期限	1.363
▁リンツ	1.361
♪<	1.361
心	1.361
op	1.361
】<	1.361
父の日	1.360
▁販売者	1.357
甘さを	1.357
上げた	1.357
大人気の	1.357
都	1.357
男性	1.357
心地よい	1.357
詰めて	1.357
▁造	1.357
紙袋	1.357
すっきりとした	1.357
かす	1.357
▁その他の	1.357
▁ただし	1.357
をお送り	1.357
予告なく変更	1.357
振	1.357
カテ	1.357
日本	1.355
jp	1.355
バターオイル	1.352
祝	1.349
流	1.349
▁材	1.349
▁チョコレートの	1.349
od	1.349
美味しさです	1.349
▁容量	1.349
(15°	1.349
▁ロイヤル	1.349
ood	1.349
>	1.348
明	1.347
▁ココア	1.346
砂糖	1.345
大人	1.344
ナー	1.344
ココアパウダー	1.343
発売元	1.342
ら	1.341
▁この	1.340
生産	1.340
商品は	1.340
直射日光	1.339
os	1.339
え	1.336
見	1.336
▁ご注文	1.336
ため	1.336
ヨーグルト	1.336
クランベリー	1.336
貴	1.336
到着	1.336
までの	1.336
きました	1.336
ちょこ	1.336
01	1.336
〈	1.336
効	1.336
繁	1.336
▁個別包装	1.336
理由	1.336
贈	1.336
×16	1.336
方も	1.336
銘菓	1.336
保	1.336
詰めました	1.336
ビターな	1.336
敏	1.336
年以上の	1.336
とろけて	1.336
安全	1.336
▁神奈川県	1.336
ザク	1.336
農薬や化学肥料を使用せずに育てた	1.336
を加算	1.336
▁今回	1.336
キャラメルの	1.336
開店	1.336
かる	1.336
合資会社ワールドマート等	1.336
時期によって異なります	1.336
ありがとうございます	1.336
▁輸入もしくは販売者	1.336
らしさ	1.336
本体	1.336
口溶けが	1.336
ナシ	1.336
リと	1.336
▁18°	1.336
食べきり	1.336
発表会	1.336
ロブ	1.336
IGP	1.336
▁2010	1.336
ji	1.336
。27°	1.336
モチーフ	1.336
▁22	1.336
▁岐阜県大垣市浅草	1.336
コンフェ	1.336
をブレンドした	1.336
瞬間に	1.336
▁少し	1.336
ta	1.336
▁結婚	1.336
いので	1.336
息づ	1.336
東カカオ	1.336
いたら	1.336
:250	1.336
以下が望ましいです	1.336
反	1.336
アカビート	1.336
本店	1.336
とろけるような	1.336
原料の	1.336
モチ	1.336
行	1.332
言	1.332
デキストリン	1.330
送料は	1.328
味の	1.328
る場合がございます	1.327
▁常温便	1.327
商品	1.326
ど	1.326
チーズ	1.325
にお届け	1.323
▁ト	1.323
トナ	1.322
鉄	1.322
ポン	1.322
の色	1.322
いろいろな	1.322
届きます	1.322
しい	1.322
こちらの商品は	1.321
焼き	1.320
梱包	1.319
をお楽しみ下さい	1.319
七	1.319
株	1.317
33	1.317
▁4	1.317
いた	1.316
チョコレートを	1.316
通常	1.316
27	1.316
ところ	1.313
プラス	1.313
一番	1.313
される場合は	1.313
▁準チョコレート	1.313
化粧	1.313
ヴァローナ	1.313
▁TV	1.313
になる場合がございます	1.313
OCOLATE	1.313
がありますが	1.313
以下の涼しい所	1.313
スタート	1.313
われています	1.313
カカオと	1.313
にはなりません	1.313
麻	1.313
細かく	1.313
添	1.313
曜	1.313
記	1.313
一度に	1.313
涼しい所	1.313
での配送となります	1.313
▁ここ	1.313
商品でも	1.313
を加え	1.313
乳成分	1.313
▁チョコクリーム	1.313
▁出荷方法	1.313
・・・	1.312
▁内容	1.310
、「	1.309
▁直射日光	1.309
FF	1.309
▁発送方法	1.309
わ	1.308
糖	1.307
上品な	1.307
03	1.307
▁小麦	1.307
冷蔵便	1.306
卵	1.306
U	1.305
一部	1.305
はクール便	1.305
円で送料無料	1.305
贅沢	1.305
の美味しさ	1.305
お願いいたします	1.305
▁お	1.305
者	1.303
ほど	1.303
▁15	1.302
外	1.301
ると	1.301
さん	1.301
山	1.301
.5	1.299
光沢剤	1.299
.8	1.299
▁冷蔵	1.299
ルト	1.299
ネット限定	1.299
物産	1.299
サンドした	1.299
マロ	1.299
召し上がり方	1.299
ハート型	1.299
▁製	1.299
お正月	1.299
高温多湿の場所	1.299
いです	1.299
穀	1.299
との同梱	1.299
お急ぎ	1.299
お得な	1.299
その名	1.299
年以上	1.299
を作り	1.299
夏季は	1.299
セレブ	1.299
雪	1.299
キシリ	1.299
▁.	1.297
いただく	1.297
▁2	1.297
,000	1.296
ポ	1.295
上質な	1.295
始	1.295
っております	1.295
▁14	1.293
▁お届け	1.293
作り	1.293
の場合	1.293
*	1.292
▁ショコラ	1.291
トリ	1.291
といえば	1.291
アーモンドの	1.291
褒美	1.291
いく	1.291
浮き	1.291
外箱	1.291
大き	1.291
縦	1.290
小麦	1.288
あたり	1.285
直射日光を避け	1.285
有機	1.285
落花生	1.285
大人気	1.285
業	1.285
定番	1.285
イーストフード	1.285
気軽に	1.285
バージョン	1.285
をご希望	1.285
品質の	1.285
デュ	1.285
90	1.284
25	1.284
冷蔵	1.283
パッケージ	1.282
、(	1.282
乳化剤	1.281
原料	1.281
テン	1.281
▁、	1.281
いただける	1.279
色の	1.279
ま	1.279
のし宛書	1.278
ar	1.278
火	1.277
お届けいたします	1.277
名前	1.277
カシューナッツ	1.277
▁80	1.277
宅配便	1.277
香料	1.277
塩味	1.275
下さい	1.274
続	1.273
口	1.272
.2	1.271
で包み	1.270
全脂粉乳	1.270
タイプ	1.269
28	1.269
甘さ	1.267
自然	1.267
円以上送料無料	1.267
▁ロ	1.266
商品です	1.265
かかります	1.264
ように	1.262
月	1.259
る	1.258
という	1.258
価格	1.258
膨張剤	1.253
いちご	1.253
でん粉	1.253
ソルビトール	1.253
面	1.253
発	1.253
春	1.253
それぞれ	1.253
バッグ	1.253
厳選した	1.253
離島は	1.253
の送料	1.253
43	1.253
▁使用	1.253
▁ITEM	1.253
1、	1.253
品です	1.253
家庭	1.253
etail	1.253
クセになる	1.253
グアムお土産	1.253
マイルドな	1.253
薄い	1.253
認証	1.253
キス	1.253
クリーミーな	1.253
広く	1.253
けの	1.253
絶品	1.253
まん	1.253
13_	1.253
▁直径約	1.253
揃	1.253
交	1.253
器	1.253
づつ	1.253
柿の種	1.253
送迎会	1.253
高級チョコレート	1.253
激安	1.253
呼	1.253
お楽しみください	1.253
ダム	1.253
の伝統	1.253
キタ	1.253
煎り	1.253
を混ぜ	1.253
チョコレートケーキ	1.253
お願い申し上げます	1.253
円の	1.253
▁当店の	1.253
】【05	1.253
散	1.253
見た目	1.253
こちらは	1.253
kyodai	1.253
▁是非	1.253
レッド	1.253
すっきり	1.253
四国	1.253
種類のチョコレート	1.253
にもおすすめです	1.253
▁↑	1.253
LA	1.253
服	1.253
とチョコレート	1.253
(40	1.253
タイお土産	1.253
凍	1.253
抑	1.253
に仕上げ	1.253
▁サクサクの	1.253
▁に	1.253
▁175	1.253
(500	1.253
、12	1.253
大粒の	1.253
ご使用ください	1.253
アンデス	1.253
の風味豊かな	1.253
マデ	1.253
▁小さな	1.253
送料別	1.253
アーモンドに	1.253
▁甘い	1.253
30%	1.253
飽	1.253
商品ラベルに別途記載	1.253
スプレッド	1.253
気に	1.253
ギュッと	1.253
で製造	1.253
部分	1.253
最高級クーベルチュール	1.253
ラク	1.253
ジャージー	1.253
US	1.253
スポーツ	1.253
ざく	1.253
5,000	1.253
右	1.253
房	1.253
☆<	1.253
発展と	1.253
検索用	1.253
運転	1.253
Maile	1.253
届け	1.253
月曜日	1.253
中には	1.253
おみやげ袋が付いています	1.253
チオ	1.253
楽製菓	1.253
ぃ	1.253
年の創業以来続く	1.253
▁素材	1.253
責	1.253
問	1.253
/15	1.253
クテル	1.253
▁イベント	1.253
が絶妙です	1.253
▁Award	1.253
×50	1.253
米国	1.253
仕	1.253
ご購入数に合わせて	1.253
デンマーク	1.253
こう	1.253
功労賞	1.253
暑い	1.253
カリカリ	1.253
小麦を含む製品	1.253
同一梱包	1.253
957-22-8770	1.253
多彩	1.253
はそのままに	1.253
▁ビ	1.253
施	1.253
:300	1.253
〜17°	1.253
ホールセール	1.253
貢献した	1.253
トク	1.253
オリジナルレシピへのこだわり	1.253
宇	1.253
中で愛されている	1.253
販売終了	1.253
で包み込みました	1.253
ティータイムに	1.253
▁おみやげがポイント	1.253
甘さを抑えた	1.253
含まれませんので	1.253
本あたり	1.253
デア	1.253
っくりと	1.253
▁パイの実	1.253
リカ	1.253
EW	1.253
スポット	1.253
濃縮ホエイ	1.253
ガトー	1.253
に手	1.253
ロマ	1.253
視	1.253
扇	1.253
▁0957-22-8770	1.253
▁ハロウィン	1.253
上質で	1.253
に恵まれた	1.253
▁ハワイのおみやげ	1.253
設備で製造	1.253
頑	1.253
▁様々なシーンに	1.253
報	1.253
▁ハートチョコ	1.253
仮	1.253
▁プレゼントにも	1.253
▁クランチチョコレート	1.253
レシ	1.253
ホルン	1.253
あたた	1.253
▁モンドセレクション	1.253
プーン	1.253
ミックスチョコレート	1.253
費	1.253
▁受付時間	1.253
▁幅約	1.253
▁冷暗所にて	1.253
党	1.253
は変わ	1.253
>9	1.253
の味です	1.253
杏	1.253
した場合は	1.253
品質保持	1.253
召し上がっても差し支えありません	1.253
(10%	1.253
個約	1.253
お持ち帰り用の小袋	1.253
伝統を誇る	1.253
こだ	1.253
▁ボックス	1.253
などにお使い頂けます	1.253
91	1.253
頂け	1.253
えびを含む製品を生産しています	1.253
ギー	1.253
の間に	1.253
アルコールに弱い方	1.253
▁小悪魔スイートチョコ	1.253
魅惑の	1.253
馬	1.253
ンパ	1.253
されたい	1.253
を払	1.253
ご注文から	1.253
▁クリスマスプレゼント	1.253
ギフトとして	1.253
入力ください	1.253
たった	1.253
▁0120-560-162	1.253
小麦胚芽	1.253
▁生クリームチョコ	1.253
〜25	1.253
姉妹	1.253
ムード	1.253
選び抜	1.253
手が出る	1.253
に包	1.253
gan	1.253
続く	1.253
唯一	1.253
ッタ	1.253
のみで	1.253
▁カリ	1.253
持ち帰	1.253
▁ミルクチョコレートで	1.253
ぇ	1.253
ヘン	1.253
テル	1.253
あう	1.253
Lindt	1.253
申	1.253
九州は	1.253
ンドセレクション	1.253
-18	1.253
お届け致します	1.253
より	1.250
つ	1.246
チョコレートに	1.244
▁たんぱく質	1.242
計	1.242
是非	1.241
▁賞味期限	1.239
生	1.239
のが	1.238
▁保存方法	1.238
)】	1.236
▁オ	1.236
ファン	1.236
足	1.233
を	1.232
500	1.231
一	1.231
テ	1.231
j	1.231
なん	1.231
好評	1.231
味と	1.231
』	1.231
21	1.230
を含む	1.230
ビタミン	1.230
な	1.229
高温	1.228
されています	1.228
大容量	1.228
フォ	1.228
サイズ	1.227
▁ご	1.227
あ	1.226
▁品	1.225
持ち	1.225
ならではの	1.225
▁かわいい	1.225
繊細な	1.225
事項	1.225
15	1.225
今	1.224
用	1.222
たっぷり	1.222
;&	1.222
注文	1.222
人気	1.221
ヴィ	1.221
となり	1.221
600	1.221
《	1.221
仕上げ	1.221
出した	1.221
ミルクの	1.221
級	1.221
別	1.220
で送料無料	1.219
生チョコ	1.219
も	1.218
させて頂きます	1.218
ご	1.217
や	1.217
知	1.217
<	1.215
▁#66	1.215
込み	1.215
サクサクの	1.215
ディア	1.215
▁テ	1.215
ション	1.215
当店からの	1.215
有名	1.215
が楽しめる	1.215
普通	1.215
集	1.215
人の	1.215
を誇る	1.215
ひと口	1.215
ホワイトチョコ	1.214
チョコレート	1.214
なめらかな	1.212
空	1.211
袋付	1.211
▁fs	1.211
の際は	1.211
これ	1.210
とさせていただきます	1.210
。(	1.208
時	1.208
種類	1.207
になります	1.207
おり	1.206
▁詳細	1.206
発送方法	1.206
最高級の	1.206
印	1.206
買う	1.206
-9	1.206
メー	1.206
ほどよい	1.206
▁熨斗	1.206
での発送	1.206
ご注文内容	1.206
のマ	1.206
口どけの	1.206
たら	1.206
守	1.206
最も	1.206
抗	1.206
▁厳選された	1.206
確かな	1.206
あん	1.206
スイートチョコレート	1.206
とする	1.206
密封	1.206
時は	1.206
▁トルコ	1.206
2000	1.206
承	1.206
;	1.206
同梱	1.205
くな	1.204
『	1.203
類	1.203
表面に	1.203
送	1.203
快気祝い	1.203
▁その	1.202
カ	1.201
まろやかな	1.201
受賞	1.201
ご了承ください	1.200
重	1.199
している	1.198
▁100	1.198
の方	1.198
こと	1.197
▁200	1.196
ント	1.196
▁脂質	1.193
!」	1.193
▁の	1.193
掲載	1.193
発売	1.193
タイプの	1.193
開	1.193
味わって	1.193
ができません	1.193
同時にご注文	1.193
、20	1.193
旧	1.193
やかに	1.193
根	1.193
裏	1.193
大粒	1.193
詰め合わせた	1.193
▁そんな	1.193
お子様や	1.193
冷凍商品との同梱はできません	1.193
苦味と	1.193
識	1.193
まして	1.193
ませんので	1.193
きっと	1.193
を頂	1.193
存在	1.193
厚み約	1.193
件	1.193
をふんだんに	1.193
食塩	1.191
Ca	1.189
Y	1.189
「	1.187
脱脂粉乳	1.187
枚入	1.186
ー	1.186
▁量	1.185
▁チョコレート菓子	1.183
▁ジャ	1.183
を入れて	1.183
風味と	1.183
)12	1.183
77	1.183
ミルキー	1.183
甘さの	1.183
マルトデキストリン	1.183
のチョコレート	1.183
して	1.182
バレンタインデー	1.181
9	1.180
味わい	1.180
せ	1.179
のパッケージ	1.179
(6	1.179
安心	1.179
ンド	1.179
物	1.177
アーモンド	1.176
高	1.174
▁ナトリウム	1.173
に	1.172
▁※	1.171
▁ラッピング	1.169
▁『	1.169
レモン	1.169
85	1.169
私	1.169
層	1.169
ロッテ	1.169
家族	1.169
×7	1.169
売り切れ	1.169
お求め	1.169
▁キットカット	1.169
時期	1.169
ヶ月以上	1.169
各種	1.169
職人が	1.169
冷	1.169
詰まった	1.169
Q	1.169
ィ	1.169
期間外	1.169
オリーブ	1.169
万一	1.169
▁生産国	1.169
との相性	1.169
▁発送日より	1.169
ウィ	1.169
丸	1.169
送付	1.169
尿	1.169
スタッフの	1.169
やお	1.169
合わせた	1.169
卵殻	1.169
79	1.169
築	1.169
飴	1.169
▁アメリカ合衆国	1.169
ついて	1.169
種類以上	1.169
送信いたします	1.169
凝	1.169
ポテト	1.169
たまりません	1.169
食感で	1.169
カシュー	1.169
さらにおい	1.169
サクッと	1.169
ベビー	1.169
まねきね	1.169
エス	1.169
商品リニューアル	1.169
いわ	1.169
守り	1.169
を防ぐ	1.169
香りの	1.169
相談	1.169
アルバ	1.169
ウト	1.169
▁ふ	1.169
古屋	1.169
を取	1.169
サンクス	1.169
こチョコ	1.169
▁むそう商事	1.169
人気のチョコレート	1.169
▁34	1.169
綺麗	1.169
かわいく	1.169
97	1.169
クッキーです	1.169
代金	1.169
▁ワイン	1.169
多湿	1.169
.25	1.169
短	1.169
腸	1.169
.5×3	1.169
デザイン	1.167
▁20	1.165
手	1.165
します	1.164
かに	1.163
通	1.163
★	1.162
香り高い	1.160
オーストリア	1.160
▁有機	1.160
した	1.160
じ	1.159
超	1.159
書	1.159
付	1.157
取り	1.157
▁イ	1.157
の中でも	1.157
させた	1.157
で保存	1.157
えた	1.157
れること	1.157
袋あたり	1.157
バニラ香料	1.157
でご	1.157
お中元	1.155
場合は	1.155
週間	1.153
対応させていただきます	1.153
結婚	1.152
▁モ	1.152
▁名称	1.152
ベ	1.151
ック	1.150
いて	1.150
こ	1.149
この	1.149
メール	1.148
転化糖	1.148
旬	1.148
由来	1.148
▁リ	1.148
優しく	1.148
に保存	1.148
父	1.148
フレー	1.148
しっかりと	1.148
冷暗所にて	1.148
みつき	1.148
BRO	1.148
製造しています	1.148
港	1.148
730	1.148
毎日	1.148
クール冷蔵便	1.148
▁在庫	1.148
輸入菓子	1.148
トール	1.148
▁アーモンド	1.147
はこちら	1.146
t	1.145
が	1.145
▁>>	1.145
にお	1.143
断	1.143
or	1.142
ジャ	1.142
イベント	1.142
か	1.141
全粉乳	1.141
ノ	1.140
れている	1.139
程度	1.139
フィリング	1.139
懐	1.139
コミ	1.139
▁カカオバター	1.139
画像	1.139
にこだわった	1.139
っこ	1.139
ダース	1.139
アソート	1.138
]	1.135
味が	1.135
ります	1.135
製造元	1.135
ブラック	1.135
ウ	1.134
度	1.134
々	1.134
甘さと	1.134
ご注文の場合	1.134
らず	1.134
もしくは	1.134
すると	1.134
ナッツ類	1.134
玉	1.132
での	1.131
V	1.131
顔	1.130
コクのある	1.130
さい	1.128
かご	1.128
粉糖	1.128
増	1.128
にぴったり	1.128
▁レ	1.127
▁■	1.126
と	1.126
トリュフチョコレート	1.126
野	1.126
の香ばしさ	1.126
味は	1.126
甘さが	1.124
げ	1.124
66	1.124
(10	1.123
▁商品詳細	1.123
頃	1.122
様	1.122
とは	1.121
ッ	1.119
水あめ	1.118
の	1.117
り	1.116
品	1.115
S	1.114
れています	1.114
部	1.114
▁ド	1.114
のおいしさ	1.114
でコーティング	1.114
正	1.114
▁輸入	1.114
みました	1.114
必ず	1.114
込んだ	1.114
加工	1.114
ot	1.114
病	1.114
ありません	1.114
▁ガーナ	1.114
有限会社	1.114
保存してください	1.114
:30	1.114
りに	1.114
を含む製品を製造しています	1.114
▁でお届けできます	1.114
お買	1.114
▁お届け日	1.114
にもお	1.114
▁JAN	1.114
特定原材料	1.114
〜8	1.114
話題	1.114
わせ	1.114
を生	1.114
ドライフルーツ	1.114
にしました	1.114
口の中に	1.114
〜6	1.114
market	1.114
ことが	1.114
CH	1.114
なチョコレート	1.114
する事	1.114
(16	1.114
モルト	1.114
こみました	1.114
をご覧ください	1.114
ミルクチョコレートです	1.114
口どけの良い	1.114
尾	1.114
ることがございます	1.114
をお願い致します	1.114
に合わせて	1.114
ENT	1.114
がこ	1.114
卸	1.114
こし	1.114
▁バラ	1.114
身体	1.114
歯ざわり	1.114
thez	1.114
なじ	1.114
ーパー	1.114
Jul	1.114
ライス	1.114
始まり	1.114
▁トップ	1.114
大麦麦芽	1.114
▁見た目	1.114
かく	1.114
食べても害はありません	1.114
奏で	1.114
感のある	1.114
いただきました	1.114
特定原材料等	1.114
が変更	1.114
ers	1.114
構	1.114
製法により	1.114
▁パン	1.114
▁商品特徴	1.114
出来上がり	1.114
:45	1.114
▁フレンチ	1.114
採	1.114
非	1.114
▁ボ	1.114
のトリュフチョコレート	1.114
でのお届けになります	1.114
まれています	1.114
ことがございます	1.114
(105	1.114
アミノ酸	1.114
込めた	1.114
▁【5	1.114
鮮度	1.114
▁新潟県	1.114
のご利用	1.114
モール	1.114
と言えば	1.114
(80	1.114
最適な	1.114
きり	1.114
:85	1.114
上から	1.114
戸	1.114
換	1.114
の方へ	1.114
rou	1.114
問合せ	1.114
ご記入	1.114
原材料の一部に乳成分を含む	1.114
醸造	1.114
描	1.114
江	1.114
/28	1.114
▁トフィー	1.114
は変更	1.114
▁220	1.114
バリエーション	1.114
▁マカダミアナッツをミルクチョコ	1.114
コース	1.114
高い評価を受けて	1.114
みます	1.114
どった	1.114
▁ちんすこうショコラ	1.114
頂いてい	1.114
★【	1.114
ふさわしい	1.114
どの	1.114
の芳醇な	1.114
(20°	1.114
ぶどう糖シロップ	1.114
面に	1.114
(126	1.114
本舗	1.114
群	1.114
▁沖縄土産	1.114
解物	1.114
溶けた	1.114
▁ケース	1.114
に含ま	1.114
一押し	1.114
箱のサイズ	1.114
穂	1.114
.30	1.114
イド	1.114
海外発送	1.114
クール便での	1.114
・・・30	1.114
離	1.114
3.2	1.114
にて発送いたします	1.114
エッグ	1.114
まねき猫	1.114
作成	1.114
永	1.114
までも	1.114
ありが	1.114
ひな祭り	1.114
承り	1.114
スイートチョコ	1.114
衣	1.114
口どけと	1.114
混合	1.114
お土産に	1.114
▁10%	1.114
ドー	1.114
.4	1.107
4	1.107
▁内	1.106
包み	1.106
▁ミルク	1.106
けて	1.105
▁特	1.105
▁(	1.104
▁○	1.103
大きさ	1.103
▁広告文責	1.103
▁border	1.102
の風味が	1.101
▁品名	1.101
:#	1.101
める	1.099
は	1.099
粒入	1.099
っています	1.098
大豆を含む	1.098
ご購入	1.098
若干	1.096
チョコです	1.096
算	1.096
!【	1.096
ザクロ	1.096
後は	1.096
梅	1.096
あす楽対応	1.096
人気の	1.094
のある	1.093
00	1.093
おすすめ	1.092
あります	1.092
食感が	1.092
製造より	1.092
笑	1.092
すぎ	1.092
東北	1.092
一緒	1.092
際	1.092
5	1.092
返品	1.091
K	1.090
しました	1.090
ホワイトチョコレート	1.089
先	1.086
▁苺	1.086
毎年	1.086
お徳用	1.086
別途送料が	1.086
フレッシュ	1.086
の際には	1.086
アリサン	1.086
ッパー	1.086
菜	1.086
キッ	1.086
以下の涼しい場所で保存して下さい	1.086
組	1.086
高温多湿をさけ	1.086
津	1.086
比べ	1.086
となります	1.085
っ	1.084
溶け	1.084
はもちろん	1.083
)、(	1.083
で	1.082
詰め合わせ	1.082
:5	1.082
の商品	1.082
←	1.081
プル	1.081
▁あと	1.081
九州	1.081
のように	1.081
に最適	1.081
植物油脂	1.081
され	1.079
ハ	1.079
デー	1.079
状況	1.079
日	1.078
栄養成分	1.077
ht	1.077
にも	1.076
に記載	1.074
歯	1.074
コーンスターチ	1.074
なの	1.074
▁結婚式	1.074
紅	1.074
に仕上げました	1.074
栄養	1.074
を行	1.074
センター	1.074
▁グアム土産	1.074
▁製造元	1.074
ッセ	1.074
どこでも	1.074
パッケージサイズ	1.074
殺	1.074
オシャレ	1.074
品と	1.074
▁1050	1.074
温度に	1.074
加え	1.074
起	1.074
選ぶ	1.074
のみを	1.074
おすすめです	1.074
▁ブラン	1.074
頂きます	1.074
含まれています	1.074
温度差	1.074
ないため	1.074
の商品を	1.074
かし	1.074
乳酸	1.074
エントリーでポイント最大	1.074
詰ま	1.074
を添	1.074
▁主	1.074
▁コーヒービーンズ	1.074
口に入れた	1.074
融	1.074
酵母	1.074
支	1.074
▁3	1.073
マ	1.072
24	1.072
翌日	1.070
季節	1.069
▁世界	1.069
には	1.068
仕上げました	1.067
しております	1.067
美	1.066
▁ココアバター	1.066
ず	1.065
対応	1.063
できます	1.063
co	1.063
▁2,	1.063
見舞い	1.063
ずつ	1.063
で包みました	1.063
額	1.063
皆	1.063
請	1.063
のご注文	1.063
特集	1.063
休み	1.063
閉じ込めました	1.063
▁アサイー	1.063
の子	1.063
になり	1.063
世	1.063
▁ホ	1.063
▁大人	1.063
et	1.061
▁180	1.061
個	1.060
▁送料無料	1.060
登場	1.060
指定	1.060
ズ	1.058
クリームパウダー	1.058
(18	1.058
しっとり	1.058
▁1,400	1.058
大袋	1.058
-7	1.058
これは	1.058
お召し上がり	1.056
■	1.056
)、	1.055
引き	1.055
160	1.055
アラビアガム	1.055
くださいませ	1.055
加	1.055
きなこ	1.055
表示	1.054
▁ホワイトチョコレート	1.053
ろ	1.053
マカデミアナッツチョコレート	1.051
レー	1.051
澱粉	1.051
度以下	1.051
年	1.049
色	1.049
at	1.047
として	1.046
袋	1.045
原材料の一部に大豆を含む	1.044
方	1.044
の味わい	1.044
良い	1.044
現象	1.044
400	1.044
作った	1.044
保存して下さい	1.044
▁人気の	1.044
ポッキー	1.044
なめらか	1.044
〜4	1.044
部門	1.044
香ばしく	1.044
〜1	1.044
-->	1.044
84	1.044
旨	1.044
レシピ	1.044
をご指定	1.044
同梱について	1.044
カカオの風味	1.044
直接	1.044
〜5	1.044
完全	1.044
のでご注意ください	1.044
れん乳	1.044
製の	1.044
どなた	1.044
城	1.044
ハーシーズ	1.044
時間帯	1.044
再入荷	1.044
特有	1.044
▁ギ	1.044
る事	1.044
▁食物繊維	1.044
▁重さ	1.044
スーパー	1.044
抜	1.044
63	1.044
華やかな	1.044
落花生を含む製品を生産しています	1.044
コイン	1.044
世界に	1.044
平日	1.044
適用	1.044
▁夕張メロン	1.044
他の商品	1.044
ォー	1.044
チョコボール	1.044
>12	1.044
仲	1.044
を見る	1.044
地で	1.044
▁食べやすい	1.044
行列	1.044
小麦でん粉	1.044
チョコクランチ	1.044
ビターチョコレートです	1.044
任	1.044
ポケット	1.044
する場合があります	1.044
ぜひお試しください	1.044
の代表	1.044
▁国産	1.044
のトリュフ	1.044
▁コアラのマーチ	1.044
▁ローズ	1.044
ヴィーガン	1.044
▁the	1.044
220	1.044
周年	1.044
デザインが	1.044
▁06-697	1.044
除	1.044
エステル	1.044
奇	1.044
デザインは	1.044
められています	1.044
(0	1.044
妓	1.044
カフェタッセ	1.044
までにない	1.044
製造しております	1.044
ブレイク	1.044
を使用しない	1.044
アナ	1.044
異	1.044
郵	1.044
選りすぐ	1.044
粒数	1.044
▁雪	1.044
の少ない	1.044
▁シーシェルチョコ	1.044
れません	1.044
圧	1.044
液	1.044
美しく	1.044
ラテ	1.044
の本格	1.044
お買い求め	1.044
どちらか	1.044
紅花黄	1.044
▁サクッと	1.044
ローネ	1.044
ビュー	1.044
語	1.044
向いています	1.044
一品	1.044
×190	1.044
をたっぷり使った	1.044
トウ	1.044
を一切使用	1.044
部分は	1.044
▁しっとり	1.044
箇所	1.044
プレッツェルに	1.044
、	1.043
食品	1.043
▁【	1.041
んで	1.040
ナ	1.039
レシチン	1.039
二	1.039
:12	1.038
M	1.037
点	1.037
丁寧に	1.037
▁あ	1.037
カカオ豆	1.037
×1	1.036
:15	1.036
▁ピーナッツ	1.036
こだわり	1.035
を含む製品を生産しています	1.034
アクセント	1.034
▁生クリーム	1.034
お子様	1.034
50	1.033
美味しさ	1.033
size	1.033
.1	1.032
カラメル	1.032
葉	1.032
・・	1.032
▁※1	1.032
めた	1.032
備	1.032
召し上が	1.032
とい	1.032
ダー	1.032
】	1.030
厳選	1.030
ab	1.029
No	1.028
W	1.028
過	1.028
質	1.028
ない場合	1.028
嬉しい	1.028
まる	1.028
カリッと	1.028
で配送	1.028
お召し上がりください	1.028
実際	1.028
当社	1.028
oc	1.027
の香り	1.026
社	1.026
7	1.025
32	1.025
楽しめます	1.025
ミルク	1.025
ra	1.024
もございます	1.024
▁日本	1.024
き	1.023
があ	1.023
リー	1.022
なく	1.022
シュ	1.021
当	1.021
▁香ばしい	1.021
球	1.021
▁た	1.021
東	1.021
をかけて	1.021
不二家	1.021
っぱい	1.021
▁19	1.021
▁特徴	1.021
64	1.021
天候	1.021
々に	1.021
ガナッシュを	1.021
▁お取り寄せ	1.021
生地に	1.021
アレンジ	1.021
▁カルシウム	1.021
スク	1.021
くお	1.021
ストロ	1.021
をまぶしました	1.021
冷暗所にて保管	1.021
に入れると	1.021
イル	1.021
一度食べたら	1.021
応え	1.021
口どけが	1.021
パウダー	1.020
チョコレートが	1.019
w	1.018
から	1.018
I	1.017
楽しみ	1.017
母の日	1.017
65	1.017
▁炭水化物	1.017
以降	1.017
下	1.016
販売	1.016
後	1.014
仕様	1.014
活	1.014
コード	1.014
をさせていただきます	1.014
を除く	1.014
×18	1.014
エア	1.014
等が	1.014
シリアル	1.014
った	1.014
チョコレートの	1.013
きた	1.011
弾	1.011
までに	1.011
▁18	1.010
っと	1.009
抜群	1.009
キャンディー	1.009
・	1.009
など	1.008
たい	1.007
甘い	1.007
粒	1.006
方法	1.005
cm	1.005
mg	1.005
u	1.002
パ	1.002
2013	1.002
34	1.002
ハーモニー	1.002
たまらない	1.002
口の中で	1.002
待	1.002
とうきび	1.002
▁ノ	1.002
りません	1.002
フレーク	1.002
ハー	1.002
命	1.002
にし	1.002
にご利用	1.002
あなた	1.002
▁クランチ	1.002
をおすすめします	1.002
を練り込んだ	1.002
絶	1.002
天候や	1.002
させて頂いております	1.002
真	1.002
▁チョコレートを	1.002
ICK	1.002
Dec	1.002
6001	1.002
へは	1.002
つぶつぶ	1.002
×31	1.002
ギャバ	1.002
▁植物性油脂	1.002
フォルム	1.002
ろう	1.002
涼しい場所に保存してください	1.002
をご記入下さい	1.002
殻	1.002
10】[10	1.002
を受けた	1.002
more	1.002
まぶ	1.002
▁Q	1.002
▁ゼロ	1.002
>1	1.002
エクストラ	1.002
クッキークランチ	1.002
自動配信メールの	1.002
ホワイトチョコを	1.002
OP	1.002
本来の	1.002
内に	1.002
りな	1.002
▁外装	1.002
▁きのこの山	1.002
支援	1.002
ストラ	1.002
サイズは	1.002
09]	1.002
でんぷん	1.002
大きな	1.002
控	1.002
3.0	1.002
lt	1.002
させる	1.002
2011	1.002
×120	1.002
しておりますが	1.002
クラッシュした	1.002
▁幅	1.002
>20	1.002
ニュ	1.002
ぶどう糖果糖液糖	1.002
の際	1.002
様々な	1.002
冷蔵庫にて	1.002
正しい送料	1.002
無し	1.002
舞	1.002
発生します	1.002
チョコでコーティング	1.002
小麦粉	1.001
」	1.001
全	1.000
2	0.999
円	0.998
ふ	0.998
れる	0.998
により	0.998
送料	0.997
▁G	0.997
日間	0.996
▁ミニ	0.996
く	0.995
フリーズドライ	0.994
酸味料	0.993
黄	0.993
40	0.992
かい	0.992
▁定価	0.992
マーク	0.992
村	0.992
&2,990	0.992
文	0.992
ガー	0.992
ホ	0.992
要	0.992
{	0.991
のチョコ	0.989
▁プレゼント	0.989
▁ポ	0.989
かわいい	0.989
F	0.988
チョコレートです	0.988
(200	0.987
▁父の日	0.987
してから	0.987
速	0.987
熟	0.987
拠	0.987
新築	0.987
探	0.987
をお楽しみ	0.987
リン酸	0.987
つまみ	0.987
▁マル	0.987
なお	0.985
【	0.984
><	0.983
▁これ	0.983
チョコレートバー	0.983
製法で	0.983
思	0.983
▁240	0.983
▁当店	0.981
フィ	0.981
サクサク	0.981
シー	0.981
▁ギフト	0.980
香	0.979
による	0.979
。)	0.979
大変	0.978
▁2013	0.978
さ	0.975
数が	0.974
格安	0.974
感覚	0.974
ルの	0.974
してあります	0.974
カム	0.974
ご要望	0.974
ご注文は	0.974
▁スイス人ロドルフ	0.974
をお選びください	0.974
常温で	0.974
の目安	0.974
▁フェ	0.974
▁68	0.974
art	0.974
ag	0.974
uc	0.974
ご賞味ください	0.974
下の	0.974
世界で	0.974
審査	0.974
得な	0.974
生クリームと	0.974
個性的な	0.974
出会	0.974
頂いても	0.974
を入れ	0.974
ドロップ	0.974
言葉	0.974
▁合	0.974
ニック	0.974
公	0.974
でも人気	0.974
(^	0.974
心を	0.974
発売以来	0.974
メープル	0.974
・・・・	0.974
在庫は	0.974
ゆる	0.974
姫	0.974
引き立て	0.974
価格です	0.974
を代表する	0.974
箕	0.974
アカビート色素	0.974
配送時に	0.974
急激な温度差	0.974
ココ	0.974
くれます	0.974
キュートな	0.974
が入って	0.974
▁箱の大きさ	0.974
配合	0.974
-4	0.974
×6	0.974
年に	0.974
合計	0.974
チェリー	0.974
ドイツ	0.974
半	0.974
ち	0.974
種類の	0.974
カカオ	0.974
カカオマス	0.973
洋酒	0.973
▁	0.972
乳糖	0.971
▁ラ	0.971
のお届け	0.971
だ	0.970
ません	0.970
メールで	0.969
取	0.969
味	0.968
ic	0.968
相性	0.967
▁24	0.967
冷蔵庫	0.967
のご	0.966
商品特性	0.964
追	0.964
工場では	0.964
果	0.964
粉乳	0.964
人に	0.964
、2	0.964
られます	0.964
割	0.964
▁新	0.964
▁原産国名	0.964
の為	0.964
!!	0.962
有	0.962
140	0.961
JAS	0.961
をご利用	0.961
(100	0.961
コーティングした	0.961
気温	0.961
▁スイーツ	0.961
交換	0.959
150	0.959
70	0.958
だけ	0.958
子	0.957
にて	0.957
▁padding	0.956
ない	0.955
万円以上	0.955
強く	0.955
ご不	0.955
組み合わせた	0.955
個別の	0.955
添え	0.955
ダウン	0.955
シェイプ	0.955
味わえます	0.955
17:00	0.955
変化	0.955
乳を含む	0.955
限定の	0.955
▁1000	0.955
:11	0.955
)※	0.955
▁→	0.955
▁簡易包装	0.955
バイ	0.955
▁さくさく	0.955
品質上の	0.955
クリック	0.955
155	0.955
ヴォ	0.955
変わり	0.955
パッケージで	0.955
輸入品	0.955
月までの期間は	0.955
考	0.955
カレボー	0.955
満点	0.955
▁薄	0.955
オリ	0.955
メント	0.955
ブラジル	0.955
のお客様は	0.955
喜ばれる	0.955
香りと	0.955
こだわりの	0.955
お電話	0.955
86	0.955
デ	0.955
植物油	0.955
上の	0.955
冬季限定	0.955
スト	0.955
作	0.955
14	0.953
」「	0.952
100	0.952
♪	0.951
°	0.950
モ	0.950
初	0.950
ダイエット	0.949
べ	0.949
キャ	0.949
チョコレートと	0.949
▁製造より	0.948
セット	0.947
ne	0.947
▁植物油脂	0.947
ながら	0.945
販売者	0.945
んだ	0.945
▁義理チョコ	0.944
メッセ入力	0.944
▁ゴ	0.944
▁また	0.944
▁5	0.943
リンツ	0.943
ご注意ください	0.943
:1	0.942
。	0.942
お酒	0.941
シ	0.941
使用	0.940
頂く	0.940
にくい	0.940
以来	0.940
依	0.940
音	0.940
ほろ苦さと	0.940
デイ	0.940
で作った	0.940
が入っている	0.940
商品には	0.940
コチニール	0.940
へのこだわり	0.940
とホワイトチョコ	0.940
▁上質な	0.940
唐辛子	0.940
▁老舗	0.940
多くの	0.940
通り	0.940
風味を	0.940
▁72%	0.940
してい	0.940
手に入	0.940
物の	0.940
頂いて	0.940
アメリカ合衆国	0.940
安心して	0.940
あなたの	0.940
訳	0.940
にて配送	0.940
に人気の	0.940
規模	0.940
発送になります	0.940
お口の中で	0.940
▁とうきびチョコ	0.940
▁さらに	0.940
ER	0.940
おいしさです	0.940
いただいております	0.940
▁I	0.940
腐	0.940
好き	0.940
ボール	0.935
ur	0.935
用意	0.934
使用した	0.934
ですね	0.934
ほとんど	0.934
置き	0.934
産の	0.932
がございます	0.932
d	0.932
▁他	0.932
ポイント	0.930
本入り	0.930
致	0.928
常温保存	0.928
可能性がございます	0.928
手を	0.928
メルマガ	0.928
一口サイズの	0.928
手に	0.928
カタ	0.928
涼しいところに保存してください	0.928
×17	0.928
ri	0.928
▁LINDT	0.928
プレゼントに	0.928
ホーム	0.928
加えて	0.928
版	0.928
Na	0.928
湯	0.928
▁ネスレ	0.928
出し	0.928
からお	0.928
の商品です	0.928
のショコラ	0.928
達	0.928
のハーモニー	0.928
ギ	0.928
敬老の日	0.928
」。	0.928
▁配送	0.928
k	0.928
前	0.926
▁人気	0.926
本品製造工場では	0.926
涼しい場所	0.925
限定	0.924
ay	0.924
th	0.924
(9	0.923
。&	0.923
絶妙なバランス	0.923
ご指定	0.923
につ	0.923
イースト	0.922
後に	0.922
りと	0.922
▁/	0.922
い	0.921
シャ	0.920
▁サイズ	0.919
3	0.919
▁愛	0.919
個の	0.919
クリームと	0.919
感動	0.919
型の	0.919
の花	0.919
書いて	0.919
農園	0.919
チョ	0.919
就	0.919
かで	0.919
ダル	0.919
が描	0.919
ボトル	0.919
友	0.919
の方にも	0.919
員	0.919
プリ	0.919
さくさく	0.919
▁ち	0.919
▁や	0.919
2009	0.919
ようになりました	0.919
▁まるで	0.919
▁65	0.919
ift	0.919
解凍して	0.919
やか	0.919
らしい	0.919
なので	0.919
250	0.919
缶	0.918
って	0.917
me	0.916
▁トリュフ	0.916
20	0.915
選	0.915
コーンシロップ	0.915
ジュ	0.915
通販	0.914
align	0.913
おいしさ	0.913
▁B	0.913
ば	0.912
乳	0.912
タブレット	0.911
が特徴です	0.911
ナッ	0.911
休	0.911
遊	0.911
▁お子様	0.911
の対象外	0.911
同一	0.911
×26	0.911
のメールが	0.911
立つ	0.911
干し	0.911
対	0.911
卵殻カルシウム	0.911
連絡	0.911
食材	0.911
枚入り	0.911
る場合	0.911
種	0.910
豆	0.910
▁[	0.910
ール	0.909
可愛い	0.909
の中	0.907
18	0.906
o	0.905
プレーンチョコレート	0.905
職場	0.905
.1※	0.905
を感じ	0.905
メーカー製造日より	0.905
▁ど	0.905
夜	0.905
置	0.905
やすく	0.905
▁但し	0.905
冷えて固ま	0.905
関連商品	0.905
▁菓子	0.905
住	0.905
▁クール	0.905
名	0.904
チョコ	0.904
23	0.904
〜18°	0.902
内容	0.901
クッキー	0.901
kg	0.901
▁南	0.899
ばら	0.899
のでご了承ください	0.899
寄	0.899
レンシア	0.899
▁尚	0.899
ったら	0.899
▁当店で	0.899
でコーティングした	0.899
ジャン	0.899
段	0.898
素	0.898
(	0.898
▁内容量	0.896
ける	0.896
▁}	0.895
▁楽天	0.895
ブラ	0.895
追加送料	0.895
ニー	0.895
彼	0.895
▁250	0.895
▁商品内容	0.895
フレーバー	0.895
%	0.894
県	0.894
▁パッケージ	0.893
量	0.892
:	0.892
が付	0.891
までは	0.891
てんとう虫	0.891
▁お届けについて	0.891
っぱり	0.891
底	0.891
】【10	0.891
52	0.891
バレンタイン	0.891
体	0.890
&	0.888
ご了承	0.887
余	0.887
焼	0.887
ましても	0.887
プリンセス	0.887
口に	0.887
川	0.887
を使用した	0.887
型	0.887
ガ	0.885
▁ベ	0.884
)/	0.884
社は	0.884
▁サン	0.884
乾	0.884
特別な	0.884
みんな	0.884
む	0.884
約	0.882
の香りが	0.882
リア	0.882
栽培	0.882
クエン酸	0.882
受け	0.882
55	0.882
ブライダル	0.880
そう	0.880
sp	0.880
)	0.880
安定剤	0.879
(15	0.879
サンド	0.878
カカオの	0.877
えて	0.877
店	0.877
オススメ	0.873
ーム	0.873
沖縄	0.873
ド	0.872
95	0.872
が出来	0.872
アイテム	0.872
当り	0.872
て	0.872
▁width	0.872
:8	0.870
歯医者さんが作った	0.870
マー	0.870
訳あり	0.870
▁スイート	0.869
2012	0.869
▁箱サイズ	0.869
28°	0.869
程	0.869
違う	0.867
りの	0.867
注意事項	0.867
する	0.867
です	0.867
食べる	0.866
▁90	0.866
カット	0.866
▁「	0.865
▁K	0.865
世界	0.865
us	0.865
輸入	0.864
1,	0.864
ア	0.864
P	0.864
▁0	0.864
決	0.863
サン	0.863
×25	0.863
難	0.863
イチゴ	0.863
re	0.863
▁クッキー	0.863
BOX	0.861
▁発送	0.861
をご確認ください	0.861
▁砂糖	0.860
商品が	0.860
方は	0.860
ク	0.859
包	0.858
▁b	0.856
冷凍	0.856
▁乳	0.855
アルコール	0.855
になった	0.855
入れ	0.854
愛	0.853
☆	0.853
▁110	0.853
さらに	0.852
金	0.851
着色料	0.851
乳脂肪	0.850
気	0.849
▁10	0.846
各	0.845
l	0.845
0	0.844
i	0.842
▁font	0.840
▁◆	0.838
px	0.836
ュア	0.835
のものを	0.835
砂糖漬け	0.835
メーカー欠品	0.835
頃の	0.835
祖	0.835
遺伝子組	0.835
アステカ	0.835
掴	0.835
残す	0.835
でカラフルな	0.835
尊	0.835
奉	0.835
る事がございます	0.835
逸	0.835
残らない	0.835
ナトリ	0.835
凹	0.835
捧	0.835
」!	0.835
とミルクの	0.835
めこ	0.835
釜	0.835
を通	0.835
奈	0.835
別々に	0.835
冷暗所で	0.835
送迎	0.835
17-	0.835
貢献	0.835
喫	0.835
(193	0.835
こしあん	0.835
だけのオリジナル	0.835
らかな	0.835
かけて仕上げた逸品です	0.835
容赦	0.835
河	0.835
ロウィ	0.835
運送	0.835
で愛され続ける	0.835
砂糖や	0.835
しない場合	0.835
惹	0.835
口解け	0.835
弟	0.835
にお送り	0.835
荻	0.835
を豊富に	0.835
敬	0.835
本製品は	0.835
喉	0.835
▁マースジャパン	0.835
▁193	0.835
抹茶生チョコレート	0.835
チョコで包みました	0.835
325	0.835
クラッ	0.835
ハーシーの代表格	0.835
正月	0.835
IRKLAND	0.835
新鮮な生クリームと	0.835
十分な	0.835
が良い	0.835
ステル	0.835
偽	0.835
━━━━━━━━━━━━━━━━━━━━━━	0.835
を描いた	0.835
iss	0.835
キュール	0.835
らしい独特の香りと風味は	0.835
長い歴史	0.835
庭	0.835
鮮	0.835
▁マスコット	0.835
しっとり濃厚	0.835
商品出荷	0.835
3-8	0.835
仕上がった	0.835
をさ	0.835
メールを	0.835
>【2	0.835
頃の感謝	0.835
彷彿	0.835
興味を	0.835
橙	0.835
部で	0.835
ココアパウダーをたっぷりと	0.835
旗	0.835
俵	0.835
・・・14	0.835
は若干	0.835
個包装タイプ	0.835
お早目	0.835
7×3	0.835
リーダイヤル	0.835
嗜	0.835
イスト	0.835
落	0.835
▁パラ	0.835
有限会社自然館	0.835
ゲランドの塩	0.835
愕	0.835
被	0.835
相当量	0.835
SI	0.835
ブレット	0.835
工場を	0.835
ける事	0.835
二次	0.835
庵	0.835
登	0.835
害はありません	0.835
ゾート	0.835
カバー	0.835
▁ベストバラエティ	0.835
賑	0.835
いん	0.835
(22	0.835
の個包装タイプ	0.835
渡す	0.835
無料でお	0.835
環	0.835
ほろ苦いココアパウダー	0.835
アレルギー特定原材料	0.835
▁対応のブラウザで	0.835
にじっくり	0.835
鹿児	0.835
散らしました	0.835
▁ココアの	0.835
ーンの	0.835
-010	0.835
解凍してからお召し上がりください	0.835
(63	0.835
カレミルク	0.835
乙	0.835
勲	0.835
ナック	0.835
ッカー	0.835
軽快	0.835
プリントした	0.835
▁さく	0.835
墨	0.835
▁世界中で愛されている	0.835
無料でお付け	0.835
28%	0.835
・・・25	0.835
が遅れますと	0.835
條	0.835
池ノ上ピエール	0.835
を除き	0.835
浪	0.835
巷	0.835
ヶ月以上の	0.835
文責	0.835
媛	0.835
某	0.835
炎症	0.835
勤	0.835
はこちらをクリック	0.835
をお掛け	0.835
スキー	0.835
溶けやすくなっております	0.835
拓	0.835
世界に一つ	0.835
発展	0.835
固めた	0.835
クイズ	0.835
製造した	0.835
っちり	0.835
十勝	0.835
頂ければ幸いです	0.835
散ら	0.835
×55	0.835
滅	0.835
バリー	0.835
の種類は	0.835
哲	0.835
耐	0.835
とお考え	0.835
シールを	0.835
商品の特性	0.835
名称チョコレート	0.835
ジュエリー	0.835
ハンドメイド	0.835
面倒	0.835
パッ	0.835
▁エン	0.835
をお選びいただけます	0.835
徳	0.835
ナモン	0.835
257	0.835
苑	0.835
まねきねこと招福	0.835
ほの	0.835
康	0.835
午前	0.835
▁チョコ好き	0.835
絹	0.835
▁お花	0.835
▁お支払い	0.835
優れ	0.835
マガ	0.835
自然館	0.835
痕	0.835
廻	0.835
還	0.835
の時期	0.835
ブータン	0.835
奪	0.835
やお祝い	0.835
免	0.835
さけ	0.835
澄	0.835
漫	0.835
商品番号	0.835
ぜひ一度ご賞味ください	0.835
▁46	0.835
発送までに	0.835
北区	0.835
/18	0.835
安く	0.835
こちらの商品はご	0.835
里	0.835
帆船を形どった	0.835
3-5	0.835
ミテッド	0.835
JAN	0.835
選んで	0.835
惣	0.835
▁カラ	0.835
2-2	0.835
他の冷凍商品と	0.835
235	0.835
馥郁	0.835
鑽	0.835
β	0.835
午前中	0.835
乱	0.835
13.5	0.835
パラチノース	0.835
--------	0.835
抜き	0.835
包まれています	0.835
弊	0.835
各国	0.835
のみとなります	0.835
\\	0.835
ani	0.835
癖	0.835
引っ	0.835
メキシコ	0.835
示	0.835
座	0.835
ケイ	0.835
348	0.835
生産しています	0.835
メッセージカードを	0.835
▁イエロー	0.835
クレー	0.835
▁東	0.835
▁指定	0.835
憩	0.835
を通して	0.835
爽快	0.835
諸島	0.835
袋を	0.835
×29	0.835
正しい	0.835
エリー	0.835
子供の日	0.835
▁クラ	0.835
沸騰	0.835
生クリームチョコレート	0.835
伯方の塩	0.835
緻	0.835
童	0.835
緊	0.835
律	0.835
躍	0.835
・・・11	0.835
▁アソートチョコ	0.835
頂ければ	0.835
るだけで	0.835
ローマ	0.835
----	0.835
▁ボトル	0.835
▁まろやか	0.835
中で愛	0.835
加糖脱脂	0.835
以外は	0.835
由緒	0.835
のミルクチョコ	0.835
やか苺	0.835
リカリ	0.835
▁メルティーキッス	0.835
生チョコです	0.835
ウェーデン	0.835
▁などの	0.835
することもできます	0.835
▁酸味料	0.835
得した	0.835
咲	0.835
ティエ	0.835
果実酒	0.835
ドレーヌ	0.835
微妙	0.835
途上国の	0.835
:21	0.835
決定	0.835
肥	0.835
time	0.835
元に	0.835
抹茶を	0.835
々な	0.835
斑	0.835
印象	0.835
敬老	0.835
赤ビート色素	0.835
弛	0.835
をプラスして	0.835
へと	0.835
馬鈴薯	0.835
がたっぷり入った	0.835
食感が楽しめます	0.835
糊	0.835
マカロン	0.835
年の創業以来	0.835
が可能	0.835
ことができる	0.835
.5×19	0.835
ハッピーな	0.835
▁プチギフトサイズ	0.835
はイメージ	0.835
に包まれて	0.835
:0120-0	0.835
一口タイプ	0.835
4.2	0.835
包装済	0.835
2.2	0.835
多湿をさけて	0.835
)...	0.835
ピーナッツチョコレート	0.835
ハートの	0.835
を表現	0.835
央	0.835
ディスプレイ	0.835
自然が	0.835
一律	0.835
▁名糖産業	0.835
の文字	0.835
▁ハート型	0.835
の仕	0.835
にてお届けさせて頂きます	0.835
垣	0.835
送料の	0.835
落花生を含む製品を製造しています	0.835
英字	0.835
ラミ	0.835
分の送料	0.835
繋	0.835
乳等を主	0.835
▁カリッとした	0.835
属	0.835
バーグ	0.835
氷	0.835
色鮮やかな	0.835
をまるごと	0.835
バニラ味	0.835
▁×5	0.835
象	0.835
の生チョコレートです	0.835
幼	0.835
カシス	0.835
特産品	0.835
詳しくはこちらをご覧ください	0.835
あす	0.835
さり	0.835
ガス	0.835
ビス	0.835
ングチョコ	0.835
ご注文の際は	0.835
遣	0.835
プリコ	0.835
15°	0.835
▁インドネシア土産	0.835
▁目安	0.835
設定	0.835
検索	0.835
才	0.835
AND	0.835
お問い合わせください	0.835
========	0.835
(25	0.835
込ませ	0.835
時期に	0.835
膨	0.835
▁上品	0.835
チョコレートが冷えると	0.835
オリジナルレシピ	0.835
16.5	0.835
▁56	0.835
巨	0.835
スタイ	0.835
妖艶なラムレーズン	0.835
んがり	0.835
:2012	0.835
ながらも	0.835
入りで	0.835
果た	0.835
仕上がり	0.835
全乳	0.835
練り込みました	0.835
原材料の一部に	0.835
きれい	0.835
純粋な	0.835
オレ	0.835
6、	0.835
▁幸せ	0.835
▁とろ	0.835
ベイ	0.835
▁あらかじめ	0.835
のスイス	0.835
愉	0.835
====	0.835
▁チョコトリュフ	0.835
成長	0.835
ご覧	0.835
おつまみ	0.835
早い者勝ち	0.835
柿	0.835
多少の	0.835
すと	0.835
▁商品について	0.835
我	0.835
▁大切な	0.835
.5×8	0.835
期間限定ポイント	0.835
極細	0.835
研	0.835
===	0.835
まれて	0.835
お客様に	0.835
傘	0.835
×105	0.835
クローバー	0.835
日発売	0.835
▁商品は	0.835
▁レース	0.835
▁敬老の日	0.835
延	0.835
▁700	0.835
豊富に	0.835
ET	0.835
表情	0.835
を詰めました	0.835
社名	0.835
に保存し	0.835
清潔	0.835
からのご注文	0.835
ココアマス	0.835
CE	0.835
紅花	0.835
ビスキュイ	0.835
フィル	0.835
究極の	0.835
に包まれた	0.835
ヨー	0.835
マリアージュ	0.835
▁本物の	0.835
円プラス	0.835
▁ルック	0.835
にはもちろん	0.835
を一切使用せず	0.835
原料の一部に大豆を含む	0.835
▁召し上がっても身体に	0.835
詳	0.835
▁ロング	0.835
入りです	0.835
プチギフトです	0.835
復	0.835
大島	0.835
▁純	0.835
入れて	0.835
φ	0.835
らかで	0.835
▁他にも	0.835
▁キス	0.835
▁様	0.835
北海道の	0.835
マラ	0.835
は冷蔵	0.835
徳用	0.835
ガルボ	0.835
感じる	0.835
ユニーク	0.835
これが	0.835
ぱく	0.835
なた	0.835
】「	0.835
当店より	0.835
演	0.835
みかん	0.835
リーミルク	0.835
種類を	0.835
サンドし	0.835
ひまわり油	0.835
低温	0.835
をフリーズドライ	0.835
▁保存方法直射日光	0.835
▁横浜	0.835
食べやす	0.835
控え	0.835
原産	0.835
ホワイトチョコと	0.835
載	0.835
パウダーを	0.835
が特徴	0.835
▁ぶどう糖	0.835
さし	0.835
プレッツェルの	0.835
新潟	0.835
涼しい場所で保存して下さい	0.835
▁いつでも	0.835
▁冬季限定	0.835
が香る	0.835
▁北海道銘菓	0.835
産業	0.835
粒を	0.835
せた	0.835
▁フル	0.835
給	0.835
×23	0.835
他の商品と	0.835
壁	0.835
15.5	0.835
社会	0.835
.31	0.835
▁シンプル	0.835
▁43	0.835
されているので	0.835
微	0.835
徴	0.835
口溶けの	0.835
/14	0.835
大な	0.835
崩	0.835
誰もが	0.835
▁チョコチップ	0.835
組合せ	0.835
セレクト	0.835
乳等を主要	0.835
のジャージー	0.835
含有	0.835
)6	0.835
▁下記	0.835
受	0.835
遅	0.835
育て	0.835
▁ペン	0.835
▁色	0.835
充	0.835
チョコバー	0.835
の指定	0.835
とミルク	0.835
観	0.835
してある	0.835
焼きチョコ	0.835
癖になる	0.835
145	0.835
携帯	0.835
の場所	0.835
チトール	0.835
当日	0.835
恵み	0.835
トレー	0.835
LI	0.835
▁メル	0.835
乳化剤を使わず	0.835
ine	0.835
▁形	0.835
ポスト	0.835
--	0.835
多彩な味わい	0.835
しょこら	0.835
入荷しました	0.835
まれる	0.835
検索用キーワード	0.835
離島は除きます	0.835
▁Y	0.835
はコチラから	0.835
アナトー色素	0.835
小さい	0.835
念	0.835
)×2	0.835
存分に	0.835
防止	0.835
▁ベリー	0.835
飯	0.835
を演出	0.835
。200	0.835
作られています	0.835
辛	0.835
のシンボル	0.835
▁カリフォルニア	0.835
婦	0.835
秘	0.835
引越し祝い	0.835
の発送となります	0.835
してお召し上がりください	0.835
お届けまで	0.835
包みました	0.835
フラ	0.835
味わいと	0.835
ぴったり	0.835
レッ	0.835
構造	0.835
パンプキン	0.835
染み	0.835
夕張メロン	0.835
アール	0.835
▁チョコの	0.835
ヒット	0.835
▁(2)	0.835
ミルクチョコと	0.835
▁マーブル	0.835
▁72	0.835
チョコレートに仕上げました	0.835
酵素	0.835
軽い食感の	0.835
▁マカダミアナッツを	0.835
を入	0.835
変わらず	0.835
除きます	0.835
135	0.835
嫌	0.835
メーカーです	0.835
▁一般	0.835
:65	0.835
直射日光や	0.835
冷暗所にて保存してください	0.835
せない	0.835
商品に記載	0.835
した場合	0.835
一度お試しください	0.835
エクセレント	0.835
冷蔵保存	0.835
アカシアガム	0.835
pH	0.835
負	0.835
しゃれな	0.835
輸入食品	0.835
ミルクチョコの	0.835
間違い	0.835
なじみの	0.835
▁き	0.835
▁【10	0.835
の商品との同梱	0.835
からお選び	0.835
ディー	0.835
▁ひと口	0.835
いろんな	0.835
原材料だけ	0.835
違います	0.835
形の	0.835
世界の	0.835
カカオニブ	0.835
▁香ばしく	0.835
がす	0.835
|	0.835
6-	0.835
▁ローフード	0.835
欠品	0.835
でしたら	0.835
を使用した設備で製造しています	0.835
お楽しみ	0.835
カラギナン	0.835
ISS	0.835
夕	0.835
ご理解	0.835
▁赤	0.835
不思議	0.835
での発送となります	0.835
▁340	0.835
バレンタインに	0.835
×27	0.835
位の	0.835
まわり	0.835
大人の味	0.835
分けて	0.835
どちら	0.835
仕立て	0.835
栽培された	0.835
考え	0.835
いろいろ	0.835
一粒一粒	0.835
希	0.835
のよい	0.835
フーズ	0.835
御用達	0.835
▁ご心配	0.835
をモチーフにした	0.835
伝統の	0.835
コンビネーション	0.835
分のみ	0.835
ゲ	0.835
▁ペ	0.835
IS	0.835
▁きな粉	0.835
こちらをご覧下さい	0.835
セラー	0.835
といわ	0.835
現地	0.835
伸	0.835
syou	0.835
月の	0.835
▁”	0.835
▁配	0.835
gx	0.835
調整剤	0.835
仲間	0.835
VA	0.835
×22	0.835
の甘酸っぱ	0.835
卵黄	0.835
可愛	0.835
安心です	0.835
18°	0.835
ウコン	0.835
hin	0.835
オレンジの	0.835
合わ	0.835
酸化	0.835
かわい	0.835
▁一口	0.835
送料を	0.835
をミルクチョコレート	0.835
の生チョコレート	0.835
しょ	0.835
イラスト	0.835
▁激安	0.835
ほか	0.835
広がり	0.835
GO	0.835
時間を	0.835
ボンボン	0.835
徹	0.835
完成	0.835
▁グアムお土産	0.835
▁グアムみやげ	0.835
持	0.835
▁グアムおみやげ	0.835
に関して	0.835
コーヒーパウダー	0.835
▁口	0.835
:00〜	0.835
やケーキ	0.835
虫歯菌	0.835
一覧はコチラ	0.835
思わず	0.835
のお届けとなります	0.835
▁ハート	0.835
都合により	0.835
新登場	0.835
リッチな	0.835
ホエイ	0.835
率	0.835
キティ	0.835
なんと	0.835
かり	0.835
をチョコレート	0.835
ベルギー産	0.835
古	0.835
有名な	0.835
ものです	0.835
980	0.835
▁チロルチョコ	0.835
柄	0.835
を見	0.835
いつ	0.835
入れた	0.835
登録	0.835
自動	0.835
わず	0.835
けます	0.835
お届けについて	0.835
盛り	0.835
スター	0.835
ラム	0.835
用に	0.835
▁一粒	0.835
>※	0.835
通常の	0.835
優勝	0.835
味わいの	0.835
両	0.835
アーモンドペースト	0.835
くて	0.835
ュ	0.835
国際	0.835
円で	0.835
能	0.835
に関する	0.835
予めご了承くださいませ	0.835
溶	0.835
発注	0.835
基準	0.835
▁ホワイトチョコ	0.835
を使用し	0.835
賞味期限が	0.835
ヘ	0.835
ブドウ糖	0.835
味わえる	0.835
度以下で保存してください	0.835
たくさん	0.835
会社	0.835
リンゴ	0.835
再	0.835
▁600	0.835
:2013	0.835
などにも	0.835
一緒に	0.835
もお	0.835
かけ	0.835
チョコに	0.835
っても	0.835
▁こ	0.835
がある	0.835
精	0.835
卵白	0.835
;}	0.835
低	0.835
はお	0.835
パーティー	0.835
▁エネルギー	0.835
その他	0.835
の中に	0.835
ku	0.835
以下の涼しい場所	0.835
チョコを	0.835
付き	0.835
.6	0.835
を使用	0.835
感	0.835
食べ	0.835
16	0.835
?	0.835
ヘーゼルナッツ	0.835
〜	0.835
み	0.828
個入り	0.826
よう	0.826
キ	0.825
購入	0.824
f	0.823
お届け	0.823
on	0.823
▁チョコレート	0.822
ten	0.822
ゴ	0.822
油	0.820
6	0.820
お土産	0.820
でも	0.819
-	0.818
ぎ	0.817
賞味期限	0.817
×2	0.817
▁アイ	0.816
クール	0.815
/	0.815
店舗	0.813
パーティ	0.813
料金	0.813
よく	0.813
ブルー	0.813
頂けます	0.813
金額	0.811
ワ	0.810
館	0.809
かな	0.809
ます	0.809
ロー	0.807
だけで	0.807
特別	0.806
“	0.806
イ	0.806
、10	0.805
麦芽糖	0.805
old	0.805
っている	0.805
48	0.804
80	0.804
	0.804
で保管してください	0.803
▁⇒	0.803
風味	0.802
よ	0.802
▁150	0.802
のご案内	0.802
カプチーノ	0.802
72	0.802
れた	0.802
ご注意	0.801
利用	0.800
ブルーベリー	0.800
クリームを	0.800
。「	0.799
れば	0.799
の商品は	0.799
ので	0.798
ランド	0.798
ぐ	0.798
食感	0.798
♪♪	0.797
広	0.797
成分	0.797
形	0.797
▁シンガポール	0.797
美味しい	0.797
text	0.796
left	0.794
一口サイズ	0.793
ったり	0.793
実現	0.793
勧め	0.793
アレルギー表示	0.793
食べて	0.793
について	0.792
の大きさ	0.791
申し	0.791
リエ	0.791
CO	0.789
よりの	0.789
千	0.789
▁★	0.788
n	0.788
▁500	0.787
分け	0.786
になりました	0.786
生活	0.786
混ぜ	0.786
出産	0.786
1,470	0.786
:20	0.786
昔	0.786
ウエハース	0.786
ん	0.785
場	0.785
:4	0.784
のうえ	0.783
入った	0.783
めら	0.783
se	0.783
タルト	0.783
差	0.783
たり	0.783
すぐに	0.783
a	0.782
頂き	0.781
オレンジ	0.781
手作り	0.781
合	0.781
確認	0.781
ダ	0.780
バター	0.780
▁チョコレートは	0.780
詳しくは	0.780
してお	0.780
昇	0.780
▁SPEC	0.780
酸味が	0.780
▁ウィ	0.780
土	0.780
高温多湿を避けて	0.780
同	0.780
白	0.779
ホワイトデー	0.779
(4	0.778
予定	0.778
が多い	0.776
トルコ	0.776
しまいます	0.776
まだ	0.776
エン	0.776
ご覧ください	0.776
▁カカオ豆	0.776
▁割れチョコ	0.776
調理	0.776
ですよ	0.776
ニ	0.774
終了	0.774
ました	0.774
たち	0.773
ナッツの	0.773
12	0.773
その	0.772
!	0.771
ハワイの	0.771
ワッフル	0.771
42	0.771
させ	0.771
ローズ	0.771
手軽	0.771
たけのこの里	0.771
▁上	0.771
5×	0.771
にく	0.771
完了	0.771
▁期間限定	0.771
グラン	0.771
らしく	0.771
消	0.771
に保管	0.771
との	0.771
R	0.771
お客様	0.771
▁n	0.771
ミング	0.768
割れ	0.768
weight	0.768
#	0.768
トリュフ	0.768
満足	0.768
パフ	0.768
g	0.767
D	0.767
職人	0.766
リュ	0.766
いっ	0.766
りとした	0.766
▁125	0.766
のフルーツ	0.766
さわやかな	0.766
▁購入	0.766
間違いなし	0.766
が御座います	0.766
さんに	0.766
酸化チタン	0.766
×8	0.766
少し	0.766
あらかじめ	0.766
園	0.766
きな粉	0.766
イタリア	0.764
フルーツ	0.763
ごま	0.763
チーズケーキ	0.763
原材料	0.762
上	0.761
められた	0.759
混	0.759
270	0.759
を使い	0.759
農薬	0.759
雅	0.759
気分	0.759
となって	0.759
700	0.759
とチョコレートの	0.759
甘く	0.759
コメント	0.759
の中で	0.759
収穫	0.759
▁クレジット	0.759
ウンテン	0.759
▁チョコレートと	0.759
常に	0.759
健	0.759
便利	0.759
湿気	0.759
チン	0.759
身	0.759
(20	0.759
ーン	0.759
感が	0.759
ブルックサイド	0.759
が入った	0.759
全て	0.759
のチョコレートを	0.759
をお楽しみください	0.759
an	0.758
ゼラチン	0.758
買い	0.757
リン	0.757
▁お菓子	0.756
クリームチーズ	0.756
願い	0.756
シェ	0.756
食べやすい	0.756
最大	0.756
bottom	0.756
されている	0.756
実	0.755
BR	0.754
タ	0.754
膨脹剤	0.754
を使った	0.754
近	0.754
ミニ	0.754
当店	0.752
いう	0.752
のパ	0.752
▽	0.752
乗	0.752
に保管してください	0.752
クチ	0.752
ヨン	0.752
であり	0.752
▁なお	0.752
▁無	0.752
お届けとなります	0.752
をご堪能ください	0.752
豆乳	0.752
果物	0.752
の形をした	0.752
種類は	0.752
‘	0.752
▁ハイ	0.752
トッピング	0.752
夫	0.752
お友達	0.752
ヨ	0.752
付けて	0.752
▁シ	0.752
▁M	0.752
内容量	0.750
ること	0.750
なら	0.750
また	0.750
直	0.749
地域	0.749
180	0.748
〉	0.747
〜12	0.747
の中には	0.747
クリスプ	0.747
お願いします	0.747
▁製造	0.747
食べた	0.747
向	0.747
国	0.747
”	0.747
10	0.745
▁容	0.745
ル	0.743
大好評	0.742
ゲスト	0.742
かつ	0.742
アロマ	0.742
ちょっぴり	0.742
でしか	0.742
をブレンド	0.742
▁国	0.742
要望	0.742
イス	0.742
新築祝い	0.742
▁もちろん	0.742
を防	0.742
跡	0.742
900	0.742
意味	0.742
工房	0.742
少ない	0.742
▁個包装	0.742
佳	0.742
イアント	0.742
冷暗所に保存してください	0.742
せず	0.742
にもピッタリ	0.742
一人	0.742
▁オレンジピール	0.742
▁マシュマロ	0.742
継	0.742
ソフトな	0.742
旅	0.742
豊富な	0.742
開店祝い	0.742
をした	0.742
チェ	0.742
続けている	0.742
式	0.742
と言	0.742
楽しんで	0.742
りんご	0.742
ト	0.742
:0	0.741
▁商品	0.741
サ	0.741
▁●	0.740
クリーム	0.740
▁>	0.739
等は	0.739
の味を	0.739
場合	0.738
▁まろやかな	0.737
▁栄養成分	0.737
さと	0.737
▁食べ	0.737
爽やかな	0.737
うち	0.737
one	0.736
ackground	0.736
ご利用	0.736
▁カカオマス	0.736
でき	0.736
)<	0.735
▁オーストリア	0.735
入っています	0.735
良く	0.735
受注	0.734
.	0.733
業務用	0.733
時に	0.733
▁アレルギー	0.732
ス	0.732
▁日本製	0.731
▁490	0.731
▁3,	0.731
プリント	0.731
::	0.731
パッケージでお届けします	0.731
み出すチョコレート作り	0.731
ますよう	0.731
40%	0.731
よろしく	0.731
初の	0.731
▁粉	0.731
いたしかねます	0.731
との思いが込められた味わいは世界	0.731
評判	0.731
贅を尽くし独自の味を生	0.731
をふんだんに使った	0.731
作ら	0.731
にて保管	0.731
更	0.731
奥深い	0.731
コンビニ決済	0.731
硬	0.731
検索キーワード	0.731
ラード	0.731
差し上げます	0.731
なお子様	0.731
歳	0.731
溶かして	0.731
みてください	0.731
をおすすめいたします	0.731
ガトーショコラ	0.731
余ヶ国の人々に愛されています	0.731
▁みんな	0.731
パイナップル	0.731
いちご味	0.731
▁ムース	0.731
だし	0.731
幅広	0.731
頂戴	0.731
チロル	0.731
をミルクチョコ	0.731
お支払い	0.731
乾燥いちご	0.731
によって異なります	0.731
いま	0.731
連	0.731
商品内容	0.731
コクと	0.731
)1	0.731
かけて	0.731
▁配送タイプ	0.731
170	0.731
多い	0.731
ものが	0.731
もちろん	0.731
いただいた	0.731
る場合があります	0.731
プロ	0.731
でのお届けとなります	0.731
代	0.731
ツ	0.729
増粘剤	0.727
ケア	0.727
いい	0.727
OFF	0.727
冷蔵庫で	0.726
パティシエ	0.726
▁バ	0.726
13】	0.726
1	0.726
ge	0.726
▁color	0.724
シエ	0.724
67	0.724
御中元	0.724
▁MEMO	0.724
複数	0.724
発送	0.724
製造	0.723
▁ブランド	0.722
の景品	0.721
入学	0.721
▁おすすめ	0.721
▁ティムタム	0.721
ビ	0.721
▁カ	0.720
pc	0.720
酸味	0.720
×30	0.720
早	0.720
粒入り	0.719
ヶ月	0.718
はお届け	0.716
▁風味豊かな	0.716
▁大切	0.716
専門	0.716
販売元	0.716
ている	0.716
ートリュフ	0.716
連続	0.716
甘みと	0.716
450	0.716
伝え	0.716
いちごの	0.716
禁	0.716
ちら	0.716
楽しめ	0.716
品質には問題	0.716
▁47	0.716
中でも	0.716
しかねます	0.716
ハーフ	0.716
ちな	0.716
しくな	0.716
がかわいい	0.716
卒業祝い	0.716
:25	0.716
知られる	0.716
マッチした	0.716
社製	0.716
ストラップ	0.716
▁レッド	0.716
▁豊かな	0.716
の名	0.716
▁チョコボール	0.716
マカダミアナッツを	0.716
▁健康	0.716
×70	0.716
マリー	0.716
客	0.716
などにお	0.716
ショッピング	0.716
未	0.716
れない	0.716
堪能	0.716
▁35	0.716
ミニサイズ	0.716
▁アル	0.716
ュー	0.716
40、	0.716
納期	0.716
申し訳ございませんが	0.716
たっぷりの	0.716
hi	0.716
トリュフチョコ	0.716
第	0.716
コーヒー	0.714
可能	0.714
▁ハワイアンホースト	0.713
ワイン	0.713
ロ	0.713
、1	0.712
:9	0.711
まり	0.711
買	0.711
プラリネ	0.711
台	0.710
▁グリーン	0.710
▁当店では	0.710
丸ごと	0.710
となっております	0.710
イン	0.709
it	0.709
▁ア	0.709
入り	0.709
商品名	0.709
!(	0.709
〜2	0.709
本	0.707
いつい	0.707
感じられる	0.707
のサクサク	0.707
店長	0.707
男	0.707
加工でん粉	0.707
:0120	0.707
となる	0.707
室温	0.707
せて	0.707
エントリー	0.707
のない	0.707
緑	0.707
チョコクリーム	0.707
ap	0.707
ご確認ください	0.707
花	0.707
記念日	0.707
もあります	0.707
×20	0.707
シリーズ	0.707
チ	0.707
y	0.705
ハート	0.705
米	0.704
粉	0.704
ミルクチョコレート	0.704
日以内	0.703
にピッタリ	0.703
現	0.703
チャ	0.703
を含	0.703
マス	0.703
パイ	0.703
濃厚な	0.703
13	0.702
ゆ	0.702
▁1,	0.702
色素	0.701
時間	0.700
ブ	0.700
入	0.700
バニラ	0.699
▁ハワイアン	0.699
フランス	0.698
どう	0.696
爽	0.696
ジェル	0.696
▁優	0.696
マーブルチョコ	0.696
470	0.696
涼しい	0.696
曲	0.696
イヤ	0.696
▁各種	0.696
ゴールデン	0.696
パク	0.696
フィス	0.696
食べたら	0.696
にこだわり	0.696
を配合	0.696
:28	0.696
によっては	0.696
購読	0.696
やわらかくな	0.696
ベースに	0.696
申し上げます	0.696
▁くまのプーさん	0.696
卒	0.696
ご賞味	0.696
を応援	0.696
▁クラシック	0.696
市中区	0.696
浮	0.696
月はクール便での発送になります	0.696
で食べられる	0.696
▁ピュア	0.696
AM	0.696
布	0.696
食べられる	0.696
ホワイトチョコレートと	0.696
糖衣	0.696
ユー	0.696
感あふれる	0.696
期間中	0.696
▁(100	0.696
豚脂	0.696
口いっぱいに広がります	0.696
レート	0.696
直径約	0.696
どれ	0.696
ハッピー	0.696
を生かした	0.696
▁プラフィーユショコラ	0.696
▁スニッカーズ	0.696
月中旬	0.696
キーズ	0.696
濃厚で	0.696
りが	0.696
▁ペルー	0.696
:17	0.696
生まれ	0.696
飲料	0.696
▁中	0.696
ご了承下さいませ	0.696
特徴	0.696
残	0.696
×2.5	0.696
にして	0.696
特価	0.696
とうきびチョコ	0.696
▁25	0.696
×4	0.696
塩	0.694
予めご了承下さい	0.694
れ	0.693
▁margin	0.693
▁p	0.692
高温多湿	0.691
▁直射日光を避け	0.691
ペクチン	0.690
のチョコレートが	0.690
お届け方法	0.690
56	0.690
lo	0.690
含む	0.690
▁☆	0.690
RCP	0.690
セール	0.689
パン	0.689
▁1	0.689
離島	0.689
修正	0.688
ロール	0.688
然	0.688
アーモンドチョコ	0.688
希少	0.688
▁なめらかな	0.688
▁70	0.688
ホールセールジャパン株式会社	0.688
ネスレ	0.688
出て	0.686
▁小麦粉	0.686
17	0.685
e	0.684
エッセ	0.683
職	0.683
比べて	0.683
在	0.683
などで	0.683
香辛料	0.683
郎	0.683
お楽しみ下さい	0.683
オーストラリアお土産	0.683
キュ	0.683
▁栄養成分表示	0.683
冷や	0.683
並	0.683
バラ	0.683
苺	0.683
オ	0.683
▁その他	0.682
ン	0.681
冷凍庫	0.681
メッセージカード	0.681
▁to	0.681
製造者	0.681
いたします	0.680
ほろ苦い	0.679
小麦を含む	0.679
判	0.679
センチ	0.679
:100	0.679
箱入り	0.679
(12	0.679
パック	0.679
グアム	0.678
190	0.676
米粉	0.676
麦芽エキス	0.676
▁ミルクチョコレート	0.676
▁:	0.675
のお土産	0.675
赤	0.674
とても	0.674
他	0.674
口溶け	0.674
▁c	0.673
s	0.672
ミ	0.671
▁ダブル	0.668
お届けすること	0.668
以	0.668
化物	0.668
able	0.668
も可能です	0.668
までのご注文で	0.668
物質	0.668
熟成	0.668
ヴィク	0.668
組み合わせました	0.668
▁消費期限	0.668
喜ばれ	0.668
・・・7	0.668
ハート型の	0.668
裕	0.668
すれば	0.668
などを	0.668
▁モカ	0.668
▁食	0.668
▁ひ	0.668
▁315	0.668
ミルクカルシウム	0.668
作です	0.668
棒	0.668
じゃない	0.668
拡	0.668
-15	0.668
につきまして	0.668
練りこんだ	0.668
森永	0.668
則	0.668
▁オセアニア	0.668
▁正栄デリシィ	0.668
を引き立てる	0.668
ゴマ	0.668
ハートチョコ	0.668
▁ドライ	0.668
ベルギーの	0.668
ゴンチャロフ	0.668
▁バラエティ	0.668
促	0.668
▁今なら	0.668
遊び	0.668
ピース	0.668
限定品	0.668
入りチョコレート	0.668
アルコールに弱い	0.668
いかが	0.668
▁おっぱいチョコ	0.668
装	0.668
ずき	0.668
いかがでしょうか	0.668
がつ	0.668
▁直射日光及び	0.668
空気	0.668
▁用途	0.668
生チョコの切れ端	0.668
クリア	0.668
楽しんでいただける	0.668
挽	0.668
まい	0.668
な価格	0.668
便利です	0.668
個別	0.668
コンビ	0.668
▁トレ	0.668
ネコヤマト	0.668
返信	0.668
▁となります	0.668
▁フルタ	0.668
から生まれた	0.668
大好きな	0.668
舌触	0.668
▁お友達	0.668
容器	0.668
配送便	0.668
する場合	0.668
デル	0.668
炭酸	0.668
ゴリ	0.668
パッケージデザイン	0.668
が入	0.668
召し上がって	0.668
】2	0.668
:150	0.668
糖類	0.668
じっくり	0.668
それが	0.668
門	0.668
▁常温保存	0.668
:22	0.668
但し	0.668
製糖	0.668
子様	0.668
▁販売	0.668
牛	0.668
きのこ	0.668
11-	0.668
クーベルチュールチョコレート	0.668
がポイント	0.668
経験	0.668
に入れて	0.668
健康	0.668
ボリューム	0.668
▁ギフト対応について	0.668
セットです	0.668
無料	0.668
商品と	0.668
(2	0.668
在庫	0.668
別途	0.668
デザート	0.665
個あたり	0.664
酸	0.664
入りの	0.662
高級	0.662
酒	0.661
スティック	0.661
義理チョコ	0.661
になる	0.661
ハーシー	0.660
▁ク	0.660
飾	0.659
ホテル	0.659
ーズ	0.659
好	0.659
しておりません	0.659
in	0.659
総額	0.658
につきましては	0.658
》	0.657
で約	0.656
次	0.656
つの	0.656
、3	0.656
声	0.656
化	0.656
de	0.656
北海道	0.655
なし	0.655
メーカー	0.653
height	0.653
99	0.652
item	0.652
ソ	0.652
ショートニング	0.652
si	0.651
▁	0.650
買い物	0.650
▁キットカットミニ	0.650
奥	0.650
▁甘酸っぱい	0.650
無機塩	0.650
トリュフチョコレートは	0.650
りん	0.650
フィンガー	0.650
ご確認	0.650
ことで	0.650
いもの	0.650
お腹	0.650
有り	0.650
ホル	0.650
ポート	0.650
午	0.650
のおいしさを	0.650
豊	0.650
ノンシュガー	0.650
な味わいの	0.650
申し訳	0.650
粋	0.650
ントリュフ	0.650
は世界	0.650
おまけ	0.650
洋の	0.650
簡単に	0.650
便利な	0.650
ンス	0.650
メロン	0.650
分が	0.650
▁お歳暮	0.650
カル	0.650
マシュマロ	0.650
ti	0.650
▁30	0.650
▁ベルギー	0.647
または	0.647
▁いちご	0.647
ベル	0.646
配	0.645
本格	0.645
営業日	0.645
下さいませ	0.645
醤油	0.645
冷暗所	0.645
▁ハーシー	0.645
50%	0.645
▁ヘーゼルナッツ	0.644
m	0.643
見た目も	0.642
なのに	0.642
自慢	0.642
うれしい	0.642
沢	0.642
▁長	0.642
の状態	0.642
短くなります	0.642
際は	0.642
)11	0.642
▁ナポリタン	0.642
芳醇な	0.642
のに	0.642
手間	0.642
明治製菓	0.642
▁ガ	0.642
値段	0.642
チョコと	0.642
ガナッシュ	0.642
カカオ分	0.642
フェ	0.640
からの	0.640
香り	0.640
バー	0.640
▁袋	0.639
承ります	0.639
入って	0.639
かない	0.639
id	0.639
激	0.639
ter	0.639
kcal	0.638
ザ	0.637
クルミ	0.636
を開	0.636
▁お支払い方法	0.636
しく	0.636
解凍	0.636
で包んだ	0.635
に保存してください	0.635
ご了承くださいませ	0.635
等	0.634
ight	0.634
▁45	0.634
ピスタチオ	0.634
36	0.632
▁輸入者	0.632
ませ	0.632
チョコは	0.630
(3	0.630
▁事	0.626
羊羹	0.626
かじ	0.626
乳清	0.626
ug	0.626
白の	0.626
提	0.626
程よい甘さ	0.626
▁ウエディング	0.626
▁ミルキー	0.626
ブルーの	0.626
さつまいも	0.626
を食べ	0.626
チョコレートギフト	0.626
開催中	0.626
▁記念	0.626
お花見	0.626
個入りはこちら	0.626
込めて	0.626
模	0.626
みませんか	0.626
化粧箱	0.626
おいしさの	0.626
システム上	0.626
明記	0.626
EY	0.626
治	0.626
でお届け致します	0.626
めで	0.626
協力	0.626
。★	0.626
▁10000	0.626
加糖	0.626
030	0.626
特徴です	0.626
76	0.626
の誤差が生じ	0.626
ることで	0.626
どこでも楽しめる	0.626
▁まろやかで	0.626
ブック	0.626
▁未開封	0.626
ソルビ	0.626
2-1	0.626
見本	0.626
静	0.626
はイメージです	0.626
しゃれで	0.626
グラス	0.626
践	0.626
扱い	0.626
しっとりとした	0.626
▁フランス製	0.626
/6	0.626
通信	0.626
▁ローカー	0.626
>【1	0.626
っし	0.626
スナック	0.626
料金表	0.626
デザ	0.626
ピッタリ	0.626
の約	0.626
絶妙に	0.626
▁カリッと	0.626
ウエ	0.626
▁スナック	0.626
果糖液糖	0.626
090	0.626
きん	0.626
09	0.626
スリ	0.626
マカダミアを	0.626
バーです	0.626
ナッツを	0.626
苦手	0.626
▁ヤマト	0.626
44	0.626
がありますので	0.626
▁別途	0.626
珍しい	0.626
縁	0.626
全乳粉	0.626
かした	0.626
枚セット	0.626
を開けると	0.626
仕上が	0.626
スタイル	0.626
スの	0.626
est	0.626
オススメです	0.626
(21	0.626
6.5	0.626
】★	0.626
わい	0.626
重さ	0.626
ことができます	0.626
しかも	0.626
異な	0.626
中で	0.626
黒砂糖	0.626
マカ	0.626
低脂肪ココア	0.626
▁HERSHEY	0.626
コラボ	0.626
御座	0.626
ックス	0.626
転	0.626
レモンパウダー	0.626
記念品	0.626
さに	0.626
▁タイ土産	0.626
カプリコ	0.626
5,250	0.626
わけあり	0.626
ちゃいます	0.626
銀	0.626
溢れる	0.626
喜んで	0.626
アーモンドと	0.626
限定販売	0.626
麺	0.626
▁t	0.626
くれる	0.626
別途送料	0.626
▁クーベルチュール	0.626
暑中	0.626
(14	0.626
簡易包装	0.626
パッケージに	0.626
(7	0.626
▁40	0.626
独自の	0.626
美しい	0.626
写真	0.626
たんぱく質	0.626
アン	0.626
られる	0.626
おります	0.626
ai	0.626
他の	0.626
原材料名	0.626
▁{	0.623
if	0.621
でお届けします	0.621
種セット	0.620
マカダミアナッツ	0.620
木	0.620
格	0.620
サイズの	0.619
▁販売元	0.619
ディ	0.618
製	0.618
▁生チョコ	0.617
タン	0.617
団	0.617
価	0.617
バ	0.617
ダーク	0.617
▁原産国	0.617
af	0.615
▁高級	0.615
の引き出物	0.615
▁味加久	0.615
▁089-921-4034)	0.615
29	0.615
カカオバター	0.615
最	0.614
夏季	0.614
牛乳	0.614
,	0.613
バニリン	0.613
▁お試し	0.613
日以降	0.613
トレ	0.613
:200	0.613
OCO	0.613
消費	0.613
▁ぜひ	0.613
喜	0.613
林檎	0.613
モカ	0.613
ビートレッド	0.612
ソー	0.612
トレハロース	0.612
あす楽対応商品	0.612
▁チョコ	0.612
保存方法	0.612
na	0.612
とっても	0.611
:10	0.611
ボックス	0.611
▁#	0.611
】(	0.610
になっています	0.610
GODIVA	0.610
と言われています	0.607
の日	0.607
信	0.607
カラ	0.607
ダブル	0.607
食べられます	0.607
を集	0.607
送料無料になります	0.607
まま	0.607
になっている	0.607
大アレルゲン	0.607
幻	0.607
▁ご注文は	0.607
:40	0.607
▁ケーキ	0.607
炭水化物	0.607
詳細	0.607
変わ	0.607
iv	0.606
=	0.605
用品	0.603
減	0.603
入学祝い	0.603
異なります	0.603
プラ	0.603
でお届けいたします	0.603
後の	0.601
130	0.601
をお選び	0.600
▁送料について	0.600
▁line	0.600
▁別途商品ラベルに記載	0.600
ート	0.598
在庫が	0.597
12.5	0.597
360	0.597
▁上品な	0.597
長さ	0.597
リッチな味わい	0.597
ただ	0.597
爆発	0.597
になると	0.597
×45	0.597
ぁ	0.597
▁バターオイル	0.597
いただきますと	0.597
豊富	0.597
に含まれる	0.597
思い出	0.597
(28	0.597
かわいらしい	0.597
.7%	0.597
▁店長	0.597
といった	0.597
展	0.597
▁大粒の	0.597
IT	0.597
冷蔵庫に	0.597
ミルクチョコレートを	0.597
のカカオ	0.597
退職	0.597
飛	0.597
オニ	0.597
因	0.597
縮	0.597
市場	0.597
ブーケ	0.597
ホール	0.597
パッケージも	0.597
▁紅茶	0.597
日前	0.597
テレビ	0.597
モンド	0.597
いため	0.597
パワー	0.597
こだわりました	0.597
の追加	0.597
、、	0.597
いち	0.597
スイ	0.597
▁シェ	0.597
のご注文は	0.597
いたい	0.597
求め	0.597
詰め合わせました	0.597
研究	0.597
チョコレート効果	0.597
▁ポッキー	0.597
お口	0.597
ヴァ	0.597
味も	0.597
車	0.597
ング	0.597
ある	0.597
メ	0.597
缶セット	0.594
▁f	0.593
9999	0.593
送料無料	0.593
▁\	0.592
▁原材料	0.592
原	0.592
食べても	0.592
の高い	0.592
商品説明	0.592
▁バレンタイン	0.591
重量	0.591
r	0.591
小さ	0.590
セット内容	0.590
チョコで	0.590
を一切	0.590
注	0.590
ード	0.590
酸化防止剤	0.590
国内	0.590
"	0.589
深い	0.588
同時	0.588
N	0.587
・・・・・・・・・・・・・・・・	0.585
▁それ	0.585
▁お徳用	0.585
ープ	0.585
お召し上がりになる	0.585
させて頂	0.585
ce	0.585
グリ	0.585
苦手な方	0.585
使った	0.585
×100	0.585
の間	0.585
わりに	0.585
▁140	0.585
シングル	0.585
カラフル	0.585
。】	0.585
をお願いします	0.585
▁・	0.585
庫	0.585
で保管	0.585
4、	0.585
▁28°	0.585
続けています	0.585
5、	0.585
甘さ控えめ	0.585
っているため	0.585
お届け日	0.585
書き	0.585
楽しい	0.585
ut	0.585
どうぞ	0.583
b	0.583
円以上で送料無料	0.583
タイ	0.583
的	0.583
はできません	0.583
リキュール	0.582
TEL	0.581
198	0.581
×10	0.581
▁卵	0.579
のおみやげ	0.578
color	0.578
華	0.578
噛	0.578
お買い上げ	0.578
赤色	0.578
途	0.578
源	0.578
通の	0.578
の苺	0.578
-5	0.578
御祝い	0.578
ひとつひとつ	0.578
合い	0.578
発送は	0.578
コロ	0.578
デコ	0.578
を追	0.578
悪	0.578
原材料の一部に大豆	0.578
森	0.578
グ	0.577
ラン	0.577
▁6	0.577
同送	0.576
ちょっと	0.575
ちん	0.574
麦芽	0.574
残暑	0.574
北海道産	0.574
受け継がれています	0.574
は予告なく変更	0.574
サイズで	0.574
気品	0.574
ですが	0.573
時の	0.573
ティ	0.573
▁630	0.571
line	0.571
▁ホリ	0.571
ミルクパウダー	0.571
▁−	0.571
深い味わい	0.571
特	0.571
▁メーカー	0.571
▁d	0.571
にご	0.570
のおいしい	0.569
【1	0.569
箱	0.568
保存料	0.568
▁L	0.568
受付	0.567
グラム	0.567
er	0.566
▁フランス	0.566
▁D	0.565
:6	0.562
は下記	0.557
16×27×2	0.557
しら	0.557
多少前後	0.557
コーングリッツ	0.557
▁270	0.557
北海道土産	0.557
ミニカ	0.557
魅惑	0.557
カークランド	0.557
▁GABA	0.557
×48	0.557
5×3	0.557
が自信	0.557
召し上がると	0.557
インターナショナル	0.557
支持	0.557
校	0.557
がおいしい	0.557
米パフ	0.557
ツェ	0.557
未満	0.557
パフの	0.557
契	0.557
▁関連する	0.557
薔薇	0.557
丁度	0.557
化剤	0.557
お安く	0.557
開封前賞味期間	0.557
弱	0.557
によ	0.557
背	0.557
は全部で	0.557
栓	0.557
の見	0.557
がありました	0.557
▁デキストリン	0.557
410	0.557
サイト	0.557
でない	0.557
グレープ	0.557
乳たんぱく	0.557
いてます	0.557
▁配達	0.557
閉	0.557
を迎	0.557
図	0.557
を少し	0.557
990	0.557
▁ミルクチョコレートに	0.557
▁おかし	0.557
61	0.557
▁スティック	0.557
涼しいところに保存して下さい	0.557
れております	0.557
のおすすめ	0.557
アルフォート	0.557
日となります	0.557
高温多湿を避けて保存	0.557
▁スイスの	0.557
セル	0.557
買った	0.557
1500	0.557
・・・23	0.557
対応のブラウザで	0.557
の大きさが	0.557
に付き	0.557
徐	0.557
▁ガトーショコラ	0.557
カオ	0.557
フランスの	0.557
▁260	0.557
必	0.557
上がり	0.557
フロマージュ	0.557
をセット	0.557
印象的な	0.557
ご注文いただいた場合	0.557
したもので	0.557
別に	0.557
脈	0.557
剥が	0.557
エアインチョコ	0.557
だ今	0.557
漬け込み	0.557
▁ペースト	0.557
祈	0.557
インド	0.557
チョコクリームを	0.557
をパッケージに	0.557
ニラ	0.557
灰	0.557
マルキーズ	0.557
パッケージ及び	0.557
さとおいしさ	0.557
慢	0.557
的にも	0.557
事を	0.557
ok	0.557
一杯	0.557
垢	0.557
は全国	0.557
高い評価	0.557
ola	0.557
の気持ちを込めて	0.557
くだ	0.557
戦	0.557
力を	0.557
▁蒜山	0.557
シング	0.557
をベースに	0.557
含有量	0.557
ーノッツ	0.557
殿	0.557
開封後	0.557
カゴ	0.557
▁エムアンドエムズ	0.557
▁オーストラリア製	0.557
(170	0.557
焼いた	0.557
▁ご了承ください	0.557
討	0.557
USDA	0.557
リーズナブル	0.557
特性	0.557
ゆう	0.557
組み	0.557
▁広告文責有限会社	0.557
お気軽	0.557
/10	0.557
ピーナッツ入り	0.557
ユニークな	0.557
FS	0.557
の方に	0.557
アマンド	0.557
しておりますので	0.557
▁冷凍で	0.557
カド	0.557
ヴ	0.557
ご注文下さい	0.557
タイプのチョコレートです	0.557
はご用意しておりません	0.557
濃い	0.557
フランゲ	0.557
手提げ	0.557
でサンド	0.557
▁軽	0.557
さの	0.557
システム	0.557
ご容赦	0.557
チャー	0.557
無料になります	0.557
千代	0.557
実績	0.557
×115	0.557
虫歯予防	0.557
なおいしさ	0.557
×60	0.557
袋に	0.557
焼きショコラ	0.557
シェフ	0.557
▁ブ	0.557
袋サイズ約	0.557
タイン	0.557
果糖	0.557
うさぎ	0.557
ジェ	0.557
世界各国	0.557
子供の	0.557
まろやか	0.557
(35	0.557
に保管早めにお召し上り下さい	0.557
のお祝い	0.557
890	0.557
▁が	0.557
購入で送料無料	0.557
をたっぷりと	0.557
▁大人の	0.557
フランボワーズ	0.557
個別包装	0.557
レード	0.557
▁または	0.557
▁冷凍便	0.557
提供	0.557
ほのかな	0.557
ターズ	0.557
パンに	0.557
との同梱は出来ません	0.557
発送について	0.557
ドリンク	0.557
アリ	0.557
105	0.557
▁ベルギー産	0.557
本場	0.557
▁美味しい	0.557
食べ応え	0.557
▁ミニチュア	0.557
ブラウン	0.557
ローストした	0.557
】1	0.557
滑らかな	0.557
王	0.557
▁北	0.557
多少	0.557
実店舗と	0.557
冷暗所で保存	0.557
oz	0.557
!?	0.557
レット	0.557
ピンク	0.557
nb	0.557
すべて	0.557
ルー	0.557
個口	0.557
配送方法	0.557
をお届けします	0.557
▁パ	0.557
▁冷凍	0.557
名称	0.557
al	0.557
ジ	0.553
▁12	0.552
→	0.552
多	0.550
c	0.550
新鮮な	0.549
▁ナッツ	0.549
ム	0.549
...	0.549
産	0.548
ビー	0.548
たて	0.546
冷暗所で保存してください	0.546
お見舞い	0.546
人気です	0.545
▁×1	0.544
、28°	0.544
ない場合がございます	0.543
ぶどう糖	0.543
短い	0.543
多湿を避け	0.543
:80	0.543
▁商品説明	0.542
にお召し上がりください	0.540
でしょう	0.540
クリーミー	0.540
きのこの山	0.540
っくり	0.540
▁全	0.540
ello	0.540
濃縮	0.540
ナトリウム	0.540
系	0.540
生クリーム	0.539
▁《	0.539
ぶ	0.538
'	0.537
渋	0.537
の詰め合わせ	0.537
ru	0.537
▁夏	0.537
▁ヨーロッパ一覧はコチラ	0.537
(30	0.537
で人気の	0.537
▁自分	0.537
ぜ	0.537
レア	0.537
▁お茶	0.537
▁28	0.537
ブレンド	0.537
○	0.537
お手頃ミニサイズ	0.535
調味料	0.535
の形	0.535
容量	0.535
宅急便	0.535
ピ	0.535
以外	0.534
マカデミアナッツ	0.533
▁落花生	0.533
かせ	0.532
覚	0.532
しみ	0.532
ティング	0.532
×13	0.532
キーワード	0.532
デン	0.532
1215	0.532
をいたします	0.532
▁い	0.532
缶に	0.532
41	0.532
チョコレート本来	0.532
ルド	0.532
枠外	0.532
アム	0.532
▁生	0.532
LE	0.532
スタ	0.531
及び	0.531
しか	0.529
ース	0.529
ご注文後	0.529
の実	0.529
ーニ	0.528
ko	0.528
ピーナッツ	0.527
ラズベリー	0.527
▁明治	0.527
▁ココアパウダー	0.526
果実	0.526
脂質	0.525
天然	0.524
と共	0.522
◇	0.522
▁安	0.522
▁限定	0.522
漂う	0.522
:【	0.522
に応	0.522
商事	0.522
くまでも	0.522
ピーナッツを含む製品	0.522
異なりますので	0.522
275	0.522
!!<	0.522
チュー	0.522
工程	0.522
▁単品	0.522
でのお	0.522
エール	0.522
ラッ	0.522
▁おいしく食べて	0.522
ダンボール	0.522
さない	0.522
▁トリフ	0.522
漬	0.522
▁ま	0.522
デリケートな	0.522
のこだわりは現在も	0.522
リンツチョコレートは	0.522
年以来	0.522
、1845	0.522
時には	0.522
都合上	0.522
発送となります	0.522
350	0.522
もので	0.522
常に最高のものを	0.522
トル	0.522
を選択	0.522
氏	0.522
と一緒に	0.522
ロングセラー	0.522
リンツによって生まれた	0.522
ノン	0.522
▁マカダミアナッツチョコレート	0.522
在庫を	0.522
機	0.522
パーム油	0.522
**	0.522
しまう	0.522
ゲル化剤	0.522
ソース	0.522
シロップ	0.520
ね	0.520
手が	0.518
ビール	0.518
原産国名	0.517
軽	0.517
仕入れ	0.516
にお召し上がり下さい	0.514
ご希望日	0.514
▁アジア一覧はコチラ	0.514
けた	0.514
週間以内	0.514
分の	0.514
んに	0.514
しまった	0.514
の対応	0.514
NO	0.514
程よく	0.514
お早めに	0.514
ワケ	0.514
いつも	0.514
▁日	0.514
グルメ	0.514
オーナメント	0.514
▁訳あり	0.514
ちゃ	0.514
。。	0.514
情報	0.514
焼菓子	0.514
le	0.514
(1	0.512
oct	0.512
02	0.511
間に	0.510
テイスト	0.510
に入った	0.510
作りました	0.510
ホット	0.510
かか	0.510
餅	0.509
(8	0.508
出来	0.508
ハワイアンホースト	0.508
銀行振込	0.508
ラムレーズン	0.508
の味	0.508
アップ	0.507
▁R	0.507
ダークチョコレート	0.507
メッセージ	0.506
して下さい	0.506
ハワイ	0.505
ベルギー	0.505
ma	0.503
していない	0.501
インドネシアお土産	0.501
ヴィー	0.501
OT	0.501
らかに	0.501
で温	0.501
ミス	0.501
藻	0.501
乾燥した	0.501
ロット	0.501
個以上の	0.501
ラングドシャ	0.501
口どけは	0.501
より約	0.501
惜	0.501
>5	0.501
▁板チョコレート	0.501
みて	0.501
としてもご利用いただけます	0.501
ベラ	0.501
佃	0.501
かん	0.501
▁クリーム	0.501
のかわいい	0.501
尚	0.501
パクト	0.501
繊細	0.501
▁冷蔵庫で	0.501
▁ビターチョコレート	0.501
へのお届け	0.501
。■	0.501
三角	0.501
がお口	0.501
(180	0.501
備考欄にお書き	0.501
食べやすく	0.501
5-3	0.501
の人気チョコ	0.501
ちゃんの	0.501
手数料	0.501
二酸化チタン	0.501
嬉	0.501
けると	0.501
クール便配送	0.501
スウィ	0.501
チャン	0.501
祝日	0.501
いただ	0.501
個包装紙込み	0.501
事前	0.501
生チョコを	0.501
2-6	0.501
be	0.501
原材料の一部に卵	0.501
誠に	0.501
泉	0.501
▁ミルクチョコレートの中に	0.501
▁シーシェル	0.501
可能性があります	0.501
派	0.501
をは	0.501
リーズ	0.501
▁区分	0.501
かりんとう	0.501
のチョコレートがポイント	0.501
寒	0.501
ゃ	0.501
保証	0.501
商品のため	0.501
▁ミ	0.501
産地直送	0.501
な方	0.501
忘れ	0.501
▁とっても	0.501
チョコレートの世界	0.501
ビル	0.501
der	0.501
のまま	0.501
権	0.501
選び抜かれた	0.501
▁オーストラリア土産	0.501
▁CH	0.501
の人	0.501
沖縄は	0.501
▁化粧	0.501
▁大容量	0.501
ジャージー牛	0.501
▁カカオ分	0.501
だけの	0.501
ジョ	0.501
増粘多糖類	0.501
ブラウニー	0.501
シュガー	0.501
ハイ	0.501
ヒ	0.501
ベリー	0.501
シナモン	0.501
ヌ	0.501
のお客様	0.501
▁この商品は	0.499
のチョコレートです	0.499
cc	0.498
認定	0.497
▁ハワイアンビレッジ	0.497
▁商品の	0.497
プ	0.496
の商品と	0.496
エネルギー	0.495
バラエティセット	0.495
のセット	0.494
mar	0.494
ラベル	0.494
アイ	0.494
解凍後	0.494
▁カカオ	0.494
★<	0.493
22	0.493
で食べ	0.491
あと	0.491
ka	0.491
ミン	0.491
頂	0.491
オーガニック	0.491
コ	0.491
直径	0.490
ネット	0.490
のチョコレートに	0.487
解	0.487
お召し上がりいただけます	0.487
08	0.487
ミネラル	0.487
▁この部分は	0.487
日本の	0.487
従	0.487
英国	0.487
癒	0.487
サイズです	0.487
案内	0.487
続ける	0.487
済み	0.487
押	0.487
いつでも	0.487
少	0.487
剤	0.487
元祖	0.487
200	0.486
れます	0.485
雑貨	0.485
宮	0.484
om	0.484
▁フラン	0.484
確認メールにて	0.484
▁えび	0.484
マーガリン	0.483
甘	0.483
をお楽しみいただけます	0.482
幸せ	0.482
のご希望	0.481
黒	0.481
変動	0.481
5250	0.480
10%	0.477
セイ	0.477
ch	0.477
告	0.477
場合があります	0.477
でお召し上がり	0.477
んの	0.477
ヘーゼルナッツチョコレート	0.477
閉じ	0.477
努	0.477
欠かせ	0.477
手にとけない	0.477
いちごパウダー	0.477
丁寧	0.477
併	0.477
支払	0.477
をご覧	0.477
ませんか	0.477
▁お口	0.477
晴	0.477
▁栄養成分表	0.477
ッター	0.477
▁キャ	0.477
ブレ	0.477
▁キュートな	0.477
レモンピール	0.477
の一部	0.477
焼酎	0.477
案	0.477
税	0.477
▁カカオの	0.477
眠	0.477
食べ方	0.477
きび	0.477
えます	0.477
カワイイ	0.477
苺チョコレート	0.477
▁伝統	0.477
125	0.477
!★	0.477
▁急激な温度差を避け	0.477
本品は卵	0.477
祭り	0.477
を使用せず	0.477
▁ケーク	0.477
+210	0.477
0000	0.477
皿	0.477
アミノ酸等	0.477
生クリームを	0.477
ても	0.477
初めて	0.477
▁7,	0.477
トー	0.477
コレ	0.477
▁手	0.477
板チョコレート	0.477
られた	0.477
▁iframe	0.477
瞬間	0.477
オランジェ	0.477
●●	0.477
▁ブルックサイド	0.477
クリスピー	0.477
ギフトセット	0.477
ハネムーンおすすめお土産	0.477
)【	0.477
できません	0.475
いました	0.475
ッド	0.472
在庫切れ	0.472
感じ	0.471
▁ちょっと	0.470
シア	0.470
コナコーヒー	0.470
毎に	0.470
えば	0.470
ms	0.470
取り寄せ	0.470
▁白	0.470
させていただきます	0.470
リ	0.469
ミルクチョコ	0.469
に含まれるアレルギー特定原材料	0.468
出来る	0.468
がありましたら	0.468
味です	0.468
ケーキ	0.467
個セット	0.467
スイス	0.466
tion	0.465
明治の	0.464
血	0.464
▁おいしい	0.464
ローカー	0.464
ビニール袋	0.464
喜び	0.464
クチナシ色素	0.464
ブン	0.464
以内	0.464
ストーン	0.464
典	0.464
情熱	0.464
喜ば	0.464
上げました	0.464
境	0.464
十	0.464
を含みます	0.464
わけ	0.464
-13	0.464
2、	0.464
ゆっくり	0.464
もら	0.464
ワイ	0.464
▁不二家	0.464
▁森永	0.464
細	0.464
いただきます	0.464
ケ	0.464
▁マウナロア	0.464
箱入	0.464
大量	0.464
▁かに	0.462
▁そば	0.462
▁通常	0.462
▁ファ	0.462
▁オレンジ	0.462
ケース	0.461
商品との同梱	0.461
キャンセル	0.460
鶏卵	0.460
88	0.459
カロチン	0.459
ご注文ください	0.459
▁アソート	0.458
▁ハ	0.457
製造日より	0.457
サワ	0.456
アイスクリーム	0.456
▁メーカー製造日より約	0.456
マダガスカル	0.456
への配送	0.456
食感も	0.456
)×10	0.456
クラッカー	0.456
黄金	0.456
ひとくちチョコ	0.456
出品	0.456
ベルギー産クーベルチュール	0.456
対応いたします	0.456
旅行	0.456
誰	0.456
エキストラ	0.456
はず	0.456
▁タ	0.456
のパッケージに	0.456
飼	0.456
大豆粉	0.456
全体	0.456
やわらか	0.456
▁沖縄	0.456
アレルギー	0.456
st	0.453
▁td	0.453
楽天ポイント獲得チャンス	0.453
▁リンクを貼って	0.453
▁セット	0.452
カード	0.451
h	0.451
国産	0.450
▁対応のブラウザで見てください	0.450
肉	0.450
▁定番	0.450
折	0.450
たま	0.450
マクロビオティック	0.450
で保管して下さい	0.450
止	0.450
滑	0.450
マンゴ	0.450
のチョコレートコン	0.450
▁何卒	0.450
お買い物マラソン	0.450
比	0.450
★★	0.450
へーゼルナッツ	0.450
ac	0.448
▁森永製菓	0.445
大好き	0.445
品として	0.445
5%	0.445
▁スノーベル	0.445
▁1,260	0.445
になって	0.445
そのまま	0.445
72%	0.444
指	0.442
ビート	0.442
クリームの	0.442
生産地	0.442
代引き	0.442
▁送料込	0.442
岩	0.442
おみやげ	0.441
×5	0.441
お誕生日	0.441
ココナッツ	0.441
南の島々一覧はコチラ	0.440
調	0.440
ハワイアン	0.440
が出来ません	0.440
オイル	0.438
ボ	0.438
▁ス	0.438
▁脱脂粉乳	0.437
>【10	0.437
を探す	0.437
蜂蜜	0.436
か月	0.436
ゾ	0.436
便利なおみやげ発送キット	0.436
▁遠方の方へ	0.436
×15	0.434
とお	0.434
状態	0.434
▁乳化剤	0.434
▁マ	0.434
説明	0.433
製法	0.433
倍	0.433
!】	0.432
ドライ	0.431
コストコ	0.431
▁*	0.431
原産国	0.429
100%	0.429
ブル	0.428
▁イタリア	0.427
(5	0.427
を使用しております	0.427
みやげ	0.425
▁ハワイ	0.422
お誕生日用	0.418
稀	0.418
コーンフレークを	0.418
を手	0.418
代引き手数料	0.418
ちょっと贅沢な	0.418
雁	0.418
お届け指定	0.418
から大人まで	0.418
茎	0.418
/27	0.418
ベン	0.418
こら	0.418
ひかえめ	0.418
填	0.418
をペースト	0.418
お申し込みは	0.418
850	0.418
ギリシャ	0.418
双	0.418
埼	0.418
ハーモ	0.418
▁小枝	0.418
がついて	0.418
期間はクール便	0.418
チョコの決定版	0.418
▁原材料小麦粉	0.418
カカオの香りと	0.418
▁カウ	0.418
▁アメリカン	0.418
のご対応	0.418
メーカーより	0.418
に限ります	0.418
食べたい量だけ	0.418
たく	0.418
孫	0.418
口解けをしっかりと	0.418
カカオの薫りをお楽しみ	0.418
リッシュな	0.418
郊	0.418
セズ	0.418
鮭	0.418
グネチャー	0.418
▁friend	0.418
くまのプーさん	0.418
アト	0.418
ひとくちサイズの携帯粒	0.418
を考	0.418
▁酸化防止剤	0.418
▁お使い	0.418
中心	0.418
ダガスカル	0.418
▁原産地	0.418
食後の	0.418
み出す	0.418
都合	0.418
稀に	0.418
を行っております	0.418
▁チョコパイ	0.418
遺跡	0.418
に含まれるアレルギー物質	0.418
疑	0.418
謹	0.418
▁添加物	0.418
指示	0.418
歯医者	0.418
パラグアイ	0.418
週間前	0.418
▁ただ今	0.418
きたて	0.418
237	0.418
線	0.418
粒の	0.418
599	0.418
べて	0.418
オレンジ系	0.418
51	0.418
▁チョコが	0.418
チョコレートドリンク	0.418
ヒット商品	0.418
8×3	0.418
違って	0.418
▁伯方の塩	0.418
ちりばめました	0.418
品質を保つ	0.418
下部	0.418
くらいでお召し上がり	0.418
ヌー	0.418
涼	0.418
19.5	0.418
お届けでき	0.418
暑	0.418
揃え	0.418
心配も	0.418
ベニ	0.418
の思い出	0.418
)9	0.418
お送りいたします	0.418
かず	0.418
代金は	0.418
口の中でとろけるような	0.418
風味の点では劣ります	0.418
創業以来	0.418
チミツ	0.418
/4	0.418
とさせて	0.418
談	0.418
040	0.418
750	0.418
206	0.418
▁鶏卵	0.418
盤	0.418
パター	0.418
摩	0.418
.5×27	0.418
おいしい食べ方	0.418
丹	0.418
価値	0.418
のデザインを	0.418
までにお	0.418
雄	0.418
の気持ち	0.418
dd	0.418
ごめ	0.418
で一つ一つ	0.418
▁トリフチョコ	0.418
南の	0.418
カレー	0.418
▁スタイ	0.418
1.6	0.418
313	0.418
▁要冷凍	0.418
でくる	0.418
ミリ	0.418
▁プリンセス	0.418
いただきますとカカオの薫り	0.418
▁ウイングエース株式会社	0.418
有機カカオ	0.418
祭日	0.418
管	0.418
さらにお	0.418
フリーズドライが入った	0.418
は下記の	0.418
痛	0.418
にじっくり漬け込み	0.418
商品ですので	0.418
ショコラは冷えすぎていると十分に	0.418
ost	0.418
集めて楽しい	0.418
魅力的	0.418
だけじゃ	0.418
甜	0.418
ゴルフ	0.418
と新鮮な	0.418
年に設立	0.418
́	0.418
お客さま	0.418
のイメージ	0.418
砂糖の	0.418
ミニマーブルチョコ	0.418
控えめ	0.418
ライスパフ	0.418
▁720	0.418
覇	0.418
マカデミアナッツチョコレートを	0.418
ジャパン株式会社	0.418
▁フリーズドライ	0.418
ショナル	0.418
▁お年賀	0.418
濃縮乳	0.418
農家	0.418
顆	0.418
簡易箱	0.418
日新化工	0.418
フォーム	0.418
と違って	0.418
冷暗所に保存して下さい	0.418
嫁	0.418
▁ダース	0.418
104	0.418
色々な	0.418
は全	0.418
/5	0.418
でん	0.418
パーム	0.418
ッション	0.418
クレジット	0.418
枚あたり	0.418
付属	0.418
249	0.418
還元水あめ	0.418
▁クール料金	0.418
時間をいただく	0.418
食品工業	0.418
療	0.418
のオーガニック	0.418
▁長さ	0.418
二人	0.418
岸	0.418
とまろやかな	0.418
ハンド	0.418
卒業	0.418
ココアパウダーで	0.418
しないで	0.418
衝	0.418
▁クロネコヤマト	0.418
▁ドゥ	0.418
ミルクチョコで包みました	0.418
キャラメルを	0.418
▁キスチョコレート	0.418
個以上でお願い	0.418
▁受付	0.418
までのご注文	0.418
ゆず	0.418
事に	0.418
)60	0.418
ディズニーハンド	0.418
わる	0.418
アンソンバーグ	0.418
▁58	0.418
日にち	0.418
障	0.418
カカオ豆の	0.418
ずに	0.418
度以上	0.418
をたっぷり使って作られた	0.418
苔	0.418
様な	0.418
▁さわ	0.418
陽	0.418
立ち	0.418
斜	0.418
のチョコは	0.418
-25	0.418
▁蒜山のジャージー牛乳	0.418
組合	0.418
ざり	0.418
せん	0.418
必要です	0.418
55%	0.418
▁カップ	0.418
のリボン	0.418
融合	0.418
マルトース	0.418
営業	0.418
遺伝子	0.418
オーツ麦	0.418
▁ホット	0.418
コール	0.418
当店オリジナル	0.418
costco	0.418
▁クレジットカード	0.418
北海道限定	0.418
事前にお	0.418
プライズ	0.418
掛か	0.418
をかたどった	0.418
フェノール	0.418
蓋	0.418
抑え	0.418
須	0.418
DA	0.418
を詰め	0.418
▁宮	0.418
5,	0.418
注文単位	0.418
キム	0.418
▁アンパンマン	0.418
▁お得な	0.418
のでき	0.418
オープン	0.418
▁セット箱サイズ約	0.418
純粋	0.418
ッツ	0.418
▁東京都港区芝	0.418
可憐な	0.418
ウイスキー	0.418
飽きのこない	0.418
▁2000	0.418
▁送料は	0.418
籍	0.418
かなり	0.418
を混ぜて	0.418
やわらかく	0.418
ネコ	0.418
でございます	0.418
!!】	0.418
選べません	0.418
チアシード	0.418
鶏	0.418
有機砂糖	0.418
の女	0.418
のロングセラー	0.418
に関しまして	0.418
】【1	0.418
おい	0.418
パックです	0.418
いています	0.418
他の東南アジアを探す	0.418
レース	0.418
オリジ	0.418
を楽しめる	0.418
コンペ	0.418
無脂肪牛乳	0.418
EN	0.418
撃	0.418
干	0.418
あなたに	0.418
プリザーブドフラワー	0.418
が見事に調和	0.418
>「	0.418
ましょう	0.418
に広がる	0.418
ソルビン酸	0.418
っさり	0.418
スノーベル	0.418
宜しくお願い致します	0.418
53	0.418
ブラックチョコレート	0.418
。1	0.418
丹波	0.418
ントリー	0.418
.5×15	0.418
ラッピングして	0.418
等に	0.418
あっとい	0.418
しているため	0.418
▁マンゴー	0.418
▁No	0.418
.5×2	0.418
乳蛋白	0.418
▁注文	0.418
スピ	0.418
▁カル	0.418
浴	0.418
電話	0.418
▁牛乳	0.418
泡	0.418
15%	0.418
ポーランド	0.418
▁クリスピー	0.418
を持って	0.418
大人のチョコレート	0.418
正規	0.418
▁アップル	0.418
アーモンド入り	0.418
キウイ	0.418
マテ	0.418
で保存し	0.418
が異な	0.418
四	0.418
▁ポイント	0.418
の代	0.418
(250	0.418
│	0.418
ケン	0.418
やご	0.418
記入ください	0.418
ミニチョコ	0.418
酢	0.418
チャンス	0.418
当地	0.418
を持	0.418
ありがとうございました	0.418
のおいしさが	0.418
すそ	0.418
の相性	0.418
品切れ	0.418
が口の中で	0.418
ることができます	0.418
、18	0.418
合います	0.418
つきがあります	0.418
×4.5	0.418
緑茶	0.418
苦味	0.418
グリコ	0.418
▁バケーションチョコ	0.418
×24	0.418
メン	0.418
クラッシュ	0.418
寒天	0.418
89	0.418
彩	0.418
王様	0.418
薬	0.418
薫り	0.418
るのは	0.418
械	0.418
ビレッジ	0.418
出会い	0.418
手軽に	0.418
に広がります	0.418
解凍後は	0.418
:16	0.418
ネス	0.418
様に	0.418
▁こちらは	0.418
フレ	0.418
▁極	0.418
なめらかで	0.418
いか	0.418
ちんすこう	0.418
本当	0.418
銘	0.418
68	0.418
ドゥ	0.418
好み	0.418
いた場合	0.418
のための	0.418
ふんわり	0.418
出来ません	0.418
佐川急便	0.418
おいしく	0.418
フィー	0.418
相当	0.418
▁手作り	0.418
惑	0.418
常	0.418
ージ	0.418
発酵	0.418
ナチュラル	0.418
井	0.418
クロ	0.418
他のヨーロッパのお土産を探す	0.418
▁36	0.418
まさに	0.418
▁Chocolate	0.418
ムース	0.418
問い合わせください	0.418
日時指定	0.418
対象	0.418
アップル	0.418
▁グ	0.418
ススメ	0.418
ミルクチョコレートに	0.418
黒豆	0.418
脂肪	0.418
レビュー	0.418
▁タイ	0.418
号	0.412
好きな	0.409
異なる場合がございます	0.409
女	0.408
へ	0.406
保存状態	0.406
▁備考	0.405
▁N	0.405
友チョコ	0.405
▁らくらく	0.404
▁菓子を探す	0.403
フォンデュ	0.402
関連	0.402
の生クリーム	0.402
美味しく	0.402
青	0.400
と思います	0.399
ガレット	0.399
誕生日	0.399
外箱に記載	0.398
形態	0.398
詳しくはこちら	0.398
単位	0.398
ボン	0.396
ェル	0.396
みたい	0.396
パッケージデザイン等	0.396
フ	0.395
ファ	0.395
のおやつ	0.394
フラボノイド	0.393
-10	0.393
▁ミルクチョコ	0.391
ゼリー	0.391
▁ミックス	0.390
蜜	0.390
▁マレーシア製	0.390
はお避けください	0.390
ハワイアンホスト	0.390
しゃれ	0.390
させます	0.390
は出来ません	0.390
をお知らせいたします	0.390
独特	0.390
エキス	0.388
ショコラです	0.385
コアラのマーチ	0.385
▁ベスト	0.385
観光	0.385
の高級	0.385
親しま	0.385
カロテン	0.385
ミルクチョコレートで	0.385
物語	0.385
証	0.385
されておりません	0.385
絵	0.385
ジュース	0.385
▁コストコ	0.384
▁ドイツ	0.384
ちゃん	0.383
さを	0.383
365	0.383
▁取扱方法	0.381
▁お土産渡しに便利	0.381
ダス	0.380
での配送	0.380
あずき	0.380
多いため	0.380
▁濃厚な	0.380
▁直射日光を避けて	0.380
次回	0.380
▁29	0.380
ボリビア	0.380
71	0.380
含まれて	0.380
ゲン	0.380
参考	0.380
▁でも	0.380
アー	0.380
シェル	0.380
▁マー	0.380
コスメ	0.380
グッズ	0.380
鍋	0.380
在庫状況により	0.380
ディング	0.380
ご了承下さい	0.378
▁C	0.378
:7	0.378
マカダミアナッツチョコ	0.378
as	0.377
▁香料	0.377
カカオパウダー	0.377
▁輸入元	0.376
甘み	0.376
▁E	0.376
キャラクター	0.376
円以上	0.374
キング	0.374
ラックス	0.371
冷暗所で保存下さい	0.371
▁ヒ	0.371
▁×6	0.371
中元	0.371
以下で保管して下さい	0.371
全品	0.371
万円以上お買い上げの方は送料無料	0.371
▁三	0.371
と呼	0.371
感想	0.371
▁フォ	0.371
商品情報	0.371
雰囲気	0.371
▁コクのある	0.371
シック	0.371
▁それぞれ	0.371
ごと	0.371
大量生産	0.371
尽	0.371
に焼き上げた	0.371
が変わ	0.371
海塩	0.371
ミルクシーズニング	0.371
高温多湿をさけて	0.371
負担	0.371
▁th	0.371
印字	0.371
15×27×2	0.371
のご指定	0.371
味わ	0.371
結婚記念日	0.371
ッシュ	0.371
630	0.371
水	0.369
海外土産	0.369
%)、	0.368
▁バレンタインデー	0.367
▁ウエハース	0.367
×12	0.367
ml	0.367
が一	0.365
▁大豆	0.365
コク	0.365
があり	0.364
んです	0.363
▁ウ	0.363
ジャム	0.363
ージュ	0.362
美味	0.361
ini	0.358
(141	0.358
買い上げ	0.358
▁水あめ	0.358
チョコスナック	0.358
ファッション	0.358
の牛乳	0.358
送料について	0.358
相談ください	0.358
のお買い上げ	0.358
国の	0.358
フランスお土産	0.358
他の商品との同梱	0.358
攻	0.358
の代表的な	0.358
の認証	0.358
つぶチョコ	0.358
御了承	0.358
▁当	0.358
済	0.358
ヨーク	0.358
真っ	0.358
2)	0.358
▁メモ	0.358
周	0.358
デリ	0.358
▁チーズ	0.358
ロカ	0.358
確実	0.358
ブー	0.358
ルテ	0.358
味わい深い	0.358
チョコレートで包んだ	0.358
set	0.358
ドール	0.358
苦味が	0.358
苺チョコ	0.358
母	0.358
ーツァルト	0.358
さえ	0.358
ポリフェノール	0.358
たちの	0.358
友達	0.358
ごとに	0.358
74	0.358
高温多湿を避けて保存して下さい	0.358
▁このページはインラインフレーム	0.358
レン	0.358
インドネシア	0.358
▁製造日より約	0.358
▁お客様	0.358
ウェハース	0.358
▁1.	0.358
税別	0.356
本セット	0.355
ネ	0.355
%、	0.354
ミニパック	0.353
is	0.353
高温多湿をおさけ下さい	0.352
搾	0.352
同梱不可	0.352
▁m	0.352
▁13	0.352
しま	0.352
▁夏季期間はクール便	0.352
>(	0.350
▁コ	0.349
プレミオ	0.348
盛	0.348
紹介されました	0.348
ウイ	0.348
刺激	0.348
飲み	0.348
ヘーゼルナッツの	0.348
等により	0.348
メッセージを	0.348
▁※2012	0.348
心配	0.348
終売	0.348
数量が	0.348
の日付	0.348
▁乳糖	0.348
コアラ	0.348
and	0.348
▁チョコレートを探す	0.348
便	0.346
▁青	0.344
欧	0.344
だけを	0.344
ベネズエラ	0.344
⇒	0.344
ありがとう	0.344
▁注意事項	0.344
混ぜて	0.344
Nov	0.344
コン	0.343
祝い	0.338
星	0.337
柔らかい	0.334
ルリナ青	0.334
練り込んだ	0.334
ご注文後のキャンセル	0.334
AT	0.334
馴	0.334
16×27×2.5	0.334
のコラボレーション	0.334
甘さひかえめ	0.334
リッツ	0.334
モンテ	0.334
サイズ約直径	0.334
マグ	0.334
▁南米を探す	0.334
夕張	0.334
ピック	0.334
▁世界遺産	0.334
薫	0.334
気温の高い時期は	0.334
▁ハローキティ	0.334
シルバニア州デリチャーチ	0.334
★1	0.334
TE	0.334
傑	0.334
▁ガルボ	0.334
輝	0.334
ミルクチョコです	0.334
゚	0.334
輸入元	0.334
摂	0.334
ックリ	0.334
歯ごたえが	0.334
ご注文後に	0.334
老	0.334
大麦	0.334
出る	0.334
ロップ	0.334
洲	0.334
▁(1)	0.334
頼	0.334
ッテ	0.334
ライ麦	0.334
1.1	0.334
エリア	0.334
担当	0.334
芋	0.334
))	0.334
お早めにお	0.334
又	0.334
もどうぞ	0.334
われた	0.334
韓国お菓子	0.334
▁375	0.334
趣	0.334
▁原産国ベルギー産	0.334
翌々	0.334
SN	0.334
ジュエル	0.334
パック入	0.334
緩	0.334
冷蔵で	0.334
)●	0.334
ell	0.334
ERS	0.334
ベージュ	0.334
でと	0.334
▁おい	0.334
フロ	0.334
袋の	0.334
〇	0.334
▁クラッシュ	0.334
/2	0.334
にてお届けいたします	0.334
ミツ	0.334
】、	0.334
▁カリッと香ばしい	0.334
はご注文	0.334
ケーキを	0.334
姿	0.334
ーノ	0.334
:35	0.334
閉じ込めた	0.334
ッティ	0.334
いましたが	0.334
妻	0.334
▁製造後	0.334
xt	0.334
▁りんご	0.334
)16	0.334
。」	0.334
瀬	0.334
積	0.334
善	0.334
ブランデーや	0.334
▁BOX	0.334
最終	0.334
ソルト	0.334
▁800	0.334
欲しい	0.334
れる事	0.334
アールグレイ	0.334
▁それを	0.334
炭酸カルシウム	0.334
▁お手元に届	0.334
選ば	0.334
見た目の	0.334
:720	0.334
▁元祖	0.334
黒大豆	0.334
合成	0.334
3,	0.334
:24	0.334
牧場	0.334
瓶	0.334
郡	0.334
しょう	0.334
イタリアお土産	0.334
商品サイズ	0.334
金賞受賞	0.334
缶入り	0.334
ごく	0.334
ラス	0.334
pp	0.334
いたしました	0.334
×3	0.332
来	0.331
海	0.330
海外お土産	0.329
によって	0.328
黒糖	0.327
ビスケット	0.326
まとめ買い	0.326
▁□	0.326
産カカオ豆	0.325
▁1.5	0.325
▁タヒチ	0.325
ビターチョコレート	0.325
▁詰め合わせ	0.325
ので予めご了承ください	0.325
されて	0.323
グルコースシロップ	0.321
▁イチゴ	0.321
くなって	0.321
本格派	0.321
目の	0.321
ってます	0.321
ジパン	0.321
)100	0.321
▁プラ	0.321
のお店	0.321
SA	0.321
カップ	0.321
箱サイズ約	0.320
▁P	0.320
▁原産国アメリカ産	0.319
smtb	0.319
800	0.318
オー	0.318
▁A	0.318
ミント	0.318
他の海外お土産を探す	0.316
コレクションを見る	0.316
迷ったらワールド	0.316
▁割引率	0.316
72%、	0.313
▁詳細は	0.313
▁膨張剤	0.313
フィリピン	0.313
カ国の人々に愛されています	0.313
。2	0.313
の技術	0.313
との思いが	0.313
新食感	0.313
▁母の日	0.313
上質の	0.313
み出すチョコレート	0.313
のお供	0.313
の上に	0.313
▁上記	0.313
くし独自の味を生	0.313
贅	0.313
ッグ	0.313
ラップ	0.313
シート	0.313
ビスケットを	0.313
:19	0.313
▁是非お試しください	0.313
食物	0.313
共に	0.313
ギフト包装	0.313
ココナッツオイル	0.313
を思わせる	0.313
デュック	0.313
タイプのチョコレート	0.313
ーベル	0.313
急ぎ	0.313
豊か	0.313
ドミニカ共和国産	0.313
にお任せ	0.313
▁インドネシア	0.313
に関	0.313
共同購入	0.313
RE	0.313
たん	0.313
ミニチュア	0.313
食べたい	0.313
:36	0.313
▁お召し上がり方	0.313
▁未	0.313
ッチ	0.313
13【	0.313
-0	0.309
をお願い	0.308
ヶ月間	0.308
カルシウム	0.308
オーストラリア	0.307
浜	0.304
召し上がっていただけます	0.304
野菜	0.304
ハウス	0.304
☆1	0.304
▁着色料	0.304
その際は	0.304
状の	0.304
▁バナナ	0.304
ORI	0.304
ヴェ	0.304
に添え	0.304
mall	0.304
525	0.304
を開けた	0.304
円です	0.304
▁お祝い	0.304
▁直射日光をさけ	0.304
コアントロー	0.304
と呼ばれる	0.304
ひとくちサイズ	0.304
を組み合わせ	0.304
絵柄	0.304
のか	0.304
▁アン	0.304
となる場合がございます	0.304
賞味期間	0.304
しても	0.304
▁賞味期間	0.303
▁▼	0.302
プレ	0.301
ぶどう	0.300
割引	0.300
島	0.300
に入れる	0.298
▁26	0.298
角	0.298
▁キスチョコ	0.298
フィンランド	0.298
MO	0.298
絶対	0.298
▁木	0.298
▁大量	0.298
自然な	0.298
sa	0.298
ブランデー	0.296
▁ベル	0.295
欄	0.295
節	0.295
▁ピンク	0.295
▁その中でも	0.295
ペルー	0.295
キャンペーン	0.295
ak	0.295
▁h	0.295
効果	0.292
確認後	0.292
づくり	0.291
▁CO	0.291
z	0.290
ライ	0.289
ぜひ	0.289
▁マカデミアナッツチョコレート	0.289
:13	0.288
ジャパン	0.288
未開封	0.288
代金引換	0.288
夏	0.287
ラム酒	0.286
ヤマト運輸	0.286
備考	0.285
】10	0.282
のおすすめ商品	0.282
が含まれています	0.281
、【	0.281
DO	0.278
ラミッド	0.278
▁メリー	0.278
の当たらない	0.278
ストロベリー味	0.278
を含んでいます	0.278
33%	0.278
リーブ	0.278
▁岡山県	0.278
チョコをコーティング	0.278
▁ボール	0.278
パプリカ	0.278
身体に	0.278
だけれど	0.278
農家の支援を行っております	0.278
のお支払い	0.278
個口になった場合	0.278
盛りだくさん	0.278
を楽しめます	0.278
ベルギーの高級チョコレート	0.278
昼	0.278
インテリア	0.278
の風景	0.278
タピオカ	0.278
衛	0.278
◆<	0.278
市中	0.278
健康応援	0.278
ティック	0.278
ウェルカムボード	0.278
Sw	0.278
柏	0.278
加熱	0.278
潤	0.278
濯	0.278
最短で	0.278
▁204	0.278
棟	0.278
買い物カゴ	0.278
ご注意下さいませ	0.278
ティン	0.278
ふんだんに	0.278
:03-3	0.278
のお酒	0.278
照	0.278
▁別途送料がかかります	0.278
起こ	0.278
トマト	0.278
サム	0.278
▁でん粉	0.278
のでご安心	0.278
-19	0.278
のお花	0.278
自動的に	0.278
ローナ	0.278
楚	0.278
農業の技術指導を通じて途上国の	0.278
径	0.278
悩	0.278
プキン	0.278
宜しく	0.278
摘	0.278
劣化	0.278
の詰め合わせです	0.278
円が発生いたします	0.278
建設しました	0.278
冠	0.278
つの味が楽しめます	0.278
蛋白	0.278
エッセンス	0.278
形をした	0.278
骨	0.278
致しますので	0.278
当商品には特定原材料	0.278
を代表するチョコレートメーカー	0.278
手を汚さずに	0.278
プラリ	0.278
八重	0.278
・・・28	0.278
後の商品	0.278
同梱の商品が多くて送料が	0.278
同梱は	0.278
大門	0.278
3)	0.278
/17	0.278
4)	0.278
▁おなじみの	0.278
メッセージの	0.278
からつくられた	0.278
椎茸	0.278
プレス	0.278
有名店	0.278
ご使用の場合	0.278
穏	0.278
以上で送料無料	0.278
兄弟	0.278
ハロース	0.278
シュクレ	0.278
のパッケージが	0.278
ご了解	0.278
静岡	0.278
いただけますよう	0.278
▁到着	0.278
退	0.278
らせて	0.278
地区	0.278
鼓	0.278
\	0.278
漏れ	0.278
彼岸	0.278
▁ゴンチャロフ	0.278
ヶ口の送料の範囲内に限ります	0.278
▁せ	0.278
豪	0.278
ox	0.278
に便利な	0.278
デリチャーチは	0.278
ですか	0.278
を受け	0.278
部屋	0.278
をひ	0.278
ブリュレ	0.278
たい方	0.278
(198	0.278
注文の場合は	0.278
お買い求めください	0.278
/12	0.278
が見	0.278
奏でる	0.278
▁自然	0.278
リゾート	0.278
)14	0.278
郵便	0.278
▁原産国マレーシア産	0.278
顧	0.278
陶器	0.278
中央	0.278
リコ	0.278
配りやすい	0.278
乳製品不使用	0.278
染	0.278
のとれた	0.278
▁お礼	0.278
)4	0.278
沖縄の方は	0.278
▁530	0.278
▁■1	0.278
差し	0.278
等の変更	0.278
食用加工油脂	0.278
ビア	0.278
▁冬	0.278
▁チョコレート効果	0.278
代引不可	0.278
▁ミント	0.278
最高品質	0.278
tis	0.278
(^^)	0.278
抑えた	0.278
詰め合わせです	0.278
ぐら	0.278
年代	0.278
試食	0.278
メーカーの都合によりパッケージ	0.278
ストレス	0.278
通常購入	0.278
おりません	0.278
地の	0.278
自家	0.278
とした食感	0.278
をクリック	0.278
ガル	0.278
ご購入ください	0.278
ショート	0.278
ベア	0.278
クリオロ	0.278
曜日	0.278
することがございます	0.278
(32	0.278
塔	0.278
〜22°	0.278
年末	0.278
▁イタリア製	0.278
包んだ	0.278
▁真	0.278
スッキリ	0.278
種各	0.278
蒜山高原	0.278
感じさせる	0.278
はできませんので	0.278
箱は	0.278
クラシック	0.278
はご利用	0.278
ヶ入	0.278
写真はイメージです	0.278
▁ブルー	0.278
グッツ	0.278
メール便不可	0.278
チョコレートフォンデュ	0.278
変わります	0.278
岡山	0.278
加工デンプン	0.278
キシム	0.278
その場合は	0.278
藤	0.278
アントシアニン	0.278
クション	0.278
ボーナスパック	0.278
選ばれ	0.278
豚	0.278
池	0.278
をお試し	0.278
カカオポリフェノール	0.278
▁フィ	0.278
即日	0.278
▁温	0.278
歴	0.278
)10	0.278
良質	0.278
今回	0.278
ノワール	0.278
フレッシュな	0.278
コンフィ	0.278
豊かで	0.278
立て	0.278
復活	0.278
寄せ	0.278
御年賀	0.278
溶け合います	0.278
▁ナ	0.278
ディズニー	0.278
▁世界の	0.278
コーンパフ	0.278
^)	0.278
は承っておりません	0.278
:18	0.278
ハワイおみやげ	0.278
一緒にご注文	0.278
ソン	0.278
▁おやつ	0.278
ムソー	0.278
字	0.278
ミリー	0.278
承っております	0.278
▁バター	0.278
桃	0.278
元	0.278
土産	0.276
ヶ月以上の賞味期限がある	0.275
商品は出荷時点で	0.275
商品を出荷しております	0.275
海外	0.275
のお土産を探す	0.274
rArr	0.274
>★	0.274
▁ホワイトデー	0.272
はこちらから	0.272
▁ダークチョコレート	0.271
!!!	0.270
ご注文いただきました	0.270
掲載写真と実際の商品は	0.269
つく	0.266
太陽	0.266
ニュー	0.264
▁イタリア土産	0.264
2〜3	0.262
▁s	0.262
▁食品を探す	0.262
▁雑貨を探す	0.262
飲	0.261
▁他の商品と	0.261
▁解凍後	0.261
J	0.261
アソートチョコ	0.261
.5×2.5	0.261
ad	0.261
ブリュ	0.261
di	0.261
厚さ	0.261
パッケージのデザインが異な	0.261
は一切使用	0.261
▁"	0.261
のでご了承下さい	0.260
サイ	0.259
直送	0.259
脂肪酸	0.259
▁(※	0.259
シル	0.257
ースト	0.257
レンジ	0.257
の味と	0.257
ッツェル	0.257
崎	0.257
息	0.257
ケーキは	0.257
生き	0.257
鼻	0.257
420	0.257
粒が	0.257
又は	0.257
を心	0.257
勝	0.257
浄	0.257
▁フルタ製菓	0.257
ぽ	0.257
自社	0.257
温	0.257
箱セット	0.255
▁特定原材料当商品には特定原材料	0.255
をご用意	0.254
▁アメリカ	0.254
▁コナコーヒー	0.253
大豆レシチン	0.252
多湿を避け涼しい場所に保存し	0.251
▁お土産がポイント	0.251
旨み	0.251
汁	0.251
ージャ	0.251
を越	0.251
スペ	0.251
▁メーカー名	0.251
甘すぎ	0.251
句	0.251
噌	0.251
×28	0.251
小さく	0.251
沖縄県	0.251
コンセプト	0.251
315	0.251
ブリ	0.251
評	0.251
人ロドルフ	0.251
セン	0.251
ご確認下さい	0.251
強	0.251
ワー	0.251
オリジナルブレンド	0.251
をご希望の場合は	0.251
オブ	0.251
品目のうち	0.250
▁お酒を探す	0.249
中国	0.248
記念	0.247
▁実際にお届けする商品は	0.247
賞味期間は短くなります	0.247
ご連絡	0.247
カナダ	0.246
原材料は	0.246
▁)	0.246
ーク	0.246
消費期限	0.246
ヘーゼルナッツが	0.246
至	0.246
▁85	0.246
hocola	0.246
▁オランダ	0.246
喜ばれます	0.246
▁マカダミアナッツ	0.246
04	0.244
カロリー	0.244
▁2.	0.244
%)	0.242
美味しいです	0.242
▁カナダ	0.242
マラソン	0.242
バレンタインチョコ	0.239
340	0.239
脱脂	0.239
風景	0.239
▁ファミリーサイズ	0.239
個の大きさ	0.239
小豆	0.239
低カロリー	0.239
蒜山	0.239
長い	0.239
イチゴパウダー	0.239
:1.4	0.239
札幌市	0.239
▁クロ	0.239
175	0.239
全粒粉	0.239
予め	0.239
シンプルな	0.239
780	0.239
支払い	0.239
早期	0.239
IO	0.239
280	0.239
古く	0.239
font	0.239
キャラメルチョコレート	0.239
モー	0.239
メイド	0.239
還元	0.239
灰分	0.239
:26	0.239
なくて	0.239
高温多湿をお避け	0.239
はお受け	0.239
中は	0.239
伊豆諸島	0.239
丈	0.239
サッカー	0.239
102	0.239
じて	0.239
ーチョコ	0.239
必要な	0.239
ハワイのお土産	0.239
ショートブレッド	0.239
そうな	0.239
しているので	0.239
者の	0.239
オランダ産	0.239
15×27×3	0.239
黄色	0.239
新発売	0.239
ショップ	0.239
閲	0.239
明治	0.239
ケ月	0.239
▁グリコ	0.236
▁アメリカ製	0.236
▁マカデミアナッツ	0.234
北海道産の	0.234
▁ネット	0.232
味わいは	0.232
▁要冷蔵	0.232
▁トリュフチョコ	0.232
70%	0.232
小分けに便利な個包装	0.230
煮	0.230
袋セット	0.230
スペイン	0.229
スウィーツ	0.228
ベース	0.228
になりますので	0.228
ハワイみやげ	0.228
ハワイ土産	0.228
ky	0.228
長く	0.228
におい	0.228
円の送料がかかります	0.228
個装紙込み	0.228
260	0.228
ハワイアンコスメ	0.228
ちんすこうショコラ	0.228
スティッチ	0.228
加工地	0.228
魅力です	0.228
引越し	0.228
お客様へ	0.228
秒	0.228
(24	0.228
栗	0.228
アメリカ	0.226
▁明治製菓	0.225
▁食品	0.225
un	0.225
商品によって異なります	0.225
文字	0.224
×1、	0.224
▁オーストラリア	0.224
ピューレ	0.223
臭	0.223
月の当社カタログ売り上げ実績です	0.223
クレジットカード	0.223
海外おみやげがポイント	0.223
AL	0.223
▁専用ブラウザでご覧下さい	0.223
赤ワイン	0.223
)×3	0.223
▁金額約	0.223
▁420	0.223
カンガルー	0.223
73	0.223
▁全粉乳	0.221
▁希望小売価格	0.220
レンダー	0.220
学校	0.220
お早めにお召しあがりください	0.220
▁table	0.220
ォーカー	0.218
タヒチ	0.218
▁48	0.218
本物	0.215
麹	0.209
コム	0.209
詳細なお問合せ先	0.209
鳥	0.209
パソコン	0.209
該	0.209
に飾	0.209
は予告無く変更	0.209
をしっかり	0.209
有機農家から	0.209
▁チアチョコリッチ	0.209
年齢	0.209
ラメル	0.209
種類です	0.209
------	0.209
開催中の	0.209
スプレ	0.209
▁フラワー	0.209
テージ	0.209
きに	0.209
この商品に関する	0.209
▁江崎グリコ株式会社	0.209
美味しいですよ	0.209
贈答用	0.209
景	0.209
▁高	0.209
糊料	0.209
ロウ	0.209
写	0.209
▁アーモンドチョコ袋	0.209
▁51	0.209
216	0.209
飽きた	0.209
バイオ	0.209
らかじめ	0.209
で送料が	0.209
淡	0.209
ビスケットと	0.209
/30	0.209
症	0.209
▁生チョコの切れ端	0.209
コット	0.209
▁30000	0.209
の香りがお口	0.209
イング	0.209
ストライプ	0.209
々です	0.209
▁株式会社ロッテ	0.209
孤	0.209
輸出	0.209
交換はお受け	0.209
制作	0.209
ご覧下さい	0.209
▁株式会社明治	0.209
詞	0.209
good	0.209
ドール社は	0.209
雛	0.209
同封	0.209
振込み	0.209
+630	0.209
▁222	0.209
をサンドした	0.209
▁リンツミニ	0.209
チョコを詰めました	0.209
プン	0.209
ワード	0.209
コンビニ	0.209
(188	0.209
を合わせた	0.209
大人のチョコレートです	0.209
チア	0.209
ほろ苦	0.209
シルバニア州	0.209
円を	0.209
本州	0.209
長期	0.209
▁■■	0.209
に合わせ	0.209
笠原諸島	0.209
▁たけのこの里	0.209
別途送料が加算されます	0.209
ひとくちサイズの	0.209
作物	0.209
ドミニカ	0.209
▁食感	0.209
ビーチ	0.209
締	0.209
豊富で	0.209
シィ	0.209
合わせて	0.209
クレ	0.209
日指定	0.209
雑誌で話題	0.209
バージ	0.209
▁オーガニックチョコレート	0.209
イタリア産	0.209
ケット	0.209
ミルクチョコレートの中に	0.209
育てた	0.209
ミルトン	0.209
▁ひとくち	0.209
年始	0.209
ページ下部	0.209
▁02	0.209
の高さが際立つ	0.209
恐れ	0.209
大人の味わい	0.209
世界で初めて	0.209
ストレート	0.209
ハーシーは	0.209
くせ	0.209
ギフトです	0.209
品との同梱	0.209
がお得	0.209
▁割れ	0.209
期間限定商品	0.209
マスカット	0.209
お願い	0.209
ポール	0.209
ミルクチョコレートで包みました	0.209
ウェルカム	0.209
郵便振替	0.209
1)	0.209
宝	0.209
以下の涼しい場所に保存して下さい	0.209
▁フランス土産	0.209
黄金のミルク	0.209
リッ	0.209
)5	0.209
HERSHEY	0.209
▁55	0.209
▁食塩	0.209
となる場合があります	0.209
売り上げ	0.209
がお	0.209
個人	0.209
ブラウザは	0.209
▁ロー	0.209
ライン	0.209
▁ココナッツ	0.209
フラワー	0.209
酒精	0.209
ing	0.209
▁ダーク	0.205
果汁	0.204
ハワイお土産	0.204
ジー	0.200
デコレーション	0.200
濃	0.199
デス	0.199
▁ハワイ土産	0.199
!1	0.199
輸入者	0.199
ペ	0.198
稿	0.197
還暦	0.197
注目	0.197
んぼ	0.197
が遅	0.197
キャンドル	0.194
アポロ	0.193
用として	0.193
下旬	0.193
画面	0.193
の詳細	0.193
▁お酒	0.193
品名	0.193
シーズ	0.193
いただいた場合	0.193
料理	0.193
ite	0.193
リアン	0.193
マース	0.193
られない	0.193
チョコチップクッキー	0.193
▁桜	0.193
ジャー	0.190
オランダ	0.190
)〜	0.190
フラン	0.190
グラニュー糖	0.190
▁メーカー製造日より	0.190
頂ける	0.190
ビターチョコ	0.189
▁お返し	0.188
▁ロシア	0.186
プチーノ	0.186
マイルドで	0.186
に弱い	0.186
ご入金確認後	0.186
気に入り	0.186
▁黒豆	0.186
しますので	0.186
払い	0.186
たた	0.186
▁エキストラ	0.186
を頂く	0.186
pa	0.186
がございますので	0.186
▁マスコットコアラ	0.186
ローキティ	0.186
ペル	0.186
に発送	0.186
▁ブランデー	0.186
ご入金	0.186
▁本商品は	0.186
▁メッセージ	0.186
やかで	0.186
新品	0.186
!※	0.186
ハワイアンサン	0.186
▁※(	0.186
▁ベルギー製	0.186
▁スイス	0.185
▁贈り物	0.182
アイス	0.181
▁オーガニック	0.181
▁必ず	0.181
商品の特性上	0.179
ぷく	0.179
▁コアラ	0.179
..	0.179
▁アーモンドチョコ	0.179
ヶ	0.179
ガム	0.179
ran	0.179
▁15.5×27.3×2.5(	0.179
をして	0.179
代引手数料	0.179
キャラメルソース	0.179
ケース納品です	0.179
▁ハワイお土産	0.179
〜9	0.178
▁---	0.176
85%	0.176
▁表示	0.176
代引き不可	0.176
▁O	0.174
▁ハワイみやげ	0.173
洗	0.173
▁ハワイおみやげ	0.173
子供	0.172
含ま	0.171
海外旅行	0.169
ke	0.167
でご提供	0.167
アガベ	0.167
▁商品区分	0.167
▁マイルドな	0.167
▁レシチン	0.167
缶チョコ	0.167
CD	0.167
輸入時期により	0.167
▁900	0.167
上質なミルク	0.167
賀	0.167
風に	0.167
アス	0.167
ビスケットの	0.167
作るために必要な新鮮なミルク	0.167
205	0.167
▁長させました	0.167
▁チョコウエハース	0.167
日ほどかかる場合がございます	0.167
40)	0.167
you	0.167
態	0.167
アメリカ産	0.167
京区	0.167
▁十勝	0.167
複数の	0.167
ランカ	0.167
他のビーチリゾートを探す	0.167
故	0.167
は避けて	0.167
ギフトにおすすめ	0.167
▁チョコレートフォンデュ	0.167
は変わる場合があります	0.167
イメージ画像	0.167
ホワイトチョコ各	0.167
▁カシューナッツ	0.167
-24	0.167
▁を豊富に手	0.167
原産地	0.167
確認ください	0.167
キャラメル工場を営んでいましたが	0.167
者が	0.167
量産化が可能になり	0.167
▁新潟	0.167
ハーシーは次々に	0.167
チョコスナックです	0.167
▁日食	0.167
一部の人々しか口にすることの	0.167
▁170	0.167
シーズンの	0.167
ペリ	0.167
ハーシーをビッグブランドへと成	0.167
リッシュ	0.167
結晶が	0.167
貴重な	0.167
▁いままで裕福な	0.167
▁できなかったチョコレートは	0.167
)×5	0.167
VE	0.167
にチョコレート工場を建設しました	0.167
ざわり	0.167
・・・・・・・・	0.167
ヒット商品を開発し	0.167
▁プリン	0.167
お見積	0.167
興味をもちペン	0.167
不二	0.167
枚入っています	0.167
味わいと薫りを楽しめる	0.167
カンパニーの創設者ミルトン	0.167
▁庶民のものとなって誰もが	0.167
尻	0.167
ナッツの香ばしさ	0.167
必要な場合は	0.167
、630	0.167
に入れることができました	0.167
▁チョコレート市場の成長に	0.167
いないので	0.167
チェック	0.167
絞	0.167
トフィー	0.167
▁デリチャーチは酪農の中心地で	0.167
袋に入れて	0.167
県産	0.167
開催	0.167
日本産	0.167
移	0.167
江崎グリコ	0.167
をより	0.167
テー	0.167
他のアメリカ	0.167
国内産	0.167
のせて	0.167
は不可	0.167
ビン	0.167
時代	0.167
改	0.167
▁箱入り	0.167
の可愛い	0.167
ワールド	0.167
レストラン	0.167
ドミニカ共和国	0.167
ロシェル	0.167
八丈島	0.167
の良	0.167
食品添加物	0.167
たんぱく	0.167
切れ端	0.167
87	0.167
お支払い方法	0.167
を与	0.167
380	0.167
納品	0.167
クリ	0.167
ニャ	0.167
▁210	0.167
▁子供	0.167
▁お土産	0.165
▁アレルギー表示	0.160
にどうぞ	0.159
▁ラズベリー	0.159
▁通販	0.159
メイ	0.157
ホイップ	0.157
発送まで	0.157
▁ピーナッツチョコレート	0.157
▁美味しいです	0.157
ダークチョコ	0.153
られません	0.152
シャル	0.152
▁商品到着後	0.152
本商品は	0.152
義	0.152
著	0.152
ご注文時に	0.152
スパイス	0.152
メーカーの都合により	0.152
ハネムーン	0.152
▁アイス	0.152
▁カバリア	0.152
お読みください	0.152
▁正	0.149
ニュージーランド	0.148
投	0.147
ore	0.147
ご了承の上	0.147
margin	0.147
フィン	0.145
海外おみやげ	0.145
ho	0.144
高温多湿を避けて保存してください	0.143
▁マカダミアナッツチョコ	0.143
ウェ	0.139
-345	0.139
輸入時期によりパッケージ等	0.139
食塩相当量	0.139
銀行振り込み	0.139
:125	0.139
におすすめです	0.139
出来上が	0.139
】☆	0.139
開封前	0.139
の豊かな	0.139
840	0.139
削	0.139
沖縄の方を除き無料になります	0.139
マイル	0.139
GI	0.139
短冊のし	0.139
111	0.139
設	0.139
均等	0.139
抗菌	0.139
当店の人気	0.139
層の	0.139
満た	0.139
ヤシ	0.139
スリー	0.139
品質上の問題はございません	0.139
こんだ	0.139
円プラスさせて頂きます	0.139
ふわふわ	0.139
が変更になる場合がございます	0.139
銀行	0.139
ご注文確認後	0.139
9,000	0.139
IE	0.139
答	0.139
お送りする	0.139
エティー	0.139
▁※5	0.139
望	0.139
▁モンドセレクション金賞受賞	0.139
小枝	0.139
ボワーズ	0.139
広告	0.139
客様	0.139
eb	0.139
ほろ苦いココアパウダーをかけて	0.139
宛	0.139
肌	0.139
と異なる場合がございます	0.139
欠け	0.139
販売は	0.139
電子レンジ	0.139
ゲット	0.139
独自	0.139
▁ビスケット	0.139
カロチノイド色素	0.139
▁In	0.139
▁●1	0.139
送料がかかります	0.139
▁セット内容	0.137
▁他の	0.136
▁中国	0.135
▁お得	0.135
価格は	0.132
メーカーの製造時から	0.132
賞味期限までの期間となります	0.132
▁高さ約	0.128
ビスケットに	0.128
ハム	0.128
スティ	0.128
させました	0.128
氏は	0.128
ent	0.128
何卒	0.128
代引	0.128
ir	0.128
お盆	0.128
ちょ	0.128
▁×10	0.128
▁業務用	0.128
▁金額	0.127
プレート	0.127
▁梱包	0.125
ピーナツ	0.125
-】	0.124
時間が	0.123
▁ご注文後	0.123
決済	0.122
(36	0.122
▁33	0.119
してお召し上がり下さい	0.119
チップス	0.119
ぱ	0.119
の新しい	0.119
生チョコに	0.119
リック	0.119
貝	0.119
挙式日	0.119
商品規格	0.119
▁ミッキー	0.119
ガン	0.119
依頼	0.119
フルタ	0.119
希少価値	0.119
▁パンダ	0.119
ベーキングパウダー	0.119
ホルダー	0.119
オーガニックフォレスト	0.119
グルテン	0.119
お名前	0.119
▁ハートチョコレート	0.119
、“	0.119
やパッケージデザイン	0.119
-20	0.119
印象的	0.119
帝	0.119
練り込み	0.119
▁お誕生日	0.119
ミルクチョコを	0.119
旧商品の在庫がなくなり次第	0.119
内容量など	0.119
▁ココ	0.119
リニューアル商品の	0.119
遠	0.119
マロングラッセ	0.119
艶	0.119
の人気を誇る	0.119
▁メロン	0.119
成人	0.119
粗糖	0.119
Web	0.119
▁チョコ美味しいです	0.119
▁当店でも人気の商品です	0.119
甘みを	0.119
のチョコは美味しいです	0.119
店長オススメ	0.119
クール便での発送となります	0.119
ハワイのお土産で有名な	0.119
一度ご賞味ください	0.119
ハワイアンサン社のものは	0.119
チョコレートをご提供いたします	0.119
▁お土産商品としても有名な	0.119
▁ハワイアンサン社	0.119
紅麹色素	0.119
▁価格的にもリーズナブルで	0.119
▁w	0.119
は予告なく変更する場合があります	0.119
が遅れることも御座います	0.119
交換の対応は不可となります	0.119
ベルギーチョコレート	0.119
欠品が発生した場合は出荷	0.119
出荷までに約	0.119
スナック菓子	0.119
常温で保存して下さい	0.119
)×6	0.119
対象商品	0.119
る場合でも返品	0.115
週間前後かか	0.115
▁対象商品です	0.115
201311_	0.113
太	0.111
▁チ	0.111
賞味期間は	0.111
▁ブルボン	0.110
箱あたりの	0.108
ナルド	0.107
▁×12	0.104
訪れる	0.104
ハチミツ	0.104
箱買い	0.104
▁ふわふわ	0.104
島の	0.104
マカデミアナッツを	0.104
ニン	0.104
にもオススメ	0.104
シス	0.104
▁関連商品はこちら	0.104
▁プ	0.104
ネムーン	0.104
クール便での発送になります	0.104
▁まとめ買い	0.104
ンドン	0.104
が予告なく変更され	0.104
ホワイトチョコは	0.104
▁ヘーゼルナッツチョコレート	0.104
の環境	0.104
▁オーストラリア菓子	0.104
▁ショコラティエ	0.104
クス	0.104
品種	0.104
▁☆*☆*☆	0.104
▁直径	0.104
を加えて	0.104
エクアドル産	0.104
に近	0.104
▁ナッツの王様	0.104
ローストされた	0.104
ジャージー牛乳	0.104
熱	0.104
カラボー	0.104
生姜	0.098
清	0.098
番号	0.098
おみやげがポイント	0.098
。(15°	0.093
品質向上	0.093
パレ	0.093
なくなり次第終了	0.093
▁バランス	0.093
氏が	0.093
チョコレートクリームを	0.093
表示があります	0.093
グリセリン	0.093
かぼちゃ	0.093
トラン	0.093
199	0.093
ならでは	0.093
甘さは	0.093
ket	0.093
アンド	0.093
漢	0.093
▁原産国オーストラリア産	0.093
うれ	0.093
ネズエラ	0.093
70%、	0.093
リシャ	0.093
ライト	0.093
▁82	0.093
チュール	0.093
▁〈	0.093
ネク	0.093
57	0.093
桜	0.093
の歴史	0.093
カレミルクチョコレート	0.093
ケー	0.093
個箱入	0.093
が適温	0.093
ルメ	0.093
▁開封後は冷蔵庫	0.093
の人々	0.093
STCO	0.093
通常商品	0.093
大人買い	0.093
カリ	0.093
筆	0.093
特長	0.089
魚	0.088
▁ハワイアンサン	0.088
)★<	0.088
全品ポイント	0.088
),	0.088
▁〜	0.087
激安祭	0.086
ロッ	0.086
▁イギリス	0.086
▁ニュージーランド	0.086
領収書	0.084
▁ディズニー	0.084
昆布	0.084
アソートチョコレート	0.084
▁フレーク	0.084
紀	0.084
輪	0.084
▁割引	0.084
税込み	0.084
ビット	0.084
セアニア	0.084
が異なる場合があります	0.084
ご使用	0.084
▁花	0.084
▁チョコレートバー	0.084
ライム	0.084
リオ	0.084
さくら	0.084
▁単品合計金額	0.084
詰	0.084
pcs	0.081
▁原材料砂糖	0.081
▁Carre	0.078
エスプレッソ	0.078
▁ミルクチョコと	0.076
新鮮	0.076
宴	0.076
(*^	0.076
^*	0.076
▁出産祝い	0.076
ロシア	0.076
▁岡山	0.076
予防	0.076
どっさり	0.076
ススメです	0.076
▁雑貨	0.076
長野	0.076
パウンドケーキ	0.076
汚	0.076
▁メキシコ	0.076
カレカカオ	0.076
ブルボン	0.073
バースデー	0.073
の組み合わせ	0.073
一口チョコレート	0.070
フレーバーコーヒー	0.070
▁チョコチップス	0.070
▁イースト	0.070
個で	0.070
▁1.4	0.070
よく合います	0.070
▁明治製菓株式会社	0.070
ゆうパック	0.070
処分	0.070
利	0.070
る場合もございますので	0.070
▼	0.066
バレンタイン特集	0.064
お早目にお召し上がりください	0.064
激安ケース	0.064
Disney	0.064
つぶ	0.064
for	0.064
性質上	0.064
ウン	0.064
▁とろけるような	0.064
border	0.064
魅了	0.064
▁キャラクター	0.064
▁まとめ買いはコチラ	0.064
スメ	0.064
▁SS	0.064
植物性	0.064
関連キーワード	0.062
▁]	0.062
箱セットで	0.062
のケーキ	0.062
ard	0.062
のり	0.060
▁名入れ	0.060
▁黒糖	0.060
ので安心です	0.060
動物	0.060
▁スペイン	0.060
width	0.058
イギリス	0.057
興	0.056
糖蜜	0.056
ロック	0.056
に使用	0.056
賞味期間に関わらず	0.056
イージャパンショッピングモール	0.056
セット以上で送料無料	0.054
こちらから	0.054
Aug	0.052
▁夏期期間はクール包装	0.052
マカダミアチョコ	0.052
▁ヘーゼルナッツチョコ	0.052
キー	0.051
▁レビュー	0.046
25%	0.046
三温糖	0.044
▁バースデー	0.044
箱あたり	0.042
}	0.042
▁製品	0.041
リアルブラウニー	0.040
▁生産	0.039
▁HAND	0.039
▁小笠原諸島	0.038
▁デコ	0.038
▁おみやげ	0.038
チルド	0.035
オーガニックチョコレートです	0.033
▁アソートチョコレート	0.032
通目のメールをご確認ください	0.032
商品名に記載されている	0.032
リニューアル後の商品	0.032
のそれぞれの注意事項を必ず	0.032
【○○	0.032
商品がリニューアルしている場合	0.032
*、	0.032
最安値挑戦	0.031
ミッキー	0.031
▁誕生日	0.031
スポンジ	0.031
ミニー	0.031
----------------	0.030
▁岡山県真庭市蒜山上徳山	0.028
1462-1	0.028
ジンジャー	0.027
▁IN	0.027
イージャパンモール	0.024
韓国	0.023
IMO	0.021
▁韓国	0.020
有限会社オーガニックフォレスト	0.017
オーガニックのチョコレートです	0.016
スイスに運ばれ製造	0.016
加工されている	0.016
▁1852	0.016
の老舗であるマエストラーニ社が	0.015
認定を受けたドミニカ共和国	0.015
スイスオーガニック認証機関	0.015
の認証を取得した	0.014
HAND	0.014
原材料だけを使って製造した	0.014
香港	0.014
遺伝子組み換えではない	0.014
バーボンバニラ	0.012
▁個装サイズ	0.000
へ約	0.000
恐	0.000
プライスで	0.000
▁遊び心のあるミニチュアチョコは	0.000
のジャージー牛乳	0.000
大阪の有名老舗チョコレート専門店	0.000
チューリップ	0.000
離島への	0.000
:24×25×18	0.000
▁さくら	0.000
仕様が	0.000
チョコレートは高温になると溶けて	0.000
脹	0.000
☆★	0.000
屈	0.000
-560-162	0.000
麦	0.000
マレーシア産	0.000
▁東京都港区西新橋	0.000
時計	0.000
▁お届け日は	0.000
▁香り	0.000
文字の配置やフォント	0.000
同梱可能な商品は別に販売	0.000
:00-	0.000
想像	0.000
食品に	0.000
クール便での配送をおすすめ	0.000
ife	0.000
は受け	0.000
カナダお土産	0.000
粒プチビット	0.000
のしは全商品について	0.000
実質	0.000
オブジェ	0.000
プロデザイナーの監修花ギフト	0.000
(204	0.000
資材	0.000
上品な甘さの	0.000
送料が重複で自動計算されますが	0.000
新宿高野	0.000
大量購入	0.000
在宅日時を必ずご確認ください	0.000
桂	0.000
絶妙なおいしさ	0.000
召しあがり	0.000
商品画像	0.000
仕様アレルギー	0.000
柑	0.000
olid	0.000
▁カプッチョ	0.000
決済は	0.000
めでとう	0.000
フラワーギフト	0.000
お届け指定日	0.000
指定可能です	0.000
▁冷凍商品のみのご注文の場合は	0.000
いたしますが	0.000
監修	0.000
▁高温多湿を避け一定温度の	0.000
サイズにしました	0.000
季節限定品	0.000
ボディ	0.000
おみやげです	0.000
▁割れや欠けのあるショーコラ	0.000
けています	0.000
▁実質送料無料	0.000
3150	0.000
ける事が可能です	0.000
の商品との同梱も	0.000
クリーミーな本格派	0.000
落札後のキャンセルは	0.000
制作に入りませんので	0.000
【×】	0.000
!↓★★	0.000
えめ	0.000
▁おまかせ	0.000
がある場合	0.000
商品名に記載	0.000
閣	0.000
オーロ種	0.000
写真はイメージとお考え下さい	0.000
冷暗所で保存して下さい	0.000
パッケージに日本語	0.000
鍛	0.000
確定メール	0.000
商品につきましては	0.000
:10×10	0.000
シャレ	0.000
チョコレートコーティングしました	0.000
多くの人々に愛	0.000
発表は	0.000
)×12	0.000
按	0.000
をご連絡いたします	0.000
お届け時期について	0.000
冷凍便については	0.000
してございます	0.000
塞	0.000
UR	0.000
胆	0.000
▁チョコレート製品は	0.000
Gain	0.000
商品は出荷	0.000
▁ブランドハワイアンホースト	0.000
RCPnewlife	0.000
口にすることの	0.000
肩	0.000
ビーン	0.000
輝く	0.000
▁185	0.000
スパイ	0.000
白く固ま	0.000
楕	0.000
受注発注	0.000
ケート	0.000
は新	0.000
この製品は内袋	0.000
▁当選	0.000
常温品とクールの商品は	0.000
が中心ですが	0.000
市東灘区	0.000
▁キングマカデミアン	0.000
クール便でのご利用はできません	0.000
▁アルフォート	0.000
が遅れること	0.000
脂肪分が固まって	0.000
-162	0.000
▁29999	0.000
お届けまで約	0.000
セット単位でお申し込みください	0.000
ちょこっとサイズ	0.000
▁大阪市北区	0.000
射	0.000
わさび	0.000
▁製造国日本	0.000
お客	0.000
損傷	0.000
モーリ	0.000
至福のひととき	0.000
▁北海道の大	0.000
】::621	0.000
hoco	0.000
写真を	0.000
中心に	0.000
打	0.000
からのオーダーとなりますので	0.000
嵐	0.000
381	0.000
欧風菓子です	0.000
析	0.000
商品のみ	0.000
▁写真はイメージ	0.000
ヒルゼンミルキーのジャージー牛乳	0.000
小樽	0.000
認証機関	0.000
は新札	0.000
大量購入割引	0.000
▁0120-302-300	0.000
珠	0.000
ショコ	0.000
宅	0.000
ラッシュ	0.000
舖	0.000
濃厚なヘーゼルナッツペーストを	0.000
▁製造国	0.000
こめて	0.000
▁■10	0.000
zel	0.000
もろこし	0.000
▁自宅用簡易包装にてお届け	0.000
は現在	0.000
撲滅	0.000
▁Zaabar	0.000
種類のメッセージ	0.000
パッケージ等	0.000
スマート	0.000
食べたくなる	0.000
輩	0.000
エラ	0.000
チョコレート類は夏期期間中	0.000
」【	0.000
JAPAN	0.000
を込めて	0.000
肴	0.000
になりますと油脂分が溶け	0.000
ばっちり	0.000
化学	0.000
油脂分が分離	0.000
る事を	0.000
▁要	0.000
かして	0.000
早い	0.000
またヴァレンタインデー	0.000
即落	0.000
▁ミルクキャラメルチョコ	0.000
のお気に入りが見つかる	0.000
本物の美味しさをお届けします	0.000
▁総額価格が	0.000
ーベルチュール	0.000
漁	0.000
情	0.000
鵬	0.000
なくなり次第	0.000
+525	0.000
バール	0.000
▁おなじみのキュートな形	0.000
訳あり生チョコ	0.000
ピンポン	0.000
:24×28×14	0.000
21×21×3	0.000
▁ルタオ	0.000
ドレフト	0.000
(11	0.000
猪	0.000
れませんので	0.000
で対応	0.000
:1825	0.000
スペック	0.000
高品質なカカオの香りとバニラ	0.000
金額の	0.000
襟	0.000
芋焼酎	0.000
ファミリーサイズ	0.000
▁記念日	0.000
風味の点	0.000
製造国スイス	0.000
湾	0.000
▁ひるぜん	0.000
▁深い味わいをお楽しみ下さい	0.000
髪	0.000
▁サンバ	0.000
フォンダンショコラ	0.000
▁富士	0.000
迷ったら	0.000
では多少色	0.000
年に設立された	0.000
たえ	0.000
一度店舗へお問い合わせください	0.000
---------	0.000
商品変更	0.000
▁一口生クリームチョコレート	0.000
訳あり商品の	0.000
雨	0.000
のショーコラ	0.000
はお避け	0.000
欠けがある訳あり商品の詰め合わせ	0.000
クール送料は無料です	0.000
代引手数料料金表	0.000
アカシア	0.000
カーズ	0.000
ッチング	0.000
になりますので他の商品	0.000
伺	0.000
の花束	0.000
関東甲信越発クール便	0.000
マロングラッセは発売から	0.000
ep	0.000
台湾お土産	0.000
かるい	0.000
▁シル	0.000
3-20-1	0.000
多少色	0.000
狂	0.000
ルタオ	0.000
日後の	0.000
▁軽食品	0.000
マーケットオー	0.000
▁ミルクチョコレートとウエハース	0.000
香料仕様賞味期限	0.000
課	0.000
となり個別	0.000
1】【	0.000
DE	0.000
汗	0.000
ミトク	0.000
▁ヴァレンタインデー	0.000
他の通常販売の商品との同梱も	0.000
履	0.000
▁韓国みやげ	0.000
パープル	0.000
ze	0.000
11_	0.000
▁ご注文時は	0.000
筑	0.000
:15×15	0.000
のチョコレートショップ	0.000
η	0.000
歯応えと	0.000
コイヤ	0.000
鶴	0.000
▁ラスベガス	0.000
馳	0.000
閉じ込	0.000
がバランスよくお口でひろがります	0.000
▁道南食品	0.000
サイズ個装サイズ	0.000
4.2%	0.000
焙煎した	0.000
鱈	0.000
をオススメします	0.000
ide	0.000
半角のアルファベット	0.000
▁千	0.000
グリーンドリーム	0.000
中央区	0.000
ゴール	0.000
だからこそクオリティ	0.000
零	0.000
韓国お土産	0.000
トクした気分になれちゃいます	0.000
像	0.000
▁あなただけ	0.000
夜景	0.000
寮	0.000
ご理解を賜りますよう	0.000
▁原材料は	0.000
訓	0.000
パワーアップした	0.000
やおきん	0.000
▁商品説明商品詳細	0.000
▁落札いただいた方は	0.000
同一配送先	0.000
に似せた	0.000
д	0.000
クリーミーな味わい	0.000
乳牛の中でもっとも	0.000
色をお選びいただけます	0.000
クラウン	0.000
記号	0.000
.*	0.000
しょうが	0.000
BLS	0.000
о	0.000
伯方	0.000
に包み込みおいしく仕上げました	0.000
▁素材にこだわり	0.000
新橋	0.000
▁★★	0.000
爽快ドラッグ	0.000
陣	0.000
いんげん	0.000
>14	0.000
福な	0.000
▁製造工場では	0.000
Market	0.000
沈	0.000
円加算	0.000
終	0.000
のお手	0.000
定番の味です	0.000
幟	0.000
抽	0.000
の味わいにもこだわりました	0.000
32-	0.000
振替	0.000
シアニン	0.000
ヘーゼルナッツチョコ	0.000
選りすぐりの	0.000
▁様々な	0.000
心地	0.000
で女性らしさを表現しました	0.000
距	0.000
▁エレガント	0.000
ひとくちサイズの携帯	0.000
クリームチョコ	0.000
舗	0.000
▁アルファベット	0.000
▁情熱	0.000
臨	0.000
ショーコラを中心に	0.000
胡蝶蘭などの	0.000
つだけのオリジナル	0.000
現地仕様	0.000
喰	0.000
の順	0.000
▁のおみやげ	0.000
127	0.000
タイムや	0.000
迫	0.000
性質	0.000
甥	0.000
卵乳小麦そば落花生えびかに	0.000
◯	0.000
が英字	0.000
́ω	0.000
で密封包装されています	0.000
オレンジピールの	0.000
▁〒105-0003	0.000
随	0.000
のおとも	0.000
眺	0.000
没	0.000
気温の高い	0.000
商品注文の際に買い物カゴに入れる	0.000
▁きのこたけのこ袋	0.000
商品を複数ご注文の場合	0.000
霜	0.000
イエロー	0.000
ウス	0.000
ABd	0.000
クラン	0.000
にお送りすることは可能です	0.000
、525	0.000
▁お金	0.000
彫	0.000
口解けを	0.000
算されますが	0.000
潰	0.000
のおいしさが広がります	0.000
1430	0.000
パッケージに日本語表記あり	0.000
≧	0.000
×200	0.000
紋	0.000
フォルニア	0.000
みんなで食べ	0.000
押し花	0.000
箸	0.000
▁同梱可能	0.000
~	0.000
ルメトル	0.000
)80	0.000
きれいにカットできます	0.000
iframe	0.000
スタイリッシュな	0.000
傾	0.000
敬老の日特集	0.000
サイパン	0.000
敵	0.000
生涯	0.000
までにご注文ください	0.000
▁原材料の一部に	0.000
心斎橋	0.000
産の栗を	0.000
▁例	0.000
ぷる	0.000
ちょう	0.000
ラデリ	0.000
の落札	0.000
フォレスト	0.000
パイです	0.000
暗所	0.000
丸い	0.000
せんべ	0.000
感覚で	0.000
▁岐阜県大垣市	0.000
やさ	0.000
工場で製造しています	0.000
▁77	0.000
▁050	0.000
揉	0.000
▁アメリカ土産	0.000
ゴージャス	0.000
▁合格祝い	0.000
自動配信メール	0.000
▁可愛いスタンプもお使い頂けます	0.000
でお届けする	0.000
ナショナル	0.000
▁しみ	0.000
/48	0.000
貧	0.000
▁ディ	0.000
▁フリーズドライのいちご	0.000
個製造国スイスご注文後	0.000
▁アメリカのおみやげ	0.000
123	0.000
】02	0.000
が当	0.000
禅	0.000
で大人気の柔軟剤ダウニー	0.000
プラリネや	0.000
▁ギラデリ	0.000
×225	0.000
窪	0.000
カカオを使って	0.000
胞膜	0.000
ホワイトチョコのセット	0.000
運送会社	0.000
/111	0.000
商品ラベルに記載	0.000
痺	0.000
▁バースデーケーキ	0.000
までの目安	0.000
▁◆◆	0.000
▁ココからポイント	0.000
ノース	0.000
嵯峨	0.000
にて御確認下さい	0.000
end	0.000
▁アンパン	0.000
::381	0.000
に本店を構	0.000
▁brother	0.000
円以上のお買い上げ	0.000
ますようお願い致します	0.000
クランチがたっぷり入った	0.000
兵衛商店	0.000
厨	0.000
ゴールドに着色致します	0.000
キッス	0.000
にがい	0.000
キャラメルのハーモニー	0.000
方形	0.000
また商品代金	0.000
年愛されているおいしさです	0.000
すすめ	0.000
シグネチャー	0.000
串	0.000
OTTE	0.000
の究極のビターチョコレート	0.000
くち	0.000
輸送中等に起こる	0.000
ビター焼きショコラ	0.000
銀行振込の場合は入金確認後	0.000
お取り寄せの為	0.000
+420	0.000
輪の	0.000
記号は入り	0.000
鐘	0.000
個以上は	0.000
エスプレッソチョコ	0.000
一粒ずつ真空パック	0.000
ースター	0.000
はアメリカ	0.000
コーヒーの香りが漂う大人の味わい	0.000
▁ら	0.000
hoc	0.000
四角	0.000
決済方法	0.000
追加メッセージ	0.000
枚にスライスしてお召し上がると	0.000
重量は焼きロットによって若干バラ	0.000
▁応募	0.000
この商品は通常便でお届け致します	0.000
贅沢な一品	0.000
村尾	0.000
094	0.000
さび	0.000
納品書が同梱されます	0.000
焼きウエハースでサンドした	0.000
魔法の生チョコレート	0.000
丁寧に作り上げました	0.000
メロンホワイトチョコレート	0.000
にて保存してください	0.000
igrjs	0.000
±	0.000
ペコ	0.000
ポーチ	0.000
▁ほろにがい	0.000
カス	0.000
メルティーキッス	0.000
樹液	0.000
柳	0.000
ヶ月かかります	0.000
コニャック	0.000
ぴつ	0.000
BL	0.000
▁薄型のスタイリッシュな	0.000
沖縄地域は	0.000
バンク	0.000
頂けるアソートです	0.000
あじさい	0.000
花束	0.000
ご希望の納品日に間に合わ	0.000
できますが	0.000
バス	0.000
果たし	0.000
時点で	0.000
教	0.000
記号のみで	0.000
さらにホワイトチョコレートの	0.000
クリスタル	0.000
▁白樺	0.000
濃厚な生クリーム	0.000
遺伝子組み換え	0.000
デザイ	0.000
訂	0.000
ケースごとに別途送料がかかります	0.000
:35×20	0.000
餃	0.000
▁サイパン	0.000
推	0.000
見た目が少し悪	0.000
負けない	0.000
押し花彩菓に	0.000
のご連絡	0.000
悲	0.000
/4968	0.000
♪【1	0.000
のお手配となります	0.000
本格派スイスの	0.000
蒲	0.000
925	0.000
▁直射日光は避けて	0.000
おいしさアップ	0.000
▁北海道産いちご	0.000
カバヤ	0.000
▁発送に	0.000
玄	0.000
ミアナッツ	0.000
植	0.000
▁中国おみやげ	0.000
写真と実際	0.000
キレ	0.000
応援	0.000
チョコのセット	0.000
ソコン	0.000
モディカ	0.000
ε	0.000
ショコラトリー	0.000
踏	0.000
勧	0.000
を必ずご確認ください	0.000
セット単位でお申し込み	0.000
LAND	0.000
っぱく	0.000
▁アメリカお土産	0.000
疋	0.000
が変更になる場合もございます	0.000
汚さず	0.000
みなさんの想像を少しだけ超えた	0.000
:1090	0.000
人気を誇る	0.000
へは配送できません	0.000
ビタートリュフ	0.000
▁188	0.000
▁名糖	0.000
年以上の年月をかけてつくりました	0.000
叩	0.000
メリア	0.000
▁口の中で	0.000
もしく	0.000
ソンバーグ	0.000
出しても	0.000
フォル	0.000
壌	0.000
淀	0.000
姓	0.000
長谷製菓	0.000
▁アクセ	0.000
-08	0.000
仮のものですので	0.000
刺	0.000
▁ミニビットアソート	0.000
▁ヨーロッパ土産	0.000
酔	0.000
(240	0.000
捨	0.000
▁販売終了致しました	0.000
笹	0.000
▁フラワーアレンジメント	0.000
俗	0.000
カナダ一覧はコチラ	0.000
交換について	0.000
▁リン	0.000
ライオンコーヒー	0.000
CT	0.000
:1750	0.000
般	0.000
轟	0.000
&#44;	0.000
▁焼酎トリュフチョコレート	0.000
▁メッセ神戸	0.000
19.5×19	0.000
ぱん	0.000
ココスクリームチョコ	0.000
営業日以内に	0.000
▁帯	0.000
巾	0.000
釣	0.000
ラマ	0.000
やプレゼントにぴったり	0.000
▁デューク	0.000
お一人	0.000
当店よりメールでお支払総額	0.000
▁スタンド	0.000
▁純度の高い	0.000
自慢のチョコレート	0.000
▁ココナッツクリームが	0.000
スティックチョコのサンバの	0.000
では劣ります	0.000
にもこだわりました	0.000
のチョコボール	0.000
スプレッソ	0.000
チロ	0.000
歯ざわりの	0.000
ボル	0.000
搬	0.000
湯で温めたナイフで切ると	0.000
品質はいつも通りだけれど	0.000
に音符や記号がついているひとくち	0.000
▁ベルギーの有名ショコラティエ	0.000
拳	0.000
商品注意事項	0.000
埋	0.000
トリフチョコ	0.000
ナイフ	0.000
▁ビット	0.000
▁お入れするお名前	0.000
によってお客様のイメージな	0.000
問い合わせが多い人気商品です	0.000
163	0.000
パワーアップ	0.000
1.4	0.000
▁美しい	0.000
仙	0.000
倒	0.000
袋製造国日本	0.000
領	0.000
▁チェコ	0.000
▁ポーランド	0.000
踊	0.000
】::3	0.000
平成	0.000
無料です	0.000
▁最大	0.000
ウム	0.000
レビ	0.000
47228	0.000
板チョコです	0.000
▁確認のため	0.000
時に備考欄にご記入下さい	0.000
▁231	0.000
フラワーアレンジメント	0.000
ニューカレドニア	0.000
共同購入商品の同梱は可能です	0.000
見た目が	0.000
ニブ	0.000
ぷり	0.000
のと	0.000
▁マレーシア	0.000
▁ベース	0.000
▁ご面倒	0.000
贈り物にされたいお客様へ	0.000
ローマ字	0.000
▁岡山県真庭市	0.000
★★★★	0.000
を除	0.000
のどちらかとなります	0.000
・・・29	0.000
メロンの味わい	0.000
新商品	0.000
個以上で	0.000
▁黄色	0.000
直送品	0.000
ビスケットのザクザク	0.000
商品はこちら	0.000
カカオエキス	0.000
忍	0.000
▁北海道ホワイトチョコレート	0.000
押し花彩菓	0.000
:800	0.000
縫	0.000
苗	0.000
お忘れなく	0.000
贈り物にされる場合は	0.000
滋	0.000
公式サイトより	0.000
辛子	0.000
で開	0.000
で一つ一つご用途にあわせて	0.000
ヒー	0.000
満足量感	0.000
シークレット	0.000
▁乳成分	0.000
を使ったトリュフチョコレート	0.000
に発送致します	0.000
受けて	0.000
いんげん豆	0.000
ポロ	0.000
▁ポルトガル	0.000
マヌカハニー	0.000
常温商品との同梱はできませんので	0.000
)/1	0.000
誤差	0.000
ためにも	0.000
羨	0.000
▁追加料金	0.000
楼	0.000
綿	0.000
を加工する施設において	0.000
倍エントリー	0.000
育んだ	0.000
風味のチョコレートです	0.000
時間前に	0.000
▁トラーニ	0.000
曽	0.000
作業性	0.000
壮	0.000
ウィッチ	0.000
28%!	0.000
570-	0.000
みんなで食べれるパーティサイズ	0.000
日同一配送先に限ります	0.000
▁蒜山高原焼きショコラ	0.000
独特の香りと	0.000
▁マエストラーニ	0.000
にあわせて	0.000
ポーズ	0.000
確か	0.000
原産国アメリカ	0.000
▁フィン	0.000
材質	0.000
当日お届け	0.000
▁フィジー	0.000
デザーンの	0.000
低脂肪	0.000
ギフト対応	0.000
くさん	0.000
▁*1986	0.000
韓国産	0.000
▁予め	0.000
槙	0.000
愛情	0.000
となった	0.000
燃	0.000
∧	0.000
沖縄本島を含む離島	0.000
チョコで仕上げた	0.000
ガーベラ	0.000
紀州	0.000
スペインお土産	0.000
▁おいしいオリジナルスイーツ	0.000
プチシールで対応詳細	0.000
粉糖含む	0.000
のセット販売	0.000
×1.5	0.000
口あたりの	0.000
▁99999	0.000
△	0.000
下に	0.000
を使用せずに	0.000
カーネーション	0.000
に記載されております	0.000
応	0.000
▁ひな祭り	0.000
プレゼント包装	0.000
:13×21×5	0.000
▁東京都世田谷区喜多見	0.000
通常購入の商品代が税込	0.000
アメリカみやげ	0.000
キーラ	0.000
を避け涼しい場所	0.000
の誤差	0.000
▁>>>	0.000
届け先変更は受けつけておりません	0.000
幕	0.000
がほとんど	0.000
ご了解メール	0.000
▁認証機関	0.000
▁42	0.000
軽やかな口どけ	0.000
▁実際	0.000
代引き手数料が変わります	0.000
別途送料がかかります	0.000
忘れなく	0.000
を加工	0.000
たけのこ	0.000
のおみやげギフト	0.000
▁見	0.000
選べ	0.000
湿	0.000
日前までにお申し込み下さい	0.000
▁〒650	0.000
画像と	0.000
▁28-	0.000
お届け指定日不可	0.000
浩	0.000
ネットセット製造国	0.000
つまいも	0.000
MAT	0.000
餌	0.000
匿	0.000
▁調味料	0.000
受注発注商品となります	0.000
一部成分記載省略あり	0.000
ロース	0.000
(48	0.000
濃厚抹茶	0.000
×21×3	0.000
酬	0.000
暇	0.000
個以上でお願いします	0.000
▁プロデザイナーの監修	0.000
サンドしました	0.000
騒	0.000
路	0.000
私の台所	0.000
ワッ	0.000
アルファベット	0.000
胡蝶蘭	0.000
チョコ詰め合わせ	0.000
鴎	0.000
Lind	0.000
走	0.000
あふ	0.000
生活雑貨館	0.000
哉	0.000
製造日から	0.000
ビューティフルセピア	0.000
▁ビターチョコに	0.000
すこう	0.000
高温になると	0.000
売り上げ実績	0.000
ドレ	0.000
▁ジンジャーチョコ	0.000
板チョコを	0.000
生姜粉末	0.000
温度の	0.000
富士	0.000
まな	0.000
可憐	0.000
とホワイトの	0.000
ブランデー漬け干果実	0.000
ブドウ	0.000
▁還暦	0.000
もちろ	0.000
ノール	0.000
新鮮な香りが	0.000
▁国際便を使うため	0.000
********	0.000
商品重量	0.000
バニラケーキと	0.000
でそのままチョコに加工	0.000
籐	0.000
を入れてみました	0.000
申し込み下さい	0.000
▁一口ミックスチョコレート	0.000
製造地など	0.000
ION	0.000
ain	0.000
▁海外お土産	0.000
小麦のウェハース	0.000
ぜん	0.000
〜24	0.000
くちどけ	0.000
▁特典	0.000
コーヒーの香りが	0.000
胃	0.000
▁アレンジメント	0.000
知られ	0.000
は異なる場合があります	0.000
▁新郎	0.000
熱量	0.000
でそのまま	0.000
箱セット製造国日本	0.000
▁北海道函館市千代台町	0.000
alent	0.000
は出来ませんのでご了承下さい	0.000
▁お客様からの	0.000
▁世界に	0.000
落札でポイント	0.000
拭	0.000
BON	0.000
花材	0.000
はミルク	0.000
商品の大きさ	0.000
LASS	0.000
▁カカオの恵みを手	0.000
▁ホワイトチョコレートと	0.000
▁花束	0.000
円程度のショーコラを中心に	0.000
諸	0.000
問合せください	0.000
贅を尽	0.000
▁韓国お土産	0.000
培	0.000
遊び心のある	0.000
ものをお送り	0.000
防	0.000
▁スイス製	0.000
医者	0.000
柊	0.000
くまの	0.000
化粧箱入	0.000
であるマエストラーニ社が	0.000
▁目安のため多少前後致します	0.000
で保管のうえ	0.000
本日	0.000
440	0.000
▁カー	0.000
実物	0.000
召し上がっても	0.000
数字	0.000
▁バー	0.000
▁■3	0.000
楽天ポイント	0.000
ランク	0.000
欠	0.000
食後のデザートとして	0.000
▁口どけの	0.000
指定場所への配送が可能です	0.000
白樺の	0.000
菱	0.000
▁スタンダード	0.000
Φ	0.000
王国	0.000
濃厚なジャージー牛が生み出す	0.000
あずき粉	0.000
本物の美味しさ	0.000
サクッと軽い歯ざわりの	0.000
香りたっぷり	0.000
ハル	0.000
蒜山高原ならでは	0.000
茨	0.000
丁度良いサイズです	0.000
裸	0.000
建	0.000
香ば	0.000
:22×24×9	0.000
▁ウイングエース	0.000
▁ミニチョコ	0.000
や雑誌などでも紹介され注目	0.000
らせて頂きます	0.000
納品日の	0.000
▁ピンク系	0.000
▁エジプト	0.000
▁売	0.000
▁中国お土産	0.000
冷蔵発送	0.000
見た目の可愛さとおいしさ	0.000
鳩	0.000
媚	0.000
とっても美味しいですよ	0.000
買えるかも	0.000
リーズナブルで	0.000
hokka	0.000
▁世界各国のお土産激安販売	0.000
】:	0.000
▁ケ	0.000
疫	0.000
/05	0.000
日数の目安はこちら	0.000
▁コーヒータイムや	0.000
あめ	0.000
開封前賞味期限	0.000
良い条件でお届けする為	0.000
見てください	0.000
当商品の送料は	0.000
▁お時間指定	0.000
共和国	0.000
チャリティー	0.000
溶けてしまう心配も	0.000
138	0.000
日に間に	0.000
トリフ	0.000
ナパ	0.000
未精製	0.000
味わいの良さで知られ	0.000
▁1927	0.000
種類の中から	0.000
隅	0.000
マカオお土産	0.000
年間を通して	0.000
練り込	0.000
魂	0.000
メッセージカードやお祝い	0.000
花器	0.000
▁バリ	0.000
▁丸いミルクチョコレートに	0.000
▁ジャージー乳製品を使った	0.000
▁私の台所	0.000
でも紹介	0.000
甕	0.000
廊	0.000
邪魔	0.000
▁ブルーベリーチョコ	0.000
見本デザイン画像	0.000
になれ	0.000
鯛	0.000
▁エクチュア	0.000
▁チョコぴつ	0.000
▁個装重量	0.000
▁アジア土産	0.000
商品の同梱	0.000
ヴァレンタイン	0.000
:1260	0.000
参考に	0.000
甘くて	0.000
:41	0.000
ケーション	0.000
15_	0.000
RT	0.000
代表	0.000
羽	0.000
17×	0.000
究	0.000
状の為	0.000
きれいに	0.000
に本店	0.000
つの味が	0.000
贅沢チョコレート	0.000
▁また冷蔵便	0.000
溶けたチョコレートは	0.000
イルで	0.000
最安	0.000
商品との同梱が可能です	0.000
のしをご希望の場合は	0.000
▁大阪市中央区島之内	0.000
▁ミルクチョコに	0.000
キシ	0.000
化学肥料	0.000
受付けておりません	0.000
▁店舗併売につき在庫切れの場合	0.000
つかし	0.000
▁ココスクリームチョコ	0.000
▁で	0.000
キュートな形	0.000
IR	0.000
▁イタリア産の栗を糖蜜	0.000
Valentine	0.000
メール便可	0.000
俊	0.000
個口につき	0.000
遜	0.000
デリシィ	0.000
樽	0.000
偲	0.000
命チョコ	0.000
出産のお祝い	0.000
268×	0.000
▁箱に記載	0.000
山ぶどうワイン	0.000
計量	0.000
応募	0.000
▁長谷製菓	0.000
鬆症	0.000
▁ご自分	0.000
×2.5(	0.000
漠	0.000
サプライズやプレゼントにぴったり	0.000
到着時には	0.000
▁試食したスタッフの声	0.000
(/	0.000
送料で	0.000
易	0.000
オークション	0.000
アーモンドチョコ各	0.000
▁MO	0.000
豆三度	0.000
辻	0.000
▁開催	0.000
わらず	0.000
よくば	0.000
各種お祝いに人気の花ギフトです	0.000
文字程度	0.000
ジュアル	0.000
ウル	0.000
からのオーダー	0.000
キャラメル生地	0.000
の当た	0.000
いております	0.000
その上品な香りをいかし	0.000
共同	0.000
中心を柔らかいホワイトクリーム	0.000
専門店のチョコレート	0.000
口あたり	0.000
大地の宝物	0.000
売り切れの際はご容赦下さい	0.000
甘みの	0.000
風味の上	0.000
偶	0.000
▁の参考に	0.000
存分に楽しめる	0.000
チョコの詰め合わせです	0.000
▁このページは	0.000
店で	0.000
落札	0.000
特殊	0.000
いただけると幸いです	0.000
小花	0.000
クール便での配送	0.000
70%×3	0.000
慕	0.000
美味しいよ	0.000
▁道南食品株式会社	0.000
肝臓	0.000
要冷蔵で保存	0.000
の成長に	0.000
▁原材料ココアバター	0.000
範囲内	0.000
4〜5	0.000
▁お名前	0.000
ルフ	0.000
蔭	0.000
ERSH	0.000
▁中国土産	0.000
▁色んな	0.000
あっというまにブレイクモード突入	0.000
包装されています	0.000
順次発送です	0.000
クール包装	0.000
gin	0.000
には細心の注意を払っておりますが	0.000
が変更にな	0.000
アプリコット	0.000
単位で送料が発生いたします	0.000
週間前後の発送予定です	0.000
▁バトンクッキー	0.000
写真とは異な	0.000
の贈り物に	0.000
を取り除	0.000
▁中国みやげ	0.000
までの期間	0.000
木の実	0.000
アレルギー情報	0.000
モロゾフ自慢のチョコレート	0.000
シーチョコレート	0.000
凄	0.000
ツイン	0.000
×25×7	0.000
ングドシャ	0.000
冷蔵発送セット内容	0.000
喧噪	0.000
隣	0.000
▁資材	0.000
呉	0.000
幻の焼酎	0.000
WE	0.000
ご入金の確認後	0.000
/180	0.000
将	0.000
22°	0.000
▁実際にお届けする	0.000
:40×20	0.000
▁レモン	0.000
もと	0.000
サクッと軽い	0.000
懸	0.000
果実をまるごと	0.000
芭蕉	0.000
ミノ酸	0.000
wai	0.000
α	0.000
配送員にお支払い下さい	0.000
舟	0.000
ヘーゼルトリュフ	0.000
でサンドしました	0.000
仕様等の変更がございます	0.000
を得ています	0.000
85%・	0.000
未精製糖シロップ	0.000
ミンク	0.000
ドロステ	0.000
扮	0.000
穴	0.000
>◆	0.000
有機ココアパウダー	0.000
ックスバー	0.000
での保存	0.000
副	0.000
▁ドライブルーベリー	0.000
アレンジメント	0.000
はご利用になれません	0.000
ヵ	0.000
わせる	0.000
チェコ	0.000
▁クリスマスのプチギフト	0.000
予告無	0.000
ポルトガル	0.000
すっき	0.000
色の指定	0.000
高温による商品の液漏れ	0.000
▁いちごちょこ	0.000
▁日本酒	0.000
終了致しました	0.000
490	0.000
妹	0.000
:40×20×50	0.000
別途送料が掛か	0.000
箱製造国日本	0.000
▁高品質なカカオの香りとバニラ	0.000
風味を逃さないように	0.000
▁アルファベットチョコ	0.000
17°	0.000
バロティン	0.000
もが	0.000
▁弊社よりの	0.000
▁原材料の一部に卵	0.000
▁到着解凍後	0.000
▁誕生日ケーキ	0.000
品質保持の為	0.000
されてしまいます	0.000
内容を元に作成致しました	0.000
陸	0.000
なども	0.000
マウス	0.000
▁クロアチア	0.000
フリカ	0.000
ビーチリゾート	0.000
倶	0.000
カロ	0.000
でやさしく丹念	0.000
他の商品と同梱ができません	0.000
モニター	0.000
認定を受けた	0.000
とセット	0.000
欠けがある	0.000
薯	0.000
:15×7×8	0.000
黄身	0.000
ぎゅ	0.000
を使用していない	0.000
及び高温多湿を避け	0.000
▁さっぱりと	0.000
インテ	0.000
蛇	0.000
録	0.000
やボリビアなどの	0.000
お名前が英字で入ります	0.000
マグカップ	0.000
▁奥行き	0.000
スロット	0.000
稼	0.000
がついている	0.000
画面上と実物	0.000
▁ハワイアンアイルズ	0.000
盲	0.000
いちじく	0.000
▁保管されることを強くお	0.000
の創	0.000
畳	0.000
代金引換不可	0.000
▁韓国おみやげ	0.000
▁正栄	0.000
通常販売	0.000
お支払総額は	0.000
マイルドなメロンの香りがお口	0.000
からのご注文のみ	0.000
▁生クリームチョコストロベリー	0.000
ご購入数	0.000
お客様のご注文	0.000
たっぷりで	0.000
▁ナビスコ	0.000
区新	0.000
ネイ	0.000
▁一口伯方の塩チョコレート	0.000
▁どの商品と同梱を希望するのかを	0.000
にしても	0.000
予告無く	0.000
ドイツ産	0.000
リース	0.000
採水地などが予告なく変更され	0.000
ストリン	0.000
脂肪分が固ま	0.000
▁品なども販売中	0.000
人気のアップルマンゴタンゴ	0.000
通常発送日までの目安	0.000
由	0.000
メイン	0.000
トリュフ状に包み込んだ	0.000
ont	0.000
ェ	0.000
掘	0.000
維持	0.000
▁アレンジメント実質送料無料	0.000
道南食品	0.000
ベースにしっとり濃厚に焼き上げた	0.000
▁色んな味が一袋に	0.000
っておりますが	0.000
▁厳	0.000
▁今回お届けするのは	0.000
シチリア	0.000
▁お問い合わせ先	0.000
クリオーロ種	0.000
▁チョコとクッキー	0.000
▁バレンタインチョコレート	0.000
▁マカオ	0.000
がい	0.000
さで	0.000
の舞	0.000
エンゼルパイ	0.000
憶	0.000
▁花ギフト	0.000
を加	0.000
荒	0.000
23760	0.000
を確認	0.000
】::4	0.000
▁カラー	0.000
他の中国	0.000
道南	0.000
湖	0.000
ボリー	0.000
っぴ	0.000
▁まろやかクリーミーな本格派	0.000
マイルドビター	0.000
▁東京都新宿区西新宿	0.000
受け継が	0.000
▁丸金食品株式会社	0.000
の歴史が	0.000
シーズニング	0.000
省略	0.000
しさわり	0.000
ヌーピー	0.000
:0120-302-300	0.000
入り数	0.000
ラッパー	0.000
幹	0.000
日より順次発送です	0.000
で密封	0.000
アメリカ土産	0.000
お届けの日時が異な	0.000
ご注文商品の在庫などの確認後	0.000
益	0.000
芽	0.000
点まで同梱可能です	0.000
畔	0.000
監	0.000
】::349	0.000
早めにお召し上り下さい	0.000
指定はできません	0.000
プラリーネ	0.000
入金	0.000
▁Morozoff	0.000
宙	0.000
▁お支払い総額	0.000
個ずつ追加できます	0.000
フォンダン	0.000
挽きたて	0.000
冷凍商品との同梱はできませんので	0.000
北欧	0.000
ゲランドの塩含む	0.000
楽天市場から	0.000
持ち運	0.000
写真ではなく	0.000
阻	0.000
おまかせ	0.000
パックセット	0.000
落ち着	0.000
▁ゲランドの塩	0.000
弁	0.000
▁赤い	0.000
干支	0.000
リアルチョコレート	0.000
持ち帰り	0.000
スティック状	0.000
立体	0.000
キョ	0.000
▁ニューカレドニア	0.000
ア州	0.000
巾着の中に約	0.000
eart	0.000
廃	0.000
如	0.000
▁なめらかで軽やかな口どけ	0.000
劣	0.000
くなってしまった	0.000
▁開封後は賞味期限にかかわらず	0.000
・50%	0.000
▁度	0.000
▁ベースボール	0.000
彡	0.000
メーカー取り寄せ	0.000
▁日光を避け涼しい場所で保存	0.000
で温めた	0.000
rre	0.000
▁入り数	0.000
同様に	0.000
威	0.000
がります	0.000
∀	0.000
代引き決済不可	0.000
ッポ	0.000
▁/>	0.000
海外のお土産	0.000
-0023	0.000
腕	0.000
の有名	0.000
201310_	0.000
等を主	0.000
了	0.000
バーボン	0.000
)30	0.000
エット	0.000
gain	0.000
ひろ	0.000
円スタート	0.000
開発の	0.000
お子様から大人まで	0.000
ご注文後のメールでのご連絡	0.000
≧ω≦	0.000
かかる場合がございます	0.000
もできます	0.000
板チョコは自然素材を高原	0.000
▁ラムレーズンチョコ	0.000
伯方の塩チョコレート	0.000
等につきましては	0.000
点まで	0.000
掌	0.000
れん	0.000
はアメリカ製品の為	0.000
▁マカダミアチョコレート	0.000
佐	0.000
****	0.000
▁クレジット決済のみ	0.000
デコレーションケーキ	0.000
▁訳あり品	0.000
▁ラプンツェル	0.000
いっぱい広がるホワイトチョコを	0.000
▁52	0.000
季節の新鮮なお花でお作り	0.000
茹	0.000
カンボジア	0.000
ラブ	0.000
冷蔵発送製造国日本	0.000
【6	0.000
おみやげ袋	0.000
株式	0.000
HS	0.000
六花	0.000
133	0.000
冷蔵庫で保管ください	0.000
▁さっぱ	0.000
ご使用できます	0.000
シスコ	0.000
勿	0.000
ニャック	0.000
白樺の幹に似せた形のとっても	0.000
素材の風味がしっかりと	0.000
ミルクチョコで包んだ	0.000
パラ	0.000
エキスプレスサービス登場	0.000
日光	0.000
▁バリ島	0.000
▁ヴェイス社のボンボン	0.000
凹凸	0.000
▁カナダ土産	0.000
▁輸入商品のため	0.000
崎市	0.000
商品担当	0.000
:900	0.000
たくさん入っています	0.000
ハッ	0.000
充分に	0.000
チーズを	0.000
CERT	0.000
庶民	0.000
レント	0.000
1050	0.000
悲劇	0.000
▁バル	0.000
悠	0.000
▁韓国製	0.000
クランチアーモンド入りです	0.000
その場合	0.000
クオリティ	0.000
雷	0.000
▁韓国土産	0.000
カラーは	0.000
兼	0.000
▁ボトルデザインは	0.000
遮	0.000
/97	0.000
チョコレートメーカーの	0.000
▁マカオを探す	0.000
▁開店	0.000
よくばりに	0.000
纏	0.000
▁森永製菓株式会社	0.000
サンコー	0.000
▁遠方	0.000
スティブ	0.000
欲張りに食べたいあなたに	0.000
85%、	0.000
個以上ご注文いただいた場合	0.000
大文字	0.000
炎	0.000
風味豊かに	0.000
賄	0.000
虜	0.000
の逸品です	0.000
喬	0.000
ビターチョコレートに	0.000
剰	0.000
ものを入れず	0.000
船	0.000
】(33	0.000
▁芝	0.000
借	0.000
ぱんだ	0.000
市東	0.000
が入ってます	0.000
CM	0.000
送料が重複	0.000
サクサクのクッキーでサンドした	0.000
鬼娘	0.000
あげた	0.000
作るために	0.000
日後の出荷となります	0.000
つくりました	0.000
▁クレ	0.000
ピア	0.000
カテキン	0.000
。1852	0.000
北海	0.000
▁春日井	0.000
祉	0.000
▁ビターチョコ	0.000
▁神	0.000
▁製造国日本ヒルゼンミルキー	0.000
市中央区	0.000
臨床	0.000
君	0.000
ヲ	0.000
祇	0.000
マルト	0.000
黒い部分を彫り込み	0.000
▁1430	0.000
カンジ	0.000
緒	0.000
坊	0.000
農家から	0.000
イスキー	0.000
(108	0.000
▁奥行	0.000
▁プレッツェル	0.000
日以内にお届け可能な	0.000
商品を複数	0.000
香典	0.000
▁インド	0.000
▁マロングラッセ	0.000
▁なつかしの味をヒルゼンから	0.000
アメリカお土産	0.000
琳	0.000
禄	0.000
▁食べやすいスティック状のチョコ	0.000
アメリカおみやげ	0.000
修	0.000
ひとくち食べたら	0.000
2010	0.000
霧	0.000
▁デザイン	0.000
▁正箱	0.000
紗	0.000
∵*	0.000
ましては	0.000
ボリビアなどの	0.000
いただければ	0.000
グラム計量	0.000
▁トリュフショコラ	0.000
▁オリジナルメッセージ	0.000
脚	0.000
餠	0.000
にもおいしい	0.000
▁AB	0.000
蒜山高原のジャージー	0.000
▁ヒルゼンミルキー	0.000
▁ジュエリー	0.000
ナチュラルな	0.000
ハース	0.000
苺が	0.000
エクチュア	0.000
栽	0.000
が広がる口どけの良い	0.000
さないように	0.000
はいつも	0.000
円スタートオークションです	0.000
地の宝	0.000
週間前後	0.000
包装が可能です	0.000
ベトナム	0.000
330	0.000
様のお名前	0.000
旦那	0.000
-0003	0.000
〓	0.000
送れます	0.000
:1500	0.000
死	0.000
ind	0.000
ベニコウジ	0.000
約一週間程度頂戴します	0.000
エスタ	0.000
コンセ	0.000
稚	0.000
鳴	0.000
お花の	0.000
ドラジェが	0.000
遥	0.000
於	0.000
たくさんの種類があります	0.000
統	0.000
包装を	0.000
ンカ	0.000
▁ほろにがいチョコレートと	0.000
悪魔	0.000
り下さい	0.000
:1.1	0.000
▁編集中	0.000
とろける味わい	0.000
獄	0.000
ングル	0.000
▁ダイアン	0.000
▁東洋ベバレッジ	0.000
チョコクリームホワイトチョコ	0.000
礒	0.000
▁キャラメルチョコレート	0.000
お花	0.000
めき	0.000
▁メーカーの都合により	0.000
加工されています	0.000
ジェラート	0.000
▁大阪は心斎橋から東へ約	0.000
笠原	0.000
る事があります	0.000
凌	0.000
裂	0.000
▁配送について	0.000
済州	0.000
※※	0.000
ネパール	0.000
ロイヤルコナコーヒーもあります	0.000
がある場合には	0.000
良品と	0.000
メル	0.000
▁ドレミソングチョコ	0.000
相違	0.000
年創業のスイスチョコレート製造	0.000
蔗	0.000
などもいかがでしょうか	0.000
月中	0.000
▁イメージ	0.000
▁ベー	0.000
関連ワード	0.000
▁北海道の大自然が育んだ	0.000
一袋に	0.000
后	0.000
複	0.000
オランダ産デザーンの	0.000
えも	0.000
瑞	0.000
▁画像	0.000
つくられた	0.000
ガトーシュクレ	0.000
旦	0.000
的存在	0.000
スイス産	0.000
ニク	0.000
ドイツオーガニック	0.000
風景チョコ	0.000
▁アメリカみやげ	0.000
▁サイズ個装サイズ	0.000
】●	0.000
姜	0.000
イオ	0.000
全粒	0.000
▁地域別送料表のご確認はこちら	0.000
陶	0.000
風味の上で	0.000
をお送り致しますので	0.000
spwrp	0.000
▁原材料植物油脂	0.000
一緒にハワイの	0.000
▁お供え	0.000
オリティ	0.000
くって	0.000
)::	0.000
PE	0.000
ピロ	0.000
▁お手軽	0.000
注文内容ご確認	0.000
9-10	0.000
日で	0.000
▁フィンランド	0.000
LOTTE	0.000
・・・・・630	0.000
JI	0.000
のプレゼントとしても最適です	0.000
災	0.000
ご確認いただき	0.000
の注意	0.000
サクサク食感が	0.000
ニヨン	0.000
▁フラワーギフト	0.000
の生クリームがたっぷり	0.000
イチゴの	0.000
イップ	0.000
エク	0.000
ピール	0.000
・・・・・・・・・	0.000
もお付けします	0.000
air	0.000
お手を汚さず	0.000
潮	0.000
芯	0.000
まとめ	0.000
ルゼン	0.000
▁不良品	0.000
航	0.000
碧	0.000
をブレンドした生地で包み	0.000
本商品は発送までに	0.000
2.1	0.000
状況により	0.000
】::35	0.000
璧	0.000
不良品	0.000
ナメント	0.000
燻	0.000
浪花	0.000
華やかなブランディの香り	0.000
トルコ産	0.000
変わった	0.000
岐阜	0.000
楽天では一日で	0.000
海岸	0.000
類は	0.000
携	0.000
ヶ口	0.000
▁オークション	0.000
メーカー品番	0.000
直射日光を避け常温で保存	0.000
ビッグ	0.000
:35×20×60	0.000
サンチョコのヒット商品	0.000
トラーニ	0.000
鯖	0.000
鈴	0.000
nd	0.000
実際お届け商品は短くなります	0.000
メレンゲ	0.000
備考欄にお	0.000
×21	0.000
デンプン	0.000
舐	0.000
板チョコをどうぞ	0.000
丹波黒豆	0.000
丁度良い	0.000
dding	0.000
種類のメッセージと	0.000
暮	0.000
括	0.000
気温が高くなりますと	0.000
▁真夏にご使用の予定	0.000
メモリー	0.000
につき予告なく容量	0.000
ルン	0.000
開き	0.000
をオススメ	0.000
笠	0.000
▁--	0.000
品番	0.000
マレーシア	0.000
詳細なお問合せ	0.000
碇	0.000
ひとくち	0.000
OCOLAT	0.000
の伝統的な	0.000
西アフリカ産	0.000
アーモンドが程よく香ります	0.000
油脂分が	0.000
この商品は冷凍便でお届け致します	0.000
.5×16	0.000
のよい爽やかな風味です	0.000
グラム計量のため	0.000
フォント	0.000
▁当選者	0.000
遺産	0.000
▁エム	0.000
/40	0.000
ビート色素	0.000
にう	0.000
チョコレートをご	0.000
▁少しでも涼しいうちに	0.000
ご注文後にメールにて	0.000
診	0.000
▁フレッ	0.000
DI	0.000
てなし	0.000
お願い致します	0.000
娘	0.000
誓	0.000
就任	0.000
スライス	0.000
デザイン致します	0.000
パッケージ及び内容量	0.000
幣	0.000
にお届け可能です	0.000
これは油脂分が分離	0.000
▁乾燥いちご	0.000
希望小売価格	0.000
託	0.000
マカオ土産	0.000
意外に	0.000
商品発送	0.000
▁胡蝶蘭	0.000
の色は選べません	0.000
ミルクキャラメルチョコ	0.000
在庫切れの場合お届けまで	0.000
巌	0.000
▁お届け状態	0.000
蝶	0.000
▁メーカーの都合によりパッケージ	0.000
賞味期限にかかわらず	0.000
コーヒーパウダーが入っています	0.000
フェアトレード機構	0.000
ほのかに	0.000
維	0.000
▁ご注文日からお届けまで	0.000
パプ	0.000
他の冷凍商品と合わせて	0.000
入札	0.000
≦	0.000
ビタートリュフチョコ	0.000
▁シー	0.000
メーカー取り寄せになりますので	0.000
鹿児島県	0.000
板チョコは	0.000
ジンジャーチョコは	0.000
真空パック	0.000
商品との同梱はできません	0.000
で入ります	0.000
▁当商品は	0.000
賜	0.000
万円以上のお買上げ	0.000
▁可愛らしい小さい木の葉	0.000
に癒	0.000
リミテッド	0.000
ROY	0.000
ジンジャーチョコ	0.000
▁ショートニング	0.000
行楽	0.000
隙	0.000
棚	0.000
アップルマンゴタンゴ等	0.000
蓮	0.000
発生いたします	0.000
僚	0.000
高原	0.000
のみです	0.000
正面	0.000
:30×30×25	0.000
フィーユショコラ	0.000
のご確認をお願い致します	0.000
購入の方は	0.000
事に調和	0.000
パッケージに記載	0.000
ホワイ	0.000
擁	0.000
配送できません	0.000
クロアチア	0.000
お日にちを頂く場合がございます	0.000
ケース納品	0.000
上げます	0.000
▁ナッツの食感やコクを	0.000
▁香ばしいキャラメル	0.000
ゲイン	0.000
産ビルベリー	0.000
フルーティな	0.000
同一梱包不可です	0.000
の代表格	0.000
レーヌ	0.000
斤	0.000
亀	0.000
!)	0.000
▁ビタートリュフチョコ	0.000
オレンジピールの砂糖漬け	0.000
マニエ	0.000
当選	0.000
のバラ	0.000
▁納品書	0.000
IFT	0.000
酎	0.000
▁【2012	0.000
之内	0.000
のおい	0.000
発送予定日のご連絡です	0.000
q	0.000
返品交換不可	0.000
償	0.000
ときめき	0.000
クマ	0.000
にまつわる	0.000
メーカーより発送のため代引き	0.000
バリ	0.000
マカダ	0.000
でポイント	0.000
なくちどけ	0.000
ローストされた大粒	0.000
佐渡島	0.000
吾爾	0.000
武	0.000
▁当社	0.000
ンドル	0.000
マウナロアマカダミアナッツ	0.000
(33	0.000
発送予定日	0.000
静岡県	0.000
那	0.000
石垣	0.000
ボリビア産の高品質	0.000
▁ペカンナッツ	0.000
罪	0.000
▁原材料チョコレート	0.000
:7,560	0.000
バラの花束	0.000
冊	0.000
オーストラリア産	0.000
▁1977	0.000
のご注文の場合は	0.000
パンダ	0.000
:210	0.000
く商品は	0.000
持ち運び	0.000
欲	0.000
政	0.000
任せ	0.000
の成長	0.000
送料となります	0.000
プルダウン	0.000
るぜん	0.000
▁ホワイトチョコをベースに	0.000
毛	0.000
次々に	0.000
循	0.000
▁カフェで人気の	0.000
価格等	0.000
テノイド	0.000
を表現しました	0.000
▁リッチ	0.000
ージャパン	0.000
ボード	0.000
お客さま都合による	0.000
ペイン	0.000
アイボリー	0.000
▁ダークチョコ	0.000
編	0.000
▁シルバー	0.000
ケーキと	0.000
ロングセラー商品です	0.000
├	0.000
日時指定が出来ません	0.000
写真はイメージ	0.000
に食べられる	0.000
ダウ	0.000
▁夏期は冷蔵便発送のみとなります	0.000
グラム計量のため粒数	0.000
8×	0.000
▁お徳用割れチョコです	0.000
のオーガニックカカオの香り	0.000
紛	0.000
鹿	0.000
商品の特性ごとに発送をいたします	0.000
/2818	0.000
劇	0.000
下部に記載	0.000
×2)	0.000
でも人気の商品です	0.000
アンドエム	0.000
▁1800	0.000
ネズ	0.000
▁〒157-0067	0.000
は致	0.000
柔らかいホワイトクリーム	0.000
が変わる場合がございます	0.000
	0.000
蜂	0.000
お酒の味わいにもこだわりました	0.000
▁2&#44;	0.000
!↓	0.000
▁チョコスティック	0.000
∴	0.000
▁ココナッツクリームを	0.000
▁外は	0.000
▁クレジットのみ	0.000
YD	0.000
妃	0.000
憎	0.000
ネラル	0.000
代金は商品配送時に	0.000
劣化を防ぐために	0.000
ツェル	0.000
ido	0.000
スイスオーガニック	0.000
ヒルゼンオリジナル	0.000
躊躇	0.000
内容は	0.000
10.2	0.000
ミルクキャラメル	0.000
莵	0.000
入金確認後	0.000
坑	0.000
つの美味しさ	0.000
が同梱	0.000
沖縄への配送の場合は	0.000
入の	0.000
食品以外	0.000
メッセージ入り	0.000
局	0.000
▁300000	0.000
別途かかります	0.000
)】<	0.000
▁商品代金合計	0.000
▁納品書等金額のわかる	0.000
▁深い味わい	0.000
デザイナーの	0.000
カードを	0.000
歌山	0.000
▁BO	0.000
KG	0.000
ぉ	0.000
▁をつくってみませんか	0.000
杵	0.000
エジプト	0.000
プリコット	0.000
をお振込み	0.000
スタンプ	0.000
貌	0.000
隊	0.000
同日終了オークション以外	0.000
メーカー直送	0.000
とまろやかなホワイト	0.000
画面の	0.000
っぷり	0.000
白樺	0.000
甘酸	0.000
-917-111	0.000
▁1〜6	0.000
凛	0.000
ヌカハニー	0.000
ロマン	0.000
ppy	0.000
擦	0.000
っぱいチョコ	0.000
寒梅	0.000
羊	0.000
当店の花束	0.000
インド産	0.000
などのプレゼント品として	0.000
数の目安	0.000
】::	0.000
ユニークな形状	0.000
見送り	0.000
⌒∇⌒	0.000
▁ABCERT	0.000
】、【	0.000
を入れること	0.000
他商品との同梱はできません	0.000
個包装もキャンディー包で	0.000
危険	0.000
ローチョコレート	0.000
問題はございません	0.000
▁大阪市北区野崎町	0.000
ストコ	0.000
時期により	0.000
涼しい場所で	0.000
匂	0.000
やすい一口サイズ	0.000
▁ご協力頂ければ幸いです	0.000
紺	0.000
クール便で	0.000
銘酒	0.000
▁アルコール分	0.000
吊	0.000
CP	0.000
年生まれ	0.000
講師	0.000
▁#13	0.000
お手	0.000
茂	0.000
農薬や	0.000
の商品で	0.000
リーンドリーム	0.000
着物	0.000
▁ショコ	0.000
▁プリザーブド	0.000
▁ご注文をお受けして	0.000
ガリン	0.000
▁こちらの商品はメーカー直送品	0.000
誘う	0.000
円以上のお買い上げでも送料は	0.000
白樺樹液	0.000
ドバイ	0.000
ライオンコーヒーや	0.000
措	0.000
マカオ	0.000
▁ブランチュール	0.000
品質を保	0.000
3738	0.000
西暦	0.000
▁北海道産	0.000
lov	0.000
スタンド	0.000
サヒ	0.000
薄型のスタイリッシュな	0.000
週間後の	0.000
クリームをビターチョコ	0.000
ラッセ	0.000
円でお急ぎ便に変更できます	0.000
16×27	0.000
中国お土産	0.000
辞	0.000
ナッツのプラリネや	0.000
型抜き	0.000
アレルゲン	0.000
温糖	0.000
じ茶	0.000
阿	0.000
.*.*	0.000
の人々に愛されています	0.000
▁たべやすい一口サイズ	0.000
種類のチョコを	0.000
意外に相性ピッタリですよ	0.000
お札のカード	0.000
▁未精製糖	0.000
原材料の一部に以下を含んでいます	0.000
ご入金の	0.000
▁(12×2)24	0.000
百貨店	0.000
チョコレートソース	0.000
▁丸金	0.000
お問い合わせボタン	0.000
▁お手軽プライスでしかも美味しい	0.000
製造されております	0.000
をご記入ください	0.000
写真のイメージ	0.000
ヱ	0.000
Kcal	0.000
とう虫	0.000
▁お客様相談センター	0.000
焼酎の味わいにもこだわりました	0.000
▁焼酎	0.000
▁添加物等	0.000
アクセサリー	0.000
キラキラ	0.000
洞	0.000
ラッピングをして	0.000
宏	0.000
当選者発表	0.000
とデジカメで撮った写真を	0.000
高温多湿をおさけください	0.000
に記載してある	0.000
受注発注となります	0.000
フルーティ	0.000
ロフ	0.000
仕様賞味期間	0.000
ドバ	0.000
パフが入った	0.000
碗	0.000
果汁パウダー	0.000
下記の通りです	0.000
461	0.000
で切	0.000
新しいタイプの	0.000
海外お土産各国各種激安販売	0.000
カスタード	0.000
レープ	0.000
ホワイトデーギフト	0.000
鉢	0.000
▁チョコレートのカラーは	0.000
キュイ	0.000
営業日以上かかる場合がございます	0.000
高温で表面が少し	0.000
渾	0.000
忘	0.000
フィリ	0.000
パッケージに日本語の	0.000
:16×10	0.000
分のところ空堀に本店を構え	0.000
パニー	0.000
245	0.000
オレンジスティック	0.000
できませんのでご注意下さいませ	0.000
花を	0.000
▁パイの実シェアパック	0.000
建設	0.000
anako	0.000
▁エスプレッソ	0.000
ミエール	0.000
ピン	0.000
送料無料になる場合があります	0.000
に記載してある送料となります	0.000
万円以上になった場合	0.000
掲	0.000
ホワイトクリーム	0.000
かりん	0.000
ョコ	0.000
注文内容	0.000
を通じて	0.000
濡	0.000
▁おめでとうございます	0.000
ヒルゼンミルキー	0.000
送料は無料です	0.000
ネルギー	0.000
磁	0.000
プレッツェル	0.000
ぢ	0.000
換え	0.000
時から	0.000
筝	0.000
各種お祝い	0.000
合計金額	0.000
を頂くまで	0.000
all	0.000
:15×25×10	0.000
イズ	0.000
▁世界各国	0.000
ファー	0.000
ーゼルナッツ	0.000
お時間	0.000
▁エンゼルパイミニ	0.000
アメリカのお土産	0.000
▁2640	0.000
熊	0.000
特集は	0.000
斉	0.000
当選者	0.000
ハスカップ	0.000
圏	0.000
▁ビーチリゾート土産	0.000
メロンの香りがお口に広がる	0.000
▁ヒルゼンミルキーの日本酒	0.000
ショコラレイエ	0.000
窒	0.000
クリーミーな口どけ	0.000
紹	0.000
▁IMO	0.000
乳由来	0.000
嬬	0.000
を使用せずに育てた	0.000
袋一杯のチョコレートで	0.000
、27	0.000
▁ポー	0.000
で大人気の	0.000
kc	0.000
▁香ばしく焼きあげた全粒粉	0.000
スタード	0.000
世界のおみやげギフト	0.000
18×3	0.000
邪魔にな	0.000
恥	0.000
tide	0.000
付けします	0.000
▁パックンチョ	0.000
▁エアインチョコ	0.000
でサンドした	0.000
臓	0.000
荘	0.000
枯	0.000
ものなどをはじめ	0.000
ィート	0.000
〆	0.000
遂	0.000
なめらかで軽やかな口どけ	0.000
バレンタインにも	0.000
パーク	0.000
▁小さ	0.000
anabu	0.000
ail	0.000
コウジ	0.000
信州	0.000
フェアトレード商品	0.000
ダーク各	0.000
の祭にうかがいます	0.000
擬	0.000
白黒	0.000
▁マノン	0.000
▁当店全品同梱可能です	0.000
茨城県	0.000
▁9999	0.000
競	0.000
させていただくこと	0.000
グルコース	0.000
江崎	0.000
3】【	0.000
▁同じ商品を	0.000
ご注文内容確認メール	0.000
ロッシェ	0.000
アラビ	0.000
クール包装でお届けする	0.000
とキャラメル	0.000
商品を出荷	0.000
バニラケーキとコクのある	0.000
アーモンドを含む	0.000
のオークション品の同梱	0.000
全ての商品で在庫はほとんど持	0.000
マカダミアン	0.000
で食べごたえ	0.000
フト	0.000
16×29	0.000
▁ミニシルベーヌ	0.000
ルマ	0.000
▁カバヤ	0.000
ラメ	0.000
▁本格派スイスの	0.000
マリア	0.000
お口に	0.000
(-	0.000
555	0.000
お手元に届	0.000
人気があります	0.000
予	0.000
アーモンドにマスカルポーネチーズ	0.000
プーさん	0.000
が付いています	0.000
ジン	0.000
10_	0.000
入れず	0.000
本製品に含まれるアレルギー物質	0.000
▁マーケット	0.000
▁ギリシャ	0.000
膨張	0.000
本日開催中のハワイで有名な	0.000
東京中目黒	0.000
バート	0.000
ピンク系	0.000
▁春日	0.000
歯応え	0.000
▁ふんわりチョコバーム	0.000
衛門	0.000
ポンジ	0.000
デコレーションケーキです	0.000
【○	0.000
をチョコレートでくるんだ	0.000
ーゼル	0.000
で食べられるので手軽で便利	0.000
の送料の	0.000
▁を探す	0.000
逹	0.000
シンプルで飽きのこない	0.000
▁アメリカおみやげ	0.000
▁代引き手数料	0.000
▁Heart	0.000
▁贈答	0.000
のものですので	0.000
休業日を除き	0.000
習慣	0.000
ぜひ一度ご賞味くださいませ	0.000
怖	0.000
▁贈り物にされる場合は	0.000
ミソ	0.000
プチシール	0.000
狙	0.000
の人々に愛	0.000
タイド	0.000
甘酸っぱく口あたり	0.000
鰹	0.000
667	0.000
▁アメリカでは結婚式の引き出物	0.000
入数	0.000
奮	0.000
洋酒を使用しない	0.000
┏	0.000
辞令	0.000
おいしさをお楽しみください	0.000
おいしいチョコレートです	0.000
の絶妙なコンビネーションで	0.000
でも送料は	0.000
!●	0.000
ベット	0.000
▁パステルロール	0.000
うちに	0.000
▁インテリア	0.000
再包装	0.000
MGN	0.000
:1060	0.000
分に	0.000
精製塩	0.000
チェーン	0.000
▁元祖浪花屋の	0.000
およ	0.000
▁〒105	0.000
争	0.000
はお承り	0.000
PAN	0.000
9-	0.000
恒	0.000
*☆	0.000
モーレ	0.000
臣	0.000
琥珀	0.000
Tide	0.000
85%×3	0.000
個サイズ個装サイズ	0.000
カタログ	0.000
っとい	0.000
個製造国ドイツ	0.000
をおすすめ	0.000
:960	0.000
▁DE	0.000
述	0.000
をご連絡	0.000
テイストを楽しめます	0.000
をフリーズドライ加工し	0.000
多少変更	0.000
生もの	0.000
==	0.000
製造国	0.000
冷凍で	0.000
淹	0.000
マエストラーニ	0.000
翼	0.000
お届け先のお客様にご住所	0.000
わかる	0.000
▁コク	0.000
ニング	0.000
薩	0.000
明細	0.000
貯	0.000
の雫	0.000
冷暗所にて保存	0.000
もついて	0.000
靡	0.000
盛りだ	0.000
▁7〜8	0.000
疆	0.000
をかた	0.000
▁関西	0.000
壬	0.000
頻	0.000
でもメーカー欠品	0.000
お入れする年齢	0.000
▁納品書の同梱を希望しない場合	0.000
の札も無料でお付け致します	0.000
▁ドレ	0.000
/)/	0.000
較	0.000
シーンに	0.000
ヂ	0.000
ラッグ	0.000
フォン	0.000
ビスコ	0.000
閉じ込められています	0.000
その後冷えるとその	0.000
▁チップ	0.000
リップ	0.000
通常送料の	0.000
ミディ	0.000
送料はオークション	0.000
からお召し上がりください	0.000
商品の仕様	0.000
介	0.000
▁ブライダルのお見送りに大切な	0.000
@	0.000
▁他に	0.000
▁苺チョコレート	0.000
軍	0.000
雲	0.000
ペッパー	0.000
アマンドトリュフ	0.000
▁落札	0.000
島県	0.000
スカップ	0.000
のチョコレート菓子です	0.000
96	0.000
褐	0.000
バレンタイン限定	0.000
発表	0.000
▁野菜	0.000
麻の実	0.000
代引き決済	0.000
ゑ	0.000
をデザインした	0.000
鬼	0.000
されたデザインと違ってく	0.000
重量個装重量	0.000
喝采	0.000
まかせ	0.000
ラスベガス	0.000
商品ラベル	0.000
▁高原ジャージー	0.000
▁14325	0.000
:52	0.000
の高級チョコレートと	0.000
煌	0.000
大豆を含む商品です	0.000
常温約	0.000
ジンジャーが細かく刻まれて	0.000
ゲストに手渡しで	0.000
:40×20×15	0.000
ャンマー	0.000
ヴェルター	0.000
当商品と	0.000
エムアンドエムズ	0.000
まけ	0.000
北海道への配送の場合は	0.000
プリントするメッセージは	0.000
▁仕様	0.000
∇	0.000
がお口で	0.000
タッセ	0.000
仕入	0.000
▁シンプルだからこそクオリティ	0.000
をチョコレートで包みました	0.000
商品の送料は無料です	0.000
なしに	0.000
原材料を	0.000
そんなショーコラを中心に	0.000
▁マーライオン	0.000
方はご注意ください	0.000
蒲屋忠	0.000
パクパク	0.000
なギフトセットです	0.000
が異なって見え	0.000
で便利	0.000
▁ひとつひとつ	0.000
▁おみやげ宅配便なら	0.000
開封	0.000
マノン社	0.000
▁ヒルゼンミルキーの焼酎	0.000
雫	0.000
プレッ	0.000
芦	0.000
▁ブラジル	0.000
▁香港	0.000
係	0.000
ウエディングパーティー	0.000
手にと	0.000
のマー	0.000
▁粉糖かけ	0.000
甘みの抑えた	0.000
春日	0.000
ござ	0.000
台湾	0.000
ホワイトチョコです	0.000
角の	0.000
◆◆	0.000
ECT	0.000
▁東京都港区虎ノ門	0.000
保冷	0.000
の合間	0.000
毎日オークション	0.000
Hanbit	0.000
匹	0.000
‐	0.000
指導	0.000
リラックマ	0.000
ココアパター	0.000
70%・	0.000
▁正栄食品工業	0.000
バルーン	0.000
独特の食感と	0.000
バランスよく	0.000
召	0.000
鍵	0.000
湛	0.000
いろ	0.000
籠	0.000
サプライズ	0.000
虎ノ門	0.000
同梱により	0.000
岐	0.000
ジャムを口どけの良い	0.000
デューク	0.000
お持ち帰り用の	0.000
小さいお子様から大人まで	0.000
回チャリティー	0.000
韓	0.000
潟	0.000
▁100000	0.000
バード	0.000
伊藤久右衛門	0.000
ピエ	0.000
に運ばれ	0.000
楽天バンク決済	0.000
添付	0.000
欒	0.000
ゝ	0.000
インチョコ	0.000
軟	0.000
スパイシーな	0.000
サンドされて包まれています	0.000
加工し	0.000
▁商品記号	0.000
レロ	0.000
キャラメルチョコ	0.000
にて承っております	0.000
▁開店祝い	0.000
アンパンマン	0.000
▁ハンド	0.000
パッケージに詰めました	0.000
を発酵	0.000
旺	0.000
月までの	0.000
▁ジャージー生チョコレート	0.000
しっとりやわらかに仕上がった	0.000
鹸	0.000
▁原材料ココアパター	0.000
のメール	0.000
にかかわらず	0.000
ココナッツシロップ	0.000
種類プリントできます	0.000
フルーツの	0.000
6-6	0.000
スクラ	0.000
:38	0.000
ブランデー漬け	0.000
んわり	0.000
▁ドロステ	0.000
ビターチョコにジンジャーが刺激的	0.000
▁イルカ	0.000
丼	0.000
石畳	0.000
▁制作に入らせて頂きます	0.000
▁信州	0.000
や商品の	0.000
▁ヒルゼンミルキー株式会社	0.000
高級感のある生チョコ	0.000
プラリネタイプの生チョコテイスト	0.000
円となっております	0.000
を使った濃厚	0.000
▁カレアソートメント	0.000
゙	0.000
▁183	0.000
仕様高温多湿	0.000
瓶に	0.000
宿	0.000
日新	0.000
および内容量が予告なく変更	0.000
マドレーヌ	0.000
伊	0.000
19×26×3	0.000
円で買えるかも	0.000
▁ベトナム	0.000
仕様賞味期限	0.000
マリン	0.000
▁カンボジア	0.000
可愛い一口チョコレートたち	0.000
晩	0.000
駆	0.000
包装をしています	0.000
00001】【	0.000
品質の確かさと	0.000
▁等	0.000
▁いままで	0.000
コーヒーとの相性	0.000
週間前後で出荷となります	0.000
蟹	0.000
のパステルロールシリーズ	0.000
かかりますのでご注意ください	0.000
渡しに	0.000
ひろがります	0.000
を頂き	0.000
ン酸	0.000
▁カテ	0.000
記念贈答	0.000
新しいタイプのスウィーツサンド	0.000
胞	0.000
ルゼ	0.000
108	0.000
クリームが	0.000
お子様もお召し上がり	0.000
ャ	0.000
キムチ	0.000
個製造国スイス	0.000
:20×15×28	0.000
天津甘栗	0.000
のチョコバー	0.000
キラキラ光る	0.000
ジンジャーチョコ各	0.000
́∀	0.000
素敵です	0.000
というメールが送られますが	0.000
ない場合がありますので	0.000
マンド	0.000
とチョコ	0.000
焼きショコラです	0.000
毒	0.000
エントリーはコチラ	0.000
エスプレッソチョコは	0.000
:30×18×19	0.000
は予告無く	0.000
洗練	0.000
内容相違	0.000
ージャス	0.000
/31	0.000
のたまご	0.000
▁カジノ	0.000
招福	0.000
▁クリーミー	0.000
フルーツなど	0.000
地から	0.000
うまく	0.000
▁チョコサンド	0.000
小麦全粒粉	0.000
グラ	0.000
くした	0.000
▁チョコのプリント	0.000
丁	0.000
ランス	0.000
桁	0.000
クリーム粉末	0.000
遺	0.000
▁季節のお花	0.000
ラングドシャクッキー	0.000
唇	0.000
・・・・・	0.000
バレンタインギフト	0.000
パラグアイ産	0.000
蘭	0.000
リーフ	0.000
常温で保管してください	0.000
が嬉しい	0.000
添付ファイルでいただきます	0.000
▁結婚記念日	0.000
超えた	0.000
ご注	0.000
商品との同梱はできませんので	0.000
▁ホエイパウダー	0.000
ハワイアンアイルズ	0.000
本日開催中のアメリカ	0.000
バーム	0.000
休業	0.000
▁エリーゼ	0.000
カード付	0.000
バースデーケーキ	0.000
乳製品を使用しない	0.000
苦手な方にも	0.000
番で	0.000
椒	0.000
ねます	0.000
お時間を頂戴いたします	0.000
ラル	0.000
営業日ほどかかる場合がございます	0.000
正しい送料をご連絡いたします	0.000
】(3	0.000
ザバール	0.000
ヒメナ	0.000
斎	0.000
:55	0.000
▁入荷状況により	0.000
獲	0.000
ぷん	0.000
が香る微妙に滑らかでリッチな	0.000
ゲランド	0.000
やバニラ味などのハワイアン	0.000
行楽にもお仕事や勉強の合間	0.000
:1200	0.000
のオークション	0.000
型のチョコレートが	0.000
でも返品	0.000
どのスタンプが良いかご連絡下さい	0.000
ネットあたり	0.000
炊	0.000
燗	0.000
冷えると	0.000
色です	0.000
日付などは備考欄にお書き下さい	0.000
浅	0.000
▁カバヤ食品	0.000
必ずページ下部までご確認ください	0.000
ケーキです	0.000
みんなで食べれる	0.000
▁ほろ	0.000
迅	0.000
こちらの商品はメーカー直送のため	0.000
個売り上げ	0.000
▁パイナップル	0.000
の先	0.000
×41	0.000
橘	0.000
ハコ	0.000
▁日本酒トリュフチョコレート	0.000
order	0.000
姪	0.000
のお名前	0.000
アント	0.000
羅	0.000
ミア	0.000
霊	0.000
3-18-19	0.000
高島屋の包装紙でお届けします	0.000
そのままに至福のひとときへ	0.000
日比谷パークビル	0.000
ンガリー	0.000
ヴェイス	0.000
セット製造国日本	0.000
はご入金	0.000
▁大量のご発注に関しましては	0.000
葬	0.000
日本酒	0.000
1986	0.000
発送目安	0.000
この商品は冷蔵便でお届け致します	0.000
一口タイプにしました	0.000
▁you	0.000
▁チョコレートは高温	0.000
デザイナー	0.000
ダイジェスティブ	0.000
▁挙式日	0.000
畑	0.000
涼しい場所に保存し	0.000
▁簡単	0.000
やライオンコーヒー	0.000
おすすめする	0.000
まろやかな甘さをミックス	0.000
召し上がっても差し支え	0.000
にもおいしいヒルゼン	0.000
>#4580	0.000
▁モン	0.000
森伊蔵	0.000
/6127	0.000
交換不可品	0.000
▁100%	0.000
:26×25×7	0.000
細心	0.000
ミルク焼きショコラ	0.000
営業日以内に発送	0.000
グアイ	0.000
粕	0.000
代が	0.000
に優れ	0.000
粒から	0.000
▁アレルギー対応	0.000
▁同時にご注文頂いても別々に	0.000
▁新鮮な生クリームを	0.000
詣	0.000
ご了承を得た時点で	0.000
カード付き	0.000
以降順次発送	0.000
醸	0.000
12000	0.000
皇	0.000
セピア	0.000
▁山ぶどうワイン	0.000
つ個包装されているから	0.000
恍惚	0.000
鉛	0.000
伊豆大島	0.000
敗	0.000
珊瑚礁	0.000
の究極の	0.000
ゞ	0.000
つ個包装	0.000
フライ	0.000
個からお買い求めの場合はコチラ	0.000
裾	0.000
説明書	0.000
2-23-2	0.000
の定番を	0.000
商品画像はイメージです	0.000
ブランディ	0.000
ポテトチップチョコレート	0.000
ロイヤルコナコーヒー	0.000
ぎゅっと小さく	0.000
の当社	0.000
等の表記について	0.000
冷え	0.000
▁Z	0.000
ラウンド	0.000
*^	0.000
▁本命チョコ	0.000
「【	0.000
シーな	0.000
大変溶けやすくなっております	0.000
妙	0.000
注文確定メール	0.000
▁ひとくちチョコ	0.000
MG	0.000
▁ネット入り	0.000
同一配送先に限ります	0.000
象徴	0.000
着色	0.000
丸金	0.000
▁せっかく買ったお土産	0.000
ァ	0.000
が英字で入ります	0.000
2-3-8	0.000
製品に	0.000
ほろ苦さ	0.000
▁サイパン等の	0.000
よりご	0.000
成人式	0.000
ダイジェスティブビスケットに	0.000
ぐる	0.000
▁台湾	0.000
冥	0.000
佇	0.000
▁材質	0.000
を思	0.000
手提袋もお付けします	0.000
▁今回のオークション	0.000
▁スペイン土産	0.000
乙窪	0.000
旧札	0.000
靴	0.000
▁注文確認メールにて	0.000
ミルクを使ったチョコレートを	0.000
サンバ	0.000
▁神奈川	0.000
└	0.000
オリゴ	0.000
妥	0.000
しゃ	0.000
▁ギフトラッピング	0.000
フレンチ	0.000
レッティー	0.000
▁●14	0.000
▁フレーバーソース	0.000
お届けについてや	0.000
しまして	0.000
ハートクランチ	0.000
商品のご注文は	0.000
就任のお祝い	0.000
袋セット製造国日本	0.000
掃	0.000
円スタートオークション	0.000
銅	0.000
▁アサヒフード	0.000
▁グアム	0.000
明る	0.000
赤な	0.000
▁ドラマ出演も果たし	0.000
巽	0.000
でコーティングしたモカと	0.000
イングエース	0.000
シンプルで飽きのこない味わい	0.000
をぜひ一度お試しください	0.000
▁台湾土産	0.000
円程度	0.000
回分	0.000
▁ミルキーウェイ	0.000
▁六花亭	0.000
騰	0.000
▁見本デザインをご確認頂き	0.000
▁ミニビット	0.000
未精製糖	0.000
送料等につきましては	0.000
剥	0.000
ウエルカム	0.000
エントリーでポイント	0.000
入れする	0.000
┛	0.000
クロビオティック	0.000
▁当社デザイナーが旬なお花	0.000
×55×55	0.000
亡	0.000
-40	0.000
をミルクチョコで包みました	0.000
の名店	0.000
ドイツに運ばれ製造	0.000
ーシカ	0.000
花が	0.000
のアレンジ	0.000
商品となります	0.000
色々な味	0.000
且	0.000
】::390	0.000
自動配信	0.000
ケージ	0.000
のお客様にご	0.000
ther	0.000
交換はご容赦ください	0.000
ミニチョコレート	0.000
確認から	0.000
のマーブル	0.000
それぞれ贅沢に	0.000
商品発送後	0.000
移動し	0.000
:16×21×7	0.000
▁マース	0.000
刺激的	0.000
┃	0.000
久保田	0.000
-17	0.000
巾着	0.000
アーモンドチョコは	0.000
白樺樹液をパウダーにして	0.000
商品の送料は	0.000
▁スタイル	0.000
▁お菓子を探す	0.000
-29	0.000
天使	0.000
サヒフード	0.000
▁高温多湿には弱いと思われます	0.000
パティ	0.000
さんど	0.000
ご安心してお召し上がり下さい	0.000
の方は事前にお	0.000
レスト	0.000
▁一括	0.000
桔梗	0.000
ミルクチョコクリスピー	0.000
お花はケーキと	0.000
囲	0.000
くられた	0.000
なども出品中	0.000
伊豆	0.000
妖	0.000
▁ゲランドの塩付	0.000
を特別価格にて販売しております	0.000
お客様相談室	0.000
アラスカ	0.000
レファント	0.000
▁伝統の製法にこだわった	0.000
ドラ	0.000
被膜	0.000
落札後	0.000
▁薔薇	0.000
オリジナルスイーツ	0.000
もろ	0.000
GODI	0.000
やボリビアなどの有機農家から	0.000
81	0.000
同一日同一配送先に限ります	0.000
▁ご面倒をお掛けいたしますが	0.000
ジャムを	0.000
終売している場合がございますが	0.000
義務	0.000
民族	0.000
沿	0.000
心を込めて渡すプチギフト	0.000
っとサイズ	0.000
の個包装	0.000
年に創業	0.000
円から	0.000
梱	0.000
海外お取り寄せ	0.000
パール	0.000
べく	0.000
細心の注意	0.000
がバランスよく	0.000
▁fk	0.000
プー	0.000
▁大き	0.000
たけのこの	0.000
の配	0.000
他の商品が入っている事も	0.000
詩	0.000
史	0.000
シウム	0.000
アカ	0.000
操	0.000
は致しておりません	0.000
▁38	0.000
▁ブーケ	0.000
▁シュ	0.000
▁メリーチョコレート	0.000
幡	0.000
伊豆諸島への配送はできません	0.000
電	0.000
盗	0.000
▁マン	0.000
呑	0.000
年愛されている	0.000
奔	0.000
地域別	0.000
噂	0.000
▁エスプレッソチョコ	0.000
セレ	0.000
個入サイズ個装サイズ	0.000
大きくなって	0.000
ドモーリ社	0.000
プリザ	0.000
は冷蔵発送となります	0.000
の方は送料無料	0.000
▁見本デザイン画像は	0.000
メージ	0.000
をベースにして丁寧に	0.000
とろける味わいだけじゃなくて	0.000
ナダ	0.000
フィジー	0.000
プレミア	0.000
御座います	0.000
▁お得なトリュフ	0.000
誘う贅沢ショコラ	0.000
簡	0.000
ケイシイシイ	0.000
▁★★↓	0.000
抵	0.000
▁花材	0.000
僅	0.000
伊佐美	0.000
▁20%	0.000
にて修正	0.000
送迎用	0.000
▁当日	0.000
牢	0.000
▁南米土産	0.000
▁INFOMATION	0.000
