221	45.750
ノニ	33.664
お受け	28.485
オリヒロ株式会社	25.032
▁カムカム	20.285
Opti	17.695
NatureMade	15.754
透明感	15.537
紅	14.674
CD	14.674
25%	13.811
caps	12.948
▁アウトレット	12.947
筋骨草	12.947
先生	12.301
219	12.084
霧	12.084
くすりの勉強堂	12.084
岐	12.084
死	12.084
キャッツクロー	12.084
カムカム	11.222
併用	11.221
以外にも	11.221
望ましい	11.221
アスコルビル	11.221
▁Zinc	10.790
▁ウィダー	10.574
だけではなく	10.358
life	10.358
ソン	10.358
134	10.358
)】<	10.358
(7.5	9.495
アース製薬	9.495
性食品	9.495
▁0248-94-8718■	9.495
最安	9.495
桑	9.495
都合	9.495
ニチ	9.495
河	9.495
、【	9.351
otin	9.207
>〓	9.207
無く	8.919
▁/(/	8.824
原産地	8.632
エステ	8.632
パッド	8.632
▁03-329	8.632
ダーアーマー	8.632
連続	8.632
お客さま	8.632
白十字	8.632
生理活性	8.632
ドロップ	8.632
梗塞	8.632
▁NEW	8.459
ディーエイチシー	8.440
プライス	8.200
希釈	8.200
▁MSM	7.941
▁0120-550-708	7.769
幹	7.768
海洋深層水	7.768
対応の	7.768
せんべい	7.768
トコフェロール当量	7.768
レモン果汁パウダー	7.768
ントシア	7.768
をお持ち	7.768
崗	7.768
先進	7.768
駆	7.768
4-00	7.481
ロイヤル	7.337
雲	7.337
トサン	7.337
原産の栄養補助食品で	7.337
ブラウザ	7.337
操	7.337
当社	7.251
が取	7.193
:2018	7.193
アミノ酸キレート	7.165
ボー	6.905
を通	6.905
続き	6.905
から採取	6.905
滅	6.905
でのお届けとなります	6.905
トー	6.905
ビジョン	6.905
熟した	6.905
pple	6.905
代金引換不可	6.905
マム	6.905
276	6.905
ラック	6.905
羽	6.905
味のサプリメントです	6.905
冬虫夏草	6.905
Weider	6.798
▁白	6.690
フォニルメタン	6.618
橋	6.474
am	6.474
化粧	6.474
酷使	6.474
配送方法	6.330
凝	6.330
-6222	6.330
製造時期により色合いが	6.258
▁高温多湿をさけ	6.258
▁バランスの良い食事	6.258
日本製健康食品	6.258
や運動を心がけ	6.258
商品は原料由来の為	6.258
水溶性のビタミン	6.215
射	6.215
▁高温多湿及び	6.042
吸収効率	6.042
50-	6.042
食事が偏りがちな	6.042
車	6.042
▁メンズ	6.042
炊き	6.042
衝	6.042
含まれた	6.042
阜	6.042
時間で排泄	6.042
uper	6.042
正常に	6.042
ソフト	6.042
織	6.042
や健康	6.042
冠	6.042
になりがち	6.042
と言われており	6.042
携帯に便利な	6.042
▁価格改訂によるリニューアル	6.042
とは異なり	6.042
手間	6.042
でおいしい	6.042
クティオ	6.042
チオキシ	6.042
ビタミンサプリメント	6.002
内容等予告なく変更	5.886
完	5.870
区分日本製	5.870
▁プルーン	5.870
広く	5.755
およ	5.754
を飲んで	5.754
高吸収	5.697
(0995-57-5032)】【	5.611
▁主要	5.611
エイジングケアが気になる方	5.611
公式	5.611
個で送料無料	5.611
フェリ	5.611
単体で	5.611
お届けまでに	5.611
ダイエットサポート	5.611
▁スピルリナ	5.563
浴	5.549
消費期限	5.503
▁妊娠中	5.467
インラインフレーム	5.467
お召し上がりになる	5.467
本で	5.467
に伴い	5.426
対象外	5.395
)】[	5.361
mp	5.287
OST	5.179
龍	5.179
ステイン	5.179
):4	5.179
こだ	5.179
炭水	5.179
忘れ	5.179
マスカット	5.179
メチルスル	5.179
▁HEALTHY	5.179
で販売	5.179
▁アスコルビン酸	5.179
▁シン	5.179
企	5.179
▁基礎	5.179
補助食品です	5.179
と健康維持	5.179
UPALIV	5.179
頂いております	5.179
ガード	5.179
悟	5.179
DN	5.179
生する	5.179
行う	5.179
阻	5.179
*6	5.179
ALTH	5.179
アース	5.179
チロ	5.179
恵	5.179
飽	5.179
パルミ	5.179
消臭	5.179
健康サイクル	5.179
偏りがある	5.179
(/	5.179
明日	5.179
普	5.071
日時指定	5.035
小児は	5.035
わって	5.006
詳しく	4.963
ミネラル不足	4.963
周	4.963
Nature	4.920
港区	4.891
東京都	4.891
定形外郵便	4.891
特別な	4.891
oftgel	4.891
",	4.844
株式会社爽快ドラッグ	4.834
▁・・・・・	4.834
代引き不可	4.809
ウィダー	4.802
)/]	4.748
style	4.748
薬を服用	4.748
▁セール	4.748
ser	4.748
▁お届けできない場合がございます	4.747
06-63	4.747
▁メーカー生産終了商品	4.747
及び欠品中の商品については	4.747
離島へのお届け	4.747
貴	4.747
鉄の栄養機能食品です	4.747
エチケット	4.747
パルミチン酸	4.747
からない	4.747
の健康に	4.747
▁アサイ	4.747
日摂取	4.747
〓<	4.686
っくり	4.661
単品	4.661
▁アクアホエイプロテイン	4.661
別途送料	4.604
半額以下	4.604
毎日を過ご	4.604
整	4.604
鉱物	4.604
抵	4.604
リリース	4.604
でしっかり	4.604
▁99	4.563
ようお願い申し上げます	4.532
レース	4.532
▁Caps	4.532
▁エイジングケア	4.488
60-16	4.488
覚	4.488
▁米粉	4.488
▁●2	4.460
PABA	4.460
葉酸タブレット	4.460
に関する詳細なお	4.451
アマ	4.316
der	4.316
多少異なる場合がございます	4.316
粘膜	4.316
▁スーパーフィッシュオイル	4.316
岡	4.316
美容トラブル	4.316
方におすすめの	4.316
獲	4.316
綺	4.316
しょ	4.316
決済をご	4.316
他の商品	4.316
屋さん	4.316
6・・・2.4	4.316
ティー風味	4.316
物質である	4.316
2・・・5.7	4.316
統	4.316
と一緒	4.316
かむなどしてお召し上がりください	4.316
をしっかり補給	4.316
1・・・9.3	4.316
ドラ	4.316
▁ケア	4.316
ジル	4.316
湖	4.316
遺伝子	4.316
レモン果汁約	4.316
-400	4.316
大量摂取	4.316
脱	4.316
田区	4.316
ご覧ください	4.316
ドウ	4.316
技	4.316
の程	4.316
ましい	4.316
乾燥ビール酵母	4.316
研	4.316
制度	4.316
ができません	4.316
吾妻橋	4.316
医薬	4.316
フラボ	4.316
混ぜてください	4.316
さわやか	4.316
醤	4.316
屋さんのカルシウム	4.316
ゴクゴク	4.316
42-	4.316
キナ	4.316
パラギ	4.316
ソース	4.316
シャス	4.316
御了承	4.316
ともいいます	4.316
の健康維持を助ける	4.316
奏	4.316
体内に蓄積	4.316
距離	4.316
レギュラー	4.316
ご利用いただく	4.316
をご指定	4.316
人におすすめ	4.316
裂	4.316
MSM	4.244
方式	4.230
グルコン酸	4.230
をご覧	4.220
health	4.208
ダグラスラボラトリーズ	4.203
▁天然ビタミン	4.193
inc	4.193
シング	4.172
問合せは下記までお願いします	4.168
ゴシック	4.117
ニューアル	4.113
オーガランド	4.100
舗	4.100
ビオママ	4.100
ブラ	4.100
▁Bi	4.100
の数	4.100
▁ラン	4.100
カルシフェロール	4.100
/120	4.100
一切	4.081
75-3	4.069
バイト	4.028
ght	4.028
0120	4.028
レスベラトロール	4.028
健康維持にお役立てください	4.028
でご	4.028
毎日の健康に	4.028
的な摂取	4.028
株式会社エープライム	4.028
の商品も	4.028
活性酸素	4.028
ビーガン	4.028
監	3.992
倍に	3.971
▁若々しさ	3.971
詳しくはこちら	3.946
spac	3.946
林	3.924
体内では	3.884
患	3.884
いも	3.884
-3335	3.884
カプ	3.884
▁084-920-2250	3.884
コピン	3.884
▁株式会社ププレひまわり	3.884
講	3.884
▁通信販売係	3.884
別途商品	3.884
摂取基準	3.884
兆	3.884
ear	3.884
談	3.884
物や	3.884
の元	3.884
招	3.884
困	3.884
変質	3.884
フュー	3.884
とされ	3.884
によりお届け	3.884
お得サイズ	3.884
担当	3.836
の商品詳細	3.826
サポートにお役立て下さい	3.823
紫外線	3.812
ter	3.798
▁バランス	3.798
村	3.798
ルク	3.787
芝	3.776
▁Made	3.770
命	3.741
ベジタリアン仕様	3.740
▁配合	3.740
▁バナ	3.740
途	3.740
蜂の子	3.740
の増加	3.740
▁ヒアルロン酸	3.712
バリュー	3.699
アプローチ	3.668
HE	3.668
)23:59	3.668
エキスを	3.668
)0:00-11/24(	3.668
▁ポイント最大	3.668
フィッシュ	3.668
の亜鉛	3.668
楽しく	3.668
活性の高い	3.668
▁【11/23(	3.668
タバコを吸う	3.668
代金引換	3.656
レット	3.645
family	3.625
font	3.597
▁濃縮	3.597
)...	3.597
▁フォー	3.597
寝	3.597
でお届けします	3.576
▁Foods	3.536
アム	3.525
知られています	3.514
と異なる場合がございます	3.453
のベース	3.453
ほしい	3.453
圏	3.453
トップメーカー	3.453
を支	3.453
スパリブ	3.453
錠あたり	3.453
ES	3.453
ペースト	3.453
▁松	3.453
が特徴	3.453
▁社	3.453
鈴	3.453
冴	3.453
▁株式会社エフ琉球	3.453
釜にポン	3.453
▁ヘルスケア	3.453
欧米	3.453
願	3.453
が無い	3.453
パワーで	3.453
添	3.453
案内	3.453
▁ム	3.453
の植物性	3.453
ゼオライト	3.453
緊	3.453
同梱不可	3.453
をおすすめいたします	3.453
去	3.453
対応のブラウザでご覧ください	3.453
孔	3.453
▁seedcoms	3.453
をしっかり閉めて冷暗所に	3.453
の都合	3.453
3%	3.453
克	3.453
円が別途必要となりますので	3.453
▁ママ	3.453
サトウ	3.453
イラ	3.453
を含有した	3.453
弾	3.453
トリン	3.453
iframe	3.453
が入	3.453
拍	3.453
メール便の使用は出来ず	3.453
粉を	3.453
代金引換えをご指定頂いた場合	3.453
▁Best	3.453
▁098-963-9076	3.453
頼	3.453
。100	3.453
常温保存してください	3.453
一律	3.453
のみ送料無料となります	3.453
▁天然由来	3.453
主要な	3.453
塵	3.453
アドバンス	3.453
IM	3.453
★★	3.453
荒	3.453
簡単にキャップが開	3.453
不足しがちな栄養素です	3.453
難消化	3.453
冊	3.453
形の	3.453
が手にした	3.453
ダマになり	3.453
MO	3.453
異性化	3.453
案	3.453
日に必要	3.453
水溶性のビタミンは比較的短	3.453
の飲み物	3.453
ットリ	3.453
グア	3.453
彼	3.453
2700	3.453
UV	3.453
古く	3.453
別途送料が	3.453
▁Ac	3.453
んば	3.453
羊	3.453
:190	3.453
日本語	3.453
相談室	3.407
:2016	3.391
キープ	3.378
▁NOW	3.376
モリス	3.366
▁年齢	3.357
プティ	3.357
フォル	3.357
交換は	3.357
▁東京都港区	3.345
部分は	3.345
いくつ	3.329
-431	3.329
を避けてください	3.329
映	3.329
食品株式会社	3.309
全ての	3.309
水分が	3.309
農薬	3.303
布	3.288
をもっと	3.280
▁weider	3.280
剣	3.280
やすいビタミン	3.280
グレード	3.268
ダグラス	3.252
常温にて保存してください	3.237
船	3.237
▁プロテインシェーカー	3.237
形態	3.237
乳成分含む	3.237
始める	3.237
力の	3.237
世	3.237
内側	3.237
の他	3.206
510	3.206
独自の研究から生まれました	3.206
▁PABA	3.206
を配合したプロテインは	3.206
▁4987035	3.206
まれる	3.194
ff	3.165
▁楽天	3.165
殖	3.165
糖質を	3.165
捨	3.165
のできない	3.165
個入り	3.165
始め	3.165
つで	3.165
はイメージ	3.165
大切なミネラル	3.165
定期的に	3.165
時などに	3.165
▁小林	3.165
監督	3.165
プロエックス	3.165
りに	3.165
や鉄分	3.165
粒を目安にお飲みください	3.165
摘	3.165
こまめな	3.165
▁株式会社ファンケル	3.165
ピジョン	3.148
▁東京都千代田区神田司町	3.144
2-9	3.144
頂きます	3.139
食後に	3.139
セラ	3.139
納豆	3.129
方の	3.129
▁"	3.125
摂取後	3.107
比較	3.107
-75	3.107
チェック	3.107
じゃ	3.107
役立つ	3.107
156	3.107
(90	3.093
配達	3.093
いが	3.083
コリ	3.083
扱	3.083
サプリメントを	3.076
を目指す方	3.069
の生	3.069
-->	3.060
エラ	3.060
中の方	3.050
7-	3.047
互いに	3.021
ナジー	3.021
定期	3.021
多湿を避けて保存してください	3.021
馬	3.021
海外	3.021
うる	3.021
電話番号	3.021
ベースサプリメントです	3.021
柔	3.021
カットアリ	3.021
▁プレママ	3.021
群全	3.021
体に合わない	3.021
キャップが	3.021
▁ディーエイチシー	3.021
わった	3.021
郵	3.021
頑	3.021
2-20	3.021
手数料	3.021
確か	3.021
ミー	3.021
亜鉛含有酵母	3.021
健康が気になる方	3.021
ブラジル	3.021
▁ヘルシー	3.021
プチド	3.021
がリニューアル	3.021
▁Cal	3.021
槽	3.021
沫	3.021
応え	3.021
揃	3.021
したカラダ	3.021
▁SUPALIV	3.021
械	3.021
オキ	3.021
多く含まれる	3.021
ディング	3.021
お召し上がりにならない	3.021
雄	3.021
含有食品です	3.021
伸	3.021
恐れ入りますが	3.021
営	3.021
恐	3.021
リニューアルに伴い	3.021
926	3.021
個数	3.021
;2	3.021
時など	3.021
ライス	3.021
CL	3.021
風	3.001
果実	2.999
の一	2.992
▁セサミン	2.992
睡	2.982
,9	2.982
ランド	2.982
の量	2.973
日摂取量	2.973
イト	2.967
×270	2.959
因	2.959
家	2.959
VP	2.959
お薬を服用中の方は	2.959
▁税込	2.959
粒を目安にお	2.951
▁別途商品ラベルに記載	2.949
補酵素	2.945
函	2.935
静	2.935
▁肌	2.935
アシッド	2.935
番地	2.935
歌	2.935
留	2.922
ゲット	2.913
おなか	2.913
消費者	2.913
リット	2.913
コンビ	2.913
old	2.903
いただ	2.892
▁11/21	2.890
▁アサヒフード	2.888
亜鉛を	2.877
最安値	2.877
杏	2.877
プルーンエキス	2.877
ファンケル	2.877
取引	2.877
ムラ	2.877
事前に医師	2.877
題	2.877
▁大塚製薬ネイチャーメイド	2.877
潮	2.877
や外食	2.877
渋	2.877
多少の違い	2.877
インター	2.877
かんで美味しく食べられる	2.877
高配合	2.877
寄せ	2.877
果糖ぶどう糖液糖	2.877
77-5	2.877
したい方へ	2.877
に自	2.877
淀川区	2.877
+1	2.877
▁食塩	2.877
溶かす手間	2.877
錯	2.877
アミノマルチビタミン	2.877
選ば	2.859
歳	2.853
不足しがちなビタミンです	2.848
麻	2.836
▁広告文責株式会社	2.836
個分の	2.836
の使用は	2.836
はよう水素	2.836
われて	2.836
粒にレモン約	2.836
覧	2.836
Dear	2.831
▁079	2.825
溜	2.825
小林製薬	2.820
9:59	2.805
どんな	2.805
にお使い	2.805
群の仲間	2.805
▁朝と夜など	2.805
チュアブルタイプです	2.805
に欠かせないミネラル	2.805
麦芽	2.805
ストロング	2.805
の手	2.805
日推奨量	2.805
保湿	2.805
煙草を吸う	2.805
初めてご利用いただくお客様は少量	2.805
域	2.805
FANCL	2.781
ポスト	2.781
律	2.781
お使い下さい	2.763
は水溶性のビタミンで	2.762
:36	2.762
使う	2.762
キトサン	2.762
学名	2.762
穫	2.762
衛生	2.762
バランスを	2.762
の栄養所要	2.762
振って	2.762
快適	2.762
忙しく	2.762
変わ	2.762
声	2.754
消費期限目安	2.754
を受け	2.733
▁株式会社ディーエイチシー	2.733
にカルシウム	2.733
ケル	2.733
ニチバン	2.733
・・・42	2.733
・・・0.6	2.733
さけてください	2.733
事前に医師とご相談の上	2.725
する場合がございます	2.722
本格派	2.722
っております	2.713
・・・0.00	2.707
月まで	2.707
の健康食品	2.705
苦	2.697
スキンケア	2.697
たん白	2.697
⇒	2.693
イラストはイメージで実際の	2.689
▁対応のブラウザでご覧ください	2.689
ものと色や形は異なります	2.689
いつまでも	2.685
体内に蓄積できないので	2.676
ハイド	2.662
児	2.661
が入った	2.661
のある方	2.661
製品ご購入前	2.658
ご使用前に必ずこちら	2.658
;}	2.651
迄	2.651
アン	2.647
▁ピジョン	2.647
▁業務用	2.647
▁徳用	2.640
を得	2.638
はコチラ	2.622
粒総重量	2.620
輸入元又は販売元	2.605
▁他成分	2.604
評価	2.590
▁メール便	2.590
:0120-5	2.590
ol	2.590
1-00	2.590
にある	2.590
を生	2.590
▁ルテイン	2.590
11/	2.590
診	2.590
除去	2.589
時間で排泄されるので	2.589
アスコルビン酸ともいいます	2.589
摂取をこまめに行うほうがよい	2.589
ウルトラ	2.589
届け	2.589
中高年	2.589
エネルギーに変える	2.589
洲	2.589
オリーブ	2.589
を追加	2.589
昆布	2.589
eg	2.589
リコピン	2.589
▁カフェオレ	2.589
われています	2.589
耳	2.589
ネイル	2.589
ジョ	2.589
▁オリーブ油	2.589
▁お得	2.589
炊く	2.589
カプセルが付着	2.589
カバー	2.589
お買い上げ	2.589
壌	2.589
楽し	2.589
問題ありません	2.589
頂ける	2.589
で飲みやすくなっています	2.589
新鮮な	2.589
ヒー	2.589
・・・2.4	2.589
通院中の方はお医者様	2.589
払い	2.589
動き	2.589
12:3	2.589
ional	2.589
▁ソフトジェル	2.589
晩	2.589
成人の	2.589
撃	2.589
女	2.589
第三	2.589
我	2.589
たく	2.589
▁!	2.589
2-85-7380	2.589
笑	2.589
十字	2.589
IVE	2.589
状に	2.589
シャン	2.589
食品のため	2.589
▁理想	2.589
ラソン	2.589
食品のため衛生的な環境でお	2.589
権威	2.589
原材料に	2.589
▁現代人に	2.589
を正常に保	2.589
和光堂	2.589
フィルム	2.589
薬を服用したり通院中の方は	2.589
ガラス	2.589
NU	2.589
医者様	2.589
味や	2.589
▁数量	2.589
▁★1	2.589
を補える	2.589
暮	2.589
-67	2.589
牡蠣肉エキス	2.589
▁024	2.589
種類が	2.589
務	2.589
▁自然の	2.589
▁摂取目安	2.589
シャー	2.589
説	2.589
副菜	2.589
特定保健用食品	2.589
薯	2.589
色合	2.589
クコ	2.589
モニ	2.589
スリー	2.589
ふし	2.589
ぺ	2.589
消費者庁	2.589
HP	2.589
走	2.589
飲酒	2.589
▁ご飯	2.589
欲	2.589
イオウ	2.589
易く	2.589
豪	2.589
と言われている為	2.589
なくて	2.589
被	2.589
リブ	2.589
脈	2.589
薬剤	2.589
×360	2.589
湿気の多い	2.589
ペパーミント	2.589
水やぬるま湯	2.589
▁458	2.589
膿	2.589
ワンタッチ	2.589
:079-431	2.589
坊	2.589
カオ	2.589
還	2.589
渇	2.589
煙	2.589
で飲みやすく	2.589
埼	2.589
ルマ	2.589
▁具	2.589
補うことが	2.589
皿	2.589
▁お客様相談	2.589
文責	2.589
青汁と	2.589
の巣	2.589
較	2.589
ひまわり	2.589
ライチ	2.589
失われた	2.589
必須アイテム	2.589
されてから	2.589
んばる	2.589
やコラーゲン	2.589
がすごい	2.589
濯	2.589
ロウ	2.589
▁当店では	2.589
と夜など	2.589
72-3	2.589
▁BAR	2.589
奮	2.589
くに	2.589
慶	2.589
酔	2.589
サイズ約	2.589
消費される	2.589
それ以上	2.589
交	2.589
イアシン	2.589
維	2.589
頻繁	2.589
嗅	2.589
は必ずお守り下さい	2.589
諸	2.589
ロング	2.589
矯	2.589
商品区分食品	2.589
/49870355	2.589
亜麻	2.589
対応のブラウザ	2.589
咽	2.589
抽選	2.589
優しく	2.589
リーフ	2.589
複	2.589
薦	2.589
雨	2.589
生産	2.574
▁徴	2.562
▁ファミリーサイズ	2.558
妊娠中の方	2.553
▁(60	2.548
▁食品として	2.540
安	2.539
料	2.539
の注意事項をご確認下さい	2.537
いつ	2.532
バイ	2.532
-33	2.528
】、【	2.526
あたる	2.523
▁iframe	2.522
コマ	2.521
数回に分けて	2.518
・・・14	2.518
アメリカ製	2.517
ベリー	2.516
と異なり	2.503
成分として	2.499
枚入	2.494
日当たりの	2.494
▁letter	2.489
心配	2.488
%;	2.484
プロテインシェーカー	2.482
-78	2.482
商品が	2.482
エム	2.482
▁Y	2.482
ご覧	2.482
▁対応のブラウザで見てください	2.480
必須ビタミン	2.474
▁Good	2.474
、、	2.474
美しさ	2.474
ウエハース	2.473
呼	2.471
オリヒロ	2.466
ご利用をお控えください	2.466
フォース	2.466
▁U	2.466
とくに	2.466
ガン	2.466
了	2.466
師	2.466
エス	2.466
ギュッと	2.466
▁#	2.464
1-23-1	2.457
ベジタブルカプセル	2.457
も含有	2.457
のタイミング	2.457
>>	2.455
の原材料	2.452
▁パッケージに記載	2.446
▁03-5958-7555	2.446
ープ	2.446
薄	2.446
ポン	2.446
エネルギーが	2.446
ロート	2.446
にもおすすめ	2.446
浴び	2.446
すっ	2.446
廃	2.446
ス菌	2.446
酒	2.446
SVS	2.442
spacing	2.439
ランス	2.437
▁オーガ	2.437
おりません	2.437
an	2.435
貴重な	2.433
ノー	2.433
表記	2.433
▁こんな	2.428
ティック	2.428
ケンコーコム	2.421
英文ラベル日本語訳	2.417
コバラミン	2.417
▁アン	2.417
ベジ	2.417
▁Z	2.417
つくる	2.417
:0120-550708	2.417
クマ	2.417
VITA	2.417
の多い方	2.417
▁商品特徴一覧	2.417
へと	2.417
▁おいしく	2.417
・・・350	2.417
発売元又は製造販売元	2.417
アリ	2.417
メッセ	2.417
計画	2.417
サプリメントの	2.412
比	2.408
さま	2.405
不規則な生活	2.405
血液循環を正常に保	2.405
神	2.398
脂溶性	2.398
然	2.398
脂溶性のビタミンです	2.398
糖尿病	2.398
スリム	2.398
高濃度	2.398
ディアナチュラ	2.394
▁毎日	2.392
ワー	2.390
▁成分内容	2.386
私たちの	2.382
▁ナチュラル	2.381
群の仲間で	2.374
ときに	2.374
厚生	2.374
独	2.374
門	2.374
代引き手数料	2.374
ED	2.374
荒れ	2.374
>■	2.374
シトラス	2.374
変え	2.374
にん	2.374
も高	2.374
日目安量あたり	2.374
を楽しむ方	2.374
を保ち	2.374
イワ	2.374
の維持や調節に欠かせない	2.374
にその働きを助けるビタミン	2.374
彩	2.374
麺	2.374
誇	2.374
基本に	2.374
▁たんぱく質の働き	2.374
日の目安は	2.374
現代人の	2.374
メディカル	2.374
・・・0.01	2.374
ことを	2.368
DHC	2.365
層	2.362
ツル	2.357
▁border	2.354
酒石	2.354
落花生	2.354
採用	2.354
適切に	2.354
栄養所要	2.354
:#	2.352
さん	2.351
)]	2.349
若々しく	2.343
スペ	2.343
男女	2.343
▁無	2.343
楽天市場店	2.343
については	2.339
◎	2.339
▁solid	2.339
。◆	2.336
種類を	2.336
2-5	2.334
desc	2.333
チーム	2.331
陸上	2.331
駄	2.331
全国一律	2.331
ビフィズス菌	2.331
基本	2.329
ニー	2.324
ビーガン仕様	2.324
▁細	2.324
故	2.324
▁color	2.322
▁コリン	2.317
鶏	2.317
ベジタリアン	2.313
創	2.313
ケア	2.307
られます	2.302
科	2.302
予防	2.302
に関係	2.302
のお子様	2.302
▁0120-630611	2.302
▁クロミウム	2.302
▁東京都墨田区吾妻橋	2.302
▁シリーズ	2.302
が入っています	2.302
べて	2.302
その他の	2.302
タミン	2.302
いは	2.302
▁ウルトラ	2.302
線	2.302
努	2.302
ゴー	2.302
川区	2.302
じん	2.302
を維持する	2.302
粒の重量	2.302
吸収率の高い	2.302
▁Nutrition	2.302
および高温多湿の場所	2.302
必要とする	2.302
編	2.302
▁アルミ	2.302
醸	2.302
不規則な	2.302
の元気	2.302
を起こす	2.302
速度が速く	2.302
の吸収を促進し	2.302
誰	2.302
チュ	2.302
ロート製薬	2.302
yl	2.302
星	2.302
★★★	2.302
倦怠	2.302
メディ	2.302
776	2.302
がカラダ	2.302
オーバー	2.302
分包	2.302
迷惑	2.302
元気に過ご	2.302
使用を中止	2.302
冷蔵	2.302
color	2.297
きました	2.292
におすすめ	2.292
3-0	2.292
飲んで	2.287
ブランド	2.285
:2015	2.281
こんな方におすすめ	2.281
キーレート	2.276
51	2.276
ゲル化剤	2.276
使用上の注意をよくお読みの上	2.274
▁1,000	2.272
▁Natural	2.272
社の	2.269
▁形状	2.266
や美容	2.266
アントシアニン	2.266
10%	2.266
()	2.266
してきた	2.266
▁In	2.266
12・・・2	2.266
レンジング	2.266
元気に過ごしたい方	2.266
715	2.266
▁“	2.266
ラス	2.261
Z	2.261
係	2.258
直	2.258
▁ネット	2.258
主に	2.258
▁当店で	2.258
▁th	2.254
県	2.254
使用しておりません	2.254
▁17.5	2.252
形状	2.245
コリン	2.244
全品	2.244
(180	2.244
あわせ	2.244
直射日光をさけて	2.244
喜	2.244
をめざ	2.244
▁(20	2.244
運動で消費され	2.244
補います	2.244
摂取を	2.244
薬を服用中	2.244
くだけ	2.244
▁商品は	2.244
大幅	2.244
ヘルスケア株式会社	2.244
▁0120-8	2.244
カラダにうれしい	2.244
仲間	2.244
原材料の一部に大豆	2.244
▁{	2.238
ページ下部に記載の	2.232
も必ずご確認下さい	2.232
サプリメント等についてのご注意	2.232
頃	2.230
の素材	2.230
エネルギー源	2.230
医	2.230
注意	2.225
水などでお召し上がり下さい	2.225
のもの	2.223
▁text	2.223
left	2.220
健康に	2.220
移	2.220
利	2.220
|	2.220
を気に	2.220
栄養素等表示	2.220
に近い	2.220
bottom	2.214
▁ウェイトダウン	2.212
...0.	2.210
硫酸	2.210
ビタミンです	2.206
ギュ	2.206
マダコンフェクト	2.206
:80	2.206
までは	2.206
食当たり	2.206
IP	2.200
px	2.198
ナチュラル	2.197
4,	2.197
自社工場での一貫管理	2.197
助	2.197
▁製品名	2.194
size	2.192
ut	2.191
▁剤	2.191
ネット	2.187
凍	2.187
弱い	2.187
table	2.185
の使用	2.185
品質管理	2.183
お酒を	2.181
▁padding	2.177
:05	2.174
被包剤	2.171
mu	2.169
▁}	2.162
南	2.158
▁m	2.158
ディアナチュラスタイル	2.158
/0.	2.158
眠	2.158
▲	2.158
機能性	2.158
植物性ステアリン酸マグネシウム	2.158
ナン	2.158
▁ディアナチュラスタイル	2.158
応援	2.158
の健康をサポート	2.158
と健康	2.158
スタミナ	2.158
お釜にポン	2.158
▁通販	2.158
(9	2.158
種類も	2.158
お菓子	2.158
もち	2.158
の摂取が	2.158
毒	2.158
又	2.158
▁ビューティー	2.158
の価格	2.158
▁配達	2.158
した場合	2.158
回に分けてとるのがおすすめです	2.158
円以上お買い上げで送料無料	2.158
ガリ	2.158
▁お客様相談センター	2.158
yle	2.158
けません	2.158
ごと	2.158
sm	2.158
が偏りがちな	2.158
▁モストチュアブル	2.158
搾	2.158
:4.4	2.158
継続摂取	2.158
ヒカリ	2.158
▁0120−	2.158
食欲	2.158
小児は本品の摂取	2.158
1:	2.158
肝	2.158
一緒	2.158
ボトルの	2.158
群を配合しました	2.158
タバ	2.158
若さ	2.158
ありたい	2.158
換え	2.158
クティ	2.158
普段	2.158
バランスよくとる	2.158
シワ	2.158
▁アセロラ味	2.158
あなたの元気	2.158
尽	2.158
製菓	2.158
寧	2.158
けてください	2.158
の一部に	2.158
児の手の届かない	2.158
を酷使する	2.158
涯	2.158
を吸う	2.158
フェル	2.158
を抑制	2.158
事情	2.158
を原料にした	2.158
▁NU	2.158
ポリス	2.158
や体に	2.158
噌	2.158
事業	2.158
ヘム	2.158
くだけで	2.158
▁補給	2.158
診察	2.158
★☆	2.158
紀	2.158
嫌	2.158
キャッツ	2.158
ファイブ	2.158
に適しています	2.158
靭	2.158
×300	2.158
消費され	2.158
ーパー	2.158
払	2.158
陥	2.158
▁ウエイトアップビッグ	2.158
▁森永	2.158
▁margin	2.151
▁美容	2.151
iv	2.148
top	2.148
通販	2.148
高い	2.146
お客様相談室	2.144
ネイチャーメイド	2.143
ント	2.140
希望	2.138
受賞	2.135
▁リボフラビン	2.135
▁width	2.131
粒目安	2.130
MS	2.129
スク	2.129
まして	2.129
>【5250	2.125
商品説明文	2.125
大人	2.125
▁line	2.123
楽天市場	2.123
つのに必要な栄養素です	2.121
賞	2.119
に対して	2.119
ルー	2.119
医師にご相談の上	2.119
▁0-0.1	2.119
ps	2.119
発生	2.119
TEL	2.115
:03-3	2.114
EE	2.113
とっても	2.110
楽	2.110
挑戦	2.110
▁.	2.109
▁font	2.108
▁table	2.104
やさしい	2.102
:0;	2.102
明	2.096
含有加工食品	2.096
セレン含有酵母	2.096
者の	2.096
アール	2.096
味覚	2.096
摂取でき	2.096
2%	2.096
けない	2.096
ンス	2.096
でのお届け	2.096
を目安として	2.096
五	2.096
授乳中の方は	2.093
マカ	2.092
ナイアシンアミド	2.089
枚	2.087
位	2.087
人の	2.086
ition	2.086
トローチ	2.086
公	2.086
▁販売	2.086
フェ	2.084
ッド	2.082
フィルター	2.082
井	2.082
▁摂取	2.082
かり	2.076
goods	2.075
フリー	2.072
に役立つ	2.072
▁還元麦芽糖水飴	2.072
シリーズはこちら	2.072
75-368	2.072
▁安心	2.072
皆様	2.072
働きます	2.072
いつまでも若々しく	2.072
コスト	2.072
粒内容量	2.072
チオ	2.072
求	2.072
が良く	2.072
ラグ	2.072
効果が	2.072
が摂取できます	2.072
山査子エキス	2.072
▁ドリンク	2.072
魅	2.072
障	2.072
が不足しがちな方	2.072
課	2.072
▁口	2.072
と言われている	2.072
xt	2.072
食べられます	2.072
尿が黄色	2.072
に働く	2.072
特有	2.072
葉酸と	2.072
ナシ	2.072
▁区	2.068
▁0;	2.067
height	2.066
通り	2.066
主要原材料	2.062
クランベリー	2.062
▁飲み方	2.061
いても	2.061
と言	2.058
▁沖縄県	2.058
▁td	2.056
:658	2.053
要	2.050
フラ	2.050
起こ	2.050
システイン	2.050
▁ホ	2.050
水溶性のビタミンで	2.050
▁株式会社ア	2.050
ハツ	2.050
さず	2.050
をしている	2.050
ヤシ	2.050
支	2.049
グルコ	2.044
▁注意事項	2.042
align	2.042
斑点	2.040
熟	2.040
ホワイト	2.040
パワーを	2.040
▁な	2.040
▁激安	2.040
づ	2.035
468426	2.035
補助食品	2.035
江	2.035
トータル	2.035
粒重量	2.033
エネルギー産生	2.031
年間	2.031
スター	2.027
核酸	2.027
農	2.024
葉酸は	2.022
等の表記について	2.021
Natura	2.020
ーズ	2.019
:118%;	2.017
-200	2.014
if	2.014
▁チアミン	2.014
食品として	2.014
早めにお召しあがりください	2.014
を補	2.014
役割を担	2.014
▁0120-858-660	2.014
味を	2.014
2・・・0.	2.014
▁トリプトファン	2.014
▁一日	2.014
に変更	2.014
炭	2.014
比較的	2.014
新鮮	2.014
ーブ	2.014
新登場	2.014
原料を吟味しています	2.014
模	2.014
保存方法高温多湿や	2.014
指示	2.014
*120	2.014
ビタミンや	2.014
週	2.014
製法によりおいしく溶けやすくなり	2.014
なっている	2.014
いき	2.014
成長期のこどものからだづくり	2.014
疑	2.014
(100%	2.014
されやすい	2.014
広い	2.014
▁フジックス	2.014
粒でレモン	2.014
▁という	2.014
商品の性質上	2.014
ザバスのプロテインです	2.014
覆	2.014
お酒や	2.014
手軽に美味しく	2.014
の緩和	2.014
▁スーパーマルチタブ	2.014
▁6000	2.014
参	2.014
山査子	2.014
噴	2.014
不足しがちな鉄分	2.014
正常	2.014
不足しがちなカルシウムを	2.014
アンチ	2.014
島	2.003
原産	2.001
を考えた	2.001
セール	1.999
小林製薬の栄養補助食品	1.999
歴	1.996
護	1.996
12・・・0.	1.996
で生産	1.996
幅広く	1.996
記載	1.995
頂	1.994
・・・0	1.992
プルーン	1.992
中の方は	1.992
発揮	1.992
▁くすりの勉強堂	1.992
脳	1.992
の含有量	1.991
weight	1.991
植物由来	1.989
えて	1.988
設定	1.988
画	1.985
と美容	1.985
届く	1.985
食品添加物	1.985
藻類	1.985
ライズ	1.985
X	1.984
ビッグ	1.983
毎日の健康	1.982
になることがあります	1.982
-4	1.982
:14	1.982
▁特	1.980
働く	1.980
とり	1.980
微量元素	1.980
のもと	1.978
...3	1.978
FF	1.976
以上の	1.973
コーポレーション	1.973
AM	1.973
04	1.973
3)	1.973
ヵ月分	1.973
▁ナイアシンアミド	1.973
BASICS	1.973
ホス	1.973
補給に	1.973
純度	1.973
4000	1.973
▁ザ	1.973
量のサプリメントです	1.973
ふっくら	1.973
全体の	1.973
速やかにお飲みください	1.973
・・・1000	1.973
様に	1.973
個分の果汁	1.973
団	1.973
-27	1.973
医師	1.972
年度	1.970
・・・200	1.968
サプリメントは	1.968
→	1.968
る方	1.968
しており	1.967
AFC	1.966
召し上が	1.966
ことも	1.966
訳あり	1.966
ギムネマ	1.966
▁エープライム	1.966
冷え	1.966
off	1.966
となっています	1.962
▁ドーム	1.962
そのため	1.962
▁≪	1.962
若々	1.962
:12	1.961
:#353535;	1.960
個まで	1.957
卓	1.957
トラブル	1.957
ノコ	1.957
▁お客様	1.957
毎日の生活	1.953
メロン	1.953
と同じ	1.952
過剰摂取	1.942
あるいは	1.942
若々しさ	1.942
しさ	1.942
市場	1.942
こんな方に	1.942
▁スレオニン	1.942
評	1.942
トン	1.942
おい	1.942
益	1.942
続けて	1.942
ブロ	1.942
契	1.942
▁金	1.942
をご覧下さい	1.942
環境により	1.942
鳥	1.942
販売している	1.942
ナモン	1.942
/11	1.942
話題	1.942
ナダ	1.942
カキ殻	1.942
▁小粒	1.942
ヘル	1.942
いてください	1.942
レルゲン	1.942
ms	1.942
ヤマト運輸	1.942
の強い味方	1.942
▁バ	1.937
安全	1.937
▁森永製菓	1.929
調整剤等	1.929
▁送料	1.929
カゼインホスホペプチド	1.929
にお飲みください	1.929
ne	1.929
▁vertical	1.929
多量に摂取すると軟便	1.926
ビューティ	1.926
欠乏	1.926
働	1.926
ステアリン酸マグネシウム	1.922
活動	1.918
・・・30	1.918
臭	1.918
粒程度を目安に	1.918
col	1.918
の葉酸を	1.918
遺伝子組換えでない	1.918
必要な原料	1.918
▁Co	1.918
は一切	1.918
できた	1.918
しにくい	1.918
ビルベリー	1.918
事項	1.918
日本ダグラスラボラトリーズ	1.914
・・・3	1.913
組み合わせ	1.911
医師の	1.911
東区	1.911
▁background	1.911
ニーズ	1.908
一般	1.907
国の	1.906
を助けるとともに	1.906
▁コラーゲン	1.905
潤	1.899
↓	1.899
厳	1.899
働いています	1.899
▁CO	1.899
永	1.899
▁マッスルフィットプロテイン	1.899
みずみず	1.899
1300	1.899
▁パン	1.899
がしっかり	1.899
力に	1.899
考える	1.899
減量をサポートする	1.899
カリス菌	1.899
が豊富に	1.899
製造発売元	1.899
旨	1.899
タイムリリーズ	1.899
食品アレルギーのある方	1.899
ポリポリ	1.899
△	1.899
▁や	1.899
▁トランス	1.899
お役立	1.899
:3.0	1.899
投	1.893
特価	1.891
アス	1.891
おり	1.890
be	1.888
▁◆1	1.888
イズ	1.883
:2017	1.883
301.5	1.883
ase	1.883
元気に	1.883
際は	1.883
大豆が	1.883
ウイダー	1.881
群を	1.879
極めて	1.879
をバランスよく	1.879
とされています	1.879
分析	1.876
・・・15	1.875
定め	1.870
margin	1.870
ご使用下さい	1.870
やビタミン	1.870
製品を	1.870
に対し	1.870
ble	1.870
・・・0.2	1.870
・・・2.5	1.870
335	1.870
たんぱく質の働き	1.870
ドーピング機構の公式認定商品です	1.870
▁気になる	1.870
psules	1.870
裏	1.870
枚で	1.870
*30	1.870
鮭	1.870
e	1.869
it	1.866
es	1.866
ドラッグ	1.864
キャンペーン	1.863
脂	1.863
HPMC	1.863
▁お子様	1.863
bold	1.860
◆	1.859
ッグ	1.859
▁ニュー	1.859
役割	1.859
オーガニック	1.858
多くの体内酵素の正常な働きと	1.857
ーン	1.856
66	1.855
としても	1.854
老	1.854
ハードカプセル	1.853
らか	1.853
不可	1.850
〜0.1	1.850
6:0.	1.850
美容と健康維持	1.850
発揮します	1.850
じみ	1.850
問	1.850
カサ	1.850
とも呼ばれ	1.850
大豆タンパク	1.850
シアノコバラミン	1.845
▁ビッグ	1.845
▁R	1.845
に対する	1.844
ここ	1.844
良	1.844
電話	1.842
授乳中	1.841
-1000	1.841
▁h	1.840
を維持	1.839
栄養機能食品として	1.837
...2	1.834
そして	1.834
できません	1.834
などに多く含まれています	1.834
ガルシニア	1.834
が摂れます	1.834
まる	1.834
老化	1.834
ヘーゼ	1.834
費	1.834
採	1.834
摂ると	1.834
環境によっては	1.834
麗	1.834
原料由来の	1.834
昭	1.834
期待	1.831
障害	1.830
ho	1.828
肝臓	1.828
以来	1.826
▁アサヒ	1.822
ライフ	1.822
one	1.822
調味料	1.822
LOLA	1.822
▁ヘルシーワン	1.822
億	1.822
ご利用下さい	1.822
お腹	1.822
ハリ	1.822
・・・16	1.822
いません	1.817
摂取上の注意	1.817
サイエンス	1.817
を超	1.815
において	1.813
ミネラルの	1.813
欠	1.813
のみを使用したサプリメントです	1.813
に関与	1.813
スチジン	1.813
ご自	1.813
_01_	1.813
小さい	1.813
気に	1.813
報	1.813
▁毎日の元気	1.813
っぱ	1.813
きれ	1.813
発売元	1.812
手軽	1.809
▁検索用文言	1.809
・・・0.0	1.807
代謝	1.807
▁栄養機能表示	1.806
素	1.806
知	1.805
いない	1.805
プレミアム	1.805
問い合わせ	1.805
▁小	1.805
不快感	1.805
転	1.805
フォー	1.805
キーレイト	1.805
補完	1.804
メール便	1.802
サンプル	1.801
栄養素等表示基準値に対する割合	1.801
品質に	1.798
パラアミノ安息香酸	1.798
mplex	1.798
スプレー	1.798
粒中	1.798
なめ	1.795
場所で保管して下さい	1.795
こちら	1.795
検査	1.793
温度	1.793
一度	1.793
豊富に含まれています	1.793
▁リジン	1.793
泡	1.793
楽天	1.791
されて	1.790
▁5000	1.790
▁この部分は	1.790
処方	1.788
原産国アメリカ	1.788
愛用	1.788
106	1.784
ましょう	1.784
役立	1.784
一時	1.784
対象	1.782
ヨーグルト	1.782
直射日光をさけ	1.780
妊娠中の方は	1.780
▁手軽に	1.780
始	1.780
健康維持に役立つ栄養素です	1.780
▁グレープフルーツ風味	1.780
kcaL	1.780
ima	1.779
▁ビタミン類	1.777
グレープフルーツ	1.777
卵殻	1.777
メチルヘスペリジン	1.777
ma	1.774
リング	1.774
ゆっくり	1.774
ION	1.774
レバー	1.772
体調や	1.772
1/	1.771
核酸の代謝に関与して	1.771
提供	1.769
栄養素等表示基準値に占める割合	1.769
シリカ	1.768
従来	1.766
との併用	1.766
▁植物性	1.766
などで	1.765
su	1.764
ラベル	1.764
濃縮	1.762
開封口	1.761
▁カプセル	1.761
の代謝	1.761
細胞の健康維持を助ける栄養素です	1.761
これら	1.761
機能が	1.760
性質	1.758
欠乏しやすい	1.757
歯	1.755
美容	1.754
▁サプリ	1.754
残	1.753
▁量	1.751
)/	1.751
亜鉛の摂りすぎは	1.750
・・・0.	1.748
▁主要成分	1.746
年齢	1.745
超	1.745
無添加	1.743
成分です	1.742
sp	1.742
ゼリー	1.741
したい	1.738
ています	1.726
のです	1.726
“	1.726
満た	1.726
年に	1.726
▁N	1.726
修	1.726
を目	1.726
▁Vitamin	1.726
の中でも	1.726
化学	1.726
キレイ	1.726
を採用	1.726
ければ	1.726
たくさん	1.726
・・・8	1.726
ts	1.726
▁製造者	1.726
念	1.726
肥	1.726
▁メガ	1.726
our	1.726
習慣	1.726
・・・50	1.726
違	1.726
コントロール	1.726
同士	1.726
IT	1.726
外食	1.726
を集	1.726
×120	1.726
▁+	1.726
治	1.726
承	1.726
となっております	1.726
com	1.726
原因	1.726
保存料は	1.726
ザクロ	1.726
していない	1.726
失	1.726
存	1.726
からだのメンテナンスに役立つ	1.726
▁カルシウムとは	1.726
清涼飲料水	1.726
2(	1.726
▁男性	1.726
カルシウムプラス	1.726
腸内	1.726
▁リカバリー	1.726
字	1.726
ごはん	1.726
黄色	1.726
濡れたスプーンを	1.726
クロロ	1.726
に変化	1.726
選ぶ	1.726
出荷実績商品です	1.726
以降	1.726
最安値に挑戦	1.726
全成分	1.726
発酵乳パウダー	1.726
手軽に摂取	1.726
222	1.726
袋に	1.726
に必要な栄養素を取りたい方に	1.726
;・	1.726
▁その他の	1.726
、9	1.726
なが	1.726
▁サントリー	1.726
意味	1.726
▁Nut	1.726
服	1.726
▁表示	1.726
ife	1.726
らせ	1.726
j	1.726
エキストラ	1.726
種目	1.726
ロース	1.726
詳	1.726
皆	1.726
親	1.726
硫	1.726
といっしょ	1.726
ナウ	1.726
ミネラル類	1.726
6:2	1.726
167	1.726
のア	1.726
▁人気の	1.726
浄	1.726
▁グ	1.726
守	1.726
調べ	1.726
...9	1.726
原材料の一部に乳を含む	1.726
>60	1.726
鼻	1.726
亜鉛の栄養機能食品です	1.726
商品リニューアル	1.726
▁(180	1.726
ウ素	1.726
ほう	1.726
葉酸をはじめとするビタミン	1.726
(45	1.726
▁粒の	1.726
の食品規格に合うように内容成分や	1.726
コストも米国並の低価格を実現	1.726
その働き	1.726
美容が気になる方	1.726
ちら	1.726
280	1.726
:03	1.726
MP	1.726
長距離	1.726
食生活に	1.726
なくなる	1.726
)22.9	1.726
はありませんので	1.726
:3.7	1.726
手軽に補給	1.726
▁魚不足	1.726
買い上げ	1.726
ご使用いただけます	1.726
風味の	1.726
インスタント	1.726
コチラ	1.726
開け	1.726
バッファ	1.726
137	1.726
!1	1.726
▁フードアンドヘルスケア	1.726
ルネス	1.726
液糖	1.726
に役立	1.726
タバコが多い	1.726
▁15.2	1.726
身体を	1.726
してある	1.726
場所で	1.726
を目安にお飲みください	1.726
窒素	1.726
▁チョコ	1.726
の最	1.726
▁Tabs	1.726
水飴	1.726
洗浄	1.726
として使用	1.726
客様に	1.726
▁大変	1.726
依	1.726
セラー	1.726
の摂りすぎ	1.726
敬	1.726
快	1.726
糞	1.726
が補えます	1.726
に対	1.726
▁栄養バランス	1.726
サラヤ	1.726
▁エナジー	1.726
)22	1.726
雅	1.726
小中学生	1.726
580	1.726
▁X	1.726
漏れ	1.726
バータイプ	1.726
山口	1.726
に着目した	1.726
控え	1.726
確かめください	1.726
施	1.726
陰	1.726
:0.05	1.726
味わ	1.726
族	1.726
食べ応えのある	1.726
水湖水ミネラル液	1.726
99.9%	1.726
▁東京都中央区	1.726
▁ハウスウェルネスフーズ	1.726
をおすすめ	1.726
ッション	1.726
本品を付属のスプーンすりきり	1.726
時の栄養補給	1.726
避けてください	1.726
フコイダン	1.726
285	1.726
ントテ	1.726
*90	1.726
なら約	1.726
需	1.726
▁原料屋	1.726
唱	1.726
にく	1.726
85(	1.726
/74	1.726
ia	1.726
ボチャ	1.726
粒で牛乳	1.726
ポリプロピレン	1.726
こし	1.726
気軽	1.726
からお年寄りまで	1.726
日々の健康維持を考える	1.726
粒から	1.726
鋳	1.726
りん	1.726
▁葉酸キャンディ	1.726
や授乳期	1.726
たばこ	1.726
川本産業	1.726
濃厚	1.726
メンズ	1.726
多量摂取	1.726
▁大きな	1.726
粉末が	1.726
違和感	1.726
ばこ	1.726
墨	1.726
甘酸っぱく	1.726
9-9	1.726
援	1.726
を摂取することができます	1.726
3-5	1.726
FC	1.726
ゴール	1.726
緩	1.726
酵素処理	1.726
:48	1.726
不足分	1.726
嚥	1.726
お支払方法	1.726
含量	1.726
成功	1.726
不足で悩む女性のために	1.726
アセロラを	1.726
4-5	1.726
栄養を補給	1.726
量に対する	1.726
補いたい	1.726
*80	1.726
世代プロテイン	1.726
ternational	1.726
既	1.726
を抑	1.726
▁For	1.726
みんな	1.726
▁食事から	1.726
たんばく質	1.726
おいしくいただけます	1.726
▁ヴァーム	1.726
涼しい場	1.726
!★	1.726
針	1.726
どもの成長に必要な	1.726
としてもおすすめです	1.726
▁ビス	1.726
ヒアルロ	1.726
アップタブ	1.726
シート	1.726
セレン粒	1.726
粒に亜鉛	1.726
瞭	1.726
々木	1.726
美容サイクル	1.726
肘	1.726
▁亜鉛含有加工食品	1.726
などの働きに欠かせない成分ですが	1.726
麗人参	1.726
気になる糖に働くと言われており	1.726
フィズス菌	1.726
践	1.726
蟻	1.726
貴重	1.726
▁〒104-00	1.726
に比	1.726
たばこを吸われる方	1.726
眠り	1.726
程で	1.726
節	1.726
のび	1.726
row	1.726
を施しました	1.726
マグネシウムが	1.726
食品添加物の増加で食べ物から	1.726
:100%、	1.726
御座	1.726
▁亜鉛はタンパク質やコラーゲン	1.726
におすすめのミネラル成分である	1.726
▁若々しくありたい方におすすめの	1.726
ッファ	1.726
さまざまな美容トラブル	1.726
ダグラスラボラトリーズ社	1.726
のためのタブレットです	1.726
フォルス	1.726
取るのが難しくなっている	1.726
エイジングケアにも有用とされ	1.726
数種類あるトコフェロールの中でも	1.726
こで	1.726
也氏	1.726
中高	1.726
政	1.726
異なり	1.726
延	1.726
アセロラ果実	1.726
のベストコストパフォーマンス	1.726
く吸収される	1.726
トコフェロールとも呼ばれ	1.726
誠に申し訳ございませんが	1.726
推	1.726
キス	1.726
臣	1.726
勤	1.726
誘導	1.726
コイダン	1.726
▁食用大豆油	1.726
ポリフェノールの一種	1.726
レンズ	1.726
ネイルを楽しみたい方	1.726
実施中	1.726
稚	1.726
イノ	1.726
内容成分や	1.726
径	1.726
yo	1.726
のでき	1.726
拭	1.726
魂	1.726
UT	1.726
嵐	1.726
ものと	1.726
▁味の感じ方や	1.726
を心がける	1.726
奪	1.726
▁店頭	1.726
come	1.726
▁不足しがちな栄養素を	1.726
哺	1.726
厚生労働	1.726
ピロ	1.726
顕	1.726
▁若々しく	1.726
トムギ	1.726
や健康トラブルの原因にもなる	1.726
ワンタッチキャップ	1.726
鏡	1.726
エイジングケアに有用とされる	1.726
均	1.726
輩	1.726
細かい作業をされる方	1.726
こまめな摂取をおすすめします	1.726
開店	1.726
▁水に溶けやすく	1.726
ボーテ	1.726
乳幼児	1.716
多	1.713
▁ゼラチン	1.709
健康の維持	1.709
ニン	1.709
mal	1.708
間に	1.708
いただく	1.708
▁成分表示	1.707
湿	1.707
2-	1.707
rakuten	1.704
あなた	1.702
検	1.700
のサプリメント	1.698
代表	1.697
造	1.697
予めご了承ください	1.696
ありません	1.696
高含有	1.696
ことで	1.694
▁490	1.694
CBP	1.694
cal	1.694
gnavi	1.692
が気になる	1.692
前に医師にご相談下さい	1.692
▁妊娠	1.690
の中に入れないでください	1.690
lo	1.690
協力	1.689
ガルシニアエキス	1.689
セラミド	1.689
認定	1.689
になっている	1.689
・・・5	1.688
▁称	1.687
ビタミンは	1.686
ひとつ	1.685
好	1.685
青汁	1.685
用法	1.685
理由	1.684
ic	1.684
▁サプリメント	1.684
とうもろこし	1.683
をプラス	1.682
url	1.682
お肌	1.681
・・・40	1.681
同様	1.681
w	1.679
寒天	1.678
メイト	1.678
ことができません	1.678
などのアレルギー	1.678
ポリ	1.676
使用し	1.676
:132	1.675
▁東京都	1.672
人気の	1.672
摂り過ぎ	1.672
スムーズに	1.672
▁>>	1.672
偏食	1.672
存在する	1.672
骨や歯の形成	1.672
のお届け	1.672
通常の	1.672
▁元気	1.672
F	1.672
積極的に	1.671
存在	1.671
粒入	1.670
マグネシウムは	1.669
欠か	1.669
▁熱料	1.669
。●	1.669
たん白質	1.669
炊	1.669
水の	1.669
あたりの栄養成分	1.669
られる	1.665
)10	1.665
管	1.665
飛	1.665
ウェ	1.665
Zn	1.665
型ビタミン	1.665
パウチ	1.665
無	1.664
▁DHC	1.663
▁リ	1.662
義	1.662
人に	1.662
と思	1.660
記	1.660
可	1.660
遊離グルタミンを含んだ量です	1.660
付属品	1.660
エネルギー補給	1.660
の新	1.660
3(	1.660
を応援	1.660
▁製造日より	1.660
濡れたスプーンを缶	1.660
の方や	1.660
短	1.660
お召し上がり	1.659
image	1.659
アスコルビン酸	1.659
続け	1.658
クラ	1.657
体内の脂質を酸化から守り	1.657
確認	1.656
▁&#8226;	1.654
浸透圧	1.654
1・・・1	1.654
すっきり	1.654
望	1.654
の心配	1.654
▁フェニルアラニン	1.654
);	1.653
動物性食品	1.651
度の高い	1.651
きます	1.650
範	1.648
たり	1.648
のですが	1.648
まない	1.648
アシ	1.648
アレルギー物質	1.648
に従	1.648
-8	1.647
のはたらき	1.645
規格	1.645
われ	1.645
に適	1.644
放	1.644
ラインナップ	1.644
)【	1.642
▁マルチミネラル	1.641
れ	1.641
▁スーパーマルチビタミン	1.640
2/	1.640
少量	1.640
成分表示	1.640
膨張剤	1.640
毎日の生活の中で手軽	1.640
思	1.640
▁塩	1.640
とご相談の上	1.640
を多く	1.640
のブランド	1.640
翌	1.640
us	1.640
百	1.640
のみを	1.640
シミ	1.640
が発生	1.640
製造元	1.638
kenkoex	1.637
さまざまな	1.637
h	1.636
al	1.636
▁チュアブル	1.635
牛肉	1.635
切れ	1.635
粒を目安にお召し上がり下さい	1.633
しい	1.632
フルーツ	1.630
保存料無添加	1.630
限り	1.630
ラン	1.630
の合成	1.630
ビタ	1.630
を加工	1.630
輝	1.630
不足しがちな栄養素を	1.630
▁コンドロイチン	1.630
▁広告	1.630
小粒タイプ	1.630
体調により	1.630
プレックス	1.630
品目	1.630
崩	1.630
ご注文の	1.630
▁ボ	1.630
:59	1.630
加齢	1.630
宜	1.630
とうもろこしでん粉	1.630
必須成分	1.630
天然ビタミン	1.629
基準	1.628
発達	1.628
とる	1.628
】[	1.627
日あたりの	1.626
jpg	1.626
不足し	1.625
モン	1.625
教	1.625
mcg	1.624
なります	1.623
(100%)、	1.623
他	1.622
避け	1.622
商品詳細	1.622
研究所	1.621
▁本品	1.618
有機	1.618
構造	1.618
イチョウ葉	1.618
機会	1.618
。。	1.618
45*	1.618
邪	1.618
ft	1.618
んの	1.618
ッズ	1.618
サイト	1.618
が特徴の	1.618
3-6	1.618
のプロテインを	1.618
▁Pre	1.618
のビタミン	1.618
▁明治	1.618
の摂取目安量	1.617
限定	1.616
亜鉛は	1.615
H	1.615
健康の維持に役立つ栄養素です	1.614
開封後はお	1.613
ed	1.611
まった	1.611
コール	1.611
を施	1.611
4.6	1.611
の形	1.611
▁スーパービタミン	1.611
▁kcal	1.611
▁&	1.610
:150	1.610
何	1.610
▁0	1.609
全部とは	1.608
様々な	1.608
胃	1.607
されており	1.607
ブルーベリー	1.606
銅の吸収を阻害	1.603
天然由来の原料	1.603
無着色	1.603
ホコリや髪の毛が入らないよう	1.603
方におすすめです	1.603
フィル	1.603
▁3.2	1.603
BP	1.603
大きく	1.603
クロム含有酵母	1.603
GTF	1.603
▁赤	1.603
必	1.603
派	1.603
50*	1.603
折	1.603
っきり	1.603
の摂りすぎは	1.603
69	1.603
安く	1.603
をい	1.603
消費されやすいビタミン	1.603
食べ方	1.603
▁高温多湿や直射日光を避け	1.603
の摂取も	1.603
ビタミン様物質	1.603
ポピュラーな	1.603
一緒に	1.600
なり	1.600
▁栄養機能食品	1.599
▁b	1.599
UP	1.597
低下	1.597
史	1.597
プレゼント	1.596
試	1.596
相性	1.594
1(	1.594
315	1.594
収	1.594
沈	1.594
女性の方	1.594
のお	1.593
(1000	1.590
めに	1.590
http	1.589
://	1.589
相当	1.588
を含	1.588
味覚を正常に保	1.588
体内の	1.587
▁ビオチン	1.586
お試し	1.582
▁メ	1.582
にご相談の上	1.582
足	1.582
昔	1.582
のお客様	1.582
葉酸を	1.582
探	1.582
サポートに	1.582
かた	1.582
:0120-560-162	1.582
告	1.582
▁お酒	1.582
誌	1.582
▁ナ	1.582
不足しがちな栄養素	1.582
予告なしに変更される	1.582
日々の健康	1.582
に着目	1.582
成分である	1.582
で最も	1.582
スムーズな	1.582
海の	1.582
身体機能	1.582
植物から抽出した活性の高い	1.582
▁スティック	1.582
PD	1.582
ワイト	1.582
55*	1.582
(320	1.582
発揮する	1.582
重要な栄養素です	1.582
・2	1.582
鍛	1.582
治療	1.579
ri	1.579
良い	1.579
ges	1.579
冷	1.578
するおそれがありますので	1.577
ヘスペリジン	1.576
サー	1.576
越	1.576
まとめて	1.575
安全性	1.574
ナー	1.574
に応	1.574
多少	1.574
味覚を正常に保つ	1.574
クロミウム	1.572
主	1.571
cabinet	1.571
目的	1.570
種類とミネラル	1.569
一般的な	1.569
バランス良く	1.569
及	1.569
▁ブルーベリー	1.569
▁製品特長	1.569
販売している製品です	1.569
ッキリ	1.569
▁テ	1.569
すみやかにお飲みください	1.569
▁ローヤルゼリー	1.569
ぽ	1.569
▁ここ	1.569
虫	1.569
オフ	1.569
▁アミノプロテイン	1.569
をアップ	1.569
秀	1.569
販	1.566
空	1.566
開発	1.565
症状が出る場合があります	1.564
に多く含まれる	1.564
本当	1.564
3.9	1.564
しております	1.564
サン	1.563
お米	1.562
冷蔵庫	1.562
補える	1.562
...0	1.560
られて	1.559
事が	1.559
摂って	1.559
ナッツ	1.554
かい	1.554
真	1.554
若い	1.554
組	1.554
チャックをしっかり	1.554
水などで	1.554
近年	1.554
幼	1.554
eight	1.554
ニコチ	1.554
していません	1.554
日々	1.554
を重ね	1.554
に気	1.554
占	1.554
次第	1.554
ベースサプリメント	1.554
戦	1.554
すこ	1.554
1-1	1.554
ぶどう糖液糖	1.554
とカルシウム	1.554
詳しくは	1.554
909	1.554
須	1.554
ピロリン酸第	1.554
:140	1.554
を実	1.554
消費されたエネルギーの補給	1.554
粉乳	1.554
酷使されたからだの修復に役立つ	1.554
薬用	1.554
劣	1.554
摂取する事	1.554
使用したザバスのプロテインです	1.554
と一緒にお召し上がり下さい	1.554
噛まずに水などで	1.554
;◆	1.554
理解の程	1.554
▁青	1.554
ビス	1.554
についての	1.554
▁(1	1.552
お子様	1.551
_	1.550
囲	1.548
省	1.548
のバランス	1.547
全て	1.547
▁こんな方に	1.547
いる	1.545
中で	1.545
▁容	1.545
面	1.544
(60	1.542
着	1.541
カルナウバロウ	1.541
外に排出	1.541
と同	1.541
1・・・0.	1.541
わずか	1.541
ご利用いただけます	1.541
美	1.540
て下さい	1.539
ビタミン類	1.538
タイムリリース加工	1.537
▁-->	1.536
持続	1.535
人間	1.535
抗酸化作用により	1.535
6.0	1.535
半額	1.535
に対応	1.534
の生成	1.534
をプラスした	1.534
ニル	1.534
栄養補助食品のブランド名です	1.534
を吸われる方	1.534
の牛乳	1.534
柄	1.534
▁黒	1.534
▁ミックス	1.534
1141340	1.534
を主成分	1.534
ドロ	1.534
タブレットタイプ	1.534
▁ダイエット	1.532
総合	1.531
▁名	1.531
を守る	1.530
チャック	1.529
関	1.528
3,	1.528
吸	1.527
押	1.527
▁エキストラ	1.527
基準値	1.524
年月	1.523
支払	1.523
▁内	1.523
湿気の少ない	1.523
フィッシュコラーゲン	1.523
経済	1.523
全	1.523
タイムリリース	1.522
ことができない	1.521
・・・20	1.521
・・・11	1.521
ング	1.521
を配合したサプリメントです	1.521
粒に	1.519
抗酸化作用を持つ栄養素です	1.519
するために	1.519
補う	1.518
:6	1.517
をしっかり閉めて	1.516
55	1.516
フィ	1.516
加工	1.514
店	1.514
イノシトール	1.512
粒で	1.512
特定	1.511
お徳用	1.511
2)	1.511
優	1.511
小児は本品の摂取を避けてください	1.511
OK	1.511
カボチャ	1.511
タイプの	1.511
ヨーロッパ	1.511
生命	1.511
常	1.511
▁MAXLOAD	1.511
パッケージが	1.511
▁096	1.511
▁280	1.511
:079-431-3335	1.511
軟骨	1.511
部活	1.511
クッキー	1.511
小麦胚芽油から抽出	1.511
サプリで	1.511
の一種です	1.511
をサポートし	1.511
祝日除く	1.511
粒に封じ込めた	1.511
times	1.511
ミネラルも	1.511
適切にご使用下さい	1.511
際には	1.511
森	1.511
亜鉛に	1.511
くら	1.511
遠	1.511
610	1.511
gnesium	1.511
になるため	1.511
筋肉にエネルギーを	1.511
鎖	1.511
/1.2	1.511
くだ	1.511
理想の筋肉	1.511
008	1.511
めました	1.511
成分を配合	1.511
oz	1.511
エネルギーに変	1.511
アセロラ風味	1.511
的確に補うことが	1.511
溶けます	1.511
ゆっくり長く吸収される	1.511
希	1.511
情	1.511
▁フラクトオリゴ糖	1.511
態	1.511
ストロ	1.511
利用効率	1.511
ハン	1.511
が不足	1.511
授	1.511
を感じた場合は	1.511
美味	1.511
をバランス良く配合	1.511
微粒	1.511
が手にした場合に	1.511
ミルクカルシウム	1.511
(0.77	1.511
▁分日本製	1.511
がダマ	1.511
日を	1.511
ジャパン株式会社	1.511
▁SCIENCE	1.511
カイ	1.511
:047-3	1.511
バランスのとれた	1.511
めない	1.511
GMO	1.511
忙しくて	1.511
殺	1.511
元気	1.507
置	1.507
36	1.507
バイオ	1.506
日当たり	1.506
食品	1.505
お酒	1.504
保健機能食品	1.504
タバコ	1.504
の補給	1.503
を目安にお召し上がり下さい	1.503
▁グルタミン酸	1.503
タリ	1.501
無香料	1.500
量が	1.499
人気	1.499
min	1.499
成分の	1.499
機	1.498
ヶ月分	1.498
野	1.498
▁亜鉛	1.497
にビタミン	1.496
▁株式会社ケンコーエクスプレス	1.496
:03-6411-5513	1.496
色や	1.496
▁0.007	1.496
ではありません	1.496
がありますので	1.496
粒に凝縮	1.496
〓	1.496
eral	1.496
II	1.496
フタをしっかりとしめ	1.496
基	1.496
1,	1.495
▁全	1.495
されている	1.494
ta	1.494
525	1.494
キャップ	1.493
一覧	1.492
▁小林製薬	1.492
y	1.491
プリ	1.491
不足している	1.491
▁食事	1.491
熱に	1.491
妊娠期	1.491
日本向けのネイチャーメイドは	1.491
▁説	1.491
ともい	1.491
速度	1.491
バター	1.491
・・・7.5	1.491
▁容量	1.490
欠かせない	1.489
84	1.489
;	1.488
スピルリナ	1.487
開封口を閉め	1.487
タル	1.487
」、	1.487
キング	1.487
・・・45	1.487
こんな方におすすめです	1.485
悩み	1.485
ディーエヌエス	1.484
▁亜鉛は	1.484
680	1.482
co	1.480
におすすめです	1.480
(14	1.480
ライン	1.480
治療を受けている	1.480
なん	1.480
ございません	1.480
▁健康維持	1.480
腎	1.480
マルマン	1.480
にする	1.480
便利	1.480
ランク	1.480
▁飲みやすい	1.480
失われやすい	1.480
を実施	1.480
溶かし	1.480
▁微粒二酸化ケイ素	1.480
あわ	1.480
適切	1.480
セイ	1.480
亜	1.480
▁20%	1.480
ミネラル含有食品	1.480
全員	1.480
から大人まで	1.480
の鉄分	1.480
▁表示義務品目	1.480
の材料	1.480
驚き	1.480
▁0721-28-5586	1.480
:0.2	1.480
▁サイズ	1.476
になりました	1.476
強い	1.476
こと	1.473
注目	1.472
れて	1.472
プレッシャー	1.472
なくては	1.472
大麦若葉	1.472
ばら	1.472
問題はありません	1.472
▁ミネラル	1.470
▁ご注意	1.469
に関して	1.467
▁タブレット	1.467
はありません	1.467
▁498	1.467
圧	1.467
分が	1.467
におすすめの	1.467
群に	1.467
と言える	1.467
:5.5	1.467
栄養素等表示基準値比	1.467
をあ	1.467
カツ	1.467
の大	1.467
増加	1.467
角	1.467
mar	1.467
.17	1.467
胚芽	1.467
所要	1.467
ニュー	1.465
パッケージ	1.464
リア	1.464
指定	1.464
タイプです	1.464
品質に問題ありません	1.464
的	1.463
=	1.461
アルファ	1.461
まれに	1.461
(400	1.461
としめ	1.461
育ち	1.461
の葉	1.461
光	1.461
胃腸	1.461
食品では	1.461
くらい	1.461
×20	1.461
授乳	1.461
栄養機能食品	1.460
不足	1.460
マルチビタミン	1.458
摂る	1.458
そば	1.457
エイジングケア	1.457
▁メチル	1.457
×4	1.457
をもつ	1.457
実際の商品	1.457
酸化チタン	1.456
そのまま	1.455
となり	1.455
〜2	1.455
といわれています	1.454
砂	1.454
倒	1.454
しない	1.453
と品質	1.452
ap	1.452
-50	1.450
に基づ	1.450
食品です	1.449
株	1.449
でお	1.449
したり	1.447
植物	1.446
ゾ	1.446
栄養素等表示基準値	1.445
1-	1.445
ミックス	1.445
原材料をご確認の上	1.443
現在	1.443
l	1.442
”	1.439
価格	1.439
at	1.439
03	1.439
ソフトジェル	1.439
問題	1.439
さら	1.439
が見	1.439
12(	1.439
につ	1.439
補給できます	1.439
材	1.439
1200	1.439
られない	1.439
を誇	1.439
かゆみ	1.439
変色	1.439
調理	1.439
ルチン	1.439
キシリトール	1.439
れている	1.439
幅	1.439
なければ	1.439
▁クリア	1.439
,400	1.439
にお役立ていただきたい商品です	1.439
しょう	1.439
×24	1.439
ウエイトダウン	1.439
自転車	1.439
らせない	1.439
が気になる方にも	1.439
る場合があります	1.439
▁美容や健康	1.439
NO	1.439
▁森永製菓株式会社	1.439
日本の大塚製薬が輸入	1.439
してくれる	1.439
(36	1.439
追加	1.439
当た	1.439
せる	1.439
簡単に溶け	1.439
・・・0.03	1.439
ができます	1.439
マグロ	1.439
終	1.439
▁お肌	1.439
(800	1.439
EW	1.439
ゼロ	1.439
ral	1.439
つけ	1.439
読	1.439
の一つです	1.439
卵殻カルシウム	1.439
10-15	1.439
疹	1.439
コリネート	1.439
が豊富	1.439
健康食品サプリメント	1.439
216	1.439
であるビタミン	1.439
を気にする	1.439
:03-5	1.439
濃縮した	1.439
テクノロジー	1.439
▁カロリーメイト	1.439
ォーター	1.439
摂取目安量	1.439
・・・0.1	1.439
水又はお湯	1.439
待	1.439
授乳期に	1.439
担	1.439
の力	1.439
新薬	1.439
々な	1.439
不足が気になる	1.439
モニター環境により	1.439
オト	1.439
裕	1.439
タイムリリーズ加工	1.439
ご使用後の返品	1.439
商品により	1.439
実際の色味は店頭にてお	1.439
ミング	1.439
お使いください	1.439
87)	1.439
男	1.439
美容に気をつかう方におすすめです	1.439
には特	1.439
水に溶けて	1.439
舌	1.439
▁ジャ	1.439
406	1.439
マクロ	1.439
賦	1.439
ツ株式会社	1.439
252	1.439
色の見え方に差がございます	1.439
回を目安にそのまま	1.439
サメ軟骨エキス	1.439
ヤマト	1.439
蒟蒻	1.439
不足がちな	1.439
しっ	1.439
▁ビスケット	1.439
対して	1.439
▁ウコン	1.439
☆<	1.439
浸	1.439
型発酵	1.439
食用卵殻粉	1.439
牡	1.439
お試しサンプル	1.439
卒	1.439
はく	1.439
粒にアーモンド	1.439
QUA	1.439
の改善	1.439
エイジング	1.439
交換は一切承りかねます	1.439
矢	1.439
外出先	1.439
フィズ	1.439
メーカーゼリー	1.439
個当たり	1.439
忙	1.439
チア	1.439
粒分の天然ビタミン	1.439
するおそれ	1.439
357	1.439
理想のカラダづくり	1.439
不足しがちな鉄	1.439
漁	1.439
丸	1.439
の数値	1.439
粒商品説明	1.439
見	1.436
黒	1.434
▁オ	1.434
・・・	1.433
▁輸入元	1.432
もの	1.432
お召し上がりにならないでください	1.431
内の数値	1.430
・・0.	1.430
消費者庁長官	1.430
ことができます	1.430
することがありますが	1.430
期間限定	1.430
ま	1.429
推奨	1.429
をよく	1.429
必須ミネラル	1.428
カラメル	1.428
▁含有量	1.428
サラ	1.428
▁送料無料	1.424
・・・4	1.424
例	1.424
▁小麦粉	1.424
積極	1.424
現代	1.424
:0.5	1.424
偏りがちな	1.424
がある	1.424
妊娠中	1.423
場所	1.423
皮膚	1.422
▁ローラ	1.422
152	1.422
と言われる	1.422
はお	1.421
入り	1.421
▁[	1.421
赤血球の形成を助ける栄養素です	1.421
2,	1.419
なので	1.419
での	1.418
原	1.418
毎日の	1.418
▁savas	1.418
se	1.418
保存し	1.418
よい	1.418
菓子	1.418
有名	1.418
ワーク	1.418
かかります	1.418
▁0.21	1.418
.75	1.418
マイ	1.418
限	1.417
低価格	1.416
ac	1.416
▁栄養機能食品として	1.415
ピロリン酸鉄	1.414
めた	1.414
食事のバランスを	1.412
▁d	1.412
ジンク	1.412
▁価格	1.412
グリーン	1.412
からお召し上がりください	1.412
...200	1.412
.33	1.412
冬	1.412
ハード	1.412
業務用	1.412
甘いもの	1.412
方におすすめします	1.412
結合した	1.412
泉	1.412
者	1.410
たっぷり	1.410
食品の	1.409
ど	1.409
同じ	1.408
▁※()	1.408
▁シェイカー	1.408
120-630611	1.408
▁250	1.408
医薬品	1.408
副菜を基本に	1.407
考	1.407
色	1.407
が気になる方	1.407
厚生労働省	1.407
母	1.407
日の目安量	1.407
からだの	1.406
Kg	1.406
名	1.405
にくい	1.405
できる	1.404
疲れ	1.403
に加えて	1.403
場合がありますが	1.403
体が	1.403
6・・・0.	1.403
飲んでも	1.403
安全な	1.403
▁メチオニン	1.403
されました	1.403
...0.00	1.403
作られる	1.403
配慮	1.403
エイチ	1.403
(8	1.403
秋	1.403
キウイ	1.403
含有精製魚油	1.403
体内での	1.403
が生じる	1.403
8-	1.403
顧	1.403
を主原料	1.403
▁コン	1.403
▁キレイ	1.403
を補給できる	1.403
アレルゲン	1.403
。「	1.401
っています	1.401
・・・6	1.400
-12	1.400
身体の	1.400
▁P	1.399
過剰摂取にならないよう	1.399
味が	1.399
サプリメント	1.398
▁体	1.397
食生活は	1.397
しく	1.397
場合や	1.396
んで	1.396
って	1.395
との	1.394
デュナリエラカロテン	1.394
日分の	1.394
いろいろ	1.394
利用される	1.394
酵素の	1.394
メント	1.394
or	1.394
飲む	1.393
:1	1.393
i	1.391
料理	1.391
上の	1.391
開封後はキャップをしっかりしめて	1.391
▁α	1.391
-64	1.391
ヘルシー	1.391
にお役立て下さい	1.391
肉や	1.391
余	1.391
(150	1.391
サプリ	1.391
グルコン酸亜鉛	1.390
▁セルロース	1.389
▁EPA	1.389
毎日を	1.389
カルシウムの	1.389
ファミリーサイズ	1.389
世界	1.387
だけ	1.387
グルタミンを含む	1.387
...5	1.387
マルチミネラル	1.385
やすい	1.384
国内	1.384
▁ご	1.381
シー	1.381
手に	1.381
くなる	1.381
かんで	1.381
こそ	1.381
小児	1.381
士	1.381
ロイド	1.381
1/3	1.381
刺	1.381
▁粒	1.381
の多い	1.381
ではなく	1.381
にこだわり	1.381
&#181;	1.381
オリーブ油	1.381
元素	1.381
に欠かせないビタミンです	1.381
摂りすぎ	1.381
日分目安	1.381
日本アンチ	1.381
至	1.381
体格によって飲む量や回数を	1.381
ゆる	1.381
毎日の健康管理	1.381
日光	1.381
とともにお召し上がり下さい	1.381
▁ヘア	1.381
ナッツ類	1.381
▁260	1.381
2419	1.381
レンジ	1.381
控えください	1.381
摂取の目安	1.381
▁ホタテ	1.381
タイプのプロテイン	1.381
かんでお召し上がりください	1.381
領	1.381
削	1.381
バランサー	1.381
根昆布	1.381
欄に	1.381
がございます	1.381
充分に	1.381
運動時の	1.381
ホエイプロテインを使用し	1.381
つの成分	1.381
▁1.07	1.381
お知らせ	1.381
とれた	1.381
胸	1.381
スポーツをしている	1.381
子様	1.381
▁この商品は	1.381
に必要不可欠な	1.381
丁	1.381
官	1.381
で配合しました	1.381
ローチ	1.381
90(	1.381
4-6	1.381
コラーゲン	1.380
の健康	1.379
ビオチン	1.377
カプセル	1.377
使い	1.377
などを	1.376
滑	1.376
研究	1.375
表示	1.375
関係	1.375
の栄養成分	1.374
している	1.373
好きな	1.373
カルシウムは成人の体内には体重	1.373
過ご	1.373
保管して下さい	1.373
あり	1.372
一	1.371
ビル	1.371
いつでも	1.371
とれる	1.371
亜鉛含有	1.371
そのままお召し上がりください	1.371
塩化カリウム	1.371
食生活では	1.371
ベータ	1.371
...6	1.371
:2.0	1.371
生	1.371
ソフトカプセル	1.369
>(	1.369
jp	1.368
植物性	1.368
になり	1.368
成長	1.367
パッケージに記載	1.367
調	1.367
食品ですので	1.367
▁長	1.367
が必要です	1.367
素早く	1.367
ファーマバイト社が製造する	1.367
カリフォルニア州にある	1.367
・・・1.8	1.367
6,	1.367
ファーマバイト社が	1.367
いか	1.367
話題の	1.367
大き	1.367
減ら	1.367
に含まれる	1.366
骨や歯の形成に必要な栄養素です	1.365
-5	1.364
が多い	1.364
▁Q	1.364
内容	1.364
DHA	1.364
安心してお	1.363
を取り	1.363
サル	1.363
▁1000	1.361
ごとに	1.361
▁約	1.361
る	1.361
ゴマ	1.359
n	1.359
点	1.359
られています	1.358
(20	1.358
たい	1.358
値	1.357
安心	1.356
含まれて	1.356
酢	1.356
le	1.356
通	1.356
最近	1.356
の一つ	1.356
×90	1.356
集	1.356
おすすめです	1.356
返	1.356
・・・6.0	1.356
からも	1.356
工場にて製造	1.356
現代人に	1.356
▁2011	1.356
しゃ	1.356
>1	1.356
不足しがちです	1.356
6・・・1	1.356
を補完	1.356
ウコン	1.356
種子エキス	1.356
防	1.356
タイン	1.356
作りに欠かせない	1.356
素早く吸収される	1.356
サントリー	1.356
.14	1.356
ご了承下さいませ	1.356
そのまま噛んで	1.356
戴	1.356
▁高純度	1.356
危険	1.356
▁もっと	1.356
楽しみ	1.356
が摂れる	1.356
▁ポ	1.356
▁GTF	1.356
ディア	1.356
▁ソ	1.356
作った	1.356
いたい方	1.356
TK	1.356
に必要な栄養素です	1.356
栄養成分	1.355
大塚製薬	1.354
バ	1.353
▁天然	1.352
グリセリン脂肪酸エステル	1.351
太	1.351
成長期や授乳期には特に必要です	1.351
の人で約	1.351
/100	1.351
よりまですべての年代に必要ですが	1.351
12・	1.351
近年カルシウム不足が問題視	1.351
▁表示成分	1.351
必須アミノ酸	1.351
]【	1.350
不足しがちな	1.349
千	1.349
ショートニング	1.349
栄養素で	1.349
/4	1.349
組み	1.349
61	1.349
1・・	1.349
▁コー	1.349
入った	1.349
ステロール	1.349
c	1.348
期	1.347
大切	1.347
の変化	1.347
かない	1.347
▁栄養補助食品として	1.346
体内で	1.346
立	1.345
になる	1.345
原料	1.345
ても	1.345
結晶セルロース	1.345
減	1.345
発疹	1.344
合	1.344
・・・2	1.344
):2	1.343
▁<1	1.343
(120	1.343
激	1.343
作られた	1.343
▁【3	1.343
8%	1.343
各種	1.343
▁期間限定	1.343
郵便	1.343
深	1.343
ためには	1.343
ビオ	1.343
▁株式会社ドーム	1.343
方も	1.343
碗	1.343
回の摂取量の目安	1.343
だけの	1.343
:240	1.343
遅れる	1.343
香ば	1.343
産業	1.343
欧米化	1.343
ch	1.343
もう	1.343
必要です	1.343
干	1.343
濡	1.343
hey	1.343
お医者様	1.341
ポイント	1.341
は栄養素等表示基準値に占める割合	1.340
▁今	1.339
なか	1.339
べ	1.339
パッケージデザイン	1.339
(4	1.338
1.9	1.338
マルチトール	1.338
ミネラルです	1.337
▁大豆プロテイン	1.337
香	1.337
・・・1	1.336
/2	1.336
慮	1.336
日分	1.335
補給	1.335
26	1.334
微量	1.334
の形成	1.334
:0120	1.334
モリブ	1.334
沈殿	1.334
CI	1.334
備考	1.334
▁10000	1.334
▁スタイル	1.334
こんな	1.334
かまずに水などでお飲みください	1.334
されてしまう	1.334
クター	1.334
のために	1.333
とも	1.333
先	1.332
▁0120-5	1.332
r	1.332
ですが	1.332
等の	1.332
mL	1.331
たら	1.331
酢酸	1.331
品質に異常はありません	1.330
子	1.329
-	1.328
品質には	1.328
すれば	1.328
グレープ	1.328
最適です	1.328
示	1.328
を多く含む食品	1.328
合に	1.328
蓄	1.328
気になる	1.328
▁マックス	1.326
れる	1.326
▁◆	1.326
▁大塚製薬	1.326
下痢	1.326
合わせて	1.326
調整	1.325
高さ	1.324
ずに	1.324
化粧品	1.324
どう	1.324
でお召し上がり下さい	1.324
などは	1.324
270	1.324
表面に	1.322
ット	1.321
物質	1.321
より	1.321
摂取できる	1.320
生活習慣	1.320
サプリメントで	1.320
体質や体調	1.320
▁セ	1.320
別名	1.320
ダイヤル	1.320
パワープロテイン	1.320
:75	1.320
を助けるビタミン	1.320
加	1.318
まれに発疹などのアレルギー	1.317
の種子	1.317
サワー	1.317
段	1.317
・・・7	1.317
か	1.317
デ	1.316
肉類	1.315
入って	1.315
Fe	1.315
バス	1.315
アラ	1.315
▁◎	1.315
「	1.315
和	1.315
目安量	1.314
私たち	1.314
日あたり	1.312
よば	1.312
ジウム	1.312
06	1.312
上記	1.311
資	1.311
薬を服用あるいは通院中の方	1.311
における	1.311
ion	1.311
▁20	1.310
主要	1.310
合わない	1.310
容	1.309
体調	1.309
つの	1.308
▁栄養	1.308
貝類	1.308
まれ	1.307
▁キ	1.307
であり	1.307
イル	1.306
それぞれ	1.306
お客様	1.305
m	1.305
グ	1.305
食生活	1.303
筋	1.303
ステアリン酸カルシウム	1.303
のミネラル	1.302
▁質	1.302
身体に	1.302
ナ	1.302
%)	1.301
して	1.297
製造	1.297
にも	1.296
からの	1.295
の中	1.295
飲	1.295
種子	1.295
群は	1.295
直径	1.295
与	1.295
作る	1.295
ルテイン	1.295
視	1.295
しながら	1.295
ヒドロキシプロピル	1.295
安定	1.295
専門	1.295
高温多湿な場所	1.295
▁フリーダイヤル	1.295
のど	1.295
with	1.295
友	1.295
コンドロイチン	1.295
体調や体質により	1.295
果皮	1.295
を受けている	1.295
酸化防止剤	1.295
充足率	1.295
してお召し上がりください	1.295
地域	1.295
▁大阪市	1.295
〜1.2	1.295
企画	1.295
小麦粉	1.295
リカ	1.295
、11	1.295
マックス	1.295
▁が	1.295
、5	1.295
▁1200	1.295
うれしい	1.295
博	1.295
▁Plus	1.295
ユー	1.295
幅広い	1.295
大量	1.295
mium	1.295
側	1.295
添加	1.295
▁レ	1.295
まります	1.295
:1.3	1.295
づらい	1.295
シュ	1.295
アミノ酸を	1.295
カット	1.295
詰ま	1.295
が不足すると	1.295
高温多湿の場所	1.295
トレーニングや	1.295
疾患	1.295
をサポートするビタミン	1.295
アメリカで最もポピュラーな	1.295
▁115	1.295
並	1.295
成長期のお子様	1.295
〜9	1.295
不良	1.295
召し	1.295
濃縮乳清活性たんぱく	1.295
丹	1.295
王	1.295
皮膚や粘膜の健康維持	1.295
002	1.295
arrow	1.295
思い	1.295
ヘルスコム	1.295
種類のビタミンに	1.295
をさらに	1.295
象	1.295
いただいた	1.295
河内屋エナジー	1.295
ラトーン	1.295
甘酸っぱい	1.295
系の	1.295
場合もありますが	1.295
ジェルエックス	1.295
の商品が	1.295
疾病が治癒したり	1.295
スムーズ	1.295
・・・250	1.295
バープロ	1.295
▁ピーチ味	1.295
みな	1.295
チック	1.295
▁野菜不足	1.295
の素	1.295
要らない	1.295
敏	1.295
やさ	1.295
▁アクティブプロテイン	1.295
とも呼ばれる	1.295
▁忙しい	1.295
待ち	1.295
▁菓子	1.295
****************	1.295
パウダータイプ	1.295
▁10%	1.295
測	1.295
ちり	1.295
-58	1.295
鉄と葉酸を	1.295
くて	1.295
正常な	1.295
。60	1.295
クロー	1.295
化学研究所	1.295
抱	1.295
酵素に関わる必須ミネラル	1.295
▁ホエイプロテインを	1.295
を使用せず	1.295
向けの	1.295
華	1.295
バランスで	1.295
ヨーグルトドリンク味	1.295
回摂取の目安	1.295
)20	1.295
漬	1.295
にもなる	1.295
銀天	1.295
う方に	1.295
種類の必須アミノ酸	1.295
ランダ	1.295
糧	1.295
▁牛乳屋さんのカルシウム	1.295
Non	1.295
強力	1.295
■<	1.295
▁コーラル	1.295
メーカー株式会社ファンケル	1.295
膨張	1.295
中央	1.295
▁03-5579-8510	1.295
室	1.295
噛む	1.295
のカルシウムと	1.295
を補えます	1.295
通の	1.295
を作るの	1.295
カテゴリファンケル	1.295
妨	1.295
of	1.295
スチ	1.295
▁ミナミヘルシーフーズ	1.295
力が落ち	1.295
26;	1.295
add	1.295
ぱく	1.295
リーム	1.295
▁たくさん	1.295
とご相談	1.295
味の素	1.295
ショナル	1.295
痩	1.295
スクラ	1.295
の正常な発育	1.295
ze	1.295
一人	1.295
チャンピオン	1.295
繊維状	1.295
たんぱく質の合成	1.295
風化貝	1.295
フェルラ酸	1.295
人気のビタミン	1.295
弁	1.295
主な原材料	1.295
-99	1.295
*180	1.295
をご案内	1.295
してく	1.295
INC	1.295
棒	1.295
小中学生の	1.295
代引不可	1.295
に寄	1.295
営業日の	1.295
キダチアロエ	1.295
▁(28	1.295
の当た	1.295
額	1.295
席	1.295
庄	1.295
1307	1.295
蝋	1.295
▁からだに	1.295
はん	1.295
大臣	1.295
促	1.295
mgX	1.295
島根県	1.295
徐	1.295
-369	1.295
審査	1.295
336	1.295
06-6	1.295
ッキ	1.295
のベスト	1.295
225	1.295
▁ギフト	1.295
の場合もございます	1.295
フェリン	1.295
▁自然界	1.295
色が変化	1.295
権	1.295
に仕上げ	1.295
を守って	1.295
泌	1.295
じ込めた	1.295
▁FANCL	1.295
草の	1.295
ーター	1.295
型プロテイン	1.295
定	1.292
mm	1.290
置いてください	1.289
質	1.288
▁この	1.288
赤	1.288
[	1.288
小児の手の届かないところに	1.287
はビタミン	1.286
):1	1.286
酵素処理ルチン	1.286
体内	1.285
器	1.283
ピリドキシン	1.282
が多く	1.282
国	1.282
バランス	1.282
緑	1.282
▁分	1.281
初めて	1.281
有効	1.280
ce	1.280
男性	1.279
れています	1.279
ケ	1.279
溶ける	1.279
少ない	1.279
▁モリブデン	1.278
]	1.278
微粒酸化ケイ素	1.277
粒が	1.277
除	1.277
半	1.277
為	1.277
ツ	1.277
販売	1.277
ロ	1.277
▁・1	1.276
ボトル	1.276
/60	1.276
▁ク	1.276
▁しかし	1.276
▁遊離グルタミン	1.276
とい	1.275
け	1.275
イースト	1.275
▁脂	1.275
エキス末	1.274
注意してください	1.274
果物	1.274
〜6	1.274
を改善	1.274
に変	1.274
ごく	1.273
キャベツ	1.272
化した	1.272
水又はぬるま湯	1.272
顔	1.272
対	1.272
をする	1.272
証	1.270
一日	1.269
商	1.269
開	1.269
現代の	1.269
配合で	1.269
員	1.269
場合が	1.269
・・・9	1.269
▁100	1.269
加工食品	1.268
と言われています	1.268
▁2000	1.268
(50	1.268
:2	1.267
出す	1.266
なりません	1.266
をスムーズに	1.266
がち	1.266
リンゴ	1.266
▁お召し	1.266
特有の	1.266
いい	1.265
ショ糖エステル	1.265
お飲み下さい	1.264
▁たんぱく質無水物換算値	1.264
ぬ	1.263
広告文責	1.263
等は予告なく変更	1.263
い	1.262
性	1.262
量の	1.262
影響	1.262
▁材	1.262
固	1.262
すべての	1.262
が高く	1.262
▁アス	1.262
自社工場で製造	1.262
厳しい品質管理のもと	1.262
炊飯	1.262
あす楽	1.262
インスタント食品	1.262
硝	1.262
調節してください	1.262
せいき	1.262
込む	1.262
を目指	1.262
カゼインたんぱくを	1.262
藻	1.262
133	1.262
ぞ	1.262
注目されています	1.262
摂取して	1.262
ます	1.261
なら	1.261
の維持	1.259
剤	1.259
)・	1.259
大豆レシチン	1.259
の食品	1.259
日量	1.258
摂ることが	1.258
株式会社	1.257
▁18	1.256
▁製造元	1.256
しました	1.256
31	1.256
の栄養素	1.256
しまう	1.256
摂りたい	1.255
ウォーター	1.255
アクアホエイプロテイン	1.255
像	1.255
吸湿	1.255
・・・5.0	1.255
ローズヒップは	1.255
av	1.255
もと	1.255
杯分	1.255
好き	1.255
用途	1.255
・・・5.5	1.255
バランスのよい	1.255
亜鉛と	1.255
-100	1.253
▁規格	1.253
水	1.253
保	1.252
を除く	1.252
ベー	1.252
しています	1.252
無料	1.250
入れ	1.250
皮膚や粘膜の健康維持を助ける	1.250
ショップ	1.249
会	1.248
(33	1.248
道	1.247
を含みます	1.247
-1	1.247
ご案内	1.247
で送料無料	1.247
をお選び	1.247
栄養を	1.247
増量	1.247
活躍	1.247
発見された	1.247
丈夫	1.247
概	1.247
▁0.23	1.247
ess	1.247
性質上	1.247
第二	1.247
▁栄養成分値	1.247
栄養機能食品です	1.247
健康補助食品です	1.247
トライア	1.247
▁還元麦芽糖	1.247
カプセルに	1.247
05	1.247
個の	1.247
肌に	1.247
ぴ	1.247
▁ウェイト	1.247
意識	1.247
袋を	1.247
,250	1.247
▁オリーブ	1.247
カルシウムとマグネシウム	1.247
リンク	1.247
▁37.5	1.247
ファン	1.247
種類以上の酵素の構成	1.247
ととも	1.247
癒	1.247
処分	1.247
消	1.247
ながら	1.245
などの症状が出る場合があります	1.245
製造国	1.245
などに	1.244
ません	1.244
米国	1.244
ヘ	1.243
レ	1.243
する場合がありますが	1.243
腹	1.243
ぼ	1.243
45	1.243
キ	1.243
a	1.243
されます	1.243
ユ	1.241
ことがあります	1.241
のある方は	1.241
2・・	1.241
な毎日	1.241
致	1.241
に入れて	1.241
▁0.13	1.241
ネギ	1.241
▁マカ	1.241
um	1.241
亜麻仁油	1.241
製品です	1.241
還元麦芽糖水飴	1.241
を作る	1.241
BR	1.240
次	1.240
働き	1.240
でも	1.239
力	1.238
-6	1.238
マルチ	1.238
▁アラ	1.238
運動後の	1.238
喫煙	1.238
お子様の手の届かない	1.237
水溶性ビタミン	1.237
でん粉	1.237
ステアリン酸	1.237
▁アルギニン	1.236
主菜	1.236
達	1.236
機能	1.236
!	1.236
上	1.235
ヒ	1.235
たい方に	1.233
イソフラボン	1.233
コーンスターチ	1.233
方におすすめ	1.233
ベン	1.233
含まれます	1.233
毎日の食事	1.233
▁54	1.233
▁明	1.233
階	1.233
メール便対応商品	1.233
匂	1.233
なトレーニング	1.233
▁資	1.233
の方にも	1.233
マッスルフィットプロテイン	1.233
いたい方に	1.233
分けて	1.233
個あたり	1.233
カルクッキング	1.233
珠	1.233
・・・5.7	1.233
ザバスが	1.233
パル	1.233
正常に働く	1.233
135	1.233
店長	1.233
の摂取量	1.233
普通の	1.233
ジョイント	1.233
クターズ	1.233
ドリンクです	1.233
必要量が	1.233
祝	1.233
勧め	1.233
lus	1.233
類	1.231
まれに色が変化	1.230
」「	1.230
コンプレックス	1.230
量は	1.229
った	1.229
▁また	1.229
を避けて	1.229
の上	1.229
zavas	1.229
という	1.229
補給する	1.228
新	1.228
環境	1.228
(300	1.228
主食	1.227
▁0120-	1.227
▁ヨウ素	1.227
ずつ	1.227
配合し	1.227
噛んで	1.227
▁su	1.227
3000	1.227
による個別審査を受けた	1.226
商品区分	1.225
だけでなく	1.224
たち	1.224
摂取する	1.224
健康	1.224
衛生的な	1.223
組成	1.223
抗	1.223
▁酸	1.223
ごま	1.223
たらき	1.223
口の中で	1.223
イメージ	1.223
を持っています	1.223
開発された	1.223
体の中で	1.223
摂りたい方に	1.223
をさけ	1.223
にご相談下さい	1.223
聞	1.223
くり	1.223
▁食用	1.223
高品質	1.222
d	1.221
ミツロウ	1.221
ス	1.221
▁DHA	1.220
赤ちゃ	1.220
)<	1.220
on	1.220
en	1.220
てください	1.219
が必要	1.219
:0.6	1.219
▁ファンケル	1.219
豊富	1.219
60	1.218
:16	1.218
▁ロイシン	1.217
アメリカ	1.217
▁ウェイトアップ	1.216
糖分	1.216
主要成分	1.216
下	1.216
地	1.216
法	1.216
日の目安	1.215
クリア	1.215
方は	1.214
▁賞味期限	1.214
よりも	1.214
ある	1.214
を持	1.213
チュワブル	1.213
▁は	1.213
断	1.213
円以上で送料無料	1.212
日の摂取目安量を守ってください	1.212
的に	1.212
方や	1.211
)(	1.211
・・	1.210
量	1.209
入	1.208
▁熱量	1.208
赤血球	1.208
の一部	1.208
水に溶か	1.208
におい	1.208
po	1.208
なるべく早くお召し上がりください	1.208
もっと	1.208
をして	1.208
天	1.208
だけでは不足しがちな栄養素を	1.208
:0〜2	1.208
))	1.208
持続的に	1.208
▁2010	1.208
10.5	1.208
ジュニアプロテイン	1.208
▁国産	1.208
偏った食生活	1.208
インターナショナル	1.208
げる	1.208
カード	1.208
お食事	1.208
まぜ	1.208
度に	1.208
守り下さい	1.208
ファーマ	1.208
によ	1.208
の中では	1.208
バナナパウダー	1.208
を使用しております	1.208
がありません	1.208
PA	1.208
ティースプーン	1.208
艶	1.208
お召上がり	1.208
▁0.47	1.208
乱れ	1.208
ラックス	1.208
840	1.208
アイスクリーム	1.208
種を	1.208
潜	1.208
▁2,000	1.208
カワ	1.208
牛由来	1.208
ご利用いただけません	1.208
おいしく召し上がれます	1.208
▁ラ	1.208
*65	1.208
▁16.0	1.208
クレジットカード	1.208
テープ	1.208
どこ	1.208
あがり	1.208
175	1.208
いております	1.208
メーカー直送	1.208
予	1.208
加工デンプン	1.208
卵殻粉	1.208
クエン酸第一鉄	1.208
ひとつで	1.208
デイ	1.208
しかねます	1.208
配合量	1.208
ぶどう果汁	1.208
:1.	1.208
使用しております	1.208
広告文責株式会社サンドラッグ	1.208
マーガリン	1.208
の黄金比率	1.208
デザイン等は	1.208
されることがあります	1.207
方	1.207
な	1.206
(5	1.205
とビタミン	1.205
対策	1.204
)・・・	1.203
続	1.203
毎日の健康維持	1.202
の特徴	1.202
...4	1.202
っている	1.201
その	1.201
らない	1.201
が配合	1.201
120	1.201
健康維持	1.200
区分	1.200
購入	1.200
▁お	1.200
ミネラルが	1.199
水素	1.199
強	1.199
▁アセロラ	1.199
をも	1.199
▁骨	1.199
▁クロム酵母	1.199
▁4.1	1.199
ダイエットをしている	1.199
を構成	1.199
▁健康食品	1.198
)1	1.198
対応	1.197
場合	1.196
▁ネイチャーメイド	1.196
(100%)	1.196
▁健康	1.196
セレン酵母	1.195
にて	1.195
▁素材	1.195
られている	1.195
損	1.195
▁ジュニアプロテイン	1.195
▁724	1.195
鉄と	1.195
手数	1.195
開発した	1.195
々に	1.195
商品特徴	1.195
ちます	1.195
粒で葉酸	1.195
ノコギリヤシ	1.195
オール	1.195
無理なく	1.195
とミネラル	1.195
ストレスや	1.195
安心して	1.194
られ	1.194
あす楽対応	1.194
含まれる	1.193
ヒアルロン酸	1.193
(3	1.192
合成	1.192
摂れる	1.192
牡蠣	1.192
品質保持	1.192
食事のバランスを気にしている	1.192
生まれ	1.192
ジャパン	1.192
を保	1.192
から	1.192
ら	1.192
明治	1.191
育	1.191
これ	1.191
めて	1.191
生活	1.191
炎	1.191
ことがありますが	1.191
として	1.190
わ	1.190
最適な	1.190
ダイエット	1.190
ぜひ	1.189
gt	1.189
摂	1.187
大栄養素	1.187
メチルセルロース	1.187
リポ酸	1.187
とする	1.187
取得	1.187
レス	1.187
取	1.187
糊料	1.187
なる	1.187
(25	1.187
御	1.187
OW	1.187
に重要な	1.187
を感じる	1.187
を応援します	1.187
掛	1.187
赤い	1.187
▁上がり方	1.187
網羅	1.187
になっております	1.187
内側から	1.187
涼しいところで	1.187
通院	1.187
食事で	1.187
においしく	1.187
:125	1.187
▁アセロラ風味	1.187
氷	1.187
▁高品質	1.187
まいも	1.187
使用を中止して下さい	1.187
亜鉛	1.186
il	1.185
ra	1.185
49	1.184
合計	1.184
ると	1.184
▁これ	1.184
製品と共通の設備で製造しています	1.183
▁グルコサミン	1.183
人工	1.183
をクリック	1.183
(10	1.182
▁イノシトール	1.182
などが	1.182
には	1.182
に必要な	1.181
内	1.181
まれにかゆみ	1.181
▁高温多湿や	1.181
酸素	1.181
ゆっくりと	1.181
かす	1.181
マンゴー	1.181
いました	1.181
内容成分	1.181
する	1.180
大量に	1.180
ミネラルは	1.180
ご希望	1.180
栄養補給	1.179
ド	1.179
時の	1.178
お届け	1.177
学	1.177
現代人	1.177
その含有量	1.177
100」	1.177
連	1.177
毎日の元気	1.177
にならない	1.177
直後の	1.177
かか	1.177
▁0.17	1.177
古くから	1.177
乾	1.177
-20	1.177
インド	1.177
マート	1.177
子さま	1.177
影響を	1.177
摂りいただけます	1.177
応	1.177
カス	1.177
を溶かし	1.177
血中アミノ酸	1.177
▁体内に	1.177
):3	1.177
吸収され	1.176
1.3	1.175
ろ	1.175
も	1.175
排出	1.175
▁こちら	1.175
ト	1.174
召し上がり方	1.174
キッズ	1.174
▁/	1.174
である	1.173
あります	1.173
の	1.173
バイオフラボノイド	1.173
2.0	1.173
とともに	1.173
ン	1.172
味の	1.172
を使用	1.172
便秘	1.171
開封後はしっかり	1.171
栄養補助食品として	1.171
、8	1.171
日当たりの摂取量の目安	1.171
(0.4	1.171
ローローディング	1.171
2〜4	1.171
グルタミンを添加	1.171
を控え	1.171
不足が気になる方	1.171
キシ	1.171
ダイエット中の方	1.171
▁▼	1.171
が	1.170
▁70	1.170
▁B	1.170
栄養素です	1.170
ベータカロチン	1.169
につきましては	1.168
プロテインパウダー	1.168
寒	1.168
濃縮物	1.168
をつけ	1.168
全身	1.168
メール便対応	1.168
回に	1.168
▁ボロン	1.168
抹	1.168
・・・80	1.168
妊娠	1.166
-2	1.166
品質	1.166
▁マ	1.166
等	1.165
>【	1.165
引き	1.165
▁栄養価	1.165
変性	1.165
ところで	1.165
▁120	1.165
日に	1.165
▁料	1.164
ローズヒップ	1.164
肌	1.164
について	1.164
含まれています	1.163
▁3.0	1.163
を使用しておりますので	1.163
▁スーパー	1.163
VD	1.163
十分に	1.163
状態	1.162
場所に保管してください	1.162
食用	1.162
ご注文後のキャンセル	1.162
ay	1.162
流	1.161
継続	1.161
に大切な	1.161
青	1.160
ことから	1.160
夜	1.160
s	1.159
トマト	1.159
、2	1.159
レビューを書いて	1.159
ものです	1.159
様	1.158
では	1.158
弱	1.157
セラック	1.157
ミネラル	1.157
配送	1.156
食べ物	1.156
グリシン	1.155
ヨウ素	1.155
本品は	1.155
ことが	1.153
b	1.152
▁500	1.151
ピ	1.151
意	1.151
変	1.151
するため	1.151
・・・10	1.151
トリ	1.151
バランスよく	1.151
の人	1.151
▁※1	1.151
につき	1.151
ような	1.151
程	1.151
の場所	1.151
出来ません	1.151
EMR	1.151
ro	1.151
吸収される	1.151
成分で	1.151
含んでいます	1.151
子供からお年	1.151
混ぜ	1.151
シャ	1.151
イルド	1.151
カー	1.151
・・・12	1.151
なども	1.151
識	1.151
は含まれておりません	1.151
TH	1.151
加え	1.151
体内で合成	1.151
▁ベ	1.151
場所に保管して下さい	1.151
などにも	1.151
自然な	1.151
▁目安	1.151
コレカルシフェロール	1.151
偏り	1.151
▁0.48	1.151
リスク	1.151
以外の	1.151
▁チョコレート	1.151
がありますが	1.151
運動で	1.151
:2.2	1.151
商品の情報	1.151
▁tel	1.151
改善	1.151
フマル	1.151
▁ゼリー	1.151
セレン含有	1.151
ge	1.151
-7	1.151
2・・・1.1	1.151
天然物を使用しておりますので	1.151
GE	1.151
オススメします	1.151
妊娠を計画	1.151
頑張	1.151
▁09	1.151
続けやすい	1.151
大塚製薬が	1.151
体で	1.151
紫	1.151
つまり	1.151
召し上がって	1.151
が問題視	1.151
のところ	1.151
▁ヨーグルトドリンク味	1.151
の高いホエイプロテイン	1.151
▁カルシウムと	1.151
直後	1.151
商品を	1.151
でんぷん	1.151
・1	1.151
111	1.151
グレープフルーツ果汁	1.151
をお持ちの方は	1.151
:225	1.151
〃	1.151
健康体力	1.151
ニオイ	1.151
コム	1.151
トコフェロールを	1.151
808	1.151
などでお召し上がり下さい	1.151
きり	1.151
ネス	1.151
幸	1.151
▁恐れ入りますが	1.151
の速	1.151
タキサンチン	1.151
は含まれて	1.151
分野	1.151
摂取し	1.151
盤	1.151
群とビタミン	1.151
▁レモン味	1.151
フォルスコリ	1.151
に有用	1.151
召し上がりください	1.151
マグネシウムの	1.151
開催	1.151
膨	1.151
ことができる栄養補助食品です	1.151
症状が出	1.151
バックアップ	1.151
取り組	1.151
▁毎日摂取する事	1.151
溢	1.151
及び取扱い上の注意	1.151
ポリポリとそのまま噛んで	1.151
ギュラー	1.151
メイ	1.151
▁丈夫な	1.151
チゴ	1.151
:0120-3	1.151
を気にする方	1.151
内訳	1.151
含有するプレミアム	1.151
細かい	1.151
献	1.151
森永	1.151
ource	1.151
喉	1.151
代引手数料	1.151
ろうとすると	1.151
イント	1.151
▁Ta	1.151
:220	1.151
のカラダづくり	1.151
微小	1.151
樹脂	1.151
186	1.151
をされる	1.151
メンテナンス	1.151
濁	1.151
普段の	1.151
予め	1.151
特性が	1.151
レトルト食品	1.151
訣	1.151
ムネ	1.151
▁いつまでも若々しく	1.151
チップ	1.151
エチレン	1.151
▁大変なんです	1.151
と同梱	1.151
を中止	1.151
そのま	1.151
の一種である	1.151
5.8	1.151
▁脂溶性	1.151
▁脂溶性ビタミン	1.151
ご質問	1.151
5	1.150
▁60	1.150
70	1.149
年	1.149
別	1.149
多量摂取により疾病が治癒したり	1.148
パワー	1.148
ート	1.147
▁セレン	1.147
取り扱い	1.147
は	1.147
由来	1.146
種類の	1.146
のひとつです	1.146
ウ	1.145
よう	1.145
した	1.145
を目指す	1.145
め	1.144
>	1.144
91	1.144
健康食品	1.144
ほか	1.144
可能	1.144
など	1.143
ぶどう糖	1.143
賞味期限	1.142
でき	1.142
0.5	1.142
高く	1.142
サービス	1.142
▁●1	1.141
ゼ	1.141
オススメ	1.141
りんご	1.141
▁<	1.140
も配合	1.140
50	1.140
ため	1.140
ヨード	1.139
日本人の	1.139
を助け	1.139
▁0248-94-8718	1.139
酸	1.139
つ	1.139
げ	1.139
お召し上がりください	1.138
〜3	1.138
:7	1.138
含有量	1.137
分の	1.137
▁銅	1.137
ース	1.137
酸味料	1.137
野菜	1.137
血	1.136
]<	1.136
重要です	1.136
日の摂取目安量を守って下さい	1.136
ですので	1.135
▁マルチビタミン	1.135
いただけます	1.135
クロ	1.134
も配合しました	1.134
▁※	1.134
●	1.133
玉	1.133
骨の形成を助ける栄養素です	1.133
授乳中の方	1.133
▁0.35	1.133
接	1.133
の良い	1.133
▁Way	1.133
▁8.0	1.133
—	1.133
錠中	1.133
で	1.132
結果	1.132
%)、	1.132
大容量	1.132
68	1.132
包	1.131
C	1.131
医療	1.131
総合的に	1.131
マグ	1.131
アメリカの	1.131
マ	1.131
▁アサヒフードアンドヘルスケア	1.131
胎児の正常な発育に寄与する	1.131
製薬	1.130
消費	1.130
オ	1.130
)】	1.130
毎日	1.130
やすく	1.130
のは	1.129
とは	1.129
体内に	1.129
重要	1.129
美容や健康	1.129
:1.2	1.129
具	1.129
図	1.129
補い	1.129
庫	1.129
問合せ先	1.129
日分のビタミン	1.129
お召しあがりください	1.129
タイム	1.129
小粒	1.129
中でも	1.129
井藤漢方	1.129
鉱	1.129
▁栄養補助	1.129
▁メーカー	1.129
心	1.128
▁mg	1.127
特定保健用食品とは異なり	1.127
厳しい	1.127
タ	1.126
高温多湿を避けて	1.126
いたい	1.126
と共に	1.126
3.6	1.126
卵	1.125
まり	1.125
ハーブ	1.125
区	1.125
アサヒ	1.125
わけ	1.125
▁高	1.124
状	1.124
ック	1.124
ました	1.122
果汁	1.122
低	1.122
差	1.122
・・・1.0	1.122
してお	1.122
ところに保存してください	1.122
トル	1.122
沢	1.122
ぷ	1.122
/5	1.122
▁バイオ	1.122
ボール	1.122
粒程度	1.122
ほぼ	1.122
井藤漢方製薬	1.122
登場	1.122
している方	1.122
:2.8	1.122
カルシウム不足	1.122
210	1.122
:2.4	1.122
園	1.122
酪酸	1.122
▁タ	1.122
薦め	1.122
まで	1.121
に	1.121
からのエネルギー産生と	1.121
特定保健用食品と異なり	1.121
...1	1.120
赤血球を作るのに必要な栄養素です	1.120
水分	1.120
▁イソロイシン	1.120
@	1.120
↑	1.119
サ	1.118
おすすめ	1.118
カロリー	1.118
粒あたり	1.117
だから	1.117
を避けて保存してください	1.117
女性は	1.117
セサミン	1.117
深い	1.117
に必要なビタミン	1.117
:00-17	1.117
20130	1.117
摂取しても	1.117
▁特に	1.117
抗酸化作用	1.117
Cr	1.117
と	1.117
含有酵母	1.117
▁発売元	1.116
多く	1.116
わる	1.116
っ	1.115
▁栄養成分表	1.115
色の	1.115
内は	1.115
水やぬるま湯などでお飲みください	1.115
アー	1.115
種類	1.115
モリブデン	1.114
ほ	1.114
び	1.113
が含まれています	1.113
▁ミ	1.112
17	1.111
のため	1.111
です	1.110
品質には問題ありません	1.110
全成分表示	1.110
ッシュ	1.110
:(	1.110
に優れた	1.110
が増	1.110
相談	1.110
▁c	1.110
モリブデン酵母	1.110
いに	1.110
間の	1.110
/30	1.110
▁主成分含有量	1.110
上のご注意	1.110
設	1.110
式	1.110
ルト	1.110
産の	1.110
やお	1.110
早め	1.110
の一種	1.110
日の摂取	1.110
健やかな	1.110
賛	1.110
ることで	1.110
なんと	1.110
▁CoQ	1.110
科の植物	1.110
調整してください	1.110
繰	1.110
食品アレルギーをお持ちの方は	1.110
可能性が	1.110
ラチン	1.110
ガラナ	1.110
相性が	1.110
▁シェーカー	1.110
っておりません	1.110
トコフェロールを配合	1.110
290	1.110
腸管	1.110
お召し上がり方栄養補助食品として	1.110
を守り	1.110
慣	1.110
粒の内容量	1.110
つや	1.110
されるので	1.110
マグネシウムのほか	1.110
▁ローズ	1.110
:70	1.110
微結晶セルロース	1.110
個包装	1.110
り	1.109
運動	1.108
2:1	1.108
40	1.108
使用上の注意	1.107
ぎ	1.107
(200	1.107
ならない	1.107
います	1.105
カロテノイド	1.105
ショ糖	1.105
*	1.105
▁1.2	1.105
リニューアル	1.104
48	1.104
▁and	1.103
2・・・1	1.103
rate	1.103
▁アル	1.103
キナセア	1.103
シャル	1.103
の方	1.103
はございません	1.101
マグネシウムを	1.101
上げ	1.101
▁A	1.101
スポーツ	1.101
にご相談ください	1.101
たい方	1.101
花	1.101
用	1.100
を使用しています	1.100
子供	1.100
言	1.100
米	1.099
必要	1.099
▁ディアナチュラ	1.099
中の	1.099
過	1.099
髪	1.099
の構成	1.099
結	1.099
ニア	1.099
:210	1.099
抽出ビタミン	1.099
浮	1.099
▁ノコギリヤシ	1.099
はじ	1.099
キュ	1.099
詰	1.099
ご確認ください	1.099
ガム	1.099
包入り	1.099
キー	1.099
済	1.099
▁自	1.099
手軽においしく	1.099
をか	1.099
味は	1.099
がり	1.099
ろう	1.099
からだづくりに必要な	1.099
▁亜鉛酵母	1.099
190	1.099
低カロリー	1.099
セルロースガム	1.099
:	1.098
▁(	1.098
成人	1.096
ぶ	1.096
してください	1.096
となる	1.096
水など	1.096
原料由来のものです	1.096
ことです	1.096
アイソ	1.096
出し	1.095
信	1.095
便	1.095
micro	1.094
をご参照の上	1.093
と呼ば	1.093
袋入り	1.093
に関わる	1.093
及び授乳中の方	1.092
づくり	1.092
病気	1.092
特許	1.092
▁イースト	1.092
グルテン	1.091
重要な	1.091
大豆プロテイン	1.091
酸化マグネシウム	1.091
暦	1.090
号	1.090
を避け	1.090
のに	1.090
たま	1.090
召し上がり	1.090
海洋	1.090
栄養機能	1.090
た	1.090
:4	1.089
えた	1.089
配合成分	1.089
と一緒に	1.089
32	1.088
会社	1.088
シ	1.088
開封後は	1.088
葉	1.088
飲料	1.088
末	1.088
使	1.087
乳幼児の手の届かないところに	1.087
▁お客様相談室	1.086
て	1.086
▁C	1.086
格	1.086
(250	1.086
ステビア	1.085
女性に	1.085
通院中の方	1.085
でしょう	1.084
タイプ	1.084
▁S	1.084
ム	1.084
ご使用ください	1.084
体重	1.084
」	1.082
▁、	1.081
早めにお召し上がりください	1.081
にお	1.079
効率的に	1.079
5000	1.079
:0〜0.1	1.079
天然の	1.079
送	1.079
ライ	1.079
SALE	1.079
ダー	1.079
に必要	1.079
▁麦芽糖	1.079
日本人	1.079
油脂	1.079
結合	1.079
個分のビタミン	1.079
を持つ	1.079
エーエフシー	1.079
栄養バランス	1.079
耐	1.079
丈夫な	1.079
しめて	1.079
を高める	1.079
補ったり	1.079
買い物	1.079
ニティ	1.079
しまい	1.079
たんぱく原料として吸収の良い	1.079
に含まれるビタミン	1.079
▁7.7	1.079
LE	1.079
にくく	1.079
はこちらから	1.079
ヨウ素酵母	1.079
しません	1.079
ーツ	1.079
召上がりください	1.079
。3	1.079
等で	1.079
構	1.079
:0776-67-5239	1.079
ゲンキーネット株式会社	1.079
起き	1.079
を楽しむ	1.079
高温多湿や	1.079
コレ	1.079
原料の一部に	1.079
:28	1.079
体作り	1.079
召し上がれます	1.079
作られています	1.079
ハー	1.079
ペットボトル	1.079
お子様は	1.079
283	1.079
リスト	1.079
マトリコピン	1.079
アスリートは	1.079
連絡先電話番号	1.079
11)	1.079
3.2	1.079
慢	1.079
OL	1.079
666	1.079
食生活が	1.079
▁ぶどう糖	1.079
をもとに	1.079
陽	1.079
くない	1.079
方向け	1.079
っぽ	1.079
む方	1.079
買う	1.079
多糖類	1.079
▁0〜	1.079
いらない	1.079
▁エレ	1.079
原材料の一部に小麦	1.079
競	1.079
運び	1.079
ございませんが	1.079
埋	1.079
:03-6	1.079
AD	1.079
を気にせずガンガン飲める	1.079
:22.5	1.079
項	1.079
そこ	1.079
グリセリンエステル	1.079
有用成分	1.079
プロテインを使用	1.079
ちょ	1.079
粒にしました	1.079
ケン	1.079
▁毎日の食事	1.079
ぼす	1.079
帰	1.079
123	1.079
ぱ	1.079
桐	1.079
枯渇	1.079
到	1.079
じめ	1.079
コレウス	1.079
カルシウムや	1.079
補給しましょう	1.079
をバックアップ	1.079
源	1.077
ものではありません	1.077
体質によりまれに	1.076
これは	1.076
摂取	1.076
含有植物油	1.075
銅	1.075
ワ	1.075
増	1.075
ビオチンは	1.074
アイアン	1.074
グリ	1.074
尿が黄色くなることがあります	1.074
を使用しているため	1.074
cc	1.073
や	1.072
減少	1.072
閉	1.072
の水	1.072
4-	1.072
〜5	1.072
飲み	1.072
▁150	1.071
店舗	1.070
決	1.070
食感	1.070
▁他	1.070
能	1.070
にご相談の上お召し上がりください	1.069
ポリフェノール	1.069
感覚で	1.069
破損	1.069
プロテインシェイカー	1.069
!】<	1.069
いちご	1.069
▁吸収	1.069
軽く	1.069
トウモロコシ	1.069
難消化性デキストリン	1.069
番	1.068
自然素材	1.068
未	1.068
認	1.067
ゼラチン	1.067
鉄は	1.066
ご家族	1.066
民	1.066
古	1.066
牛	1.066
」、「	1.066
蛋白	1.066
不足しがちなカルシウム	1.066
栄養素	1.066
p	1.065
貝カルシウム	1.065
行	1.065
指	1.065
650	1.065
▁葉酸	1.064
をサポートする	1.064
栄養素ですが	1.064
93	1.064
保存してください	1.064
液	1.063
メーカー	1.062
所	1.062
メチル	1.062
▁INTERNATIONAL	1.062
が高い	1.062
天然由来	1.062
さい	1.062
辛	1.062
メロース	1.062
▁身体	1.062
等により	1.062
が変化	1.062
▁0.55	1.062
▁スーパープレミアム	1.062
▁胃	1.062
131	1.062
▁0.004	1.062
できます	1.061
▁1.4	1.061
とって	1.061
悪	1.061
蛋白質	1.060
発売	1.060
が良くなるものではありません	1.060
▁大豆たんぱく	1.060
しっかりと	1.060
があります	1.060
メーカー名	1.060
日	1.060
th	1.059
▁植物	1.059
したい方に	1.059
ローズ	1.059
+	1.058
の基本	1.058
種の	1.058
▁オリヒロ	1.057
澱粉	1.057
人間の	1.057
鉄分	1.056
あ	1.055
▁デキストリン	1.055
すると	1.055
表	1.055
多くの	1.055
はお医者様	1.055
仕	1.055
形	1.055
スタ	1.055
らず	1.055
-00	1.055
▁タイムリリース	1.055
発送は	1.055
▁果糖	1.055
ススメ	1.055
▁ウエイトダウン	1.055
)30	1.055
膨脹剤	1.055
RNA	1.055
に溶かして	1.055
引き締め	1.055
本品の摂取	1.055
易い	1.055
のが特徴です	1.055
▁80.0	1.055
を摂る	1.055
不足しがちなビタミン	1.055
¥	1.055
許	1.055
214	1.055
SS	1.055
瘍	1.055
健康維持に	1.055
となって	1.055
100<	1.055
にもおすすめです	1.055
に相当	1.055
疾病	1.055
佐	1.055
性能	1.055
健	1.054
400	1.054
より健康が増進する	1.054
作	1.053
▁a	1.052
海藻	1.052
出来る	1.052
ところに置いてください	1.052
の健康維持	1.052
f	1.052
ビ	1.051
67	1.051
をとる	1.051
ヤマ	1.051
硫酸鉄	1.051
▁そ	1.051
届	1.051
激安	1.051
大切な	1.050
in	1.050
優れた	1.050
▁Ca	1.050
現	1.050
ca	1.050
セルロース	1.049
用量	1.049
アセロラ	1.049
▁50	1.049
だ	1.049
ビタミン	1.049
のない	1.048
54	1.048
:1.5	1.048
ご注意下さい	1.048
吸収速度	1.048
パワーアップ	1.048
んでいます	1.048
んど	1.048
時間を	1.048
:5.0	1.048
】<	1.047
19	1.047
ティ	1.047
):	1.046
ノ	1.046
胃部不快感	1.046
▁p	1.046
構成	1.045
しっかり	1.045
、1	1.045
▁180	1.045
コ	1.045
実	1.045
配合しました	1.045
はもちろん	1.045
ペクチン	1.045
ライト	1.045
乾燥剤	1.045
美しく	1.045
▁つ	1.045
きた	1.045
粉末たんぱく	1.045
される	1.044
大	1.044
デキストリン	1.044
▁クロム	1.044
の働き	1.044
を助ける	1.044
▁108	1.043
黄	1.043
配合しています	1.043
の形成を助ける	1.043
破	1.043
グルコン酸銅	1.043
それ	1.042
魚	1.042
▁乳	1.042
紹介	1.042
▁・	1.041
必ず	1.041
カ	1.041
:2.5	1.041
粉末	1.041
粒を目安にお召し上がりください	1.041
牛乳または水	1.040
体	1.040
を配合しています	1.039
の高い	1.039
.	1.039
ラ	1.038
ot	1.038
▁25	1.038
となります	1.036
になります	1.036
なった	1.036
乾燥	1.036
は異なります	1.036
生理	1.036
ジー	1.036
に多く	1.036
ほうれん草	1.036
に記載	1.036
56	1.036
売	1.036
・・・2.0	1.036
先進国	1.036
とされる	1.036
食物アレルギー	1.036
互	1.036
大きさ	1.036
原材料の一部に大豆を含む	1.036
染	1.036
活用	1.036
に占める割合	1.036
などのミネラル	1.036
をバランス良く	1.036
高温多湿	1.036
嫌い	1.036
・・・400	1.036
食欲不振	1.036
細胞の	1.036
砂糖は一切使用しておりません	1.036
pp	1.036
▁ウエハース	1.036
▁ガルシニアエキス	1.036
マス	1.036
気軽に	1.036
▁お菓子	1.036
飲みやすさを追求した	1.036
体調の	1.036
▁水分	1.036
上がり	1.036
ジャンル	1.036
化学溶解剤	1.036
潰	1.036
血圧	1.036
体質に合わない場合はご利用	1.036
スカル	1.036
甘い	1.036
:115	1.036
デーエイチシー	1.036
アセ	1.036
重要な働きをする	1.036
と共にお召し上がり下さい	1.036
腺	1.036
含有する	1.036
:0.12	1.036
を気にせず	1.036
ベニ	1.036
関連ワード	1.036
)(045-718-6283)】	1.036
不要な	1.036
の栄養補助食品です	1.036
展	1.036
貝殻焼成カルシウム	1.036
も配合した	1.036
感覚の	1.036
イック	1.036
▁お召上がり方	1.036
ネットリアル	1.036
-300	1.036
旬	1.036
天然型	1.036
賢	1.036
イカスミ色素	1.036
コンドロイチン含有	1.036
に優れ	1.036
皮膚や粘膜	1.036
)3	1.036
チョコレート味	1.036
感覚	1.036
▁ウェ	1.036
.56	1.036
181	1.036
の強い	1.036
磯	1.036
減量したい方に	1.036
掘	1.036
逆	1.036
適正価格	1.036
1−	1.036
ヘモグロビン	1.036
分	1.035
この	1.035
ゴ	1.034
o	1.033
1	1.032
.0	1.032
目	1.032
三	1.032
多量摂取により胎児の発育	1.032
その場合は使用を中止してください	1.029
から生まれた	1.029
で約	1.029
になって	1.029
的な	1.029
▁マンガン	1.028
できない	1.028
▁Acid	1.028
▁2012	1.028
480	1.028
。(	1.027
粒	1.027
白	1.026
したい方	1.026
▁3.6	1.026
▁☆	1.026
▁鉄分	1.025
二酸化ケイ素	1.025
チロシン	1.025
供給	1.025
▁Now	1.025
5-	1.025
才以上	1.025
〜0.0	1.025
水などに	1.025
5.5	1.025
いています	1.025
保存方法	1.025
:50	1.024
などの	1.024
とした	1.023
▁野菜	1.023
▁0120	1.023
▁それ	1.023
なし	1.023
成	1.023
:300	1.022
メガ	1.022
添加物	1.021
による	1.021
▁商品区分	1.021
栄養	1.020
動物性	1.020
(0.	1.020
キーワード	1.020
小さなお子さま	1.020
トレ	1.020
ゲ	1.020
配合した	1.020
ow	1.020
▁カルニチン	1.020
ってください	1.020
▁江崎グリコ	1.020
そんな	1.020
部活動	1.020
しないで下さい	1.020
ity	1.020
に不可欠な	1.020
:130	1.020
:33	1.020
▁シトラスバイオフラボノイド	1.020
寿	1.020
や神経	1.020
亜鉛が	1.020
早めにお召し上がり下さい	1.020
クロム含有	1.020
▁大豆油	1.020
glico	1.020
機能性成分	1.020
れたスプーンを	1.020
が不足しがちな	1.020
円以上お買い上げ	1.020
の摂取	1.019
へ	1.019
れば	1.019
に欠かせないビタミン	1.018
のみ	1.017
・・・25	1.017
カルシウムが	1.017
成分	1.017
:3	1.017
クロム酵母	1.016
パ	1.016
必要があります	1.015
▁大	1.015
01	1.015
CLA	1.015
うち	1.015
ul	1.015
つく	1.014
葉酸	1.014
ザバス	1.013
G	1.013
成分を	1.013
お飲み	1.013
▁1,	1.013
▁(30	1.013
洗	1.013
最適	1.013
ください	1.013
食品アレルギーのある方は	1.013
0.2	1.013
▁内容量	1.012
ユーザー	1.012
▁10	1.012
7	1.012
忙しい	1.011
パン	1.011
に欠かせない	1.011
ン酸	1.011
外	1.011
骨カルシウム	1.010
屋	1.010
及び	1.009
本	1.009
とともにお召し上がりください	1.009
し	1.008
▁ブランド	1.008
▁Nature	1.007
業	1.007
総	1.007
果物不足	1.007
写真	1.007
を行	1.007
小児は本品の摂取をさけてください	1.007
1.1	1.007
▁ハードカプセル	1.007
セレ	1.007
ピード	1.007
運	1.007
しないこと	1.007
▁注意	1.007
お好みに応じて調整してください	1.007
たんぱく質の働きを強める	1.007
こまめに	1.007
実際	1.007
疲れやすい	1.007
▁ルチン	1.007
...100	1.007
ビタミンサプリメントです	1.007
ヒドロキシプロピルセルロース	1.007
手軽な	1.007
▁220	1.007
らないよう	1.007
中止	1.007
メン	1.007
オン	1.007
)×3	1.007
4.4	1.007
方にもおすすめ	1.007
崎	1.007
を補う	1.007
の成長	1.007
副	1.007
かき	1.007
▁お届け	1.007
商品のご案内	1.007
/4946842635	1.007
修復	1.007
安全キャップは品質保全のため	1.007
造礁サンゴ焼成カルシウム	1.007
欄	1.007
スタント	1.007
を含んだ	1.007
綿	1.007
▁0.40	1.007
カルニチンフマル酸塩	1.007
清涼飲料	1.007
偏らず	1.007
カム	1.007
才	1.007
3:	1.007
▁酵素	1.007
傾	1.007
▁アミノバイタル	1.007
硫酸マグネシウム	1.007
ピーナッツ	1.007
商事	1.007
きち	1.007
豚肉	1.007
筋肉をキープしたまま	1.007
を楽しみ	1.007
炭水化物を	1.007
バランスよくとることが大切です	1.007
食事	1.006
ので	1.006
▁販売元	1.006
u	1.005
管理	1.005
糖質	1.004
グアガム	1.004
お	1.004
:20	1.004
▁バリン	1.003
ステ	1.003
▁米国	1.003
自	1.002
特	1.002
▁●「	1.002
ボ	1.001
リジン	1.001
備	1.001
マンゴー風味	1.001
80	1.001
(2	1.001
▁糖質	1.001
品	1.000
町	1.000
。	1.000
を	1.000
ブドウ種子	0.999
体力	0.999
を効率よく	0.999
リン酸	0.999
商品です	0.999
麦芽糖	0.999
600	0.999
チュアブル	0.999
240	0.998
スッキリ	0.998
食べ	0.998
小麦	0.997
▁7.5	0.997
乳酸菌	0.997
▁美容と健康	0.996
の植物	0.996
.12	0.996
ハイポトニック	0.996
独自	0.996
未開封	0.996
ロット	0.996
全く	0.996
方にもおすすめです	0.996
CPP	0.996
温	0.996
▁Naturals	0.996
レッ	0.996
なお	0.996
ソルビトール	0.996
96	0.996
の方は	0.996
▁TEL	0.995
IU	0.995
をお願いします	0.994
日の摂取目安量	0.994
取り	0.994
玄米	0.994
28	0.994
酸化	0.993
《	0.993
食事摂取基準	0.993
制限	0.993
季節	0.993
。2	0.993
ことが大切です	0.993
▁4.2	0.993
6・	0.993
アサヒフード	0.993
由来の	0.993
▁その	0.992
水またはお湯	0.992
ギリ	0.992
▁6	0.991
厳選	0.991
芽	0.991
がお	0.991
-30	0.991
斑点は	0.991
良質な	0.991
お早めにお召し上がりください	0.991
こ	0.991
シリーズ	0.991
2	0.991
重	0.990
33	0.990
カル	0.989
生産国	0.989
のような	0.988
のプロテイン	0.988
アルファルファ	0.988
▁M	0.987
▁ザバス	0.987
-22	0.986
ケア用品	0.986
予めご了承下さいませ	0.986
自社調べ	0.986
お支払	0.986
8(	0.986
IGHT	0.986
仲	0.986
ヴァ	0.986
550	0.986
ご飯を	0.986
▁0-	0.986
天然由来の	0.986
沖縄の	0.986
ダメージを受け	0.986
・・・・・	0.986
▁手	0.986
褐	0.986
偏	0.986
脂肪分	0.986
納	0.986
と思われる	0.986
プロピレン	0.986
理想のバランス	0.986
濃縮果汁	0.986
秘	0.986
にすぐれた	0.986
妊	0.986
直射日光をさけて保存してください	0.986
▁よく	0.986
海藻類	0.986
-80	0.986
放出	0.986
配合されています	0.986
(1.5	0.986
▁ヨーグルト風味	0.986
貝殻	0.986
糖質と	0.986
▁人気	0.986
藤	0.986
サプリです	0.986
to	0.986
〜0.6	0.986
バナ	0.986
標	0.986
もしくは	0.986
社製	0.986
▁6.2	0.986
バラ	0.986
EPA	0.986
の食事	0.986
しな	0.986
抜	0.986
小麦を含む	0.986
当り	0.986
量を	0.986
29	0.986
グリセリン	0.985
1〜2	0.985
保存	0.985
ヘルスケア	0.984
ご使用をおやめください	0.984
異なる	0.984
Kcal	0.984
ココアパウダー	0.984
割	0.983
倍	0.983
アサヒフードアンドヘルスケア	0.983
日目安量	0.983
少なく	0.983
95	0.983
お問い合わせ先	0.983
注意事項	0.983
瓶	0.982
OR	0.982
色素	0.982
ズ	0.982
(	0.982
)	0.982
本品	0.981
バランスよく配合	0.981
2:0.	0.981
▁増粘剤	0.981
小さ	0.981
コーティング	0.981
1,000	0.981
かまずに水またはお湯	0.981
種類のビタミンと	0.981
工場	0.980
栄養補給として	0.980
▁アミノ	0.980
と呼ばれる	0.980
%、	0.979
テ	0.979
▁Pro	0.978
本来	0.978
▁大容量	0.978
失われ	0.978
が変	0.978
五訂	0.978
:13	0.978
いただき	0.978
.34	0.978
乳酸	0.978
、3	0.978
す	0.978
手	0.978
砂糖	0.978
乳成分を含む	0.977
'	0.976
ご利用ください	0.976
日常生活	0.976
直射日光をさけてください	0.976
アスタキサンチン	0.976
ジン	0.976
通常	0.976
!!	0.976
日本	0.975
されています	0.975
フタ	0.975
▁Fe	0.975
をしっかりと	0.975
々	0.975
▁水	0.974
粉	0.974
水溶性	0.974
群の	0.973
新しい	0.973
食塩	0.972
群	0.972
▁株式会社	0.971
▁▽	0.971
殆	0.971
汚	0.971
DX	0.971
調子	0.971
みず	0.971
開け閉め	0.971
外出	0.971
個別	0.971
株式会社明治	0.971
偏食し	0.971
著	0.971
ダン	0.971
▁自然	0.971
食べられる	0.971
ナノ	0.971
コリン酸	0.971
日時	0.971
昇	0.971
興	0.971
ドーピング	0.971
等に	0.971
を追	0.971
鍵	0.971
取扱い上の注意	0.971
首	0.971
円が	0.971
をお勧め	0.971
電解質	0.971
▁総合	0.971
▁熱	0.971
320	0.971
レモン約	0.971
到着	0.971
5,000	0.971
12、(	0.971
活	0.971
ネート	0.971
に多く含まれ	0.971
12)	0.971
加えて	0.971
288	0.971
生成	0.971
付属のスプーン	0.971
▁小林製薬の栄養補助食品	0.971
れた	0.971
もあります	0.971
4	0.971
?	0.970
西	0.970
savas	0.969
が気になる方に	0.969
英語	0.969
をしっかり	0.969
を含む	0.969
産	0.969
チアミン	0.968
大変	0.968
を入れ	0.968
特殊	0.968
パントテン酸	0.968
シア	0.968
なく	0.968
果	0.967
薬を服用あるいは	0.967
を送	0.967
訳	0.967
を補給する	0.967
ヨーグルト味	0.967
ちゃ	0.967
の中に	0.967
Na	0.966
んだ	0.966
▁ヘム鉄	0.966
1.2	0.966
▁酵母	0.965
トウ	0.965
しているため	0.965
を保つ	0.965
した後は速やかにお飲みください	0.965
▁味	0.965
含有食品	0.965
▁1.7	0.965
】	0.965
サポート	0.964
時に	0.964
当店は	0.964
もちろん	0.964
食用油脂	0.964
IL	0.963
マリーゴールド	0.963
タブ	0.963
送り	0.963
直ちに	0.963
▁クエン酸	0.962
▁ハ	0.962
文	0.961
える	0.961
(1	0.961
▁JAN	0.961
を配合した	0.960
場合は	0.960
いた	0.960
糸	0.959
▁上	0.959
二酸化チタン	0.959
ネオテーム	0.959
キレート加工	0.959
まれに体質に合わない	0.959
お召上がりください	0.959
▁ニコチン酸アミド	0.959
値段	0.959
のできる	0.959
お召し上がりの量などに	0.959
しているので	0.959
開封後	0.959
をさ	0.959
運動後のリカバリー	0.959
や運動	0.959
くなることがあります	0.959
しておりません	0.959
戻	0.959
健康な	0.959
水素水	0.959
un	0.959
▁8.8	0.959
リュー	0.959
未焼成カルシウム	0.959
水またはぬるま湯で	0.959
な方	0.959
7.0	0.959
のある	0.959
牛乳	0.958
t	0.958
▁商品説明	0.958
お飲みください	0.957
考え	0.957
原材料名	0.957
16	0.956
作り	0.956
」。	0.956
がちな	0.956
飲みやすく	0.956
なかなか	0.956
なりました	0.956
型	0.955
させる	0.955
B	0.955
します	0.954
本入り	0.954
メール便送料無料	0.954
防止	0.954
栄養素等表示基準値に対する充足率	0.954
気味	0.954
ご飯	0.954
血液	0.954
場合には	0.954
すぎ	0.954
該	0.954
週間	0.954
豚	0.954
。1	0.953
▁400	0.953
のも	0.952
急	0.952
く	0.952
つき	0.952
持	0.952
いて	0.952
▁DNS	0.951
アミノ酸	0.950
をお勧めします	0.949
の摂取をおすすめします	0.949
▁Formul	0.949
▁食	0.949
(700	0.949
まったく	0.949
隅	0.949
▁Cor	0.949
▁お手	0.949
工業	0.949
▁を	0.949
が好き	0.949
▁48	0.949
:21	0.949
オイ	0.949
イキイキ	0.949
をしっかりと閉めて	0.949
養	0.949
▁ブドウ糖	0.949
.)	0.949
とゆっくり長く吸収される	0.949
ラクトフェリン	0.949
idth	0.949
▁緑黄色野菜	0.949
2-00	0.949
▁世界	0.949
:120	0.949
いつも	0.949
時期	0.949
灰	0.949
かつ	0.949
カラ	0.949
▁セレン酵母	0.949
ケール	0.949
he	0.949
.3	0.949
後	0.949
オイル	0.948
:00	0.948
の場合は	0.948
カリウム	0.947
お早めにお召し上がり下さい	0.947
間	0.947
▁カ	0.947
とても	0.947
メチオニン	0.947
プロテイン	0.946
からだ	0.946
▁生	0.945
させて	0.945
外に	0.945
効果を	0.945
カルシウムとマグネシウムを	0.945
.67	0.945
(40	0.945
nc	0.945
できないので	0.945
焼	0.945
を追求	0.945
▁アクア	0.945
薬	0.945
セレン	0.945
▁【	0.945
栄養素が	0.945
♪	0.944
:24	0.944
れない	0.944
溶けやすい	0.944
粒入り	0.944
▁ビタミン	0.944
▁49	0.943
発	0.943
痛	0.943
・・・100	0.943
▁新	0.943
価	0.943
気	0.943
1.0	0.943
15	0.942
ポリグルタミン酸	0.942
▁(23	0.942
▁グレープフルーツ味	0.942
吐	0.942
★5250	0.942
の割合で	0.942
ライフサイエンス	0.942
物を	0.942
:0.01	0.942
が豊富な	0.942
合う	0.942
くれる	0.942
大豆ペプチド	0.942
▁原料	0.942
▁筋肉	0.942
フレッシュ	0.942
大切です	0.942
▁ヒ	0.942
しかも	0.942
特別	0.942
美味しく	0.942
原材料	0.941
er	0.941
▁鉄	0.941
、	0.940
体の	0.940
イン	0.940
▁30	0.940
ご	0.940
えない	0.940
によって	0.940
ひ	0.939
どうぞ	0.939
-9	0.939
トコフェロール	0.939
SAVAS	0.939
やすさ	0.938
白糖	0.938
3.3	0.938
過剰に	0.938
美味しさ	0.938
複合	0.938
▁重量	0.938
▁0.46	0.938
タン	0.938
▁75	0.938
大豆	0.938
抽出	0.938
調節	0.938
▁カルシウム	0.937
1.	0.937
に関	0.937
ない	0.937
効果	0.936
問合せ	0.936
90	0.936
賞味期限にかかわらず	0.935
とれます	0.935
・・・3.6	0.935
しみ	0.935
使用を中止してください	0.935
第一鉄	0.935
をお守りください	0.935
ネオ	0.935
▁で	0.935
製造する	0.935
体調維持に欠かせない	0.935
の理想的なバランス	0.935
▁日本人	0.935
と同時に	0.935
の商品です	0.935
▁か	0.935
最新	0.935
少し	0.935
▁Source	0.935
きちんと	0.935
めます	0.935
協	0.935
厚生労働省の個別審査を受けた	0.935
▁]	0.935
ファ	0.934
市	0.934
高	0.934
リ	0.934
未満	0.934
▁14	0.934
み	0.934
ナイアシン	0.933
▁2.2	0.932
×2	0.932
含有	0.932
▁-	0.932
された	0.932
ホルモン	0.931
菌	0.931
利用	0.931
▁	0.931
▁食品	0.931
食物	0.931
金	0.930
ないでください	0.930
粒でビタミン	0.930
を含み	0.930
lico	0.930
▁22.5	0.930
柿	0.930
形で	0.930
天然成分	0.930
小林製薬株式会社	0.930
スタイル	0.930
▁(24	0.930
樹皮	0.930
におすすめします	0.930
やミネラル	0.930
混合	0.930
ine	0.930
オレンジ風味	0.930
毛	0.930
詳細	0.930
コンディション	0.930
アクア	0.930
アスパラギン酸	0.930
種	0.929
社	0.929
身体に合わない場合があります	0.929
21	0.928
の中で	0.928
分離	0.927
▁ベータカロテン	0.927
噛んでお召し上がりください	0.927
カルシウムと	0.927
飲み下さい	0.927
▁125	0.927
材料	0.927
▁コンプレックス	0.927
責	0.927
Ca	0.926
▁栄養成分表示	0.925
D	0.925
直接	0.925
ご相談	0.925
モール	0.925
んと	0.925
▁必須アミノ酸	0.925
カゼインカルシウム	0.925
注目されている	0.925
つくり	0.925
日程	0.925
わらず	0.925
乗	0.925
不足しがちなミネラル	0.925
からは	0.925
[1	0.925
本品を	0.925
尿	0.925
吸収	0.925
.6	0.925
12	0.925
ご注意ください	0.924
又は	0.924
▁ココア味	0.924
▁明治製菓	0.923
食事から	0.923
LIFE	0.923
クレ	0.923
向	0.923
fs	0.922
肉	0.922
プルラン	0.922
方に	0.922
▁ア	0.921
シード	0.921
ミネラル配合	0.921
ゆっくり吸収される	0.921
▁日	0.921
ヒロ	0.921
日から	0.921
が可能	0.921
ミール	0.921
▁0.07	0.921
膜	0.921
効果的に	0.921
方にも	0.921
最大	0.921
セリン	0.921
ける	0.921
/1	0.920
体質や体調により	0.920
.5	0.920
人工着色料	0.920
え	0.920
天然のビタミン	0.919
えます	0.919
▁)	0.919
といわれる	0.919
元	0.919
効力	0.919
マグネシウム	0.919
変更	0.918
ビー	0.918
婦	0.917
▁当	0.917
過程で	0.917
エネルギーの	0.917
アーモンド	0.917
定期購入	0.917
味です	0.917
リボフラビン	0.917
説明	0.917
{	0.917
:00(	0.917
お召し上がりいただけます	0.917
▁T	0.917
(30	0.916
動	0.915
妊婦	0.915
トリプトファン	0.915
付	0.915
エキス	0.915
不	0.915
▁パントテン酸	0.914
:26	0.914
夫	0.914
▁39	0.914
ブル	0.914
からお	0.914
産生	0.914
▁水溶性	0.914
保存方法高温多湿	0.914
レベル	0.914
設計	0.914
すべて	0.914
栄養素を	0.914
保存料	0.913
▁プロ	0.913
mg	0.913
じ	0.913
頂く	0.912
strongsports	0.912
ター	0.912
プロ	0.912
:10	0.912
▁広告文責	0.912
のが	0.912
着色料	0.912
0.0	0.911
▁バイオフラボノイド	0.911
摂取した	0.911
予め御了承下さい	0.911
級	0.911
に役立ちます	0.911
チーズ	0.911
嬉しい	0.911
郡	0.911
6.7	0.911
コンドロイチン硫酸	0.911
を整	0.911
が苦手な	0.911
濃度	0.911
たんぱく質の働きに必要なビタミン	0.911
アレルギー	0.911
▁名称	0.911
ように	0.910
語	0.910
食事の	0.910
ent	0.910
DNS	0.910
▁さらに	0.909
ショ糖脂肪酸エステル	0.909
ル	0.909
少しずつ	0.909
円以上送料無料	0.909
無い	0.909
が大	0.909
カフェイン	0.909
を一	0.909
を助けて	0.909
上手に利用して	0.909
すばやく吸収されるホエイたんぱく	0.909
摂取することが	0.909
チョコ	0.909
子供用	0.909
▁(5	0.909
にかか	0.909
緑黄色野菜	0.909
▁2.1	0.909
▁24	0.909
多い	0.909
250	0.908
▁アメリカ	0.908
明治製菓	0.908
国産	0.908
息	0.906
粒の	0.906
ood	0.906
▁84	0.906
チ	0.906
明治製菓株式会社	0.905
理想	0.905
▁0.05	0.904
だけでは	0.904
▁55	0.904
上で	0.904
塩化	0.904
たんばく	0.904
希望の方は	0.904
585	0.904
▁12.5	0.904
38	0.904
)」	0.904
特に	0.903
の栄養	0.903
3	0.903
ライフスタイル	0.903
▁0.6	0.903
▁アミノ酸スコア	0.902
振	0.902
▁プラス	0.902
付き	0.902
000	0.902
マンガン	0.902
:5	0.902
摂り	0.902
っと	0.902
re	0.901
200	0.901
▁風味	0.901
ポー	0.901
の一種で	0.901
▁0.50	0.901
常に	0.901
主原料	0.901
ママ	0.901
▁粉末	0.901
酵母	0.900
ご利用	0.900
また	0.900
トレハロース	0.900
・	0.900
E	0.899
〜12	0.899
カルシウムの吸収	0.899
かけ	0.899
を摂取	0.899
〜0.	0.899
V	0.899
順	0.899
.9	0.899
ノール	0.898
本セット	0.898
付属スプーン	0.898
▁s	0.898
含まれ	0.898
▁株式会社エープライム	0.898
への	0.897
を添加	0.897
アップル	0.896
71	0.896
(7	0.896
はこちら	0.896
土	0.895
▁35	0.895
プル	0.895
森永製菓株式会社	0.895
の飲料	0.895
-55	0.895
製品は	0.895
▁0.03	0.895
▁4.5	0.894
▁内容	0.894
▁●	0.894
150	0.893
長時間	0.893
スターチ	0.893
日摂取目安量	0.893
ックス	0.892
ガ	0.892
汗で失われがちな	0.892
パイナップル	0.892
▁Dear	0.892
をご	0.891
/	0.891
全国送料無料	0.891
適	0.891
24	0.891
><	0.891
短期間に大量に	0.890
良く	0.889
TO	0.889
壊	0.889
出	0.889
46	0.889
8	0.889
の約	0.889
徳用	0.889
般	0.889
ピュア	0.889
率	0.889
プレーン	0.889
▁そこで	0.889
の栄養価	0.889
かに	0.888
▁(2	0.888
2.2	0.888
類医薬品	0.888
▁40	0.887
付け	0.886
主要栄養成分	0.886
個分	0.886
▁品	0.886
製品	0.886
▁4.4	0.885
μ	0.885
そ	0.885
換算	0.885
フラボノイド	0.885
海	0.884
27	0.884
成分が	0.884
日の	0.883
だけで	0.883
商品	0.883
栄養補助食品	0.883
2000	0.883
ベータカロテン	0.883
十分な	0.883
ふ	0.882
is	0.882
やす	0.882
米糠	0.882
でお召し上がりください	0.882
込	0.882
ている	0.881
▁ナイアシン	0.881
第	0.880
技術	0.880
円	0.880
き	0.880
▁1	0.879
コード	0.879
の成分	0.879
しまいます	0.879
レモン	0.879
!】	0.878
ペ	0.878
増粘多糖類	0.878
≫	0.878
組織	0.878
▁お召し上がり方	0.877
2.5	0.876
筋肉	0.875
ヘム鉄	0.875
エ	0.875
をはじめ	0.874
53	0.874
ご注意	0.874
A	0.873
▁原産国	0.872
乳化剤	0.872
.2	0.871
う	0.871
)、	0.870
を配合しました	0.870
保管してください	0.870
<	0.868
人	0.868
さ	0.867
食	0.867
...	0.867
目安	0.866
ー	0.866
kg	0.865
モード	0.863
判明	0.863
φ	0.863
ご購入前に	0.863
咳	0.863
義務	0.863
直射日光を避けて下さい	0.863
日本人に必要な	0.863
海外製	0.863
貫	0.863
井藤	0.863
を酷使	0.863
嶽	0.863
▁ナキュア	0.863
房	0.863
巨	0.863
成人の体内には体重	0.863
からだのメンテナンス	0.863
宴	0.863
のタイミングにより	0.863
蔗	0.863
品質には全く	0.863
奥行き	0.863
クア	0.863
をお確かめ	0.863
かまずに水などで	0.863
飲みください	0.863
三共	0.863
ようとすると	0.863
物換算	0.863
厄	0.863
來	0.863
):1-3	0.863
藍	0.863
卵由来	0.863
脆	0.863
エクサ	0.863
958	0.863
313	0.863
▁Mei	0.863
万円	0.863
哲	0.863
怪我	0.863
または水	0.863
邵	0.863
ロッ	0.863
ミックストコ	0.863
ご家庭	0.863
使っている	0.863
借	0.863
▁おい	0.863
パワーで理想のカラダづくり	0.863
タイムリ	0.863
祐	0.863
紛	0.863
駅	0.863
/1.4	0.863
▁ショ糖エステル	0.863
。30	0.863
把	0.863
ほうれん	0.863
ご使用の際は	0.863
沙	0.863
▁ミント	0.863
隆	0.863
一覧表	0.863
ラボラトリーズ	0.863
分な	0.863
灘	0.863
▁神戸市	0.863
雫	0.863
▁上がり	0.863
桿	0.863
勿論	0.863
御座います	0.863
っぱく	0.863
オーガ	0.863
お客様は少量	0.863
倖	0.863
令	0.863
窩	0.863
病が治癒したり	0.863
より健康が増	0.863
ピオカ	0.863
後の返品	0.863
自慢の	0.863
量に対する充足率	0.863
毎日の炊飯に	0.863
▁健康サプリメント	0.863
厳しい品質管理の元で製造される	0.863
歓迎	0.863
伴	0.863
云	0.863
通の設備	0.863
括弧	0.863
まずに	0.863
刊	0.863
以上の酵素	0.863
読みください	0.863
水なし	0.863
ストコ	0.863
記述	0.863
ify	0.863
下部に	0.863
錆	0.863
:6.7	0.863
譲	0.863
優勝	0.863
鳩	0.863
▁シトラス	0.863
個おまけ	0.863
栄養素を配合	0.863
量摂取	0.863
脅	0.863
▁持	0.863
竜	0.863
3]	0.863
遺伝	0.863
を強める	0.863
EID	0.863
と若さ	0.863
の中で手軽	0.863
叶	0.863
721-8854	0.863
自然の素材	0.863
胞子	0.863
没	0.863
チタン	0.863
苺	0.863
赤血球を作るの	0.863
に挑戦	0.863
309	0.863
のご都合による返品	0.863
迷	0.863
キウ	0.863
海藻を中心に抽出された	0.863
偉	0.863
のサンプル	0.863
オーガニック原料	0.863
3565	0.863
籍	0.863
牛乳が	0.863
拡	0.863
oods	0.863
ニルメタン	0.863
1176	0.863
ダチアロエ	0.863
に伴	0.863
即	0.863
日分原材料	0.863
050	0.863
縮	0.863
与する	0.863
ホコリや髪の毛が入	0.863
のみを使用した	0.863
体内の脂質を	0.863
中元	0.863
をよく読んで	0.863
三角	0.863
作れます	0.863
に必要です	0.863
ick	0.863
EST	0.863
産国	0.863
輪	0.863
増粘	0.863
円以上お買	0.863
▽	0.863
いたしかねます	0.863
ハイポ	0.863
ージョ	0.863
として注目されています	0.863
回を目安にお召し上がりください	0.863
担当よりメールにて	0.863
▁メン	0.863
17】	0.863
吹き	0.863
一粒に	0.863
119	0.863
ウエイトアップビッグ	0.863
週間以上のお時間をいただく	0.863
と感じる	0.863
▁スタ	0.863
Made	0.863
がす	0.863
仕入先の在庫状況によっては	0.863
を配合して	0.863
▁サンゴ	0.863
体に優しく	0.863
必須ミネラルです	0.863
不足で悩む	0.863
の意味	0.863
唇	0.863
クセがないので水感覚で	0.863
からのエネルギー産生	0.863
まぜてください	0.863
▁具体的な納期に関してましては	0.863
までの目安	0.863
まで約	0.863
パウ	0.863
革	0.863
メーカーより	0.863
ミノ	0.863
を楽しみたい方	0.863
23:59	0.863
NA	0.863
の正常な	0.863
冷暗	0.863
疎	0.863
▁脂溶性ビタミンのひとつ	0.863
ω	0.863
景	0.863
瞬間	0.863
に励む	0.863
家庭	0.863
翼	0.863
クリアな風味なので	0.863
を多く含むのが特徴です	0.863
233	0.863
スタート	0.863
穴	0.863
交換について	0.863
リケン	0.863
キャン	0.863
屈	0.863
ご案内させていただきます	0.863
こちらは取寄商品になります	0.863
じ込	0.863
を入れます	0.863
【2980	0.863
が集中	0.863
7-3	0.863
オレンジ果皮	0.863
遺伝子組み換え大豆が混ざらない	0.863
からだづくりに役立ちます	0.863
▁場合もございます	0.863
高温を避けて保存してください	0.863
゙	0.863
テーム	0.863
▁どんな	0.863
の方はお医者様	0.863
沖	0.863
フィッシュコラーゲンペプチド	0.863
エキスも配合	0.863
諸事情	0.863
/21	0.863
玄	0.863
濾	0.863
観	0.863
暇	0.863
公認	0.863
鬆	0.863
吸収力	0.863
グルコサミンやコンドロイチン	0.863
▁img	0.863
クー	0.863
ピオ	0.863
刈	0.863
労働	0.863
総重量	0.863
焙	0.863
粒分の	0.863
的確	0.863
神田	0.863
確認を行	0.863
you	0.863
▁De	0.863
徳	0.863
関連キーワード	0.863
:3.8	0.863
レスベ	0.863
栄養補助食品のブランド	0.863
控	0.863
管理された	0.863
耕	0.863
▁検索用	0.863
校	0.863
求める	0.863
バーン	0.863
集中力	0.863
体内での利用効率	0.863
妥	0.863
1-5	0.863
の冷たい	0.863
植	0.863
▁NAT	0.863
ライオン	0.863
茂	0.863
クレア	0.863
司	0.863
84.5	0.863
ばや	0.863
まと	0.863
筋肉をつけたい方やがっちりした	0.863
蘇	0.863
上手に利用	0.863
四	0.863
常温にて	0.863
102	0.863
と相性が	0.863
nat	0.863
粉末果汁	0.863
マイト	0.863
繁	0.863
本当たり	0.863
志	0.863
鳴	0.863
とりたい	0.863
希望小売価格	0.863
となっている	0.863
−1	0.863
あめ	0.863
商品区分健康食品	0.863
乳業	0.863
芋	0.863
(28	0.863
4〜6	0.863
タフ	0.863
ントリー	0.863
▁製造発売元	0.863
紅花色素	0.863
IF	0.863
▁普段	0.863
と長く吸収される大豆たんぱく	0.863
明日葉	0.863
6/0.	0.863
メッシュ	0.863
の発育	0.863
果た	0.863
.11	0.863
タイル	0.863
リーズ	0.863
水が	0.863
を守って下さい	0.863
生まれた	0.863
抗酸化	0.863
とうもろこし油	0.863
イモ	0.863
トール	0.863
粒でカルシウム	0.863
▁トレーニング前	0.863
や歯	0.863
▁スポーツウォーター	0.863
日の摂取目安をお守りください	0.863
本物	0.863
量です	0.863
▁開封後はお	0.863
酸化から	0.863
、<	0.863
とりたいフラクトオリゴ糖	0.863
:03-6279-8270	0.863
短距離種目	0.863
▁プリ	0.863
ジャー	0.863
▁540	0.863
お役立てください	0.863
臨	0.863
▁兵庫県	0.863
初めて摂取する	0.863
鍋	0.863
杯程度	0.863
筋肉作り	0.863
▁【10	0.863
▁商品名アサヒ	0.863
の最新	0.863
タブレットで	0.863
お料理に	0.863
コウジ色素	0.863
ROL	0.863
キュア	0.863
ガラシ抽出物	0.863
▁・『	0.863
:042-369-9091&	0.863
濃縮液	0.863
日後	0.863
安全キャップ	0.863
7380	0.863
.32	0.863
▁毎日の健康維持	0.863
箋	0.863
*24	0.863
してから	0.863
体内に余分なエネルギーを	0.863
から一言	0.863
的ヌーボ	0.863
原料を	0.863
蛎	0.863
不可欠です	0.863
健康維持に大切な	0.863
ちみつ	0.863
みくだ	0.863
大豆プロテインの一部は吸収の良い	0.863
を増	0.863
▁9.0	0.863
ご家族皆様	0.863
:600	0.863
▁ma	0.863
にお薦め	0.863
2-8	0.863
ムコ	0.863
米粉	0.863
多糖	0.863
230	0.863
▁栄養補給	0.863
植物由来のビタミン	0.863
回程度	0.863
718	0.863
漢	0.863
Vitamin	0.863
浜	0.863
▁特殊	0.863
みなさま	0.863
1,0	0.863
ロール	0.863
を中止して下さい	0.863
梢	0.863
健康補助食品として	0.863
鉄を	0.863
袋当たり	0.863
伸び	0.863
分別	0.863
みの	0.863
ki	0.863
摂りましょう	0.863
リノ	0.863
型発酵乳酸カルシウム	0.863
まけ	0.863
▁114	0.863
若	0.863
▁小麦	0.863
0.06	0.863
◆1	0.863
モニター	0.863
▁リン酸	0.863
まずにお召し上がりください	0.863
,200	0.863
汗で	0.863
父	0.863
を気	0.863
▁06−	0.863
体調維持	0.863
多数	0.863
▁SS	0.863
をた	0.863
2800	0.863
十分な量	0.863
。90	0.863
:350	0.863
妊娠授乳期	0.863
ホット	0.863
▁268	0.863
カプセル入り	0.863
日本の	0.863
▁ウェイトゲインアドバンス	0.863
似	0.863
吸収も	0.863
ホタテ	0.863
めください	0.863
▁株式会社パワースティション大阪	0.863
▁高温多湿を避け	0.863
は全部	0.863
食用酵母	0.863
の栄養所要量	0.863
カルシ	0.863
▁ヘルス	0.863
ャ	0.863
860	0.863
キャンディー	0.863
ッカー	0.863
答	0.863
遺伝子組	0.863
株式会社佐々木薬品	0.863
▁簡単に	0.863
方もお	0.863
陳代謝	0.863
したもの	0.863
(072-9	0.863
部に	0.863
▁でも	0.863
ちょっと	0.863
▁BC	0.863
摂ることは	0.863
られますので	0.863
生活が不規則	0.863
召しあがりください	0.863
近畿	0.863
粉糖	0.863
シウム	0.863
▁お電話でのお問い合わせ	0.863
▁340	0.863
ON	0.863
中身	0.863
直射日光を避けて保存してください	0.863
ex	0.863
)[	0.863
すばやく吸収される	0.863
/90	0.863
梨	0.863
吸収しやすい	0.863
▁マルチビタミンミネラル	0.863
を原料に	0.863
▁プロテインの王様	0.863
ive	0.863
をは	0.863
コット	0.863
上が	0.863
をたっぷり	0.863
バランスの	0.863
炭酸カルシウムマグネシウム含有物	0.863
の宝	0.863
!!<	0.863
つくられた	0.863
アスリートへ	0.863
クエン酸鉄アンモニウム	0.863
レディ	0.863
持久	0.863
▁ラクトフェリン	0.863
栄養補給に	0.863
回の	0.863
Multi	0.863
拠	0.863
生堂	0.863
マグネシウム含有	0.863
粒を目安に水またはお湯	0.863
高温多湿をさけ	0.863
プロテインが	0.863
微量ミネラル	0.863
欲しい	0.863
美容と健康に	0.863
:1.4	0.863
ソースナチュラルズ	0.863
ガー	0.863
酸塩	0.863
クエン酸第一鉄ナトリウム	0.863
できませんので	0.863
▁10.0	0.863
を逃	0.863
が含まれます	0.863
食事のバランスが気になる方に	0.863
アントシア	0.863
快適に	0.863
バナナ味	0.863
就寝前に	0.863
過剰	0.863
をされる方	0.863
守る	0.863
eta	0.863
問わず	0.863
種類のビタミンを配合	0.863
かわ	0.863
115	0.863
眼	0.863
んな	0.863
●1	0.863
遊離グルタミン	0.863
着色	0.863
などのビタミン	0.863
体質に合わない場合は	0.863
してくれます	0.863
▁0.015	0.863
太陽	0.863
電	0.863
保存料は不使用です	0.863
しますので	0.863
いきいき	0.863
ごくまれに	0.863
植物油	0.863
▁MOST	0.863
体内の約	0.863
▁2008	0.863
奥行	0.863
4.0	0.863
フィッシュオイル	0.863
こちらは	0.863
成長期の	0.863
脂質を	0.863
ソルビ	0.863
タルク	0.863
ケー	0.863
▁福	0.863
▁0.006	0.863
に便利	0.863
デュナリエラ	0.863
にこだわった	0.863
柑橘類	0.863
をおすすめします	0.863
トコ	0.863
タピオカ	0.863
レモン果汁	0.863
▁ノ	0.863
パソコン	0.863
ご愛用	0.863
使いやすい	0.863
プロテインダイエット	0.863
日の摂取量の目安	0.863
が施	0.863
▁【2	0.863
に優	0.863
紅麹	0.863
(12	0.863
ボキシ	0.863
スぺリジン	0.863
:7.5	0.863
判	0.863
-858	0.863
DNA	0.863
1/2	0.863
ron	0.863
カプセルあたり	0.863
可能です	0.863
▁0.27	0.863
上手に	0.863
をプラスしたサプリメントです	0.863
カフェオレ	0.863
筋力アップ	0.863
保存料すべて無添加	0.863
▁貝カルシウム	0.863
フタをしっかり	0.863
魚介類	0.863
▁乳酸菌	0.863
オレ	0.863
原材料の一部に乳成分を含む	0.863
はお受け	0.863
▁ソイプロテイン	0.863
日本人に	0.863
▁ウィ	0.863
ずつ配合	0.863
コー	0.863
のでご了承ください	0.863
にんにく	0.863
で下さい	0.863
▁380	0.863
たんぱく質と	0.863
水なしで	0.863
サポートします	0.863
Se	0.863
アルミ	0.863
画像と	0.863
イワシ	0.863
採取	0.863
、30	0.863
不足しやすい	0.863
×8	0.863
▁毎日の	0.863
負けない	0.863
過剰摂取にならない	0.863
/15	0.863
必要なビタミン	0.863
解	0.863
】:	0.863
に合わない	0.863
▁だから	0.863
グリコーゲン	0.863
ate	0.863
等は	0.863
モロ	0.863
微量栄養素	0.863
のひとつ	0.863
とし	0.863
回に分けて	0.863
摂取することは	0.863
野菜不足	0.863
臓	0.863
唯	0.863
割合	0.863
盛り	0.863
1800	0.863
受け	0.863
の王様	0.863
イヤ	0.863
を除	0.863
ヨーグルト風味	0.863
亜鉛酵母	0.863
:1000	0.863
卵黄	0.863
クト	0.863
ことをおすすめします	0.863
,0	0.863
▁2.7	0.863
相	0.863
レー	0.863
十分	0.863
お湯	0.863
▁5.8	0.863
終了	0.863
)★<	0.863
一度に	0.863
に比べ	0.863
カラメル色素	0.863
お得	0.863
▁ココア風味	0.863
医学	0.863
粒にビタミン	0.863
をバランスよく配合しました	0.863
▁Whey	0.863
(※	0.863
生き	0.863
帯	0.863
不使用	0.863
となりますので	0.863
シェル	0.863
摂取することができます	0.863
腸管でのカルシウムの吸収を促進し	0.863
わず	0.863
爪	0.863
▁乳化剤	0.863
▁女性	0.863
飽き	0.863
88	0.863
満	0.863
コラーゲンペプチド	0.863
出来ます	0.863
算	0.863
0.9	0.863
摂ることができます	0.863
▁0.54	0.863
450	0.863
摂ることは避けてください	0.863
薬を服用中あるいは通院中の方	0.863
グリコ	0.863
単	0.863
ジェ	0.863
lt	0.863
女性の	0.863
を高	0.863
オリジナル	0.863
愛	0.863
することで	0.863
アクティブ	0.863
同梱	0.863
保存方法直射日光	0.863
▁26	0.863
誤	0.863
の原因	0.863
がおすすめです	0.863
食べる	0.863
見える	0.863
筋肉を	0.863
工	0.863
98	0.863
ベース	0.863
川	0.863
菜	0.863
▁高温	0.863
:60	0.863
込み	0.863
必要な	0.863
必須	0.863
することが	0.863
/3	0.863
効率	0.863
名称	0.863
身	0.863
▁アミノ酸	0.863
初	0.863
ダ	0.863
85	0.863
▁V	0.863
さらに	0.863
6	0.861
タブレット	0.860
.7	0.859
日本製	0.858
パントテン酸カルシウム	0.858
度	0.856
感	0.856
ね	0.854
100	0.854
▁L	0.854
▁240	0.853
今	0.852
食分	0.852
粒を目安に	0.852
ドリンク	0.852
★<	0.851
86	0.851
6、	0.851
▁0.8	0.851
▁大豆	0.851
鉄	0.851
アセスルファム	0.851
▁エ	0.850
をサポート	0.850
塩	0.850
もので	0.849
皮	0.849
部分	0.849
代	0.848
包装	0.848
▁バニラ味	0.847
違い	0.847
食物繊維	0.847
ワン	0.847
書	0.847
パック	0.847
%	0.847
サプリメントです	0.847
のプロテインです	0.847
あたり	0.847
▁おすすめ	0.847
しましょう	0.847
させ	0.846
▁用法	0.846
脂肪酸	0.846
制	0.846
タンパク	0.845
13	0.845
大豆油	0.844
▁原材料名	0.844
▁○	0.844
下さい	0.843
フォーミュラ	0.843
すぐ	0.843
厚生労働大臣	0.843
ナチュ	0.843
br	0.842
▁ネイチャーメイドは	0.842
乳製品	0.842
授乳期	0.842
ヨ	0.842
smtb	0.841
で配合	0.841
:0.00	0.841
をバランスよく配合	0.840
▁炭水化物	0.840
ぐ	0.840
ります	0.840
▁28	0.840
▁ミルク	0.840
祝い	0.840
錠	0.839
▁〒	0.839
われている	0.839
同	0.839
0.6	0.839
の手の届かない	0.839
香料	0.839
▁9.3	0.838
▁2.4	0.838
ニ	0.838
頭	0.838
▁結晶セルロース	0.838
フェニルアラニン	0.838
アミノ酸スコア	0.837
1000	0.837
を感じ	0.837
ビューティー	0.837
をご利用	0.837
←	0.837
性が	0.836
なって	0.836
▁3.8	0.836
水またはぬるま湯	0.836
ソ	0.836
▁ウイダー	0.836
神経	0.835
ロード	0.835
前	0.835
味	0.835
パセリ	0.835
ん	0.835
▁美	0.834
とき	0.834
ミン	0.834
20%	0.834
...0.0	0.833
を手軽に	0.833
水で簡単に溶け	0.833
カラダ	0.833
事	0.833
最も	0.833
OFF	0.833
▁アメリカ製	0.832
開封後はチャック	0.832
を溶かしてお飲みください	0.832
配合	0.832
20	0.832
薬剤師	0.832
ペプチド	0.831
▁配送	0.831
湯	0.831
〜8	0.831
▁G	0.831
消化	0.831
カン	0.830
フレーバー	0.830
日に必要な	0.830
&	0.830
お召し上がり方	0.829
保管	0.829
79	0.829
手軽に	0.829
願い	0.829
、100%	0.829
やかに	0.829
作用	0.829
食あたり	0.829
モ	0.829
▁保存方法	0.828
種類のビタミン	0.828
2、	0.828
ヤ	0.828
nbsp	0.828
女性	0.828
仕事	0.827
とにかく	0.827
▁人	0.827
をさけて保存してください	0.827
ブドウ糖	0.827
ネ	0.827
800	0.826
いため	0.826
下記	0.826
ローヤルゼリー	0.826
運動後の筋肉に吸収されやすい	0.826
▁0.19	0.826
0.01	0.826
▁葉酸は	0.826
ビール酵母	0.826
細胞	0.826
▁:	0.826
▁4	0.825
2-3	0.824
吸収率が	0.824
溶けて	0.824
称	0.824
クチナシ	0.824
善	0.824
計量	0.824
恐れ	0.824
配合の	0.824
病	0.824
id	0.824
▁1.5	0.824
以上	0.823
。)	0.823
00	0.823
25	0.822
タイプで	0.822
濃	0.822
ドーム	0.822
420	0.822
方が	0.822
▁ホエイたんぱく	0.822
▁食物繊維	0.822
74	0.821
エル	0.821
わり	0.821
▁ローズヒップ	0.821
に含まれている	0.820
HLS	0.820
渡	0.820
ゼラチンを含む	0.820
▁甘味料	0.820
カラダに	0.820
えば	0.820
11	0.820
甘味料	0.820
ココア味	0.819
エネルギー	0.819
▁高温多湿	0.819
30	0.819
中	0.818
住	0.818
▁Ch	0.818
▁食生活は	0.818
抑	0.818
▁0.14	0.818
まず	0.818
難しい	0.818
▁セレニウム	0.818
★	0.817
14	0.817
近	0.816
▁ナトリウム	0.816
S	0.815
日本食品標準成分表	0.815
役	0.815
シックス	0.815
驚	0.815
多めに	0.815
されているので	0.815
には欠かせない	0.815
ュー	0.815
ボロン	0.815
宅配便	0.815
ご注文	0.815
1、	0.815
たんぱく質	0.814
させていただきます	0.814
防腐剤	0.814
ジュニア	0.814
別途	0.814
植物油脂	0.814
125	0.813
リー	0.813
常温	0.812
関節	0.812
さらにビタミン	0.812
♪<	0.812
豊富に含んでいます	0.812
が一	0.812
を用	0.812
ユニ	0.812
クリアで	0.812
維持	0.812
歳以上	0.812
正	0.812
果糖	0.812
:30	0.812
水に	0.811
K	0.811
▁タンパク質	0.811
験	0.811
▁0.02	0.811
を防ぐ	0.811
溶け	0.811
β	0.811
ti	0.810
76	0.810
左	0.809
わります	0.809
食生活で	0.809
入っています	0.809
ことにより	0.809
マンガン酵母	0.809
▁ウエイトアップ	0.809
普段の食事では	0.809
揃え	0.809
をバランスよく配合した	0.809
グリコール酸	0.809
▁マッスルビルディングタイプ	0.809
▁le	0.809
ことなく	0.809
にお役立てください	0.809
フラクトオリゴ糖	0.809
・・・・	0.809
0.7	0.809
ベスト	0.809
カルシウムは	0.809
カルシウム	0.809
の方に	0.808
プロテインを	0.808
▁健	0.807
▁2.3	0.807
容器	0.807
▁★	0.807
▁プロテイン	0.807
ハ	0.807
物	0.806
を一緒に	0.806
魚類	0.806
▁0〜2	0.806
はありませんが	0.806
ウェイ	0.806
ッチ	0.806
在	0.806
▁○1	0.806
AL	0.806
50%	0.806
原産国日本	0.806
若干	0.806
排泄	0.806
!【	0.806
▁日本	0.805
L	0.805
−	0.805
通院中の方は	0.804
おいしい	0.804
乳糖	0.804
すること	0.804
▁商	0.804
輸入元	0.804
前の	0.804
▁4.8	0.804
アップ	0.803
ア	0.803
をつくる	0.803
▁0.5	0.803
を目安にお召し上がりください	0.802
両	0.801
レビューを書	0.801
-11	0.801
▁す	0.801
▁132	0.801
っとも	0.801
代引き手数料無料	0.801
熟成	0.801
▁370	0.801
お茶	0.801
1.6	0.801
関連商品	0.801
37	0.801
開封	0.801
補給できる	0.801
使用方法	0.801
栄養補助食品です	0.801
デンプン	0.801
、「	0.801
ミネラルを	0.801
リン	0.801
ほど	0.800
約	0.800
〜	0.800
▁270	0.800
症	0.800
α	0.800
の実	0.799
感じ	0.799
により	0.799
:100	0.799
送料無料	0.799
前に	0.798
▁15	0.798
ミ	0.797
22	0.797
×150	0.797
僅	0.797
可能性	0.797
時間で	0.797
▁プロテインを	0.797
▁アップル風味	0.797
-500	0.797
▁お徳用	0.797
腰	0.797
食物アレルギーの心配のある方は	0.797
分に	0.797
310	0.797
ペット	0.797
開栓後は	0.797
をお読みください	0.797
含まれており	0.797
脱脂	0.797
>【10	0.797
1・	0.797
入れて	0.797
!<	0.797
ップ	0.795
プ	0.795
1)	0.795
を配合し	0.795
▁200	0.795
を飲む	0.794
簡単	0.794
口	0.794
180	0.794
▁脂質	0.793
▁29	0.793
油	0.792
☆	0.792
必須アミノ酸を	0.791
タウリン	0.791
やトレーニング	0.791
ぜ	0.791
おいしく飲める	0.791
90%	0.791
▁0.29	0.791
を添加しています	0.791
ホエイプロテインと	0.791
秘密	0.791
アミノバイタル	0.791
遊	0.791
もプラスしました	0.791
▁オススメ	0.791
表面	0.791
充分な	0.791
50708	0.791
を心	0.791
スル	0.791
落	0.791
ッと	0.791
▁2.9	0.791
64	0.791
▁小林製薬株式会社	0.791
】【	0.790
10	0.789
59	0.789
ございますので	0.789
けて	0.789
75	0.789
大豆を含む	0.789
脂質	0.788
森永製菓	0.788
▁お得な	0.788
分子	0.788
°	0.788
グルタミン酸	0.788
当	0.788
なるべく	0.788
0.03	0.787
▁リン	0.787
酸化ケイ素	0.787
▁乳清たんぱく	0.787
バニラ味	0.786
7.5	0.786
特徴	0.786
.8	0.786
天然	0.785
スクラロース	0.785
尾	0.785
包を目安に	0.785
甘み	0.785
溶かしてお	0.785
代引別途送料	0.785
.20	0.785
銀行振込	0.785
ユーグレナ	0.785
エリスリトール	0.785
▁運動後	0.785
(1.0	0.785
レモン果皮	0.785
回を目安に	0.785
タンパク質です	0.785
多く含まれています	0.785
コレステロール	0.785
>『	0.785
を含有する	0.785
洗い	0.785
▁得意分野	0.785
-917	0.785
の定めはありませんが	0.785
女性にとって	0.785
方法で	0.785
ad	0.785
▁トップ	0.785
▁株式会社メディテックラボ	0.785
ゅ	0.785
は体内で	0.785
スポーツをする	0.785
メー	0.785
岩	0.785
自然の	0.785
買い	0.785
冷暗所に	0.785
粒タイプ	0.785
豊	0.785
張	0.785
があり	0.785
▁ジュニア	0.785
▁バニラ	0.785
そこで	0.785
いく	0.785
▁2.5	0.784
>★	0.784
▁商品	0.784
粒中に	0.783
:15	0.783
▁5.7	0.783
-3	0.783
分析値	0.783
1〜3	0.783
動物	0.783
▁グリコ	0.783
ジ	0.783
ミルク	0.783
▁たんぱく質	0.782
1.7	0.782
▁(100	0.782
クロム	0.782
ったり	0.781
/20	0.781
ご使用をお控えください	0.781
にしました	0.781
が補給できます	0.781
〜200	0.781
O	0.780
ケルプ	0.780
多量摂取により疫病が治癒したり	0.780
妊娠を希望	0.780
▁0.0	0.779
2・	0.779
▁2	0.779
12、	0.779
▁マグネシウム	0.778
▁栄養成分	0.777
日間	0.777
の個別審査を受けた	0.777
▁0.85	0.777
▁1660	0.777
解消	0.777
:18	0.777
若葉	0.777
▁ショ糖	0.777
▁東京都中央区京橋	0.777
型コラーゲン	0.777
ZAVAS	0.777
えび	0.777
原材料表示をご参照ください	0.777
甲殻類	0.777
記事項	0.777
イミ	0.777
▁Ma	0.777
を採用しました	0.777
に効果的なクエン酸	0.777
パフ	0.777
▁無添加	0.777
340	0.777
吸収できる	0.777
12:2	0.777
日当たりの摂取量の目安は	0.777
と同じように	0.777
を中	0.777
イオ	0.777
▁激しいトレーニング	0.777
樹	0.777
(2.0	0.777
プラセンタ	0.777
▁保健機能食品	0.777
財	0.777
5.0	0.777
珊瑚	0.777
▁J	0.777
お得な	0.777
炭水化物	0.776
100%	0.776
涼しい	0.775
その場合は	0.775
プロリン	0.775
美味しい	0.775
アル	0.775
720	0.775
錠剤	0.775
▁300	0.774
:0.	0.774
ブラック	0.773
▁n	0.773
ピロリン酸第二鉄	0.773
の確認	0.772
水に溶けやすい	0.772
AT	0.772
記入	0.772
導	0.772
〜1	0.772
39	0.772
をつ	0.772
▁1.	0.772
飲みやすさ	0.771
粉末油脂	0.771
使用	0.771
結果より	0.771
イルドな	0.771
伝	0.771
g	0.771
ことは	0.770
東	0.770
"	0.769
▁輸入者	0.769
▁日本ダグラスラボラトリーズ	0.769
浸透	0.767
ロエ	0.767
▁45604950	0.767
硬化	0.767
りやすい	0.767
アレルギーのある方は	0.767
ご使用をお控え下さい	0.767
708	0.767
OY	0.767
80(	0.767
パワータブ	0.767
業者	0.767
カルシウムとして	0.767
キャップを	0.767
時になります	0.767
クリック	0.767
癖	0.767
ラッピング	0.767
才未満	0.767
伊	0.767
コミ	0.767
働きがあります	0.767
骨格	0.767
味や色	0.767
ホエイタンパク	0.767
の受付時間は	0.767
話	0.767
を加えました	0.767
order	0.767
たんぱく質含有量	0.767
等が	0.767
召しあがり	0.767
▁レビュー	0.767
▁あ	0.767
食事内容や運動量	0.767
と共にお召し上がりください	0.767
引	0.767
黒胡椒	0.767
群を配合	0.767
低い	0.767
▁v	0.767
EL	0.767
3〜5	0.767
信頼	0.767
もございます	0.767
94	0.767
▁μ	0.767
た後	0.767
微	0.767
ブロッコリー	0.767
前後	0.767
,000	0.767
カロテン	0.767
カゼイン	0.767
数	0.767
保管し	0.766
身体	0.766
直射日光を避け	0.765
を含んでいます	0.765
0.3	0.765
:25	0.765
▁5.0	0.765
▁摂取タイミング	0.764
▁カリウム	0.764
M	0.764
補助	0.764
版	0.764
遺伝子組み換え	0.764
グレープフルーツ味	0.764
▁海藻	0.764
金属	0.764
▁通常	0.763
プロテインホエイ	0.763
.4	0.763
▁E	0.763
ナトリウム	0.763
部	0.762
※	0.762
ワンタッチキャップボトル	0.762
サク	0.762
3〜4	0.762
▁摂取方法	0.762
パーフェクト	0.762
をおやめください	0.762
ウィ	0.762
添付	0.762
肝油	0.762
▁03-5	0.762
成長期	0.762
保存料不使用	0.762
アルコール	0.762
ベ	0.762
後に	0.761
▁ト	0.761
基礎	0.760
試し	0.760
調査	0.760
ご連絡	0.760
ほとんど	0.760
500	0.760
よう設計されています	0.760
▁マルチ	0.760
小さな	0.760
におススメ	0.760
の目安	0.760
▁23	0.760
▁600	0.759
付属のスプーンすりきり	0.759
58	0.759
をお	0.759
ニンジン	0.757
長	0.757
9	0.757
栄養成分表示	0.757
35	0.757
袋	0.757
▁【1	0.757
クエン酸	0.756
AXLOAD	0.755
スキ	0.755
開店セール	0.755
212	0.755
、4	0.755
返品不可	0.755
使いやすく	0.755
≫<	0.755
背	0.755
で健康	0.755
マルチビタミンです	0.755
いただきたい	0.755
急便	0.755
ケミカル	0.755
薬を処方されている方	0.755
を吸	0.755
は一切使用していません	0.755
▁澱粉	0.755
0.02	0.755
お召上がり方	0.755
循環	0.755
オレンジ味	0.755
ディー	0.755
担当専門医にご相談の上	0.755
年期	0.755
粒約	0.755
▁ン	0.755
▁開封後はキャップをしっかり	0.755
発表	0.755
昼	0.755
エックス	0.755
の吸収率	0.755
ビート	0.755
粒が目安	0.755
スポーツドリンク感覚	0.755
132	0.755
▁女性に	0.755
から抽出した	0.755
を考え	0.755
した後は	0.755
▁パントテン酸カルシウム	0.755
▁大豆イソフラボン	0.755
....	0.755
▁製造販売元	0.755
89	0.755
理想的な	0.755
シェラック	0.755
▁ス	0.755
78	0.754
▁800	0.754
症状	0.754
▁16	0.754
▁◇	0.754
72	0.754
▁乳糖	0.754
界	0.753
送料形態	0.753
プロテイン系	0.753
を使	0.753
還元	0.753
シェイクすると	0.752
▁の	0.752
充	0.752
オランダ	0.752
毎	0.752
アラビアガム	0.752
スレオニン	0.752
▁13	0.752
その他	0.752
23	0.751
300	0.751
当たり	0.751
RCP	0.751
▁本	0.751
660	0.751
▁1500	0.751
原材料の一部に乳	0.750
▁4.6	0.750
われる	0.750
飲める	0.750
▁エネルギー	0.750
▁9	0.750
▁5	0.749
登録	0.748
を追求した	0.748
、”	0.748
▁アレルギー	0.748
万が一	0.748
輸	0.748
必要量	0.748
ケイ酸	0.748
クラン	0.748
▁イン	0.748
力が	0.748
換	0.748
▁顆粒	0.748
缶	0.748
クチナシ色素	0.748
▁チョコレート風味	0.748
含まれている	0.748
レビューで	0.746
▁健康補助食品	0.746
▁12	0.746
溶けやすく	0.746
■	0.746
魚の	0.745
溶液	0.745
ロップ	0.745
適した	0.745
リック	0.745
月分	0.745
デイリー	0.745
吸収率	0.745
チョコレート	0.745
▁45	0.745
お身体に異常を感じた場合は	0.745
茶	0.745
▁シ	0.745
▁スプーン	0.745
:8	0.745
cm	0.745
▁*	0.744
になっています	0.744
▁備考	0.744
タブレットあたり	0.744
することがあります	0.744
CA	0.744
コーヒー	0.744
蔵	0.744
77	0.744
1.5	0.744
おいしさ	0.743
18	0.742
。※	0.742
ード	0.742
ば	0.742
予めご了承くださいませ	0.742
ール	0.742
他の	0.741
メ	0.740
▁Health	0.740
/12	0.740
コラーゲンを	0.740
モリ	0.740
どこでも	0.740
5,250	0.740
川急便	0.740
還元水飴	0.740
10-	0.740
の為に	0.740
高麗人参	0.740
粒程度を目安に水またはぬるま湯	0.740
プロテインバー	0.740
カプサイシン	0.740
剤です	0.740
〜0.3	0.740
TE	0.740
0.07	0.740
食べ物から	0.740
)】【	0.740
お飲みいただけます	0.740
▁072-296-6355	0.740
ハトムギ	0.740
分離たんぱく	0.740
2-4-16	0.740
からカラダ	0.740
炊き上がり	0.740
▁より	0.740
▁CL	0.740
テート	0.740
▁食用油脂	0.740
×80	0.740
カプセルを	0.740
縦	0.740
炭酸カルシウムマグネシウム	0.740
om	0.740
バン	0.740
胡	0.740
などでお召し上がりください	0.740
サイズの	0.740
たっぷり含有	0.740
滋養強壮	0.740
×9	0.740
57	0.740
任	0.740
ulti	0.740
に自生する	0.740
フィット	0.740
もプラス	0.740
▁ハイ	0.740
場合もあります	0.740
型の	0.740
▁身体作りを基礎から	0.740
マタ	0.740
ショウガ	0.740
モノ	0.740
野菜色素	0.740
無水	0.740
すばやく	0.740
カップ	0.740
来	0.740
ラボが実施した	0.740
野菜油	0.740
▁プロテインホエイ	0.740
持ち	0.740
シスチン	0.740
【	0.739
小	0.739
▁0.2	0.738
または	0.738
といった	0.738
更に	0.738
化	0.737
脱脂粉乳	0.737
骨	0.737
しやすく	0.737
求め	0.737
水や	0.736
▁0.25	0.736
純	0.736
▁/>	0.736
最	0.736
ク	0.736
:200	0.736
体づくり	0.736
日々の	0.735
汗	0.735
カリ	0.735
▁当店	0.735
のうち	0.735
球	0.735
-0	0.735
▁特徴	0.734
▁0242-85-7380	0.734
直射日光を避けて	0.734
▁0.002	0.734
種類のミネラルが	0.734
高品質の	0.734
ありますので	0.734
消耗	0.734
吸収性	0.734
47	0.734
99	0.734
のサプリメントです	0.734
む	0.733
oct	0.733
▁製造国	0.733
高温	0.733
香り	0.732
Y	0.732
自然	0.731
直後に	0.730
(0.3	0.730
減らす	0.730
ビアガム	0.730
▁e	0.730
代引	0.730
オレンジ由来	0.730
くる	0.730
医薬部外品	0.730
▁鉄は	0.730
*60	0.730
177	0.730
ができる	0.730
のホエイ	0.730
▁朝	0.730
就寝	0.730
〜0.5	0.730
不足しがち	0.730
味と	0.730
保存料は使用しておりません	0.730
体内への吸収速度が速く	0.730
ar	0.730
被包材	0.730
▁一	0.730
オリゴ糖	0.729
消化吸収	0.728
疲労	0.728
▁80	0.728
チン	0.728
豊富に	0.728
アスリート	0.727
就寝前	0.727
▁1.17	0.727
パラギン酸	0.727
自社	0.727
キーレイト加工	0.727
▁神	0.727
▁0.08	0.727
な生活	0.727
還元麦芽糖	0.727
補	0.726
かけて	0.726
の原料	0.725
クロレラ	0.725
▁1.3	0.725
余分な	0.724
▁w	0.724
よく溶けます	0.724
摂取できます	0.724
▁カロリー	0.724
がない	0.723
テン	0.723
いたします	0.723
83	0.723
▁開封後は	0.723
フ	0.722
アラニン	0.722
クリーム	0.722
▁90	0.722
▁D	0.721
得	0.721
飲みやすい	0.720
のカルシウム	0.720
217	0.719
の香り	0.719
0.036	0.719
ながります	0.719
ヘム鉄に	0.719
ギャバ	0.719
シス	0.719
1212	0.719
ハロース	0.719
142	0.719
▁健康補助食品として	0.719
dns	0.719
▁カルシウムとマグネシウムを	0.719
のビタミンです	0.719
頂いた場合	0.719
淡	0.719
摂取できるよう	0.719
論	0.719
開封前	0.719
項目	0.719
賀	0.719
▁有効	0.719
を効率的に	0.719
プレミ	0.719
トコフェノール	0.719
野菜嫌い	0.719
ヒレ	0.719
0.007	0.719
:55	0.719
〜60	0.719
アセロラパウダー	0.719
プロピル	0.719
▁ZMA	0.719
▁運動後のリカバリー	0.719
多少の	0.719
スクリュー	0.719
パッケージ及び容量	0.719
▁パ	0.719
桑の葉	0.719
的です	0.719
補えます	0.719
らい	0.719
パワ	0.719
:0.8	0.719
不可欠	0.719
ココがすごい	0.719
365	0.719
ワイン	0.719
ダウン	0.719
メールにて	0.719
日常	0.719
開封後はキャップをしっかり	0.719
以	0.719
がたっぷり	0.719
されますが	0.719
:0120-	0.719
アミノ酸より消化吸収	0.719
集中	0.719
引き締	0.719
バリ	0.719
完全	0.719
別途商品ラベルに記載	0.719
髪の毛	0.719
番号	0.719
を一切	0.719
▁0.76	0.719
シン	0.719
合わせ	0.719
木	0.719
▁3.4	0.719
炭酸	0.719
に応じて調整してください	0.719
『	0.719
▁区分	0.719
タンパク質	0.719
▁\	0.717
▁0.00	0.716
トレーニング直後	0.716
ず	0.716
gm	0.715
セレニウム	0.715
セ	0.715
月	0.715
たった	0.714
肩	0.714
頂けます	0.714
kcal	0.713
原材料をご参照の上	0.713
ヤシ油	0.713
蒸	0.713
エステル	0.713
全品ポイント	0.713
qu	0.713
株式会社フォーモスト	0.713
負担	0.713
さらにおいしく	0.713
▁W	0.713
噛まずに	0.712
を求める	0.711
▁身体を酷使する	0.711
プレーン味	0.711
お使いいただけます	0.711
江崎グリコ	0.711
けます	0.711
ピーチ	0.711
ve	0.711
ダメージ	0.711
からだに	0.711
エンデュランス	0.711
楽ギフ	0.711
湿気の少ない涼しい	0.711
ストレス	0.711
ヶ月	0.711
▁商品名	0.710
▁42	0.710
程度	0.710
やかな	0.709
増粘剤	0.708
いただくことで	0.708
コストパフォーマンス	0.708
▁ココア	0.708
非	0.708
種のビタミン	0.708
種のミネラル	0.707
され	0.707
▁日本製	0.707
体質により	0.706
ウエイトアップ	0.706
▁WPI	0.706
健康で	0.706
▁0.013	0.706
殺菌	0.706
毎日こまめに	0.706
入力	0.706
▁135	0.706
ザー	0.706
なかった	0.706
最高の	0.706
回数	0.706
混ぜる	0.706
紛失	0.706
陸	0.706
倍の	0.706
▁0.11	0.706
:03-5721-8854	0.706
遊離	0.706
71-	0.706
効	0.706
から抽出した天然ビタミン	0.706
祝日	0.706
82	0.706
しても	0.706
▁33	0.706
スプーン	0.705
いただける	0.704
スーパー	0.704
タケ	0.703
決済	0.703
ただ	0.703
やけ	0.703
ガラシ	0.703
▁砂糖	0.703
有	0.703
おります	0.703
朝	0.703
標準	0.703
画像	0.702
部位	0.701
li	0.701
すすめ	0.701
▁直射日光をさけ	0.701
▁0.06	0.701
▁牛乳または水約	0.701
粒を目安に水またはぬるま湯	0.701
体内での利用効率の高い	0.701
召し上がる	0.701
ひと	0.701
商品は	0.701
しかし	0.701
ご使用	0.701
しやすい	0.701
マン	0.701
乳	0.701
富	0.701
)+	0.701
極	0.700
アミノ酸の	0.699
違う	0.699
オルニチン	0.699
条	0.699
を応援する	0.699
【220926】	0.699
凝縮	0.699
ませ	0.699
No	0.698
マラソン	0.698
経	0.698
リン酸カルシウム	0.697
乳幼児の手の届かない	0.697
より算出	0.697
×180	0.697
共	0.697
ルファ	0.697
:0	0.697
‐	0.697
Vitalcares	0.696
添付スプーン	0.696
長く	0.696
フード	0.694
種のビタミンと	0.694
▁グルタミン	0.693
ストロベリー	0.693
める	0.692
.1	0.692
レシ	0.691
箇	0.691
グルタミンを添加しています	0.691
-132	0.691
まとめ買い時の扱い	0.691
ジェノール	0.691
〜0.2	0.691
:450	0.691
セチン	0.691
22.5	0.691
(450	0.691
▁株式会社ビューティージョイ	0.691
飲み口	0.691
降	0.691
欧	0.691
▁No	0.691
Oct	0.691
-59	0.691
定型外郵便での日時指定配送	0.691
▁当店でご注文確認後	0.691
ご注文確認メールを送信致します	0.691
健康のベース	0.691
たんぱく質を補給できます	0.691
肉エキス	0.691
などにおすすめです	0.691
’	0.691
プロピ	0.691
手軽に摂れる	0.691
営業日以内	0.691
:0.27	0.691
ackground	0.691
手軽にビタミン	0.691
を含んだ量です	0.691
過酷	0.691
装	0.691
▁運動前	0.691
たっぷり配合	0.691
orb	0.691
SM	0.691
ぐらい	0.691
▁62	0.691
日約	0.691
ヤー	0.691
膏	0.691
コーラル	0.691
将	0.691
送料を修正確定致し改めて	0.691
発汗	0.691
▁スーパーカルシウム	0.691
年代	0.691
▁バナナ味	0.691
本に	0.691
まさに	0.691
ベニバナ	0.691
をご用意	0.691
外装	0.691
▁添加物として	0.691
美しい	0.691
たんばく質と炭水化物を	0.691
なるものではありません	0.691
かし	0.691
用の	0.691
AR	0.691
きな	0.691
更年期	0.691
春	0.691
ミズ	0.691
(1000%)、	0.691
南米	0.691
源として	0.691
含まれますが	0.691
を受けた	0.691
540	0.691
カルニチンを配合	0.691
▁高濃度	0.691
▁お子様の手の届かない	0.691
セレンやクロム	0.691
ってしまう	0.691
起	0.691
▁03-3	0.691
を加えた	0.691
骨や歯	0.691
1050	0.691
価格を気にせずガンガン飲めるため	0.691
105	0.691
十	0.691
働きを	0.691
を食べ	0.691
▁Calcium	0.691
カプセルを目安に	0.691
役割を果た	0.691
右	0.691
触	0.691
カレー	0.691
▁ホエイプロテインは	0.691
▁注目	0.691
身体作りのゴールデンタイム	0.691
15.0	0.691
▁4560	0.691
歩	0.691
★【	0.691
セン	0.691
早い	0.691
1:0.	0.691
溶かしてお飲み下さい	0.691
お買い	0.691
ホ工イ	0.691
さない	0.691
贅沢	0.691
ケット	0.691
リノレン酸	0.691
:90	0.691
含	0.691
始める若いアスリートは	0.691
▁ポイント	0.691
マー	0.691
▁to	0.691
栽培	0.691
〜10	0.691
レイ	0.691
を使用し	0.691
返品	0.691
を中止し	0.691
▁27	0.691
塩酸塩	0.691
▁36	0.691
含む	0.690
N	0.689
大豆由来	0.689
支持	0.688
量はお好み	0.688
アミノ	0.688
計	0.688
ホエイ	0.687
▁内容成分	0.687
レシチン	0.687
お召し上がり下さい	0.687
カロチン	0.686
&#	0.686
メール便不可	0.686
容量	0.686
▁0.4	0.686
種類のミネラル	0.686
amp	0.685
110	0.685
▁0.7	0.685
900	0.685
▁1.0	0.685
サイズ	0.685
絶	0.685
,500	0.685
▁2.	0.685
▁1.8	0.684
▁独自の	0.683
DU	0.683
貝	0.683
プロテインです	0.683
2〜3	0.683
イソロイシン	0.683
おいしく	0.682
ポ	0.682
▁0.18	0.681
パー	0.681
吸収されやすい	0.681
エン	0.681
台	0.681
▁成人	0.681
▁65	0.681
』	0.681
腸	0.681
▁0.15	0.680
松	0.679
生物	0.679
含有糖類加工食品	0.678
ジュ	0.678
激しい	0.678
0.04	0.678
クリスタル	0.678
弊社	0.678
PM	0.678
▁ル	0.678
底	0.678
運動後に	0.678
コンブ	0.678
口に	0.678
でお届け	0.678
なサプリメントです	0.678
場合がございますが	0.678
なっています	0.678
13.3	0.678
服用してください	0.678
十分な量のプロテインを摂ることが	0.678
!(	0.678
不可欠な	0.678
〜7	0.678
イド	0.678
▁原	0.678
効率よく	0.677
せ	0.677
ッ	0.677
添付スプーンすりきり	0.677
▁大塚製薬株式会社	0.676
〜20	0.676
の速い	0.676
▁デリシャスタイプ	0.676
各種ビタミン	0.676
瞬発	0.676
▁タイプ	0.675
▁製造	0.675
▁f	0.675
溶かして	0.674
▁ドロマイト	0.674
0.00	0.674
予めご了承下さい	0.674
お勧め	0.674
ギ	0.674
・・・・・・・・	0.674
ために	0.674
スピード	0.674
▁電話	0.673
製	0.673
▁1.9	0.673
][	0.673
飲用を中止してください	0.673
を目安	0.671
袋で	0.671
困難	0.671
を用いた	0.671
水泳	0.671
を極	0.671
▁ハード	0.671
まろ	0.671
▁若い	0.671
削ぎ落としたカラダづくりに適した	0.671
薬を服用している方	0.671
好評	0.671
環	0.671
チル	0.671
簡単にキャップが開かないよう	0.671
粘	0.671
▁規格詳細	0.671
ビタミンを	0.671
パッケージは	0.671
。■	0.671
41	0.671
の略で	0.671
カウ	0.671
×15	0.671
候	0.671
▁l	0.671
サメ	0.671
種類の酵素に関わる必須ミネラル	0.671
共役リノール酸	0.671
はこちらです	0.671
ウエハースです	0.671
包み	0.671
コンディションづくり	0.671
運動時	0.671
紙	0.671
安息香酸	0.671
6:1	0.671
ぬるま湯	0.671
キレート	0.671
紅茶	0.671
雑	0.671
ko	0.671
▁とにかく	0.671
分のビタミン	0.671
ーマ	0.671
▁IU	0.671
▁10.5	0.671
ミルク味	0.671
ジャ	0.671
と言われるホエイプロテインを	0.671
レート	0.671
オリ	0.671
海草	0.671
カプセル中	0.671
でください	0.671
700	0.671
▁「	0.671
小麦胚芽	0.670
▁電話番号	0.670
カルニチン	0.670
力を	0.669
▁■	0.669
▁ビール酵母	0.668
ニック	0.668
〜4	0.668
AS	0.668
▁with	0.668
▁2.8	0.668
k	0.668
が速	0.667
含んで	0.667
に関する	0.667
携	0.667
締め	0.667
摂取方法	0.667
内容量	0.666
97	0.666
させた	0.666
5%	0.665
▁商品特徴	0.665
▁主な	0.664
こんな方にお勧め	0.664
回量	0.664
/6	0.664
の補給に	0.664
▁大阪府	0.664
,8	0.664
色が	0.664
3.0	0.664
1〜4	0.664
▁一日量	0.664
atu	0.664
請求	0.664
閉めて	0.664
群が	0.664
高品質かつ適正価格を実現	0.664
2.9	0.664
、7	0.664
160	0.664
以下	0.664
、(	0.664
回	0.663
▁本品は	0.663
栄養価	0.663
分量	0.663
▁トレーニング直後	0.663
▁06-6	0.663
箱	0.663
▁香料	0.662
練習後や食後がおすすめです	0.662
TD	0.662
少	0.661
(100	0.661
山	0.661
を摂取できます	0.660
γ	0.660
粒を	0.660
ec	0.660
▁51	0.660
別売り	0.659
▁イ	0.659
▁イチョウ葉	0.658
大切である	0.658
、12	0.658
魚不足	0.658
前に医師	0.658
人工甘味料	0.658
エー	0.658
▁1.6	0.658
選	0.657
:1.0	0.656
▁ファ	0.656
科学	0.656
向け	0.656
を強	0.656
▁シェイプ	0.656
商品の	0.656
カルシウムを	0.655
U	0.655
まま	0.655
運動後の摂取をおすすめします	0.655
▁3.9	0.655
ニンニク	0.655
非常に	0.654
高たんぱく	0.654
医師にご相談ください	0.654
バリン	0.653
シャンプー	0.653
最高	0.653
の場合	0.652
以内	0.652
含有率	0.652
▁バニラ風味	0.651
1500	0.650
ロイシン	0.650
プラス	0.650
とも呼ば	0.650
×	0.649
▁生産国	0.649
の働きを助け	0.647
池	0.647
ウエイトダウンプロテイン	0.647
磨	0.647
ご使用後	0.647
要望	0.647
票	0.647
を追求しました	0.647
理想的なバランス	0.647
/180	0.647
▁品質保持	0.647
IUM	0.647
:0.04	0.647
日頃	0.647
gin	0.647
混ざ	0.647
各種ミネラル	0.647
所に保存して下さい	0.647
侵	0.647
の栄養補助食品	0.647
に励むアスリートにとって	0.647
促進し	0.647
人気に	0.647
用食品	0.647
に必要な栄養素が	0.647
肺	0.647
トコントロール	0.647
はカボチャやナッツ類	0.647
不快	0.647
守りください	0.647
752	0.647
種類のビタミンが	0.647
▁スカイフード	0.647
召し上がれる	0.647
休み	0.647
▁低価格	0.647
▁神奈川県	0.647
0120-5	0.647
▁元	0.647
運動の	0.647
天然物	0.647
燕	0.647
time	0.647
:2.9	0.647
すばや	0.647
メーカー欠品	0.647
杜	0.647
バランスよく含まれています	0.647
煎	0.647
板	0.647
ep	0.647
カリスエット	0.647
をしっかり配合	0.647
させました	0.647
まるごと	0.647
ノース	0.647
▁お取り寄せ	0.647
粒中にビタミン	0.647
モンド	0.647
▁体内で	0.647
含まれております	0.647
させて頂いております	0.647
衰	0.647
ストロベリー味	0.647
んに	0.647
されている方	0.647
吸収できます	0.647
が不規則	0.647
輸入	0.647
▁ストロベリー味	0.647
たん	0.647
羅	0.647
量はお好みにより調整してください	0.647
をお安くカンタンにしました	0.647
クノ	0.647
ヂ	0.647
145	0.647
7.8	0.647
▁おいしい	0.647
▁Chro	0.647
変更になる場合がございます	0.647
ズシェイカー	0.647
100%、	0.647
穏	0.647
かん	0.647
が一度に	0.647
パルミテート	0.647
122	0.647
税込み	0.647
塗	0.647
外観	0.647
▁0.036	0.647
に在庫がない	0.647
座	0.647
220	0.647
と同様に	0.647
のように	0.647
0.54	0.647
酵母エキス	0.647
シーン	0.647
運ぶ	0.647
od	0.647
焼成カルシウム	0.647
グリコール	0.647
塩分	0.647
爽やかな	0.647
ダマ	0.647
▁46	0.647
種類のビタミンを	0.647
▁0.003	0.647
溶けやすくなります	0.647
ISO	0.647
▁マルマン	0.647
▁乳幼児	0.647
:180	0.647
次の場合	0.647
ベーシック	0.647
原料として	0.647
268	0.647
を提供	0.647
1】	0.647
キャ	0.647
▁7.2	0.647
多湿を避けて	0.647
ナス	0.647
分泌	0.647
締めて	0.647
ウェイト	0.647
ペプチド状態	0.647
▁⇒	0.647
のベストコストパフォーマンス商品	0.647
▁総	0.647
湿気	0.647
北	0.647
▁0.80	0.647
不足分を補える	0.647
▁0〜0.1	0.647
チュアブルタイプ	0.647
グルタミンペプチド	0.647
▁マルトデキストリン	0.647
▁O	0.647
系	0.647
時	0.647
▁8	0.647
▁STYLE	0.646
よく	0.646
抽出物	0.646
摂取量	0.644
0.8	0.644
▁6.0	0.644
レビュー	0.642
81	0.642
激安祭	0.642
ケルセチン	0.642
ミネラルを使用しています	0.642
130	0.642
独自の	0.641
をコップ	0.641
ーム	0.641
杯の水	0.641
パウダー	0.640
摂取ポイントに合わせて	0.640
注	0.640
および	0.640
オイスター	0.639
効率的な	0.639
火	0.638
を考える	0.638
わか	0.638
の主成分	0.638
(15	0.638
ですから	0.638
63	0.638
VB	0.638
デザイン	0.638
方法	0.637
日に必要とする	0.637
▁0.1	0.637
マイクロ	0.636
福袋	0.636
クリ	0.636
を豊富に含む	0.636
ショウ	0.636
ドライ	0.636
ショ	0.636
代わり	0.636
▁たんぱく原料として吸収の良い	0.636
滴	0.636
米ぬか	0.636
タブレットです	0.636
数量	0.636
▁プロフェッショナルタイプ	0.636
がちな方	0.636
に加え	0.636
▁(3	0.636
牛乳から	0.636
後の	0.635
大さじ	0.635
サプリメントとして	0.635
アスリートにとって	0.635
▁0.3	0.633
センター	0.633
▁81	0.633
の量を	0.633
疲	0.633
▁グリセリン脂肪酸エステル	0.633
▁072-	0.633
お買い得	0.633
▁14.1	0.633
夕	0.633
海藻類不足	0.633
が可能です	0.633
をご確認の上	0.633
ローラ	0.632
,	0.632
▁原材料	0.632
100(	0.632
中に	0.631
多湿	0.631
にお勧め	0.631
クーポン	0.631
商品名	0.630
切	0.630
熱	0.630
高温多湿を避けて保存してください	0.629
×3	0.629
Mg	0.629
▁11	0.628
虚弱体質	0.628
糖類	0.628
カーポ	0.628
栄養素等	0.628
競技の	0.628
しり	0.628
の吸収を助ける	0.628
水に溶け	0.628
▁ストレス	0.628
体質に合わない	0.628
に欠かせない栄養素です	0.628
この商品	0.628
複合体	0.628
の日	0.628
をご確認	0.628
を感じている	0.628
▁【5250	0.628
推奨品目	0.628
▁4.7	0.628
ニコチン酸アミド	0.628
合成着色料	0.628
お料理	0.628
ズム	0.628
加齢とともに	0.628
カリフォルニア	0.628
冷暗所に保存してください	0.628
スタンダード	0.628
貯	0.628
食事調査	0.628
リナ	0.628
サイクル	0.628
場	0.628
1.4	0.628
タマ	0.628
販売者	0.628
▁『	0.627
▁3.3	0.626
本日最大ポイント	0.626
▁700	0.626
グルタミン	0.625
中央区	0.625
味で	0.625
3、	0.625
保存して下さい	0.625
0	0.624
結晶	0.624
切り	0.624
人参	0.624
(2.5	0.623
なんです	0.623
を考えて	0.623
伝統	0.623
2.4	0.623
バー	0.623
豊富な	0.622
の吸収	0.622
13_	0.622
リンゴ酸	0.621
徹底	0.621
▁0.01	0.621
▁直射日光	0.621
P	0.621
▁着色料	0.620
円以上	0.620
ージ	0.620
▁ストロベリー風味	0.620
▁ご使用方法	0.620
異常	0.620
所に保管してください	0.619
こだわり	0.619
れます	0.619
▁3	0.619
間食	0.618
時間	0.618
I	0.618
73	0.618
個セット	0.617
▁7	0.617
を配合	0.617
人気のディアナチュラシリーズ	0.617
▁保管及び取扱い上の注意	0.617
媒	0.617
▁エスエス	0.617
匹	0.617
を増や	0.617
TY	0.617
▁ゴマ	0.617
▁根昆布	0.617
発送が	0.617
103	0.617
アンモ	0.617
:0.7	0.617
▁47	0.617
▁食事から摂ることは	0.617
精製魚油	0.617
の補給と同時に	0.617
カロ	0.617
テトン酸	0.617
遅	0.617
おまけ	0.617
前に必ず	0.617
/80	0.617
の補給ができます	0.617
▁酸味料	0.617
蓋をしっかりと	0.617
/300	0.617
お好きな	0.617
お願いします	0.617
プロポリス	0.617
感想	0.617
タボ	0.617
何卒	0.617
3.4	0.617
遺伝子組換え	0.617
)150	0.617
午	0.617
体力低下	0.617
客様	0.617
波	0.617
の環境	0.617
運動前	0.617
クル	0.617
特性	0.617
(500	0.617
用意	0.617
抜群の	0.617
食べやすい	0.617
肉体疲労	0.617
ベタイン	0.617
ことができる	0.617
燃焼	0.617
Inc	0.617
スキームが	0.617
▁5.1	0.617
ゴールデンタイム	0.617
ッパー	0.617
製造者	0.617
朝食	0.617
甘さ	0.617
▁4.0	0.617
微粒二酸化ケイ素	0.617
▁有限会社	0.617
0.	0.616
の商品	0.615
×60	0.615
×6	0.614
製法により	0.614
オススメです	0.613
摂取タイミング	0.613
ディ	0.613
st	0.613
穀物	0.613
パーム	0.613
発育	0.613
杯	0.612
-21	0.611
43	0.611
▁成分	0.611
替	0.610
ページ	0.610
を強化	0.610
単位	0.610
ブ	0.609
09	0.609
窓口	0.609
粒です	0.609
を引き	0.609
スティ	0.609
カラダの	0.609
▁使用方法	0.609
シェ	0.609
続ける	0.609
▁運動	0.609
▁受付時間	0.609
▁ホエイ	0.609
イ	0.609
34	0.609
脂肪	0.608
素材	0.608
▁製品	0.608
時や	0.607
Arecare	0.607
▁国内	0.607
▁0.9	0.607
以外	0.607
代引き	0.607
選び	0.607
第一	0.607
J	0.606
販売元	0.606
▁0.	0.605
致します	0.605
にな	0.605
ココア	0.605
▁マンゴー	0.604
を多く含み	0.604
逃	0.604
兼	0.604
毎日の健康と美容	0.604
歯や骨の健康	0.604
ET	0.604
不要	0.604
食生活の	0.604
品切れ	0.604
キビ	0.604
724	0.604
どもの成長に必要なカルシウムと鉄	0.604
コスメ	0.604
カカオ	0.604
粗	0.604
ノイド	0.604
▁ジンク	0.604
▁フードアンドヘルスケア株式会社	0.604
▁0.001	0.604
▁オー	0.604
種配合	0.604
8.0	0.604
汚れ	0.604
可能性があります	0.604
カキ	0.604
シル	0.604
▁0.018	0.604
摂れます	0.604
が生	0.604
止	0.604
体質	0.604
T	0.603
MEG	0.603
に相談	0.603
たんぱく質を	0.603
ち	0.603
エナジー	0.602
オメガ	0.602
たんぱく質の	0.601
マルトデキストリン	0.601
平	0.600
ところに	0.600
所で	0.600
プロテインの王様	0.600
低温	0.600
▁有機	0.600
大きな	0.600
:40	0.600
粒当たり	0.600
▁3.5	0.599
異なります	0.598
属	0.598
】【1	0.598
効率のよい	0.598
170	0.598
薬品株式会社	0.598
毎日続けて	0.598
グレープ風味	0.598
に運ぶ	0.598
いつでもどこでも	0.598
当社分析値	0.598
受付時間	0.598
吸収が	0.598
相性の良い	0.598
早く	0.598
く場合がございます	0.598
参考	0.598
イチゴ	0.598
乳清たんぱく	0.597
。&	0.596
させて頂きます	0.596
最も重要な	0.595
祝日を除く	0.595
:1.1	0.595
が高	0.594
正規	0.593
化物	0.593
General	0.593
したサプリメントです	0.593
齢	0.593
使用する	0.593
▁376	0.593
直射日光及び	0.593
▁商品の	0.593
中国	0.593
キュー	0.593
6.6	0.593
反	0.593
受注	0.593
大切な栄養素	0.593
前にお	0.593
コシ	0.593
2012	0.593
▁480	0.593
チョコ風味	0.593
▁160	0.593
380	0.593
▁た	0.593
にした	0.593
うえ	0.593
税込	0.593
>※	0.592
チェリー	0.591
炭酸カルシウム	0.591
:0120-858-660	0.591
好み	0.591
汁	0.591
なら送料	0.591
スッキリした飲み口	0.591
薬局	0.591
激しい運動	0.591
▁栄養補給として	0.591
▁同時に	0.589
も配合しています	0.589
など筋肉の成長	0.589
▁エーエフシー	0.589
のたんぱく質	0.589
強化	0.588
ペン	0.587
のこ	0.587
デリ	0.587
に重要なアミノ酸を多く含み	0.587
5250	0.587
350	0.587
▁コップ	0.586
42	0.586
▁010-1-408	0.586
-573-0733	0.586
】10	0.586
62	0.586
害	0.586
フル	0.585
シェイカー	0.585
蓋	0.585
に応じて	0.585
▁バナナ	0.585
やか	0.585
ピー	0.584
専用	0.584
筋肉の	0.584
サンゴカルシウム	0.584
ゆ	0.584
〈	0.583
〉	0.583
補給することができます	0.583
分解	0.582
▁こ	0.582
二	0.582
直射日光	0.582
▁パワープロテイン	0.581
ミルク風味	0.581
ヒスチジン	0.580
チョコレート風味	0.580
沖縄	0.580
アルギニン	0.579
無水物換算値	0.578
4-8002	0.575
処理を	0.575
スペリジン	0.575
成長に必要な	0.575
ハク	0.575
お時間を頂	0.575
吹	0.575
カリフォルニア州	0.575
日の目安量を守って下さい	0.575
ミヘルシーフーズ	0.575
レモン香料	0.575
0.30	0.575
やめください	0.575
ф	0.575
晴	0.575
VIT	0.575
トコフェロールを配合しました	0.575
手軽に栄養補給	0.575
と言われて	0.575
給	0.575
ッシャー	0.575
あす	0.575
のと同じように	0.575
)●	0.575
ようお願い致します	0.575
0.028	0.575
ツキ	0.575
細胞の健康維持を助ける	0.575
2-4	0.575
ミナ	0.575
歳暮	0.575
府	0.575
水でもおいしい	0.575
フェニル	0.575
ご確認	0.575
OLA	0.575
己	0.575
がっちり	0.575
週間程度	0.575
湾	0.575
甜	0.575
▁兵庫県神戸市中央区	0.575
▁そのまま	0.575
ピル	0.575
ほんのり	0.575
クチ	0.575
:110	0.575
先が	0.575
▁胃に優しい	0.575
スモ	0.575
ヒハツ	0.575
▁**	0.575
1212】<	0.575
就	0.575
8-9	0.575
専門医	0.575
祭	0.575
の吸収を促	0.575
第二鉄	0.575
gX	0.575
グァバ	0.575
カルシウムの吸収をサポートする	0.575
シェー	0.575
西洋	0.575
通信	0.575
硬	0.575
潔	0.575
▁ヘスペリジン	0.575
が目安	0.575
▁リケン	0.575
読み	0.575
が偏りがちな方に	0.575
いただいて	0.575
利便性	0.575
小中学生におすすめ	0.575
でありながら	0.575
適量を	0.575
時間差	0.575
補いましょう	0.575
▁・11	0.575
▁練習後や食後がおすすめです	0.575
倍のビタミン	0.575
▁本商品は	0.575
チン酸	0.575
104	0.575
▁牡蠣	0.575
蓄え	0.575
:0.26	0.575
テーピング	0.575
乱	0.575
▁カフェイン	0.575
従来以上のおいしさと溶けやすさ	0.575
性疾患	0.575
▁皇漢堂	0.575
をご確認下さい	0.575
グルタミンを多く含みます	0.575
滞	0.575
かえ	0.575
を高めた	0.575
デー	0.575
/14	0.575
158	0.575
独特	0.575
▁減量	0.575
でない	0.575
体質に合わない方は	0.575
送料込	0.575
からだのメンテナンスに役立ちます	0.575
シリーズの	0.575
爽快	0.575
330	0.575
バラの実	0.575
堆	0.575
元気で	0.575
セレンやクロムなどのミネラル	0.575
所に保存してください	0.575
冷暗所で	0.575
や粘膜	0.575
成分表	0.575
sPlus	0.575
併	0.575
に成功	0.575
ことをお勧めします	0.575
ミキ	0.575
則	0.575
体内への吸収	0.575
横	0.575
水分補給と同時に	0.575
▁4972174	0.575
の中から	0.575
専門家	0.575
袋を目安に	0.575
由来のビタミン	0.575
ヒドロキシ	0.575
/50	0.575
宝	0.575
▁説明	0.575
カルシウムの栄養機能食品です	0.575
ご使用前にお医者様	0.575
ありが	0.575
を防ぎ	0.575
3.8	0.575
乳たんぱく	0.575
の天然	0.575
ども	0.575
に在庫がない場合は	0.575
ミネラル含有酵母	0.575
牛乳約	0.575
4.2	0.575
宅配	0.575
積	0.575
^	0.575
分以内	0.575
マル	0.575
▁230	0.575
:0.4	0.575
から抽出された	0.575
×1	0.575
1-2	0.575
女性にうれしい	0.575
▁トレーニングで	0.575
フォ	0.575
見え	0.575
、6	0.575
規	0.575
weider	0.575
(1.2	0.575
含有した	0.575
とご相談ください	0.575
-10	0.575
コーン	0.575
▁主成分	0.575
パワープロダクション	0.575
杯半	0.575
▁文責	0.575
▁健康サプリ	0.575
土日	0.575
が出	0.575
rotein	0.575
ウエイト	0.575
ヴ	0.575
▁06-69	0.575
、10	0.575
高級	0.575
本入	0.575
に比べて	0.575
ところに保管してください	0.575
itamin	0.575
0.4	0.575
魚油	0.575
▁ビ	0.575
アスリートが	0.575
細	0.575
▁140	0.575
しか	0.575
▁5.5	0.575
▁g	0.575
根	0.572
を実現	0.572
ニュートリション	0.570
情報	0.570
食間	0.570
▁ホエイプロテイン	0.569
再	0.568
密	0.568
▁□	0.568
JAN	0.567
ノン	0.567
比率	0.567
入れる	0.567
を補給	0.567
オキシ	0.566
端	0.566
摂取する時	0.566
▁32	0.566
満足	0.566
活力	0.566
医師または	0.566
常温で	0.566
小児の手の届かない	0.566
豆	0.565
失われる	0.564
得な	0.564
かまずに水などでお飲み下さい	0.564
までに	0.564
精製	0.564
混ぜて	0.564
飲用	0.563
ly	0.563
アスリートに	0.562
コエンザイム	0.562
:0.0	0.562
乳由来	0.562
含みます	0.562
×7	0.561
働きをする	0.561
ミルクティー風味	0.561
▁水でおいしく飲める	0.561
含み	0.561
吸収されます	0.561
体を	0.561
コク	0.561
味噌汁	0.561
ルギ	0.561
を目安に	0.561
乳清	0.561
▁110	0.560
ドロマイト	0.560
場合がございます	0.559
▁北海道	0.559
,600	0.559
同時	0.559
私	0.559
徐々に	0.559
広	0.559
▁に	0.559
純度の高い	0.559
病中病	0.559
貧血	0.558
水で	0.558
よ	0.558
の栄養機能食品です	0.558
たんぱく原料として	0.558
花粉	0.557
パウダーです	0.557
▁コエンザイム	0.556
石	0.556
強く	0.556
負	0.555
スイ	0.555
繊維	0.555
筋肉の原料プロテインを	0.555
純粋	0.555
レイト	0.555
▁ご理解の程よろしくお願いします	0.555
▁当商品は常にお客様に	0.555
入荷をお待ち	0.555
bs	0.555
▁という弊店の方針により	0.555
1-3	0.555
印	0.555
▁ご注文をキャンセル	0.555
申し	0.555
女性の健康	0.555
エネルギーが枯渇したカラダには	0.555
新しい商品を提供したい	0.555
▁取り寄せ商品となっております	0.555
閉め	0.555
▁その他	0.555
場合があります	0.554
ホエイたんぱく	0.554
ロン	0.553
美容と健康	0.552
豚由来	0.552
▁6.6	0.552
医師にご相談下さい	0.552
られた	0.552
ジュース	0.552
異	0.551
ヘルス	0.551
のし	0.551
さわやかな	0.551
レン	0.551
v	0.551
効能	0.551
州	0.551
▁1.1	0.550
由	0.549
sets	0.549
リポ	0.549
株式会社メディスンプラス	0.549
アミノ酸である	0.549
運動中	0.549
発見	0.549
はそのままに	0.549
ふり	0.549
▁パッケージデザイン	0.549
エチル	0.549
が主成分	0.549
ミネ	0.549
▁★【	0.549
運動によって	0.549
CoQ	0.549
に混ぜて	0.549
旧	0.549
傷	0.549
などのプロテイン	0.549
製法	0.549
▁販売者	0.548
W	0.548
各	0.547
柑橘	0.547
アスリート向け	0.546
後は	0.546
▁サンゴカルシウム	0.545
をプラスしました	0.545
多忙	0.545
水に溶けやすく	0.545
想	0.545
準	0.545
腐	0.545
MM	0.545
IN	0.545
▁明治製菓株式会社	0.545
キン	0.544
日程でのお届けとなります	0.543
競技	0.543
▁配達予定日	0.543
×12	0.543
フラワー	0.543
▁PRO	0.543
▁目安量	0.543
牛乳に	0.543
ver	0.543
溶か	0.543
BCAA	0.543
ml	0.542
ct	0.542
el	0.542
あらゆる	0.542
▁3.	0.541
に近	0.541
突	0.539
グス	0.539
仕上げ	0.539
adding	0.539
アルファルファ抽出物	0.539
▁()	0.539
411	0.539
禁	0.539
バル	0.539
などにより	0.539
ロピカル	0.539
!)	0.539
発熱	0.539
合物	0.539
レード	0.539
ケイ	0.539
すぐれない	0.539
ネイチャーメイドは	0.539
ヘマトコッカス藻	0.539
しなやかでタフなカラダづくり	0.539
標準栄養成分	0.539
▁アイ	0.539
を抑える	0.539
:0.1	0.539
は一切使用しておりません	0.539
水でもおいしく召し上がれます	0.539
とうございます	0.539
吸収性が	0.539
ときは	0.539
▁ジョイント	0.539
ときの	0.539
)0	0.539
コンセプト	0.539
適正	0.539
カンタン	0.539
カロリーオーバーになりがち	0.539
サプリメントはこちら	0.539
10000	0.539
填	0.539
奥	0.539
Oceania	0.539
CAN	0.539
[1/2/3]	0.539
▁03-3294-6008	0.539
日本保健研究所	0.539
>◆	0.539
◇	0.539
▁USA	0.539
▁EU	0.539
▁標準	0.539
内容等は予告なく変更	0.539
は使用していません	0.539
【3	0.539
鉛	0.539
RUS	0.539
世代	0.539
がなく	0.539
▁Rate	0.539
タンパク質を	0.539
▁グレープフルーツ	0.539
▁Asia	0.539
荷	0.539
アップル風味	0.539
早	0.539
にうれしい	0.539
12.5	0.539
副菜を基本に食事のバランスを	0.539
休	0.539
リアル	0.539
ガス	0.539
しま	0.539
防腐剤などは一切使用していません	0.539
発送後	0.539
▁アスリートの	0.539
付属	0.539
92	0.539
システム	0.539
▁総炭水化物	0.539
▁主要栄養成分	0.538
▁4.3	0.536
参照	0.536
:9	0.535
糖	0.535
▁ベータカロチン	0.534
醗酵	0.534
重要アミノ酸	0.534
カルシウムです	0.534
あなたの	0.534
占め	0.534
失われやすいビタミン	0.534
葉エキス	0.534
時間が	0.534
含んだ	0.534
使用を中止し	0.534
粒あたりの含有量	0.534
列	0.534
必須アミノ酸をすべて	0.534
▁>	0.534
際	0.533
セット	0.533
Q	0.531
まれた	0.531
くと	0.531
▁EX	0.531
。」	0.531
カ月	0.531
される場合がございます	0.531
多量摂取により	0.531
宮	0.531
▁ご使用上の注意	0.531
打	0.531
食事のバランス	0.531
205	0.531
溶かしてお飲みください	0.531
ジェル	0.531
久	0.531
もっとも	0.531
▁も	0.531
女性にも	0.531
大塚製薬株式会社	0.531
健康的な	0.531
水または	0.531
スト	0.530
ザ	0.528
▁ワ	0.527
うなぎ	0.527
実に	0.527
分別管理された	0.527
3〜6	0.527
商品情報	0.527
▁0.75	0.527
te	0.527
▁78	0.527
ロー	0.526
ティー	0.526
の注意事項	0.525
向上	0.525
グルタミンを	0.525
▁34	0.525
ヘルシーワン	0.525
ストレングス	0.525
6)	0.525
ホエイプロテインを	0.524
を使用した	0.524
4〜7	0.524
選手	0.524
出来	0.524
)。	0.524
食物を摂るのと同じようにビタミン	0.523
家族	0.523
アイ	0.523
天然なので	0.523
鉄分を	0.523
ミネラルを摂取することができます	0.523
すりきり	0.522
。100%	0.522
原産国	0.520
風味	0.519
クエ	0.518
海藻セルロース	0.518
ゼビオ株式会社	0.518
:65	0.518
レーズン	0.518
問い	0.518
規則	0.518
の商品は	0.518
▁カシス	0.518
自慢	0.518
(024-938-1111)	0.518
ウェルネス	0.518
幅に	0.518
▁SP	0.518
焼き	0.518
長官	0.518
植物油などに豊富に含まれますが	0.518
音	0.518
▁03	0.518
エントリー	0.518
▁0〜0.01	0.518
小粒の	0.518
.98	0.518
(72	0.518
分解モードにある	0.518
土日祝	0.518
充分に摂取しようとすると	0.518
まれに発疹	0.518
役割を	0.518
▁身体に必要な	0.518
お一人様	0.518
粒あたりの成分	0.518
トレーニングや運動	0.518
リカバリーモードへ	0.518
名です	0.518
掛かります	0.518
クレジット	0.518
溶けるので	0.518
アンド	0.518
(600	0.518
スッキリした	0.518
守り	0.518
運動により	0.518
の食品規格に合う	0.518
▁アスリート向け	0.518
が付着	0.518
ily	0.518
恵み	0.518
株式会社フタバ薬局	0.518
US	0.518
こませないガルシニアを配合	0.518
パラチノース	0.518
\\	0.518
4987035	0.518
に付属のスプーン	0.518
:27	0.518
エネ	0.518
/451141340	0.518
試供品	0.518
コメント	0.518
控え下さい	0.518
込んだ	0.518
歯や骨	0.518
嘔	0.518
:03-5724-3767	0.518
体液	0.518
▁t	0.518
盛	0.518
チオン	0.518
のし宛書	0.518
}	0.518
.5%	0.518
メイク	0.518
ジュー	0.518
スティックタイプ	0.518
メール便発送	0.518
サイ	0.518
-60	0.518
2】	0.518
されない	0.518
▁375	0.518
▁サフラワー油	0.518
すみ	0.518
▁(0	0.518
本格	0.518
でおいしく	0.518
無果汁	0.518
≒	0.518
所に保管して下さい	0.518
満たす	0.518
受	0.518
:00〜17:00(	0.518
やつ	0.518
すり	0.518
お願い致します	0.518
ストラ	0.518
▁カル	0.518
▁...	0.518
過ぎ	0.518
me	0.518
87	0.515
グルコサミン	0.515
を含有	0.514
▁in	0.514
クロス	0.513
牛乳など	0.513
して下さい	0.513
が原料	0.513
ホ	0.513
コハク酸	0.512
▁食後	0.511
のご	0.511
大根	0.511
▁スポーツ	0.511
▁750	0.510
場合もございますので	0.510
▁4.	0.510
▁190	0.510
飲み方	0.510
▁ダブル	0.510
蜜	0.510
スープ	0.510
グラス	0.510
個	0.510
袋入	0.509
粉末タイプ	0.509
チャージ	0.509
草	0.508
もろ	0.508
▁EMS	0.508
乳成分	0.508
▁37	0.508
算出	0.508
を心がけ	0.508
かまずに	0.508
▁申し訳ございませんが	0.508
を補給できます	0.508
とプロテインを	0.508
のひとつで	0.508
正規品	0.508
1%	0.508
44	0.507
】(	0.507
GMP	0.507
ケース	0.506
..	0.506
ラボ	0.506
北海道	0.505
▁コ	0.505
分岐鎖アミノ酸	0.505
服用	0.505
活性	0.504
健康をサポート	0.503
/10	0.503
なるべく早く	0.503
サトウキビ	0.503
当量	0.503
デン	0.503
宅	0.503
と一緒にお	0.503
漢方	0.503
指定は	0.503
▁170	0.503
〜4.20	0.503
次の諸症状の緩和	0.503
変更となる場合があります	0.503
季節の変わり目	0.503
のおいしさ	0.503
▁いつでもどこでも	0.503
商品リニューアル等により	0.503
持ち運び	0.503
是非	0.503
▁月	0.503
▁050-5536-7827	0.503
株式会社ビューティーサイエンス	0.503
飲み物に	0.503
限に	0.501
スティック	0.501
大豆たんぱく	0.500
▁メーカー名	0.500
良質	0.500
難しく	0.500
ストイック	0.500
クティブ	0.500
お腹が	0.500
▁690	0.500
52	0.500
誕生	0.500
を豊富に含み	0.500
量に	0.500
食品アレルギー	0.500
▁0.16	0.500
粒状	0.500
すぐに	0.500
お好み	0.499
02	0.498
実際のお色	0.498
アイテム	0.498
▁アメリカ合衆国	0.498
◆<	0.497
▁F	0.497
しないでください	0.497
同時に	0.496
▁ナウフーズ社製	0.493
ザイ	0.493
▁保存	0.493
水なしでも	0.493
食生活が気になる方	0.493
▁錠剤	0.493
商品スペック	0.493
:0120-560-16	0.493
身体作りを基礎から	0.493
▁メーカーコメント	0.493
苦手	0.493
ことがございます	0.493
本体	0.493
この製品	0.493
ココナッツ	0.493
水に溶け易くなりました	0.493
ローディング	0.493
▁商品仕様	0.493
401	0.493
普段の食事	0.493
リン酸エステル	0.493
釜	0.493
品です	0.493
限界	0.493
2165	0.493
▁高温多湿の場所	0.493
日にち	0.493
255	0.493
ご注文いただ	0.493
飯	0.493
コンド	0.493
。"	0.493
ミリー	0.493
運動直後	0.493
処	0.493
従来よりプロテイン粉末が牛乳や	0.493
supplement	0.493
水と	0.493
グリセリ	0.493
がよい	0.493
MC	0.493
▁レシチン	0.493
を気づかう	0.493
メーカー在庫	0.493
化合物	0.493
ファチ	0.493
ABA	0.493
SO	0.493
摂取すると	0.493
日本食品	0.493
〜30	0.493
をはじめとする	0.493
リス	0.493
夏	0.493
予告なく変更	0.493
株式会社健康体力研究所	0.493
身体作りに	0.493
所に	0.493
重量	0.493
%(	0.493
送料	0.493
食後	0.491
▁(4	0.490
ストロベリー風味	0.490
にお召し上がりください	0.490
フェニルアラニン化合物	0.490
グレープフルーツ風味	0.489
デル	0.489
イチョウ葉エキス	0.489
クエン酸鉄	0.489
▁召し上がり方	0.489
▁ストロベリー	0.489
透明	0.488
ry	0.488
:400	0.488
即納	0.488
状況	0.488
アスパルテーム	0.487
期限	0.487
65	0.486
▁−	0.486
-17	0.486
を整える	0.486
▁ヘ	0.486
良質の	0.486
デュ	0.486
大豆タンパクを加工した	0.486
促進	0.486
▁ニンジン	0.486
国際	0.486
▁さ	0.486
140	0.486
易	0.486
▁牛乳または水	0.486
製薬株式会社	0.486
回分	0.485
▁使用	0.484
ご了承ください	0.484
煮	0.483
を含有しています	0.483
かな	0.483
返品交換不可	0.481
▁360	0.481
栄	0.480
:11	0.480
起こす	0.480
49468426	0.480
栄養所要量に対する充足率	0.480
身体づくり	0.480
・・・・・・・・・・	0.480
は除く	0.480
】/	0.480
体脂肪を	0.480
ブリ	0.480
112	0.480
後ほど	0.480
である亜鉛に	0.480
▁49027773	0.480
更	0.480
落ち	0.480
含有しています	0.480
で送料	0.480
▁りんご	0.480
便利な	0.480
▁310	0.480
7.2	0.480
沖縄県	0.480
9.3	0.480
清	0.480
体内で合成できない	0.480
海藻灰	0.480
▁アルファ	0.480
自然の素材から抽出された	0.480
▁BCAA	0.480
yen	0.480
選択	0.480
▁β	0.478
ヵ	0.477
▁22	0.477
▁中	0.476
をさけて	0.476
減量	0.476
万一	0.476
エネルギーを	0.476
設計されています	0.475
クセ	0.475
目の	0.475
アスリートのための	0.475
時は	0.475
酵素	0.474
▁2.0	0.474
筋力	0.473
麦	0.473
▁カルシウムは	0.473
13】	0.472
▁オレンジ風味	0.471
▁ヨーグルト味	0.471
の吸収を促進する	0.471
以下で	0.471
秒	0.471
▁たんぱく質含有比	0.471
直送	0.471
・・・18	0.471
ダグラスラボラトリーズとは	0.471
いいもの	0.471
あたり約	0.471
▁0.09	0.471
まとめ	0.471
レベルの	0.471
を原料	0.471
:0120-205-904	0.471
瞬発力	0.471
▁土日	0.471
たくさん摂	0.471
テル	0.471
ニウム	0.471
▁9:00	0.471
ライム	0.471
どもの	0.471
▁など	0.471
不飽和脂肪酸	0.471
パントテ	0.471
を多く含む	0.471
脂肪酸エステル	0.471
個以上	0.471
占める	0.471
加水分解物	0.471
割引	0.471
▁0.33	0.471
▁210	0.471
▁サワー	0.471
健康補助食品	0.469
▁こちらの商品は	0.469
ブドウ	0.469
▁100%	0.469
歳未満	0.469
▁I	0.469
に必要な栄養素	0.468
レモン風味	0.468
▁3.7	0.468
▁H	0.468
バイタルケアーズ	0.467
大豆イソフラボン	0.466
確	0.466
▁450	0.466
なう	0.465
健康サプリメント	0.465
噛まずに水などでお飲み下さい	0.465
)・・・1	0.465
:17	0.465
3600	0.465
1:1	0.465
宣言	0.465
CT	0.465
ご使用をお	0.465
ホスファチジルセリン	0.465
パッケージデザイン等は	0.465
脂肪の	0.465
▁0.10	0.465
プロテインパウダーです	0.465
データ	0.465
携帯	0.465
プレ	0.465
エキスパウダー	0.465
▁74	0.465
おすすめの摂取方法	0.465
製品コード	0.464
▁商品詳細	0.464
ご使用の際は製品記載事項	0.464
をよく読んでお使い下さい	0.464
製品のカラー	0.464
(0120-671-150)	0.464
株式会社カウネット	0.464
▁ド	0.463
ホエイプロテイン	0.462
プロテインを初めて摂取する方や	0.462
が少ない	0.462
ところ	0.462
の栄養補給	0.462
▁使用上の注意	0.462
サメ軟骨抽出物	0.460
祝祭日	0.460
多量に	0.460
刻	0.460
すこと	0.460
ュ	0.460
ゴクゴク飲める	0.460
有用	0.460
びれ	0.460
で配合した	0.460
チュー	0.460
pplement	0.460
コンセントレート	0.460
トレーニング後	0.460
をサポートします	0.460
コン	0.460
平均	0.459
精	0.459
:1.7	0.457
▁オレンジ	0.457
:250	0.457
キサンチン	0.457
プラ	0.457
ファイバー	0.457
を閉め	0.457
ug	0.457
となる場合がございます	0.457
庁	0.454
ウム	0.454
主な	0.454
あった	0.454
ございます	0.454
無臭	0.454
軽	0.454
よく溶かしてお召し上がりください	0.454
カラダのもととなるタンパク質を	0.454
3.7	0.454
提	0.454
▁ピュア	0.454
ハイ	0.453
殻	0.452
▁カラダ	0.452
辺	0.452
▁栄養機能	0.452
や骨	0.452
ソウ	0.452
原材料の一部に	0.451
カラダづくりに	0.450
牛乳や	0.450
食生活が不規則	0.450
▁糖	0.450
》<	0.450
を促	0.450
スーパープレミアム	0.450
as	0.450
ご購入	0.450
▁直射日光及び	0.450
バニラ	0.450
キャンセル	0.450
▁6.7	0.449
不安	0.449
酸素を	0.449
袋セット	0.449
期間	0.449
田	0.449
▁8.4	0.448
を中止してください	0.448
▁↓	0.447
1.8	0.446
反応	0.445
に合わせて	0.445
▁17	0.445
身体作り	0.445
魚肝油	0.445
ディルコリン	0.445
場合がありますので	0.445
▁of	0.445
バナナ	0.444
タンパク原料として	0.444
配	0.444
▁2.6	0.443
トレー	0.443
203	0.442
z	0.442
グラム	0.442
トレーニング	0.441
使用しています	0.441
を加え	0.441
が変わる	0.440
次の	0.440
▁130	0.439
緑茶	0.438
取寄商品	0.438
取り除	0.436
▁350	0.436
▁cl	0.432
裾	0.432
等によっては	0.432
0.21	0.432
蒼	0.432
個から	0.432
ade	0.432
▁協	0.432
考え下さい	0.432
加わった	0.432
長く吸収される	0.432
個装サイズ	0.432
ポイントに合わせて	0.432
レナ	0.432
を主成分とし	0.432
スム	0.432
拡大	0.432
毎日の健康にお役立てください	0.432
瀬	0.432
お試し用	0.432
塊	0.432
▁返品	0.432
最大ポイント	0.432
▁予告なくパッケージ	0.432
がります	0.432
食べ応え	0.432
帝	0.432
米国並の低価格を実現	0.432
発送予定日の	0.432
黄金比率	0.432
雑貨	0.432
904	0.432
7379	0.432
大豆が混ざらない	0.432
小売価格	0.432
異なることがあります	0.432
ーサー	0.432
チャンピオンニュートリション	0.432
芯	0.432
プッシュ	0.432
フェノール	0.432
-15	0.432
チュア	0.432
▁ku	0.432
申	0.432
余分なエネルギーを	0.432
魔	0.432
漿	0.432
に添	0.432
すべて無添加	0.432
寄	0.432
個装重量	0.432
発送予定です	0.432
(440	0.432
AK	0.432
とこ	0.432
宿	0.432
製法は	0.432
100×	0.432
および直射日光を避け	0.432
炊飯時	0.432
/490	0.432
志向の	0.432
毎日の健康管理におすすめです	0.432
果糖を配合	0.432
たんぱく質を補給できる	0.432
愕	0.432
吟味	0.432
祉	0.432
枝	0.432
KG	0.432
ームが	0.432
桂	0.432
円必要です	0.432
ミネラル含有食品として	0.432
306	0.432
通販限定	0.432
カリス	0.432
▁ネイチャーズ	0.432
▁ji	0.432
尻	0.432
斜	0.432
常に変動しております	0.432
▁ya	0.432
からお年	0.432
仙	0.432
出力	0.432
建	0.432
美容に気をつかう	0.432
▁4582	0.432
テト	0.432
分離大豆たんぱく	0.432
粒で亜鉛を	0.432
若いアスリートは	0.432
対する	0.432
730	0.432
郎氏	0.432
ポリポリと	0.432
に効果的な	0.432
カラダのもととなる	0.432
▁490277	0.432
YM	0.432
ケース販売	0.432
震災	0.432
▁チュアブルカルシウム	0.432
インサイドメッシュ構造	0.432
:498	0.432
▁0.268	0.432
康	0.432
くすり	0.432
術	0.432
枢	0.432
航	0.432
テック	0.432
大豆胚芽抽出物	0.432
持久力を	0.432
4-8	0.432
タイプと	0.432
3〜10	0.432
ダイエットが気になる方までお勧め	0.432
湧	0.432
MA	0.432
血液循環	0.432
沸	0.432
芸	0.432
7317	0.432
):1-2	0.432
大豆ペプチドを配合	0.432
桃	0.432
トレーニングや運動した	0.432
▁栄養バランス食品	0.432
ふしぶし	0.432
片	0.432
若さを保ち	0.432
の方法	0.432
————	0.432
リソース	0.432
パッ	0.432
▁一日の目安	0.432
▁メーカーまたは輸入元	0.432
合成をサポートする	0.432
設備	0.432
355	0.432
冷暗所に保存して下さい	0.432
畜	0.432
********	0.432
4562165	0.432
業者名	0.432
味のチュアブルタイプ	0.432
さに	0.432
2/1.2	0.432
瞬	0.432
パイ	0.432
1/2.0	0.432
ボディメーカー	0.432
▁運動中	0.432
▁ひ	0.432
サポーター	0.432
の発	0.432
悸	0.432
ビューティーファイブ	0.432
キャンディーです	0.432
▁プレ	0.432
タンパク質が補給できます	0.432
メッセ入力	0.432
確認メール	0.432
:042-767-2790	0.432
吉	0.432
静岡	0.432
の製品です	0.432
注文単位	0.432
を目指している	0.432
▁14.5	0.432
個別審査	0.432
コラーゲンの生成	0.432
含有比	0.432
運動直後の使用に適しています	0.432
筋肉をつけたい	0.432
体内の脂質を酸化から	0.432
ミックストコフェロール	0.432
を素早く	0.432
にはない	0.432
▁OR	0.432
を目指している方に	0.432
迅	0.432
:079	0.432
してあります	0.432
宇宙	0.432
▁460	0.432
(0.5	0.432
作りました	0.432
13】【	0.432
サプリメントのトップメーカー	0.432
こちらの	0.432
を強力に	0.432
奨	0.432
スプーンを	0.432
種類を配合	0.432
で製造しています	0.432
味方	0.432
チョ	0.432
税抜	0.432
の牛乳や水に溶かしてください	0.432
数種類	0.432
バーベル	0.432
衣	0.432
ご使用上の注意	0.432
お届けまで	0.432
を気にせずガンガン飲めるため	0.432
ゼビオスポーツ	0.432
ミネラルである	0.432
系アスリート	0.432
Mens	0.432
ゼビオ	0.432
たんぱくを	0.432
シュガー	0.432
練習	0.432
初めて摂取する方や	0.432
▁円	0.432
408	0.432
マグネ	0.432
に必要な栄養素を取り	0.432
グロビン	0.432
ルビ	0.432
噛み砕いて	0.432
XEBIO	0.432
▁Meiji	0.432
職	0.432
爽	0.432
のカラー	0.432
な場所	0.432
保存料は使用していません	0.432
ッピング	0.432
。*	0.432
ガンガン	0.432
▁東京都千代田区	0.432
どなた	0.432
▁小児の手の届かないところに	0.432
デルタ	0.432
日の摂取目安	0.432
トコフェロールとして	0.432
海底	0.432
ビテツ	0.432
かねます	0.432
アカ	0.432
特典	0.432
適量	0.432
の成分を	0.432
パラベン	0.432
プログ	0.432
OWER	0.432
異なる場合があります	0.432
▁植物油脂	0.432
(24	0.432
▁ご注文確認受付後	0.432
軟骨抽出物	0.432
別途納期ご案内いたします	0.432
種のミネラルを配合	0.432
の注意	0.432
0.80	0.432
TR	0.432
▁代金引換	0.432
握	0.432
▁Super	0.432
に欠かせないマルトデキストリン	0.432
6.9	0.432
取扱	0.432
▁ZAVAS	0.432
理想の筋肉のために	0.432
感じる	0.432
で配合しています	0.432
効果的です	0.432
分を	0.432
▁〒10	0.432
柑橘類果皮	0.432
より健康	0.432
吸収の良い	0.432
エネルギー源となる	0.432
(※1)	0.432
▁ビタミンは	0.432
ルギー	0.432
IV	0.432
▁株式会社明治	0.432
▁飲み	0.432
▁ミルクチョコ風味	0.432
▁お召し上がり方の目安	0.432
グラ	0.432
究	0.432
状況により	0.432
▁添加物	0.432
ファチジルコリン	0.432
改	0.432
た場合は	0.432
やさしく	0.432
か月分	0.432
確認後	0.432
取扱上の注意	0.432
ium	0.432
ji	0.432
万一体質に合わないと思われる	0.432
体内での吸収率	0.432
▁在庫	0.432
ゲインアドバンス	0.432
1-8	0.432
・・・60	0.432
990	0.432
発酵エキス	0.432
ハードなトレーニング	0.432
これらの	0.432
(0.9	0.432
WHEY	0.432
▁佐	0.432
原材料をお確かめ	0.432
#	0.432
できるだけ	0.432
”100%	0.432
食後がおすすめです	0.432
手足	0.432
:1.8	0.432
米国の	0.432
の割合	0.432
▁05	0.432
セル	0.432
スポ	0.432
かく	0.432
を守	0.432
をお届け	0.432
せず	0.432
をご確認ください	0.432
九	0.432
床	0.432
簡	0.432
混	0.432
▁7.0	0.432
遺伝子組み換えでない	0.432
▁420	0.432
▁フォス	0.432
体質に合わないと思われる	0.432
健康食品です	0.432
を実現した	0.432
リーン	0.432
りません	0.432
水でおいしく飲める	0.432
溶	0.432
を高め	0.432
VC	0.432
▁小麦胚芽	0.432
フェッショナル	0.432
の水に	0.432
特長	0.432
毎日の健康維持にお役立てください	0.432
(350	0.432
封	0.432
▁バナナ風味	0.432
あら	0.432
(6	0.432
▁ウ	0.432
サンゴ	0.432
の商品の	0.432
コップ	0.432
体に	0.427
▁サ	0.426
;&	0.426
発送	0.426
▁プレーン	0.424
脂肪を	0.423
-36	0.423
たんぱく質含有率	0.423
R	0.423
▁パワープロダクション	0.422
スポーツサプリメント	0.421
高純度	0.421
(360	0.418
▁76	0.418
▁SAVAS	0.418
▁19	0.418
一杯	0.416
ショコラ	0.416
焼成	0.416
おやつ	0.416
オー	0.416
▁21	0.416
サプリメントシリーズ	0.416
に入れ	0.416
たんぱく	0.416
▁フレッシュ	0.414
▁原産国名	0.414
ボディ	0.414
を約	0.414
▁脂肪	0.413
まとめ買い	0.413
ティング	0.413
ou	0.413
▁ケンタイ	0.412
のための	0.412
仕様等は予告なく変更	0.412
即日	0.411
出した	0.411
▁550	0.411
製法で	0.411
適正価格で	0.411
▁携帯	0.411
抽出した	0.411
詰め	0.411
】【10	0.411
商品説明	0.410
速	0.410
長い	0.409
、100	0.409
に便利な	0.409
全部	0.409
賞味期限は	0.409
液体	0.409
▁0.12	0.409
の為	0.409
▁栄養補助食品	0.408
のよい	0.408
金額	0.408
ホウレン	0.408
▁水で簡単に溶け	0.406
大麦	0.406
取扱中止の場合はキャンセル処理を	0.406
練習後や	0.406
と溶け	0.406
▁0.04	0.406
▁摂取上の注意	0.405
高たんぱく質	0.405
Kentai	0.404
ゃ	0.403
召しあがり方	0.403
遺伝子組み換え大豆が混ざらない様	0.403
▁飽和脂肪	0.403
よろしく	0.403
を求めるアスリート向け	0.403
局	0.403
予めご了承	0.403
砕	0.403
の上お買い求めください	0.403
カテ	0.403
素早く筋肉に	0.403
理解	0.403
海藻抽出物	0.403
追	0.403
hop	0.403
この商品は	0.403
▁the	0.403
熱量	0.403
!!】	0.403
(21	0.402
保存料は一切使用しておりません	0.401
によっては	0.401
休業日	0.398
のスプーン	0.398
OD	0.398
(1.7	0.398
▁スカイ	0.398
燃	0.398
除く	0.398
)◆	0.398
カシス	0.398
から抽出	0.398
甲	0.398
のためにお役立て下さい	0.398
〜17	0.398
グレープ味	0.398
髪の	0.398
▁225	0.398
ポリエチレン	0.398
予告無く変更となる	0.398
▁レビューで	0.398
備考欄に	0.398
アメリカ合衆国	0.398
ゴロ	0.398
≪	0.398
送料を	0.398
)×2	0.398
分類	0.398
360	0.398
フーズ	0.396
ビン	0.396
運動後	0.396
x	0.395
小麦胚芽油	0.395
と一緒にお召し上がりください	0.393
したい方におすすめです	0.392
犬	0.392
Sep	0.392
▁発売元又は製造販売元	0.392
)9:59	0.392
100%。	0.392
▁海藻セルロース	0.392
ハイスペック	0.392
カラダづくりに欠かせない	0.392
分布	0.392
ベジタブル	0.392
のどごし	0.392
のチュアブルタイプです	0.392
束	0.392
を抑え	0.392
▁1.19	0.392
4.5	0.392
▁CJ	0.392
/24	0.392
メーカー分析値	0.392
日シリーズ	0.392
チカラ	0.392
▁グルコン酸亜鉛	0.392
予告なく変更される	0.392
前後の	0.392
バランスで配合	0.392
:0120-44-8810	0.392
リアルタイム在庫表示でない為	0.392
穀	0.392
四国	0.392
ざ	0.392
スクープ	0.392
アミノ酸が	0.392
還元パラチノース	0.392
▁お取り寄せにお時間を頂	0.392
改良	0.392
▁6.8	0.392
練	0.392
▁900	0.392
----------------	0.392
主成分	0.389
▁050-5838-0746	0.388
有胞子	0.388
お願い	0.388
誘導体	0.388
有限会社クレードボーテ	0.388
▁コレステロール	0.388
▁ホエイペプチド	0.388
山盛り	0.387
×30	0.387
を目指すアスリート	0.386
異なる場合がございます	0.386
ing	0.386
複数	0.386
の水や	0.385
質問	0.384
▁理想的な	0.384
損害賠償等の制度はありませんので	0.384
への発注商品となります	0.384
召	0.384
などの必須ミネラル	0.384
マト	0.384
険	0.384
▁様	0.384
馴	0.384
0.08	0.384
程度を目安に	0.384
▁運動後の	0.384
保健	0.384
筋肉づくりに重要な	0.384
▁メーカー欠品の場合は	0.384
最も多く含まれるアミノ酸である	0.384
発注いたします	0.384
ウスウェルネス	0.384
。-->	0.384
進する	0.384
偏った	0.384
好きな方に	0.384
紛失保障はついておりません	0.384
アセロラ抽出物	0.384
損害	0.384
動物型	0.384
除脂肪体重	0.384
岸	0.384
ゲイン	0.384
】1	0.384
申し上げます	0.384
タイ	0.384
関連	0.384
ニング	0.384
パフォーマンス	0.382
490	0.382
以内に	0.381
:0.3	0.381
ースト	0.381
》	0.381
ホエイプロテインです	0.381
を中心に	0.380
添付のスプーン	0.380
▁mcg	0.380
:45	0.380
丁目	0.379
本分	0.378
▁1.25	0.378
ご使用方法	0.378
謝	0.378
添加しています	0.378
▁152	0.378
使用した	0.378
身体に必要な	0.378
での発送となります	0.378
をお控えください	0.378
グループ	0.378
.00	0.378
免疫	0.376
低脂肪	0.376
値段を気にせず大量摂取可能	0.375
▁アイアン	0.375
▁クレアチン	0.375
after	0.375
ケイ素	0.375
ベル	0.375
部活応援プロテイン	0.374
アスリートの	0.373
微小繊維状セルロース	0.372
総額	0.372
高温多湿を避け	0.371
アミ	0.370
>10	0.370
▁後ほど当店よりお送りする	0.370
自動送信されるメールでは	0.370
ご注文直後に楽天市場より	0.370
。<	0.370
スペック	0.370
114	0.370
大豆分離たんぱく	0.370
ダンベル	0.370
大切なビタミン	0.370
をチャージ	0.370
たんぱく源として	0.370
合計金額	0.370
頂いて	0.370
後ほど当店よりお送りする	0.370
日ほど	0.370
でご連絡の上ご注文をお取消	0.370
ダグラスラボラトリーズ社の栄養	0.370
搬	0.370
ヶ	0.370
送料を含む最終的な請求金額	0.370
全国	0.370
表示されますが	0.370
お買い上げのタイミングにより	0.370
冷たい牛乳や	0.370
実際の送料とは異なります	0.370
必須栄養素を	0.370
ご使用を中止してください	0.370
トレーニング器具	0.370
の手の届	0.370
時に体脂肪をエネルギーに変える	0.370
733	0.370
407	0.370
:19	0.370
ZMA	0.370
をお知らせ致します	0.370
グルタミンを多く含み	0.370
勉強	0.370
▁oz	0.370
:0.02	0.370
とさせていただく場合がございます	0.370
志向	0.370
持久系アスリートへ	0.370
ご注文個数分の送料が	0.370
2〜5	0.370
オレンジ果汁	0.370
エビ	0.370
チウム	0.370
薬を服用中あるいは	0.370
早めにお	0.370
▲▲▲	0.370
せない	0.370
ョウ	0.370
72-9	0.370
リム	0.370
タイト	0.370
ID	0.370
づくりに	0.370
に付属のスプーンすりきり	0.370
サンクスメール	0.370
種別	0.370
になりますので	0.370
に優しい	0.370
顆粒状	0.370
必須脂肪酸	0.370
敵	0.370
ダイ	0.370
▁PROTEIN	0.367
ガンマ	0.366
・・・・・・	0.365
空腹	0.365
72-	0.365
▁ショ糖脂肪酸エステル	0.365
バニラ風味	0.364
かかる	0.363
ur	0.363
送料が	0.363
筋肉に	0.363
サバス	0.363
2013	0.363
本あたり	0.363
ネイチャーズ	0.363
店頭	0.363
〜15	0.363
トップ	0.363
:500	0.362
自動	0.362
一部成分記載省略あり	0.361
離島	0.361
オレンジ	0.360
▁ワン	0.360
させていただく場合がございます	0.360
チャ	0.360
91%	0.360
抽出された	0.360
▁・「	0.360
召上がり	0.360
▁0.26	0.360
までも	0.360
とう	0.360
水か	0.360
ヒドロキシクエン酸	0.360
キサンタンガム	0.360
知らせ	0.360
爆発	0.360
▁パウダー	0.360
簡単に	0.358
▁▼▼▼	0.358
乳酸カルシウム	0.357
勝	0.357
を強化しました	0.357
理	0.357
トレーニング後の	0.357
(0	0.357
回復	0.357
ゲン	0.356
。12	0.355
▁042-	0.355
に効果	0.355
▁アドバンス	0.355
アスリートのために	0.355
を始め	0.355
天然素材	0.355
▁ファイン	0.355
▁】	0.355
常温で保存してください	0.354
ブレンド	0.352
3.5	0.352
ゥ	0.352
シェイク	0.351
スプ	0.351
させて頂く場合がございます	0.351
溶かしてお召し上がりください	0.349
は分離大豆たんぱく	0.345
サイズはコチラから	0.345
×16	0.345
効率のよい減量をサポートする	0.345
レミ	0.345
エッセンス	0.345
大豆たんぱくとホエイたんぱく	0.345
▁理想とする	0.345
アカシア	0.345
がっしり	0.345
巣	0.345
Natu	0.345
耐熱温度	0.345
京都	0.345
:170	0.345
にご相談	0.345
償	0.345
▁在庫状況により	0.345
載	0.345
ミント	0.345
乳由来の	0.345
された場合	0.345
リスク区分	0.345
盗	0.345
議	0.345
の栄養所要量に対する充足率	0.345
高いレベル	0.345
減量中に不足しがちな鉄	0.345
▁トレーニングで筋肉	0.345
kca	0.345
大豆胚芽	0.345
広告文責有限会社	0.345
株式会社ビアンカ	0.345
エイト	0.345
-13	0.345
築	0.345
製造販売元	0.345
サイド	0.345
ジム	0.345
ローヤル	0.345
程度を	0.345
工業株式会社	0.345
累	0.345
▁050-5838-0748	0.345
デキス	0.345
柔らか	0.345
スポーツや	0.345
あとのカラダにうれしいおいしさで	0.345
の摂取量は	0.345
お使い	0.345
阻害	0.345
ポップアップリッド	0.345
粒当り	0.345
▁BSN	0.345
------	0.345
▁56	0.345
▁運動で	0.345
顆粒タイプ	0.345
お召し上がりいただける	0.345
日前後	0.345
749	0.345
エタノール	0.345
▁トレーニング後	0.345
袋あたり	0.345
体内には	0.345
6/	0.345
筋肉の成長	0.345
72-6	0.345
▁国	0.345
▁94	0.345
PS	0.345
茎	0.345
京	0.345
栄養素である	0.345
ブロック	0.345
▁72	0.345
水素イオン	0.345
飲めます	0.345
結び	0.345
スギ	0.345
パラ	0.345
:06-6	0.345
検索	0.345
20130610】	0.345
▁147	0.345
化石	0.345
▁なお	0.345
全粉乳	0.345
▁|	0.345
カラダづくり	0.345
Nov	0.345
ラクト	0.345
ケンタイ	0.344
ご了承下さい	0.342
AN	0.341
▁関連商品	0.339
発酵	0.339
▁ご注文	0.338
万	0.338
食事内容	0.338
▁0.24	0.338
メル	0.338
▁ライフスタイル	0.336
テイ	0.336
にこだ	0.336
高温多湿のところ	0.336
ねぎ	0.336
中鎖脂肪酸	0.336
▁フィット	0.336
消耗した	0.336
0.1	0.336
×10	0.336
ション	0.336
PC	0.334
▁トレーニング	0.334
ER	0.334
マイナス	0.332
で出荷	0.332
ょ	0.332
▁はこちら	0.332
--	0.332
・3	0.332
ビオチンの栄養機能食品です	0.332
いち	0.332
10、	0.332
主成分含有比	0.331
タイミング	0.330
分解物	0.329
谷	0.329
欠品	0.329
培養	0.329
▁たんぱく質含有率	0.329
を行う	0.329
アイソレート	0.329
を豊富に	0.327
▁×	0.327
SPI	0.327
▁本体	0.324
-616	0.324
銅含有	0.324
:34	0.324
出来上がり	0.324
次世代プロテイン	0.324
】【50%	0.324
ミック	0.324
ハトムギエキス	0.324
▁ドライ	0.324
キャップをしっかり	0.324
寄り	0.324
を目安にお	0.324
クエン酸配合で疲労物質である乳酸	0.324
困難な	0.324
にこだわったプロテインです	0.324
説明書	0.324
製法は牛乳が	0.324
メールにてご連絡	0.324
▁タンパク原料として	0.324
-39	0.324
エース	0.324
いつでも手軽に	0.324
770	0.324
混ざり	0.324
取り扱い商品	0.324
浅	0.324
olic	0.324
遅延	0.324
▁"「	0.324
tan	0.324
BB	0.324
の蓄積を抑制	0.324
pti	0.324
ファーマシー	0.324
生活が不規則な方	0.324
挑	0.324
達の	0.324
▁卵	0.324
ky	0.324
含まない	0.324
が苦手な方	0.324
▁。	0.324
si	0.324
野菜の	0.324
階級	0.324
▁co	0.324
イア	0.324
MB	0.324
増強	0.324
▁4.9	0.324
有限会社	0.324
冷たい	0.321
バナナ風味	0.321
▁プロテインパウダー	0.321
あらかじめご了承ください	0.320
レベルアップ	0.320
牡蠣殻	0.320
WPI	0.319
栄養成分表	0.319
>[	0.319
▁レモン	0.318
製造された	0.318
な風味	0.318
食物アレルギーをお持ちの方は	0.318
大量摂取型プロテイン	0.318
RO	0.318
こちらの商品は	0.318
小さじ	0.318
ボディー	0.318
予定	0.318
社が	0.316
WPC	0.315
交換についての注意点をご覧下さい	0.314
したら	0.314
▁付属のスプーンすりきり	0.314
にお勧めです	0.314
るま	0.314
倍ポイント	0.314
願います	0.314
0.12	0.314
ぶどう	0.314
お客様のモニター等によっては	0.314
ミールリプレイスメント	0.314
筒	0.314
▁注意事項ご購入前に返品	0.314
▁味の	0.314
厚	0.314
ホエイたんぱくが	0.314
レモン味	0.314
多少実際のカラーとは	0.314
▁い	0.314
水あめ	0.314
弊	0.314
大豆抽出物	0.314
ラー	0.314
▁kentai	0.314
助成分	0.312
低分子	0.311
ライブ	0.311
▁パワー	0.311
グル	0.311
▁乳酸カルシウム	0.308
9.6	0.308
の摂取タイミング	0.308
美容に気	0.308
以上で送料無料	0.308
肉体	0.308
▁VB	0.308
分け	0.308
ティン	0.308
入金	0.308
スカイ	0.308
本品には	0.308
第三リン酸カルシウム	0.308
味わい	0.308
/0	0.308
高単位	0.308
場合もございます	0.306
使用しないでください	0.305
EG	0.305
▁成分表	0.305
▁ハーブ	0.305
で製造された	0.305
推奨量	0.305
療	0.305
▁定価	0.305
チョイス	0.305
製品がお	0.302
水などと一緒に	0.302
あた	0.302
440	0.302
人体に	0.302
sion	0.302
▁720	0.302
キャラ	0.302
注文	0.301
120-6	0.300
▁3000	0.300
体に合わない場合がございます	0.300
お願いいたします	0.298
▁バイタルケアーズ	0.297
輸入者	0.297
▁フ	0.297
▁CZ	0.297
プラン	0.296
▁〜	0.295
▁・・・	0.295
▁K	0.293
出荷	0.292
や調節	0.288
▁9:59	0.288
にお届け	0.288
螺旋	0.288
ニラ	0.288
空腹時	0.288
をキャンセル	0.288
容赦	0.288
柑	0.288
クチン	0.288
本を目安に	0.288
貨	0.288
▁パワーアミノ	0.288
グァ	0.288
風化ニシキ貝	0.288
庫県	0.288
▁日本クリニック	0.288
攻	0.288
テイン	0.288
実際の色	0.288
カフェ	0.288
紅花	0.288
から採取された	0.288
時間がかかる場合がございます	0.288
の吸収を阻害	0.288
ジャン	0.288
諸症状	0.288
申し訳	0.288
ましては	0.288
用として	0.288
妊娠を	0.288
ポイントアップ	0.288
胃部	0.288
▁Natu	0.288
▁ピップ	0.288
下部に記載	0.288
枠	0.288
デザート感覚の	0.288
珍	0.288
機構	0.288
贈り	0.288
イタルケア	0.288
里	0.288
女性のために	0.288
が手	0.288
邦	0.288
尼	0.288
郵便での	0.288
お召し上がりになる前にお医者様	0.288
血中	0.288
の発送	0.288
を加えて作られた	0.288
モノハイド	0.288
かう	0.288
ソルトレイク	0.288
レーン	0.288
基礎から	0.288
スクリーム	0.288
af	0.288
開栓	0.288
hy	0.288
▁MR	0.288
の在庫状況により	0.288
開封後はふた	0.288
も無料	0.288
▁本品を食品として	0.288
商品変更	0.288
>5000	0.288
募	0.288
あらかじめご了承いただけます	0.288
▁ホルモン	0.288
の良い食事	0.288
型乳酸にライム	0.288
▁有限会社山口	0.288
:510	0.288
掃	0.288
:0.30	0.288
るので	0.288
胎児の正常な発育に寄	0.288
承り	0.288
姜	0.288
脚	0.288
▁0.34	0.288
予告なく	0.288
とご相談下さい	0.288
討	0.288
の植物性プロテインパウダーです	0.288
個別審査を受けた	0.288
大量注文	0.288
大塚	0.288
を目指すアスリートから	0.288
水に溶けて粉っぽくない	0.288
92%(	0.288
その場合	0.288
そのままに	0.288
ゴールデン	0.288
栄養食品	0.288
じて	0.288
介	0.288
燃やす	0.288
に加えても味をほとんど変えずに	0.288
直射日光を避け涼しい	0.288
メーカーの都合により	0.288
もあり	0.288
トレーニングの	0.288
▁MUSCLE	0.288
代金	0.288
オリジナルのハイスペック	0.288
日頃から	0.288
包で	0.288
6-6	0.288
機能食品	0.288
円がかかります	0.288
:160	0.288
只	0.288
パッケージ及び容量等は	0.288
▁輸入	0.288
:700	0.288
予定ですが	0.288
▁チョコラ	0.288
プロテインが作れます	0.288
メールにてご連絡いたします	0.288
▁鍛	0.288
▁乳幼児の手の届かない	0.288
0〜0.1	0.288
を使用したプロテインパウダーです	0.288
nb	0.288
労	0.288
δ	0.288
普段使っているプロテイン	0.288
緩和	0.288
のハイスペック	0.288
八雲	0.288
チャー	0.288
利用効率が高いホエイプロテイン	0.288
:0.03	0.288
巨峰	0.288
218	0.288
ボン	0.288
up	0.288
の豊富な	0.288
タンパク質原料として	0.288
▁145	0.288
×100	0.288
ミド	0.288
▁計	0.288
の水に溶かしてお飲みください	0.288
▁商品が	0.288
入荷できないことが判明した	0.288
IBI	0.288
▁バイオアクティブ	0.288
「	0.288
精製された	0.288
形成	0.288
成分量	0.288
▁その場合は使用を中止し	0.288
全品送料無料	0.288
fitness	0.288
格闘技	0.288
を行うアスリートのカラダづくり	0.288
薬品工業	0.288
3-3	0.288
▁ネイル	0.288
WP	0.288
かつ高い	0.288
亜麻仁	0.288
個で	0.288
【1	0.288
:0.9	0.288
等でお召し上がりください	0.288
▁●11	0.288
メーカー希望小売価格	0.288
最終	0.288
ご注文後に	0.288
koff	0.288
ザバスプロ	0.288
異常を感じた場合は	0.288
を使用しました	0.288
を両立	0.288
EN	0.288
じる	0.288
ユニカル	0.288
排	0.288
半分	0.288
▁CA	0.288
をブレンド	0.288
▁東京都港区台場	0.288
あらかじめ	0.288
ウス	0.288
トラ	0.288
▁x	0.288
溶かす	0.288
アレルギー体質や体調により	0.288
摂取を中止してください	0.288
噛まずに水などでお飲みください	0.288
ェ	0.288
安定剤	0.288
の筋肉	0.288
リプレイスメント	0.288
の際は	0.288
GP	0.288
ココア風味	0.288
ラベルに記載	0.288
だけを	0.288
顆粒	0.288
配合で総合的に栄養を補給	0.288
▁アスリート	0.288
ソイプロテイン	0.288
薬品	0.288
クス	0.288
×5	0.282
シェーカー	0.281
イオン	0.281
▁乳清	0.280
上の注意	0.279
入荷	0.279
梱包	0.278
▁■1	0.277
酒石酸塩	0.277
ィ	0.277
植物由来の	0.276
。【	0.275
タンパク質含有率	0.275
目安として	0.275
場合が御座います	0.275
フィットネス	0.273
カラダを	0.273
日服用回数	0.273
ベリー風味	0.273
AX	0.273
日あたりの摂取目安量	0.273
▁LIFE	0.271
院	0.270
に最適です	0.270
年の	0.270
胎児	0.270
こちらの商品はメーカー	0.270
10〜20	0.270
▁直射日光や	0.270
難	0.270
.50	0.270
kj	0.270
受付	0.270
SP	0.270
倉庫	0.270
健康サプリ	0.268
フォス	0.268
▁品名	0.268
▁¥	0.266
に必要な栄養素を	0.266
▁ユニ	0.266
仕上げました	0.266
合わ	0.266
量の多い	0.266
送料は	0.266
201	0.266
杯を	0.266
ワークアウト	0.266
靴	0.266
実際の	0.266
規格成分	0.266
や体調	0.266
プロテイン配合	0.266
梅	0.266
▁ボー	0.266
750	0.264
ランク上	0.263
洋	0.263
ゲルマニウム	0.262
71%	0.262
▁83	0.262
EX	0.261
風化	0.261
▁作成	0.259
原材料の一部にオレンジ	0.259
▁●●●-●●●	0.259
加水分解	0.259
オリゴ	0.259
ノンシュガー	0.259
:【	0.259
台場	0.259
▁バッグ	0.259
デリシャス	0.259
八雲風化	0.259
リットル	0.259
廃盤	0.259
/1500	0.259
ナンバー	0.259
:4987035	0.259
万円送料無料	0.259
暑	0.259
]	0.259
▁an	0.259
▁●●●	0.259
飲料です	0.259
:800	0.259
コンディショニング	0.259
スポーツドリンク	0.259
ホエイプロテインアイソレート	0.256
201311_	0.256
仕様	0.256
▁0.49	0.254
蜂	0.254
▁38	0.254
シェイプ	0.254
で製造	0.254
を両立しました	0.254
▁沖縄	0.254
溶解	0.254
▁牛乳	0.254
に仕上げました	0.253
ネイチャー	0.252
ご飲用	0.252
エイ	0.252
進	0.249
株式会社ヒカリスポーツ	0.247
送料無料となります	0.247
ひど	0.247
スキン	0.247
兵	0.247
03-3982-2685	0.247
▁安	0.247
スーパークリア製法で	0.247
SN	0.247
▁電	0.247
発酵乳	0.247
ニシキ貝	0.247
:06-6797-2066	0.247
成分ですが	0.247
▁Emulsify	0.247
ran	0.247
▁お召し上がりください	0.247
▁株式会社ジャパンヘルス	0.247
機器	0.247
発汗により	0.247
典	0.247
▁Gran	0.247
福	0.247
▁素	0.247
ショート	0.247
ザバスプロテインスプーン	0.247
デザート	0.247
————————	0.247
◆「	0.247
トウモロコシ抽出物	0.247
多品種に乳化した顆粒の意味	0.247
製品特徴	0.247
絆	0.247
パプリカ色素	0.247
を助けます	0.247
リフレッシュ	0.247
ガラ	0.247
粒を目安にそのまま	0.247
▁直射日光を避け	0.247
▁330	0.247
70.0%(	0.247
▁バナナラテ風味	0.247
個入	0.247
ゲル	0.247
を加えて	0.247
スメ	0.247
▁プロテインスーパータブ	0.247
▁カルシウムリッチ	0.247
共同	0.247
ダイレクト	0.247
日より	0.247
----	0.247
いただきます	0.247
鮮	0.247
パパイヤ	0.247
▼	0.247
カテゴリー	0.243
>《	0.242
ご使用の	0.240
▁スクイズボトル	0.240
ha	0.240
できない場合がございます	0.240
ppm	0.240
健康体力研究所	0.240
▁ピ	0.239
リカバリー	0.238
▁73	0.238
ゲイナー	0.238
hi	0.238
納期	0.238
水などに溶かして	0.237
営業日	0.237
在庫	0.236
アセチル	0.235
▁サメ	0.235
アカシアガム	0.235
投稿	0.235
』<	0.235
若いアスリートにお勧め	0.235
戸	0.235
▁お客様専用ダイヤル	0.235
▁商品番号	0.235
が治癒したり	0.235
天然ミネラル	0.235
ミツ	0.235
ランク別ポイントアップ最大	0.235
の精製方法です	0.235
フェリックスコーポレーション	0.235
お身体に	0.235
筋肉づくり	0.235
▁発酵	0.235
▁06-6556-6663	0.235
▁(6	0.235
目的に	0.235
ei	0.235
当店	0.235
:360	0.235
製造日より	0.235
無水物換算	0.235
▁アイソ	0.234
▁Shipping	0.234
▁パッケージ	0.232
たんぱく質補給	0.232
の吸収を	0.230
ご注文のキャンセルをお願い	0.230
継	0.230
の場合には	0.230
作業	0.230
となるたんぱく質	0.230
終売などもございます	0.230
フィットプロテイン	0.230
ハチミツ	0.230
商品によりましてはメーカー欠品	0.230
/498703526	0.230
▁ご注文頂いてからの発注の為	0.230
甘	0.228
YDKG	0.228
お召し上がりにならないで下さい	0.228
軟	0.227
STYLE	0.227
260	0.227
ビア	0.227
便利です	0.227
2-3-2	0.227
大阪	0.227
おいしさと溶けやすさ	0.227
バイオティクス	0.226
ab	0.226
一部	0.226
日目安	0.225
カラダへ	0.225
シトルリン	0.225
CZ	0.224
の当たらない	0.224
のうえ	0.223
ホエイプロテインは	0.222
散	0.222
▁ボトル	0.221
kentai	0.221
▁健康体力研究所	0.220
▁048	0.220
▁《	0.220
リート	0.220
となることもございます	0.216
粥	0.216
プレゼント付	0.216
痙攣	0.216
系アミノ酸	0.216
ホエイプロテインを使用した	0.216
をご参照	0.216
カルシウムに	0.216
グロー	0.216
▁そば	0.216
縁	0.216
日に必要なカルシウムの	0.216
日本クリニック	0.216
を配合したプロテイン	0.216
308	0.216
ニュートリ	0.216
変えずに	0.216
ボディビルダー	0.216
栄養機能性食品	0.216
(268	0.216
を加えた栄養補助食品です	0.216
アスリートやボディビルダー	0.216
醇	0.216
インク	0.216
▁野菜の糖質を	0.216
イオン化しやすく	0.216
義務品目	0.216
:54	0.216
奇跡	0.216
遣	0.216
垂	0.216
100[	0.216
キサン	0.216
如	0.216
上げます	0.216
-90	0.216
胎児の発育	0.216
▁買	0.216
改めて	0.216
類医薬品広告文責	0.216
フジックス	0.216
用法用量	0.216
ゼオ	0.216
メーカー株式会社	0.216
セレンを	0.216
メーカ	0.216
CM	0.216
アセロラビタミン	0.216
輸入者名	0.216
CFS	0.216
8226;	0.216
-573	0.216
誠に	0.216
髄	0.216
▁アクティブ	0.216
体内吸収性が高いカルシウムです	0.216
カニ由来	0.216
型乳酸カルシウムは	0.216
造礁サンゴ	0.216
アミノ酸より	0.216
乳酸菌で発酵させて作った	0.216
悩	0.216
体内酵素	0.216
時期により	0.216
が生じる場合がございますが	0.216
▁045-470-4072	0.216
6−	0.216
エネルギー生成やコラーゲン	0.216
▁NO	0.216
レーション	0.216
5〜10	0.216
▁ネイチャーズウェイ	0.216
かず	0.216
アミド	0.216
踏	0.216
噛んで食べる	0.216
好評の	0.216
-16	0.216
▁ナノ	0.216
甲殻類や貝類の化石が風化したもの	0.216
スポーツドリンク感覚の	0.216
箸	0.216
をよく読	0.216
狙	0.216
椎	0.216
鎖脂肪酸	0.216
かき混ぜて	0.216
の限界	0.216
在庫状況により	0.216
の健康維持にお役立てください	0.216
みんなで	0.216
溶いても美味しいので	0.216
味料	0.216
ミル	0.216
摂取を中止して下さい	0.216
水のような透明感	0.216
ST	0.216
やかで	0.216
タンパク含量	0.216
3.1	0.216
の化石	0.216
▁ベータ	0.216
手軽に栄養補給が可能です	0.216
でのお	0.216
が苦手	0.216
信頼の	0.216
旅	0.216
▁産	0.216
補いきれない	0.216
▁野	0.216
体内へ	0.216
品質保	0.216
溶性	0.216
軟骨エキス	0.216
▁箱	0.216
マリー	0.216
▁ピットイン	0.216
出来ず	0.216
▁ジャンル識別情報	0.216
海外発送	0.216
代引手数料無料	0.216
▼<	0.216
カラダづくりに取り組む方のために	0.216
:/	0.216
Welcome	0.216
▁カラー	0.216
プト	0.216
ネイ	0.216
することにより	0.216
品名	0.216
▁商品情報	0.216
kb	0.216
クション	0.216
エネルギー量	0.216
体内利用	0.216
本商品は	0.216
▁】【	0.216
になる場合がございます	0.216
をお願い	0.216
品番	0.216
個人	0.216
イツ	0.216
のみを使用	0.216
飴	0.216
にお召し上がり下さい	0.216
包入	0.216
在庫切れ	0.216
ダブル	0.216
ホエイペプチド	0.216
メール	0.216
▁〔	0.208
トコトリエノール	0.208
ココ	0.207
ご注文後	0.207
水分補給	0.207
▁ザバスプロ	0.206
▁ピーチ	0.206
イソ	0.206
**	0.206
銀	0.204
ヌ	0.204
バッグ	0.203
エクササイズ	0.203
▁ボディ	0.203
▁その際には	0.203
砂糖不使用	0.203
-25	0.202
-14	0.201
〕	0.200
お読み	0.199
▁アレルギー表示	0.199
;1	0.199
開封後はなるべく	0.199
フェッショナルタイプ	0.199
分解した	0.199
カニ	0.199
がお勧めです	0.199
。8	0.199
全品エントリー最大	0.199
2500	0.199
つ生理活性物質を高いレベルで残し	0.199
ォ	0.199
),	0.199
カーボ	0.199
--------	0.199
膜処理	0.199
処理	0.199
〔	0.199
イス	0.198
原材料表示	0.196
AB	0.196
▁薬を服用あるいは	0.196
クレアチン	0.196
CFM	0.195
▁Kentai	0.194
9.4	0.192
超微粒子	0.192
作りの	0.192
▁スポーツドリンク	0.192
予定が大幅に遅れる	0.192
:900	0.192
5.7	0.192
婚	0.192
dr	0.192
▁激しいトレーニングによって	0.192
商品によりましては	0.192
0.11	0.192
▁クリアプロテインホエイ	0.192
AC	0.192
継続的に摂取したい方	0.192
▁WPC	0.192
何卒あらかじめご了承	0.192
こともございますので	0.192
ご注文されてから発送されるまで約	0.192
送りさせていただきます	0.192
総合ビタミン	0.192
IG	0.192
▁アップル	0.192
個以上の	0.192
ミネラルサプリメントです	0.192
連絡	0.192
THINK	0.192
プロティン	0.192
増進	0.192
ッツ	0.192
高品質ホエイプロテイン	0.192
カテゴリ	0.192
▁Rakuten	0.189
234	0.188
離	0.188
送料がかかります	0.188
▁株式会社プログレシブクルー	0.185
を酵素	0.185
***	0.185
寸	0.185
▁072-265-0007	0.185
▁原材料など	0.185
▁15.0	0.185
発送まで	0.185
の方まで	0.185
平日	0.185
▁woman	0.185
栓	0.185
ドラッグピュア	0.185
お取り寄せ商品	0.184
ファイ	0.182
体格	0.182
)■	0.182
備え	0.182
VE	0.180
▁楽天国際配送対象商品	0.180
をベースに	0.178
牛乳に溶かしてお飲みください	0.178
件	0.176
▁ま	0.173
系アスリートへ	0.173
▁情報	0.173
尚	0.173
▁不足しがちなビタミン	0.173
飽和脂肪	0.173
にすぐ	0.173
匙	0.173
ミネラルなど	0.173
搭載	0.173
営業日以内の	0.173
▁高温多湿および直射日光を避け	0.173
絞	0.173
rition	0.173
軟便	0.173
▁株式会社フ	0.173
764	0.173
をお受け	0.173
】◆	0.173
159-900	0.173
フェロール	0.173
>30	0.173
717	0.173
メーカ名	0.173
常盤	0.173
ハイパワー	0.173
ミネラルが豊富に含まれています	0.173
六	0.173
問い合わせ先	0.173
サフラワー油	0.173
入荷できない	0.173
精製した	0.173
さわ	0.173
410	0.173
日に必要なビタミン	0.173
スポーツ時の	0.173
ので予めご了承	0.173
1】【	0.173
の可能性	0.173
UR	0.173
▁その際は	0.173
弘	0.173
笹	0.173
ディスプレイ	0.173
BSN	0.173
退	0.173
▁VC	0.173
ぁ	0.173
美堂	0.173
人気商品	0.173
メタボ	0.173
飽和脂肪酸	0.173
化粧水	0.173
どものからだづくり	0.173
邪魔	0.173
カラダづくりを考える	0.173
▁ボディーメイク	0.173
手軽に摂取できます	0.173
販売終了	0.173
残る	0.173
▁朝日薬業株式会社	0.173
良質のプロテイン	0.173
11_	0.173
冷暗所で保存してください	0.173
の上ご注文	0.173
水に溶かす	0.173
ns	0.173
表示でない	0.173
▁商品について	0.173
提案	0.173
お時間を	0.173
をお楽しみ	0.173
湿気の多いところを避け	0.173
に開発された	0.173
▁メガパワー	0.173
▁水で	0.173
ウト	0.173
はコチラから	0.173
十分な量を	0.173
ku	0.173
運動後などシーンを選ばず	0.173
IO	0.173
野草	0.173
卸	0.173
水でお飲み下さい	0.173
壁	0.173
▁プロテインシェイカー	0.173
ふた	0.173
est	0.173
▁スタミナ	0.173
独自の製法で	0.173
涼しい所に保存してください	0.173
CE	0.173
▁ピリドキシン	0.173
噛	0.173
てん	0.173
KM	0.173
DH	0.173
バラの実抽出物	0.173
的確に補うことが重要です	0.173
イズプロテイン	0.173
の機能性	0.173
炭酸マグネシウム	0.173
十分量	0.173
有機ゲルマニウム	0.173
たんぱく質の代謝	0.173
カロチノイド	0.173
発送に	0.173
マッスル	0.173
▁理想の筋肉のために	0.173
有限会社スタイルキューブ	0.173
▁0120-093-849	0.173
トレーニングで	0.173
ロイ	0.173
ポイント最大	0.173
▁06-6534-1259	0.173
取り寄せ	0.173
適用	0.173
ten	0.173
料金	0.173
▁→	0.173
更新	0.167
タンパク含有率	0.166
栄養成分値	0.166
▁Protein	0.165
外箱	0.164
訂	0.164
▁&#	0.164
皇漢堂	0.162
スクイズボトル	0.162
を守ってください	0.162
gx	0.162
▁0.014	0.162
連絡先	0.162
▁ファインラボ	0.161
掲載	0.160
瞬発系アスリートのプロテイン	0.157
▁有限会社多賀城ファーマシー	0.157
0.23	0.157
ようお願いいたします	0.157
ザバスプロテインスプーン約	0.157
全ての商品が揃い次第の発送	0.157
▁022-362-1675	0.157
この商品はお取り寄せ商品です	0.157
使える	0.157
噛まずにお召し上がりください	0.157
マルト	0.157
:0.19	0.157
主原料原産地	0.157
2〜10	0.157
の場合のみ	0.157
買い上げの場合は	0.157
使用していません	0.157
試合前の	0.157
を原料にした天然	0.157
▁セット内容	0.157
以外の商品と一緒にお	0.157
非活性	0.157
▁神戸市北区鈴蘭台北町	0.157
の送料	0.157
▁CFM	0.155
ソイ	0.154
の牛乳や	0.153
かかる場合があります	0.152
激しいトレーニング	0.152
のみを採用しました	0.152
▁サプリメント先進国	0.152
0.46	0.152
パッケージデザイン等が	0.152
▁シー	0.152
▁Do	0.152
▁詳細	0.151
6-5	0.150
売り	0.149
海外配送	0.148
ファイン	0.147
▁fs	0.146
そのままでも	0.144
-19	0.144
携帯にも	0.144
アメリカのダイエタリー	0.144
妙	0.144
即納可	0.144
叢	0.144
種の必須アミノ酸をすべて含有	0.144
水などと一緒にお召し上がり下さい	0.144
に重要なアミノ酸	0.144
に関するお問い合わせ先	0.144
メーカー品切れ	0.144
▁ボディー	0.144
変更になる	0.144
2-76	0.144
持久力	0.144
跡	0.144
30611	0.144
。>	0.144
(0120-6	0.144
▁化粧品	0.144
氏	0.144
▁097	0.144
303	0.144
▁03-55	0.144
と共	0.144
▁08	0.144
キッド	0.144
▁フルーツ	0.144
贈りもの	0.144
畑	0.144
回数を	0.144
欠品やメーカー	0.144
也	0.144
mul	0.144
芳	0.144
トコトリ	0.144
を持続的に補給することができます	0.144
-06	0.144
ファチジルセリン	0.144
方にお勧め	0.144
ちに	0.144
2001	0.144
sa	0.144
tg	0.144
のおすすめ商品	0.144
薬品工業株式会社	0.144
ミネラルを配合	0.144
冷たい牛乳や水などといっしょ	0.144
予告なくパッケージ	0.144
】(1	0.144
▁18.4	0.144
077-5	0.144
タンニン	0.144
リノール酸	0.144
瞬間的にフルパワーを出力する	0.144
フレ	0.144
粒サイズ	0.144
広告文責株式会社	0.144
ので予めご了承ください	0.144
商品特長	0.144
お買	0.144
英	0.144
イオン化	0.144
海水	0.144
ドイツ	0.139
▁賞味期間	0.139
日の摂取量	0.139
株式会社ドラッグピュア	0.138
ご注文は	0.138
いたり	0.138
0000	0.137
お問い合わせ	0.136
低脂肪の	0.135
お取り寄せ	0.134
栄養補給をバックアップ	0.133
ウォーターシェイク	0.133
しじみ	0.133
水に溶かして	0.133
INK	0.133
祝を除く	0.133
熊	0.133
当店より	0.133
分解したホエイペプチド	0.133
ウン	0.133
44-5855	0.133
成長期のこ	0.133
売り切れ	0.133
▁y	0.133
を心が	0.133
ni	0.129
▁320	0.129
差し上げます	0.128
ピン	0.128
技術により	0.128
をご参照ください	0.128
▁プレーンタイプ	0.128
合わない場合があります	0.128
▁仕様	0.127
▁エー	0.123
▁プロテインです	0.123
の上お買い	0.123
メット	0.123
リアルタイム	0.123
脂溶性のビタミン	0.123
小麦胚芽抽出物	0.123
手数料無料	0.123
剤等	0.123
と炭水化物を	0.123
めで	0.123
変動	0.123
成分として注目されています	0.123
入荷まで	0.123
714	0.123
標準栄養成分分析値	0.123
▁\\	0.123
ダリスト	0.123
粒でホウレン	0.123
ACE	0.123
にてお	0.123
【2	0.123
08	0.123
入金確認後の	0.123
▁サン	0.123
身体作りの	0.123
▁ACTIVE	0.123
bo	0.123
にお時間を頂	0.123
ジンジャー	0.123
ツマ薬局	0.123
チーズホエイ由来の	0.123
メーカー欠品など	0.123
有限会社シンエイ	0.123
-22-	0.123
予告なく変更される場合もあります	0.123
群やミネラル	0.123
▁モ	0.123
ビルディング	0.123
end	0.123
諸事情によりお届け	0.123
ウエイトトレーニング	0.123
無理	0.123
商品廃番	0.123
▁マッスル	0.123
ステージ	0.123
▁個装サイズ	0.123
▁詳細はこちらです	0.123
▁WHEY	0.123
日数	0.123
飲み物	0.123
グリコマクロペプチド	0.119
498	0.118
取扱い	0.118
合わない場合は	0.115
商品の為	0.115
特集	0.115
供	0.115
▁68	0.115
ワード	0.113
▁メガバリュー	0.111
プロテ	0.108
詳しくはこちらをご覧下さい	0.108
こんな人におすすめ	0.108
完売	0.108
▁メーカーお取り寄せの為	0.108
.0%(	0.108
▁商品データ更新日	0.108
送料を修	0.108
1080	0.108
▁[3]	0.108
:2013-11-14	0.108
ハート	0.108
▁のお召し上がり方	0.108
ではお取寄の商品も掲載	0.108
ご注文後に目安納期をご案内	0.108
場合に	0.108
エンザイム	0.108
50-708	0.108
国際配送対象	0.108
カルシウム粒	0.108
附	0.108
ゲットプラス	0.108
営業	0.108
ござ	0.108
離島は	0.108
定価	0.108
マトリ	0.108
▁商品説明文	0.108
特価品	0.108
▁ギフト対応	0.108
72174	0.108
で発送	0.108
発注	0.108
の見	0.108
HA	0.108
▁is	0.105
成分内容	0.105
買	0.104
ドバ	0.102
イオン化カルシウム	0.102
コラ	0.102
▁用途	0.102
量や	0.102
~	0.102
▁International	0.102
栄養補助	0.100
▁AFC	0.100
)&	0.099
取り組む	0.096
速やかに	0.096
77.0%(	0.096
▁商品の特徴	0.096
塩釜蛮紅華湯株式会社	0.096
▁フード	0.096
武	0.096
スッポン	0.096
コブ	0.096
カルシウム顆粒	0.096
たんぱく含有率	0.096
▁合	0.096
製法によって	0.096
グァーガム	0.096
×11	0.096
▁連絡先	0.096
ヤクルト	0.096
:00〜17	0.096
お時間が	0.096
:022-384-5998	0.096
▁メーカー希望小売価格	0.096
発送までに	0.096
かかる場合がございます	0.096
珪	0.096
▁検索	0.096
用品	0.096
▁スポーツサプリメント	0.096
○	0.094
▁ゴールドジム	0.093
日程度	0.091
発送となります	0.091
曜	0.091
:49	0.089
▁click	0.089
▁050	0.089
蓄積	0.089
レオ	0.089
-7302	0.086
麹	0.086
▁販売業者名	0.086
2-6-2	0.086
振込	0.086
▁東京都中央区八重洲	0.086
▁日本製か海外製	0.086
▁保存期間	0.086
粉末たんぱく食品	0.086
-0252	0.086
特長です	0.086
▁主成分含有比	0.086
:03-3275-3456	0.086
▁高温多湿の場所を避け	0.086
人参抽出物	0.086
鱈	0.086
欠品する	0.086
▁その場合は	0.086
ital	0.086
▁〒104-0028	0.086
▁ヒューリックビル	0.086
八	0.086
従来以上においしさと溶けやすさ	0.086
水でも	0.086
プレーンタイプ	0.086
▁製造国日本	0.086
ご了承くださいませ	0.086
▁株式会社健康応援団	0.086
ボックス	0.086
▁Item	0.086
▁here	0.084
▁米国原産の栄養補助食品で	0.084
ついて	0.084
▁ミックスベリー風味	0.082
ラテ	0.082
▁Details	0.081
ゴールドジム	0.079
▁0120-19-9989	0.078
シーディ	0.078
▁お客様窓口	0.078
IC	0.078
×14	0.078
が変わります	0.078
正確	0.078
リッチ	0.078
取寄せとなります	0.078
:320	0.078
実績	0.078
▁助成分	0.078
ゴールド	0.077
hip	0.075
ment	0.075
PE	0.075
多湿及び	0.075
▁大さじ	0.074
在庫状況	0.073
豊かな	0.072
在庫は	0.072
AV	0.072
長時間動き続ける	0.072
楽天市場より	0.072
在庫切れの際は	0.072
▁兵庫県神戸市中央区北長狭通	0.072
:077-545	0.072
7-3-10	0.072
予定日	0.072
】『	0.072
▁店頭在庫	0.072
黒胡麻	0.072
リキッド	0.072
痕	0.072
ミルクフレーバー	0.072
lbs	0.072
革新	0.072
○○	0.072
SA	0.072
からだづくり	0.072
札	0.069
箱セット	0.069
メールでは	0.066
八雲風化貝カルシウム	0.066
▁粉末タイプ	0.066
メイド	0.066
EXT	0.066
秘めた	0.066
:077-5	0.066
net	0.066
テク	0.066
剥	0.066
▁02	0.066
交換	0.066
の風味	0.066
をコップ一杯	0.066
万年	0.064
ラレー	0.062
ターチョコ	0.062
▁保管	0.062
吸収率の高いホエイプロテイン	0.062
日かかります	0.062
OLARAY	0.062
試合	0.062
メールにてお知らせいたします	0.062
っぱり	0.062
▁サツマ薬局	0.058
▁0120-159-900	0.058
▁総脂肪	0.058
持久系アスリートのプロテイン	0.058
▁リッチ	0.058
▁レモン風味	0.058
常に変動	0.058
エク	0.058
▁シェラック	0.058
みかん	0.058
GOLD	0.058
▁スーパーデリシャスタイプ	0.055
進化	0.054
及び妊娠授乳の方はお医者様	0.054
をお願い致します	0.054
米国の医師の要望により生まれた	0.054
▁バイタルケアーズとは	0.054
型乳酸	0.054
高配合量のサプリメントです	0.054
/200	0.054
▁ウエイトゲインアドバンス	0.051
いただく場合がございます	0.051
プチ	0.051
黒糖	0.051
▁フォーミュ	0.051
▁お問い合わせ先	0.051
▁GYM	0.049
器具	0.048
微粉末	0.048
トリプル	0.048
▁ウエイト	0.048
堂	0.048
▁Vital	0.048
水などでお召し上がりください	0.045
女子	0.045
取寄せ	0.045
都	0.045
▁三	0.043
Whey	0.041
が必要な	0.041
▁プレミアム	0.040
炊飯用	0.039
回約	0.039
VA	0.039
ギフト	0.039
▁cares	0.039
取寄	0.036
館	0.035
チェ	0.033
ご了承	0.032
重さ	0.031
カラー	0.029
▁GOLD	0.024
LEO	0.020
水晶	0.018
珪素	0.014
コア	0.014
ンク	0.012
卵殻焼成カルシウム	0.000
揚	0.000
更新しております	0.000
デオドラント	0.000
配合は	0.000
したまま	0.000
冷暗所にて	0.000
伺	0.000
軸	0.000
ブレン	0.000
/45	0.000
斉	0.000
妻	0.000
クスリ	0.000
胎	0.000
泣`	0.000
旦	0.000
▁アセ	0.000
▁原材料をご参照の上	0.000
):5	0.000
3200	0.000
:0120-093-849	0.000
▁脂肪由来のカロリー	0.000
▁有限会社マッスルプロダクション	0.000
上で購入できた場合	0.000
4-2-7	0.000
原材料原	0.000
▁HEALTH	0.000
いた場合	0.000
をはじめとするビタミン	0.000
ヨシ	0.000
】_	0.000
の心配のある方は	0.000
ぎ落	0.000
モノハイドレート	0.000
遇	0.000
英文ラベル日本語	0.000
パク	0.000
ニク	0.000
▁EM	0.000
241950	0.000
ナル	0.000
悲鳴	0.000
▁【%	0.000
暖房	0.000
居	0.000
挽	0.000
気になる糖	0.000
を提供したい	0.000
302	0.000
▁島根県松江市学園	0.000
週間位かかる場合がございます	0.000
キャンディ	0.000
ほんの	0.000
▁当商品は	0.000
北区	0.000
包中	0.000
に表示	0.000
マンス	0.000
ペックス	0.000
-449-8	0.000
ビアン	0.000
化剤	0.000
商品カテゴリ	0.000
ドキ	0.000
▁NUTRITION	0.000
で最もポピュラーな	0.000
cz	0.000
カボチャやナッツ類	0.000
呂	0.000
帽	0.000
別途送料が掛かる場合があります	0.000
重量個装重量	0.000
述	0.000
:0776	0.000
べく	0.000
失われがちなビタミン	0.000
毎日の栄養補助に	0.000
ユタ	0.000
ママカル	0.000
離島は追加	0.000
▁細粒末	0.000
筋肉をつけたい方や	0.000
猫	0.000
olate	0.000
のちから	0.000
アサイ	0.000
由来のミネラル	0.000
:042	0.000
がとれます	0.000
AY	0.000
ザグザグ	0.000
:10×11×14	0.000
繊維状セルロース	0.000
▁必要以上	0.000
酵母に	0.000
薬を処方	0.000
:8×8×10	0.000
齏	0.000
▁多量摂取により疾病が治癒したり	0.000
商品重量	0.000
たんば	0.000
騙	0.000
は比較的短	0.000
卵乳小麦そば落花生えびかに	0.000
礼	0.000
150-200	0.000
コルビン酸	0.000
トニック	0.000
エイチシー	0.000
und	0.000
杜氏	0.000
におすすめのベストプライス	0.000
礁	0.000
▁アンチオキシデント	0.000
陣	0.000
コンディ	0.000
広告文責アルクネット	0.000
腫瘍	0.000
を基本に	0.000
アメリカ商品区分食品	0.000
トク	0.000
▁〒161-0031	0.000
エンデュ	0.000
送料別途	0.000
一人様	0.000
大麦若葉オーガニック原料	0.000
syou	0.000
ポップ	0.000
霊芝	0.000
松江	0.000
璧	0.000
ップリ	0.000
0.05	0.000
とすると	0.000
パッケージは予告無く	0.000
製法によって抽出された植物	0.000
バイタルケアーズ生産国	0.000
膝	0.000
▁ワカサプリ	0.000
彦	0.000
酵素で	0.000
/4902888720	0.000
ATION	0.000
ジョン	0.000
庭	0.000
も配合しており	0.000
終売	0.000
腿	0.000
スルファム	0.000
筋肉に吸収されやすい	0.000
ness	0.000
▁ポンド	0.000
共役	0.000
代引料も無料	0.000
向けのネイチャーメイドは	0.000
レン酸	0.000
カルシウムと鉄	0.000
のお色	0.000
頸	0.000
ASIC	0.000
容赦下さい	0.000
特定保健	0.000
亢	0.000
クッキング	0.000
耗	0.000
◇】<	0.000
衛	0.000
━━━━━━━━━━━━━━━━━━━━━━━━━━━━	0.000
添加した	0.000
▁大好評の企画開催中	0.000
乳由来の生理活性物質	0.000
が広がります	0.000
長い時間体に残る天然のビタミン	0.000
注文が集中した場合など	0.000
便利なスプレータイプです	0.000
椿	0.000
銀行	0.000
やボディビルダー	0.000
ж	0.000
充足	0.000
枇杷	0.000
トップブランド	0.000
3535	0.000
トム	0.000
甘酸っぱさ	0.000
原材料原材料	0.000
在庫切れで販売でき	0.000
ピロリン酸	0.000
その他アレルギー	0.000
七	0.000
×17	0.000
ーパース	0.000
エーカルシウム	0.000
入り数	0.000
ブラジル産の	0.000
危	0.000
海のミルク	0.000
佐久間製菓	0.000
謹	0.000
融	0.000
商品出荷までに約	0.000
郎	0.000
知らせ致します	0.000
でご連絡	0.000
▁スポーツキャンディー	0.000
ガル	0.000
5-00	0.000
諫	0.000
姉妹	0.000
プロテインバーです	0.000
▁ネイチャーズウェイ社製	0.000
オイルミルズ	0.000
の在庫状況	0.000
原料を吟味	0.000
厳しい品質管理	0.000
バリー	0.000
▁楽天国際配送対象店舗	0.000
167×	0.000
消費されるビタミンです	0.000
外装フィルム	0.000
の場合がございます	0.000
審	0.000
んばるの素	0.000
ンケル	0.000
オークション	0.000
▁食品という商品の性質上	0.000
▁サロン	0.000
IR	0.000
定めはありませんが	0.000
退任	0.000
ジョイ	0.000
お時間をいただきます	0.000
その際には早急に	0.000
▁使用目安	0.000
カラダづくりに励む若手アスリート	0.000
バランスよく配合された	0.000
させて作った	0.000
坂	0.000
グリコー	0.000
を含有した保健機能食品	0.000
保障	0.000
▁発売	0.000
ミールリプレイスメントパウダー	0.000
ネット限定	0.000
ウメケン	0.000
の一貫	0.000
発送が遅れたり	0.000
×6×11	0.000
クルク	0.000
OGB	0.000
▁どんな商品	0.000
▁フリー	0.000
erti	0.000
HCA	0.000
80.0%(	0.000
みつ	0.000
続的に	0.000
▁0772-20-3388	0.000
からのお取り寄せになるため	0.000
働きと	0.000
心に	0.000
ウイダー独自	0.000
中学生	0.000
のプレゼントは	0.000
米国製	0.000
ひとつで青汁と酵素の	0.000
ht	0.000
日服用	0.000
滋養	0.000
顆	0.000
広告文責株式会社マツモトキヨシ	0.000
-89	0.000
▁スポーツショップ専用品	0.000
以上の酵素系に関与しています	0.000
材質	0.000
やコンドロイチン	0.000
パワーカルシウム	0.000
却	0.000
****	0.000
ダイエタリー	0.000
ゼイン	0.000
郷	0.000
トコフェロールも含有	0.000
児の手の届かないところに	0.000
▁粒状	0.000
姫	0.000
本体価格	0.000
お時間がかかります	0.000
津	0.000
茨	0.000
▁対応のブラウザで	0.000
と感じる前に	0.000
全のため	0.000
ポンド	0.000
鰻	0.000
強化剤	0.000
照	0.000
広告	0.000
警戒	0.000
▁番	0.000
多少色のバラツキ	0.000
円以上で代引料無料	0.000
梱	0.000
巻	0.000
ヨーグルトドリンク	0.000
からのお取り寄せ	0.000
の摂取量の目安	0.000
値段を気にせず	0.000
中症	0.000
KTK	0.000
サイエン	0.000
Men	0.000
出荷となります	0.000
調子を整えるために	0.000
盟	0.000
取り寄せ商品	0.000
渉	0.000
憐	0.000
溝	0.000
ようお願いします	0.000
や美容が気になる方	0.000
▁総トコフェロール	0.000
▁サプリメントシリーズ	0.000
エリア	0.000
▁サイズ個装サイズ	0.000
の蓄積	0.000
▁食後や運動後に	0.000
後のキャンセル	0.000
酎	0.000
ご注意下さいませ	0.000
ステア	0.000
を行なう	0.000
&#41;	0.000
:2013	0.000
雇	0.000
フラビン	0.000
==	0.000
特記事項	0.000
令塔	0.000
当選	0.000
岳	0.000
たんぱく質の合成に不可欠です	0.000
(580	0.000
前に必ずこちら	0.000
▁FOR	0.000
マッスルビルディングタイプ	0.000
敬老の日	0.000
ODY	0.000
ぷん	0.000
小売	0.000
綜	0.000
や運動後に	0.000
▁株式会社ジャパン	0.000
入門者	0.000
健康応援団	0.000
▁sa	0.000
プレイス	0.000
▁〒555-0024	0.000
斑	0.000
準備	0.000
タテ	0.000
EM	0.000
こまめな摂取	0.000
腱鞘	0.000
溶いても	0.000
お時間を頂く場合がございます	0.000
いた場合でも	0.000
:072-626	0.000
>8000	0.000
噛み砕	0.000
ドーピング機構の	0.000
▁ウメケン	0.000
樟	0.000
フェイカリス菌	0.000
体内酵素の正常な	0.000
離島除く	0.000
お薬を服用	0.000
匠	0.000
炊飯に	0.000
プロポリスエキス	0.000
▁入り数	0.000
▁ウチダ	0.000
酌	0.000
3.24	0.000
めな	0.000
▁えび	0.000
濱	0.000
がないので水感覚で	0.000
453	0.000
昆	0.000
オットジンク	0.000
系アスリートのプロテイン	0.000
▁ユニカル	0.000
:0120-25	0.000
:03-6715-8835	0.000
GC	0.000
み換え	0.000
魚介	0.000
土日祭日	0.000
風化造礁サンゴ	0.000
▁ソイジョイ	0.000
豊年	0.000
渓	0.000
及び容量	0.000
-23	0.000
▁(086-207-6300	0.000
ッセ	0.000
の都合により	0.000
▁Vitalcares	0.000
入金確認	0.000
凛乃	0.000
催	0.000
q	0.000
oman	0.000
アンモニウム	0.000
製造会社	0.000
誉	0.000
持続型	0.000
さらりと	0.000
▁っ	0.000
遅れたり	0.000
離島へ	0.000
にかかわらず	0.000
エヌエス	0.000
堺	0.000
▁在庫状況は常に変動しております	0.000
争	0.000
エイジングケアにも	0.000
□	0.000
あたりエネルギー	0.000
をもと	0.000
の略	0.000
駿	0.000
裸	0.000
シック	0.000
▁オットジンク	0.000
277	0.000
水に溶かしてください	0.000
樋	0.000
をベース	0.000
うな	0.000
威	0.000
▁女性に必要な栄養素がギュッ	0.000
睾	0.000
配合で総合的に	0.000
鮫	0.000
喰	0.000
生理活性物質	0.000
酵	0.000
もしく	0.000
!※	0.000
釜に	0.000
塩化マグネシウム	0.000
▁スプ	0.000
▁クリアタイプ	0.000
▁03-3572-3559	0.000
含有食品原材料名	0.000
カゼインホス	0.000
▁we	0.000
を配合した栄養補助食品です	0.000
難消化性	0.000
多少色の	0.000
普段の食生活では	0.000
▁お取り寄せ商品の為発送まで	0.000
杉	0.000
亜鉛とセレン	0.000
髭剃	0.000
颯	0.000
食後または食中	0.000
│	0.000
男性にもおすすめのビタミンです	0.000
fit	0.000
潅	0.000
TEIN	0.000
がどう	0.000
繋	0.000
枸杞	0.000
君	0.000
水などの飲み物	0.000
を重	0.000
大特価	0.000
瞬発系アスリートへ	0.000
仕様形状	0.000
季	0.000
:0〜0.3	0.000
に仕上げた	0.000
楽天シニア市場	0.000
にお役立ていただきたい	0.000
ith	0.000
プロテインシェイクです	0.000
日用品	0.000
▁アンダーアーマー	0.000
テナンス	0.000
飢餓	0.000
痔	0.000
糊	0.000
と夜	0.000
モリス通販	0.000
▁定形外なら送料	0.000
成分等が	0.000
▁LIGHT	0.000
詳細なお	0.000
▁アイリス	0.000
遥	0.000
磐	0.000
995	0.000
獣	0.000
▁エル	0.000
串	0.000
gn	0.000
シンエイ	0.000
★5	0.000
策	0.000
ご注文確認メール	0.000
▁東京都新宿区高田馬場	0.000
spwrp	0.000
カルシウム強化剤	0.000
バロウ	0.000
詮	0.000
避	0.000
摂取量の目安	0.000
但	0.000
カラダづくりに適した	0.000
筋肉づくりに	0.000
▁人気のミネラル亜鉛を	0.000
警	0.000
隔	0.000
遍	0.000
米ぬかから抽出された	0.000
若いアスリート	0.000
の維持や調節	0.000
やクロム	0.000
円から	0.000
網	0.000
▁アルツー	0.000
胚	0.000
円以上のお買い上げ	0.000
クリス	0.000
ラル	0.000
晩酌	0.000
円以上のお	0.000
▁ジャンル	0.000
通信販売	0.000
仕様賞味期間	0.000
日以内に	0.000
他の商品と同梱	0.000
嶼	0.000
某	0.000
株式会社メディ	0.000
円以上お買上げで	0.000
専売	0.000
×110	0.000
中の商品	0.000
粒サイズ個装サイズ	0.000
▁予めご了承	0.000
おかずとして	0.000
暴走	0.000
img	0.000
:185	0.000
CLE	0.000
エクスプレス	0.000
においしさ	0.000
ベジタブルコーティング	0.000
Do	0.000
賞味期限の最新のものをご準備	0.000
11413	0.000
と相性が良く働きを助けます	0.000
傘	0.000
讃	0.000
応援団	0.000
生活雑貨	0.000
ッスル	0.000
▁販売名	0.000
城	0.000
濃縮乳清活性	0.000
でポイント	0.000
▁商品ポイント	0.000
必ずご確認	0.000
seas	0.000
▁大きなからだづくりに必要な	0.000
ヲ	0.000
椒	0.000
股	0.000
工場にて	0.000
ニコチン酸	0.000
メール便代引き不可	0.000
配合で吸収率	0.000
ENTAI	0.000
水やぬるま湯などで	0.000
商品名に記載	0.000
救	0.000
デント	0.000
▁ビタ	0.000
定形外	0.000
ッジ	0.000
▁白元	0.000
孝	0.000
仕入先	0.000
▁オルニチン	0.000
▁★<	0.000
美味しく食べられる	0.000
略	0.000
カゼインたんぱく	0.000
▁和光堂	0.000
沿	0.000
▁外装に記載	0.000
口の中に	0.000
迫	0.000
爆発力を	0.000
グロ	0.000
〒	0.000
トラス	0.000
體	0.000
ナウバロウ	0.000
CIENCE	0.000
に乳	0.000
取消	0.000
日摂取量の	0.000
暫	0.000
丈	0.000
の筋肉作りに欠かせない	0.000
を防	0.000
棄	0.000
日後発送	0.000
ヅ	0.000
刷	0.000
国際配送	0.000
アウトレット	0.000
▁東京都墨田区	0.000
グルコサミン塩酸塩	0.000
214%)、	0.000
└	0.000
冷たい飲み物	0.000
▁KTK	0.000
袖	0.000
▁在庫状況	0.000
舞	0.000
━━━━━━━━━━━━━━━━	0.000
パワーペプチド	0.000
:7×4×4	0.000
頁	0.000
湖水	0.000
本中	0.000
コンディショ	0.000
噌汁	0.000
お取り寄せ商品です	0.000
▁キムラヤセレクト	0.000
敗	0.000
:0018】	0.000
▁お客様のご都合による返品	0.000
鶴	0.000
▁アシックス	0.000
モストチュアブル	0.000
湿気の	0.000
99.9	0.000
綱	0.000
の子	0.000
筋肉をつけ	0.000
/490288872	0.000
ラインフレーム	0.000
ミネラルも添加した	0.000
ハウスウェルネスフーズ	0.000
カルシウムごはん	0.000
4684	0.000
les	0.000
▁ORBIS	0.000
:022-3	0.000
トコフェロールの中でも	0.000
バナナラテ風味	0.000
の顆粒タイプ	0.000
▁スリー	0.000
の食品規格	0.000
CTIVE	0.000
別途代引手数料	0.000
狛	0.000
低炭水化物	0.000
冒	0.000
FS	0.000
摩擦	0.000
エープライム	0.000
申し訳ございませんが	0.000
6020	0.000
-9091&	0.000
-7555	0.000
日の摂取目安は必ずお守り下さい	0.000
▁Balance	0.000
イラスト	0.000
とたっぷり含有	0.000
請求金額	0.000
代前後の働き盛り	0.000
群の働きや鉄分	0.000
CP	0.000
▁サイズスペック	0.000
諦	0.000
を持つ栄養素です	0.000
トルリン	0.000
を送信致します	0.000
予告なし	0.000
蛇	0.000
ーパースクイズボトル	0.000
傷ついた	0.000
旺	0.000
:12×10×5	0.000
▁ベーシックタイプ	0.000
蚊	0.000
トップアスリートのための	0.000
▁品番	0.000
察	0.000
や運動量	0.000
1-33-13	0.000
色の見え	0.000
▁5%	0.000
▁株式会社ジャード	0.000
朴	0.000
LL	0.000
ラト	0.000
沖縄県産	0.000
が付	0.000
調子を整える	0.000
ージュ	0.000
かつ高いタンパク含有率	0.000
われる方に	0.000
▁外装	0.000
などにつきましては	0.000
プロテインスプーン	0.000
コンセント	0.000
おいしさで	0.000
クマ式	0.000
早急に	0.000
▁激安インクジェットの勉強堂	0.000
顕著	0.000
クッキ	0.000
骸	0.000
磁	0.000
朽	0.000
高品質かつ	0.000
エヌ	0.000
ニチン	0.000
here	0.000
礁サンゴ	0.000
▁補完医療	0.000
緻	0.000
559	0.000
甘酸	0.000
高田	0.000
▁have	0.000
開催中	0.000
▁梅	0.000
ご注文後の	0.000
鏑	0.000
洪	0.000
廳	0.000
仕様賞味期限	0.000
ジューシー	0.000
的確に	0.000
▁カイホー	0.000
2-7	0.000
ナリエラ	0.000
隕	0.000
	0.000
趣	0.000
勢	0.000
応援します	0.000
ヴァーム	0.000
季節の変わり	0.000
▁豊年	0.000
イキ	0.000
▁エリスリトール	0.000
餘	0.000
イタル	0.000
の原因にもなる	0.000
熨斗	0.000
/490288	0.000
徴	0.000
後の出荷となります	0.000
雷	0.000
メーカー取り寄せ	0.000
紙仕様賞味期間	0.000
ケージ	0.000
淵	0.000
有限	0.000
なくなる可能性が	0.000
とるのがおすすめです	0.000
▁2034	0.000
▁PUR	0.000
181;	0.000
炒	0.000
モト	0.000
シーンを選ばず	0.000
ゞ	0.000
新宿区	0.000
しなやかで	0.000
▁セルフコントロールシリーズ	0.000
デザ	0.000
7-30	0.000
お中元	0.000
漏	0.000
奈川県	0.000
●2012	0.000
▁不足している	0.000
枯	0.000
のち	0.000
退職	0.000
▁常盤	0.000
スーパークリア	0.000
ガルシニアを配合	0.000
エントリーでポイント最大	0.000
隙	0.000
ーバー	0.000
合資会社ミドリ薬局	0.000
交換はお受けできませんので	0.000
を楽し	0.000
の元気も応援します	0.000
)0120-6	0.000
唾	0.000
不規則	0.000
仮	0.000
4562165480	0.000
恒	0.000
崇	0.000
はお受けすることが出来ません	0.000
篠	0.000
▁標準栄養成分分析値	0.000
シリーズです	0.000
ビール酵母に混合して作りました	0.000
煙草	0.000
ップル	0.000
東京都新宿区西落合	0.000
プー	0.000
聖	0.000
勧	0.000
御了承下さい	0.000
レイション	0.000
▁必要	0.000
ルゲン	0.000
:0120-345-132	0.000
褒	0.000
贈	0.000
ほんのり甘い	0.000
お届けまでに多少	0.000
腸管で	0.000
▁アメリカでも人気のビタミン	0.000
▁粉末顆粒	0.000
詞	0.000
▁大阪市西淀川区野里	0.000
のプレゼント	0.000
なた	0.000
唐	0.000
詳細をご	0.000
円スタート	0.000
否	0.000
商品ポイント	0.000
▁おすすめの摂取方法	0.000
轄	0.000
▁Fat	0.000
葵	0.000
にもお勧め	0.000
さらりと飲める	0.000
溶けやすくなり	0.000
枕	0.000
◆【	0.000
賃	0.000
稀	0.000
/49468426	0.000
ance	0.000
アイネイチャー	0.000
セレクト	0.000
疲労が取れにくいとこぼす	0.000
をめ	0.000
▁広告文責及び商品問い合わせ先	0.000
*10	0.000
丼	0.000
▁商品の詳細商品名	0.000
▁乳酸	0.000
ポイント消化にも	0.000
及び妊娠	0.000
請	0.000
が気になる方までお勧め	0.000
ジャード	0.000
日掛かります	0.000
ターズ	0.000
まさにトップアスリートのための	0.000
▁NATURE	0.000
堅	0.000
株式会社住商ドラッグストアーズ	0.000
セルフコントロールシリーズ	0.000
栄養素等表示基準値に対する	0.000
▁MAK	0.000
メールにてご連絡差し上げます	0.000
がっちりした	0.000
篭	0.000
リーブ	0.000
ースの	0.000
∨	0.000
杖	0.000
党	0.000
取るのが	0.000
▁原材料ハチミツ	0.000
製法は高いたんぱく質含有率	0.000
×45	0.000
楽天勝利でポイント最大	0.000
っておりますが	0.000
舐	0.000
からの直送	0.000
▁WAY	0.000
▁発送に	0.000
仏	0.000
バランスのとれたビタミン	0.000
▁098	0.000
迎	0.000
マツ	0.000
タバコを多く吸われる方に	0.000
レビューのプレゼントは化粧品	0.000
アスリートのカラダづくり	0.000
/49028887	0.000
スン	0.000
商品の発送	0.000
ステム	0.000
本製造国ブラジル	0.000
cium	0.000
吸収型ビタミン	0.000
▁兵庫県神戸市	0.000
水によく	0.000
のため多少前後致します	0.000
葛	0.000
コンセ	0.000
▁亜鉛はカキに多く含まれ	0.000
をはじめビタミン	0.000
お祝い	0.000
軍	0.000
莫	0.000
は比較的	0.000
マトコッカス藻	0.000
recare	0.000
従	0.000
のもととなる	0.000
お子様から	0.000
▁エルカルシウム顆粒	0.000
痒	0.000
uten	0.000
サイドメッシュ	0.000
▁健康フーズ	0.000
髑髏	0.000
が気になる方まで	0.000
を吸われる	0.000
から発送まで	0.000
ゲルマ	0.000
ョ	0.000
代引料	0.000
当店自慢の加工はこちら	0.000
ノコギリ	0.000
kenko	0.000
薬品商事	0.000
業務	0.000
必要なタンパク質	0.000
ブルー	0.000
▁仕様その他容量	0.000
つの主要な	0.000
▁あらかじめご了承くださいませ	0.000
栄養素をバランス良く	0.000
ken	0.000
-338	0.000
除脂肪	0.000
エーザイ	0.000
桜	0.000
エクス	0.000
sports	0.000
:9×6×11	0.000
セット内容	0.000
▁予めご容赦下さい	0.000
琥珀	0.000
阪	0.000
イノシ	0.000
================	0.000
刃	0.000
▁葉酸プラス	0.000
品質には全く問題ありません	0.000
▁自然の食品	0.000
訪	0.000
ピルリナ	0.000
だけの簡単	0.000
濃縮乳清	0.000
もり	0.000
宇宙航	0.000
▁店頭在庫ではなく	0.000
:0.16	0.000
狭	0.000
の精製方法	0.000
週間前後の	0.000
フォルニア	0.000
▁株式会社バイタルケアーズ	0.000
かむ	0.000
週間前後の発送予定です	0.000
短距離	0.000
曇	0.000
生まれました	0.000
被包	0.000
▁製造国アメリカ合衆国	0.000
在庫切れの際はご了承ください	0.000
よろ	0.000
eider	0.000
日分です	0.000
虚	0.000
地域除く	0.000
をお確か	0.000
仕入	0.000
応募	0.000
ハングリーな筋肉にエネルギーを	0.000
デリシャスタイプ	0.000
×21	0.000
\	0.000
拮	0.000
購	0.000
橙	0.000
ムカム	0.000
メーカー在庫切れ	0.000
ポイント消化	0.000
▁あらかじめご了承ください	0.000
撮	0.000
▁植物由来の	0.000
もちろ	0.000
妄	0.000
▁スタンダード	0.000
廃番	0.000
補完医療	0.000
ナリ	0.000
クヮーサー	0.000
苔	0.000
曝	0.000
朗	0.000
▁当日	0.000
mic	0.000
ツバメの巣エキスも配合	0.000
速攻	0.000
製法によりおいしく	0.000
▁ココがポイント	0.000
必須不飽和脂肪酸	0.000
省略	0.000
齋	0.000
なカラダづくり	0.000
他のプロテイン	0.000
▁商品の詳細なお問い合わせ	0.000
在庫切れとなっている	0.000
239	0.000
お子様が手にした場合に	0.000
kuten	0.000
ealth	0.000
粟	0.000
蒼朮	0.000
挙	0.000
(75	0.000
合衆	0.000
カロリーオーバー	0.000
フェルラ	0.000
▁代金引換以外の	0.000
ナップ	0.000
腕	0.000
ADA	0.000
型乳酸だから体に優しく溶けやすい	0.000
の手の	0.000
からのお	0.000
:0.07	0.000
クリニック	0.000
ーパ	0.000
カサプリ	0.000
チョウ	0.000
乃	0.000
発送予定日のご連絡です	0.000
させて頂	0.000
咲	0.000
種類以上の酵素	0.000
盲	0.000
電解	0.000
貼	0.000
序	0.000
免	0.000
スペック情報	0.000
メールにてお知らせ	0.000
峰	0.000
(0995-57-	0.000
倉	0.000
▁弊社よりの	0.000
予防を心がけることは大切	0.000
粉末にしたものとビタミン	0.000
バラン	0.000
港	0.000
締	0.000
卜	0.000
働き盛り	0.000
▁水晶	0.000
摂取される	0.000
運動後など	0.000
タイムリリーズ加工が施してあり	0.000
年間製造国日本	0.000
メーカーが	0.000
時期によってメーカー在庫切れ	0.000
まわり	0.000
登	0.000
奇	0.000
偽	0.000
含有物	0.000
シアノコ	0.000
お届けに	0.000
を実現したホエイタンパク	0.000
召し上がりやすい	0.000
んべ	0.000
蟹	0.000
笠	0.000
胤	0.000
坐	0.000
の変	0.000
頻	0.000
葡萄	0.000
税別	0.000
酸化防止	0.000
▁NEXT	0.000
響	0.000
パプリカ	0.000
牧	0.000
和漢	0.000
奉	0.000
茯苓	0.000
━━	0.000
▁かに	0.000
保存料は不使用	0.000
のバランスや	0.000
ロングセラー	0.000
湛	0.000
>*	0.000
微粒子	0.000
バイタル	0.000
日分サイズ	0.000
風化ニシキ貝貝殻	0.000
HT	0.000
ドラッグストア	0.000
栄養食品です	0.000
1,080	0.000
▁~	0.000
仕様と特徴仕様と特徴	0.000
▁製品詳細	0.000
リーな	0.000
円が別途必要	0.000
▁大豆パワーで理想のカラダづくり	0.000
ポイント利用	0.000
▁割引	0.000
プロダ	0.000
澄	0.000
リドキシン	0.000
▁神奈川県横浜市金沢区福浦	0.000
ラトリーズ	0.000
ミネラルの吸収を助ける	0.000
エコ	0.000
olid	0.000
洒	0.000
継続的に	0.000
)(0	0.000
KD	0.000
週間以上のお	0.000
録	0.000
と特徴	0.000
製法により精製された	0.000
表示成分	0.000
2980	0.000
籾	0.000
゚	0.000
は常に変動しております	0.000
双	0.000
ピーナッツバター	0.000
僚	0.000
▁TWINLAB	0.000
型乳酸に	0.000
ign	0.000
スクープの	0.000
ドッキング	0.000
が治	0.000
餌	0.000
▁ご注文後	0.000
で熟成し	0.000
▁NATUR	0.000
い次第	0.000
-67-5	0.000
▁)『	0.000
功	0.000
日々のストレスや	0.000
▁トコ	0.000
帳	0.000
扱い	0.000
劇	0.000
蜆	0.000
ことが判明	0.000
稲	0.000
掻	0.000
製造国日本	0.000
おトク	0.000
5032	0.000
取りにくい	0.000
営業日以上かかる場合がございます	0.000
ポカリスエット	0.000
蓮	0.000
のモニター	0.000
最終的な	0.000
ご注文のキャンセル	0.000
この商品はお取り寄せ	0.000
透	0.000
とうもろこし胚芽油	0.000
仁	0.000
錫	0.000
鉢	0.000
2-6	0.000
楽天スーパーセール	0.000
▁ウイダー内容量	0.000
シーンを	0.000
こともございます	0.000
▁エス	0.000
ビング	0.000
をお安く	0.000
胎児の正常な発育	0.000
オレンジパウダー	0.000
×12.2	0.000
庵	0.000
カイホー	0.000
▁ウチダの新	0.000
▁トレーニングや運動	0.000
▁スリーエーカルシウム	0.000
土日祝除	0.000
個から送料無料	0.000
日以内に発送予定	0.000
個装	0.000
カイホ	0.000
や髪の毛	0.000
−3	0.000
鹿	0.000
岐鎖アミノ酸	0.000
績	0.000
ぶどう味のチュアブルタイプ	0.000
掲	0.000
時期によって	0.000
曹	0.000
日前後お時間を頂戴いたします	0.000
▁通院中の方はお医者様	0.000
▁ご理解の程	0.000
栄養素を手軽に美味しく補給	0.000
ーゼ	0.000
摩	0.000
グレー	0.000
お見積もりとなります	0.000
竹	0.000
喘	0.000
はよう	0.000
独自の研究	0.000
異性	0.000
の店	0.000
▁商品の特長	0.000
京橋	0.000
等についての	0.000
憧	0.000
ーチ	0.000
合資会社	0.000
従来以上においしさ	0.000
尊	0.000
ポイント消費	0.000
ぇ	0.000
消費されたエネルギー	0.000
牡蠣抽出物	0.000
失われがちな	0.000
▁SPORT	0.000
学園	0.000
群を補給する必須アイテム	0.000
調理用として	0.000
カロチ	0.000
2.6	0.000
学生	0.000
逸	0.000
ジェット	0.000
ルトラ	0.000
送付	0.000
ぷり	0.000
標準成分表	0.000
お受けできません	0.000
浦	0.000
送信	0.000
コーポ	0.000
択	0.000
▁EGK	0.000
tail	0.000
ディアナチュラシリーズ	0.000
皇	0.000
カスミ	0.000
潟	0.000
ナトリ	0.000
)0120-65-4410	0.000
速攻型ホエイペプチド	0.000
▁14.6	0.000
のでご注文の商品が	0.000
欠かすことのできない	0.000
ont	0.000
ントロール	0.000
飼	0.000
珈琲	0.000
茸	0.000
ウェア	0.000
巡	0.000
/1.0	0.000
回して下さい	0.000
ポピュラー	0.000
ビルダー	0.000
スティック中に	0.000
穂	0.000
離島は送料別途	0.000
生姜	0.000
▁得	0.000
に役立つ栄養素です	0.000
取る	0.000
お歳暮	0.000
残し	0.000
▁メダリスト	0.000
勧めです	0.000
▁0120-449-846	0.000
生理活性物質を高いレベルで	0.000
内訳内容量	0.000
▁ZIP	0.000
▁有限会社起福	0.000
:0120-255-285	0.000
交換はお受け	0.000
バック	0.000
薬を	0.000
定形外送料無料	0.000
鹸	0.000
査	0.000
撹拌	0.000
▁原材料もしくは全成分	0.000
終売している場合がございますが	0.000
体的な	0.000
発注商品	0.000
蘭	0.000
久間製菓	0.000
たんぱく質の原料として	0.000
飢	0.000
大量に摂取される	0.000
ヒロセ	0.000
ハース	0.000
揉	0.000
を加工した	0.000
聖路	0.000
麓	0.000
タウ	0.000
:13300	0.000
摂取したい方	0.000
蕎	0.000
食後をおすすめいたします	0.000
/4511413404	0.000
品質に異常	0.000
蚕	0.000
娘	0.000
▁ヘルスバランス	0.000
ストア	0.000
モグロビン	0.000
総合特徴	0.000
牛乳か	0.000
1-7-30	0.000
盆	0.000
批	0.000
▁dns	0.000
な風味なので	0.000
BASIC	0.000
闇	0.000
水溶性珪素	0.000
美味しく食べられるタブレットです	0.000
と長く吸収される	0.000
ご注文いただいた場合でも	0.000
爆	0.000
ザイム	0.000
レルギー	0.000
を正常に	0.000
培	0.000
賞味期間	0.000
胆	0.000
路	0.000
認定商品です	0.000
▁ライフ	0.000
補いき	0.000
送付先が離島	0.000
適正価格を実現	0.000
侵蝕	0.000
タンパク質を取り除きました	0.000
========	0.000
梶	0.000
週間前後お時間を頂戴いたします	0.000
▁CYTOSPORT	0.000
代引無料	0.000
群の働き	0.000
随	0.000
捕	0.000
AIN	0.000
核酸の代謝に関与	0.000
fam	0.000
酵素に関わる	0.000
-、	0.000
お客さま都合による	0.000
筆	0.000
束分の	0.000
esc	0.000
柔らかで甘酸っぱくジューシーで	0.000
ご案内いたします	0.000
をしっかり閉めて冷暗所に保管し	0.000
/494684263	0.000
WEB	0.000
レギュラーサイズ	0.000
懐	0.000
召上がり方	0.000
▁,	0.000
滋	0.000
サイズ個装サイズ	0.000
交換不可品	0.000
手軽にたっぷり	0.000
さらり	0.000
ットイン	0.000
忘	0.000
鯖	0.000
悩む	0.000
且	0.000
虚弱	0.000
週間前後で出荷となります	0.000
▁発送に約	0.000
芍	0.000
INT	0.000
▁BEST	0.000
釣	0.000
汲	0.000
で発酵	0.000
商品の発送には	0.000
急に	0.000
7〜10	0.000
公式認定商品です	0.000
オンス	0.000
▁平日	0.000
:047-309-8100	0.000
含んだ瞬間	0.000
Β	0.000
▁商品の詳細	0.000
薬業	0.000
▁06	0.000
諏訪	0.000
によって前後しますので	0.000
啓	0.000
八雲産	0.000
▁シュ	0.000
217%)	0.000
筋骨	0.000
にお役立て	0.000
剰	0.000
八雲産風化ニシキ貝貝殻	0.000
さじ	0.000
阿	0.000
恩	0.000
炊飯時お米	0.000
製品記載	0.000
RT	0.000
▁6020	0.000
★★★★	0.000
雌雄	0.000
斎	0.000
小林	0.000
QU	0.000
タリアン	0.000
彼氏	0.000
▁OPTIMUM	0.000
サワ	0.000
イナー	0.000
▁●●	0.000
-88	0.000
ブラウ	0.000
▁仕様規格	0.000
▁近頃物忘れがどうにもひどくて	0.000
遂	0.000
柚	0.000
ジャンル別	0.000
ザバスに関する詳細なお	0.000
7035	0.000
▁BODY	0.000
4560	0.000
デイリーヘルス	0.000
▁近	0.000
粒原材料	0.000
撫	0.000
冷たい牛乳	0.000
雪	0.000
脊髄	0.000
によるリニューアル	0.000
パワースティション大阪	0.000
▁作	0.000
核	0.000
ぃ	0.000
取り寄せ商品となっております	0.000
爆発力を連続的に発揮する	0.000
mc	0.000
クトモロー	0.000
syousai	0.000
シークヮーサー	0.000
LO	0.000
物忘れ	0.000
摂ることが望ましい	0.000
覗	0.000
仕様摂取量の目安	0.000
選ばず	0.000
靡	0.000
▁メイ	0.000
▁MCM	0.000
▁ママカル	0.000
発注後のキャンセル	0.000
製造時期により	0.000
Aug	0.000
最も重要なビタミンです	0.000
の在庫状況をもとに定期的に	0.000
ご注文確認後	0.000
尖	0.000
▁オルビス	0.000
交換は受付けておりません	0.000
▁熟したアセロラの実は	0.000
謎	0.000
魅惑	0.000
濃縮溶液	0.000
44-8810	0.000
闘	0.000
券	0.000
野草酵素	0.000
烏	0.000
空腹時は吸収力が落ちるので	0.000
▁若葉	0.000
▁------	0.000
ふんだんに	0.000
こませない	0.000
▁個装重量	0.000
▁UFC	0.000
まが	0.000
ゆみ	0.000
公認サプリメント提供会社	0.000
デオ	0.000
20〜30	0.000
衡	0.000
220926】	0.000
青汁酵素粒	0.000
准教	0.000
連絡いたします	0.000
程で傷ついた変性	0.000
トコフェロールも含有し	0.000
ドーピング機構	0.000
様物質	0.000
癌	0.000
▁te	0.000
▁水に溶けて粉っぽくない	0.000
広がります	0.000
▁045	0.000
群も配合しており	0.000
捻挫	0.000
ギャ	0.000
騰	0.000
こま	0.000
泳	0.000
予めご理解いただけます	0.000
ませない	0.000
桧	0.000
ピュ	0.000
づかう	0.000
▁ナウフーズ	0.000
襲	0.000
唆	0.000
諸症状の緩和	0.000
晰	0.000
うれ	0.000
▁------●	0.000
水又は	0.000
ビタファイン	0.000
ミュ	0.000
▁ミキ	0.000
風化貝化石	0.000
惑	0.000
▁ウイダージュニアプロテイン	0.000
にて御確認下さい	0.000
析	0.000
フェイ	0.000
那	0.000
WEIDER	0.000
ッカス	0.000
ではお	0.000
は高吸収に加えて	0.000
:04	0.000
レクト	0.000
セリ	0.000
▁弊社	0.000
西淀川区	0.000
主として使用	0.000
ダード	0.000
▁ハチミツプロポリス	0.000
)◆<	0.000
警鐘	0.000
凹	0.000
お時間を頂戴	0.000
姿勢	0.000
ッポン	0.000
保存料は一切	0.000
&#40;	0.000
材質ボトル	0.000
▁中フタ	0.000
露	0.000
嗜	0.000
尋	0.000
▁ナウ	0.000
僕	0.000
秤	0.000
93-8	0.000
当店からお送りする確認	0.000
聴	0.000
品質保全のため	0.000
をさけてください	0.000
等予告なく変更	0.000
のおすすめ	0.000
全ての商品で在庫はほとんど持	0.000
tein	0.000
打撲	0.000
が問題	0.000
お取り寄せの為	0.000
▁美容室	0.000
すめ	0.000
):1〜3	0.000
は必ず	0.000
▁店頭でも販売している為	0.000
美味しいので	0.000
tsw	0.000
紅花油	0.000
をよくお読み	0.000
▁アスリートやボディビルダー	0.000
care	0.000
tai	0.000
)、1	0.000
錠入り	0.000
Ц	0.000
989	0.000
ついておりません	0.000
溶解剤	0.000
かむなど	0.000
を気にせずガンガン	0.000
胚芽油	0.000
徹	0.000
瓜	0.000
メール便不可商品です	0.000
イアン	0.000
鎮	0.000
取り組む方のために	0.000
忌	0.000
菱	0.000
lex	0.000
▁豊	0.000
賜	0.000
ごい	0.000
週間前後で	0.000
凄	0.000
マルチタブ	0.000
たっ	0.000
tb	0.000
日々の健康維持	0.000
りますが	0.000
当選者	0.000
発送予定	0.000
ゼント	0.000
基づ	0.000
発送目安	0.000
運輸	0.000
烈	0.000
は下記までお願いします	0.000
ッコ	0.000
スコア	0.000
メーカー欠品により	0.000
▁フォーミュレイション	0.000
鎌	0.000
窒	0.000
ご注文されてから発送される	0.000
3・	0.000
製造日より未開封	0.000
個製造国アメリカ	0.000
▁こちらの商品はメーカー	0.000
をもっと手軽に	0.000
▁ココ	0.000
美と若さ	0.000
とに	0.000
不要な乳糖	0.000
×50	0.000
下さいます	0.000
顆粒タイプで	0.000
ミネラル液	0.000
着目	0.000
エット	0.000
遙	0.000
▁株式会社ウメケン	0.000
壮	0.000
-3388	0.000
×19	0.000
ポリフェノールの一種フェルラ酸を	0.000
水などといっしょ	0.000
在庫確認後詳細をご連絡いたします	0.000
タバコを多く	0.000
855	0.000
日ほどお時間を頂戴いたします	0.000
テクノロジー社	0.000
アスリートのたんぱく質補給	0.000
をバックアップする植物性	0.000
貢献	0.000
(12.4	0.000
新鮮直送	0.000
商品出荷	0.000
ナショナル	0.000
怒	0.000
公財	0.000
▁シュッとひと吹きするだけの簡単	0.000
蕾	0.000
改訂	0.000
清涼	0.000
050-3444-5357	0.000
ule	0.000
▁CHAMPION	0.000
廣	0.000
ブラジル産のアセロラ果実を搾り	0.000
精製課	0.000
日の摂取目安をお守り下さい	0.000
叩	0.000
から抽出したビタミン	0.000
週間以上	0.000
量の目安	0.000
tter	0.000
毎日大量出品	0.000
アプロ	0.000
大豆粉	0.000
童	0.000
TIM	0.000
▁粉糖	0.000
黄金	0.000
ヤル	0.000
堂薬局	0.000
▁目安のため多少前後致します	0.000
鱗	0.000
或	0.000
貰	0.000
ロイチン	0.000
習	0.000
顧賜	0.000
伐	0.000
▁補完医療製薬	0.000
▁コーベヤ	0.000
▁ご注文確認	0.000
490277	0.000
▁株式会社健康体力研究所	0.000
▁̄	0.000
売切れ	0.000
を高いレベルで	0.000
敷居	0.000
寺	0.000
さまざま	0.000
psu	0.000
▁でも売切れている	0.000
燐	0.000
1305	0.000
傷つ	0.000
頓	0.000
▁協和	0.000
ファチジル	0.000
発送日	0.000
しだ	0.000
敦	0.000
.0852-28-5453	0.000
塚	0.000
据	0.000
糠	0.000
のがおすすめです	0.000
宛	0.000
の摂取方法	0.000
抽出水溶性珪素	0.000
などの働き	0.000
賞味	0.000
取り除きました	0.000
▁協和薬品	0.000
▁在庫状況やお届け地域	0.000
血球	0.000
閲	0.000
pping	0.000
▁POINT	0.000
12/1.4	0.000
を増やしたい	0.000
粉っぽ	0.000
0.0%(	0.000
田七	0.000
怖	0.000
躍	0.000
を行なうアスリートにとって	0.000
モロコシ	0.000
励	0.000
噛み	0.000
、85	0.000
のが特徴	0.000
round	0.000
サプリメントで補いましょう	0.000
税	0.000
クルクミン	0.000
▁4973	0.000
の注意点	0.000
醋	0.000
製法は牛乳がも	0.000
腱	0.000
ポーツ	0.000
●●	0.000
精製課程で傷ついた変性	0.000
モスト	0.000
アザ	0.000
▁店頭でも	0.000
▁発売以来	0.000
クトオリゴ糖	0.000
災	0.000
予告無く	0.000
懸	0.000
sium	0.000
海洋深層	0.000
噴霧	0.000
:415	0.000
ギムネ	0.000
▁0766−28−5093	0.000
円以上お買上げ	0.000
▁広	0.000
予めご理解	0.000
は全部のビタミンの中で	0.000
幾	0.000
個で代引料も無料	0.000
ドロップス	0.000
イオン化カルシウムカイホー	0.000
日用品のサンプルです	0.000
影	0.000
アスコルビ	0.000
乍	0.000
食中	0.000
キサンタン	0.000
EIDER	0.000
酪	0.000
▁RAINBOW	0.000
韓	0.000
ソルト	0.000
外品	0.000
466	0.000
ミネラルの補給をお勧めします	0.000
767	0.000
遺	0.000
まがぬま	0.000
演	0.000
メーカーよりお取り寄せしますので	0.000
フレー	0.000
に在庫	0.000
トコフェロール以外にも	0.000
絹	0.000
どなたにも	0.000
▁アイネイチャー	0.000
が風化	0.000
茄	0.000
プレイスメント	0.000
御注文	0.000
/40	0.000
ベーシックタイプ	0.000
に仕上げたカルシウム強化剤です	0.000
バラツキ	0.000
20-2	0.000
食事のバランスを気に	0.000
チャン	0.000
/360	0.000
薫	0.000
03-3	0.000
実施	0.000
▁ヒュー	0.000
決済をご選択ください	0.000
復	0.000
:61.6	0.000
が施して	0.000
▁有限会社ボンペックスジャパン	0.000
はお取り寄せ	0.000
藷	0.000
日程お時間がかかります	0.000
ビオフラボノイド	0.000
▁高温多湿な場所	0.000
47-3	0.000
▁エルフ	0.000
精製方法	0.000
不足で	0.000
などは一切使用していません	0.000
寄りまで	0.000
▁島根県	0.000
フラボン	0.000
粗製海水塩化マグネシウム	0.000
彰	0.000
原材料の一部に以下を含んでいます	0.000
八重	0.000
誘	0.000
カルシウム粒状	0.000
粉っぽくない	0.000
摂取すると軟便	0.000
弔	0.000
▁当日発送	0.000
テクノ	0.000
肢	0.000
撃退	0.000
停滞	0.000
df	0.000
▁SOYJOY	0.000
原材料紅花油	0.000
とは異なります	0.000
フト	0.000
/4987035	0.000
聡	0.000
スーパータブ	0.000
廠	0.000
▁ホルモンのバランスや	0.000
船舶	0.000
水に溶け易く	0.000
【10	0.000
▁○【	0.000
いただけません	0.000
▁.【	0.000
セルフ	0.000
-40	0.000
慌	0.000
ツバメの巣	0.000
▁〒104-8002	0.000
週間前後	0.000
隼	0.000
▁アイテム	0.000
配合でリカバリーをサポート	0.000
アイリス	0.000
ソイジョイ	0.000
チダ	0.000
スティション	0.000
一粒中に大豆から抽出したビタミン	0.000
衆	0.000
代引料無料	0.000
合成の原料になる大切なミネラル	0.000
随時	0.000
代金引換不可商品です	0.000
通常発送日までの目安	0.000
掛か	0.000
噂	0.000
椰	0.000
▁Pow	0.000
漠	0.000
▁基礎栄養素	0.000
横浜市	0.000
吸収力も高まります	0.000
時間をいただく	0.000
チオキシデント	0.000
健康フーズ	0.000
冶	0.000
キューブ	0.000
澱	0.000
最も多く含まれる	0.000
重要な働きをする必須ミネラルです	0.000
:0.65	0.000
はお好み	0.000
訴	0.000
箔	0.000
エフ	0.000
お客様は	0.000
樽	0.000
勘	0.000
▁ta	0.000
余年のロングセラー商品です	0.000
媛	0.000
▁乳幼	0.000
客	0.000
▁落花生	0.000
ワブル	0.000
コウ	0.000
境	0.000
ニシキ	0.000
hipping	0.000
亜鉛とセレンを含む酵母に	0.000
ギュッ	0.000
繊	0.000
忠	0.000
▁Isolate	0.000
腔	0.000
▁メイワ	0.000
運動直後の	0.000
羅羅	0.000
パワースティション	0.000
▁098-9	0.000
檎	0.000
▁ネイチャーズリソース	0.000
日後の出荷となります	0.000
スーパーデリシャスタイプ	0.000
凌	0.000
以外の商品	0.000
大豆から抽出したビタミン	0.000
