<unk>	0
<s>	0
</s>	0
バッ	-0
ます	-1
バッグ	-2
cm	-3
ット	-4
です	-5
サイ	-6
ケット	-7
サイズ	-8
商品	-9
ポケット	-10
ック	-11
ショ	-12
います	-13
ート	-14
ダー	-15
▁【	-16
ります	-17
▁■	-18
】【	-19
場合	-20
さい	-21
ール	-22
して	-23
ルダー	-24
ブラ	-25
って	-26
ので	-27
イン	-28
素材	-29
ショルダー	-30
ーチ	-31
ござ	-32
ございます	-33
ファ	-34
00	-35
ンド	-36
送料	-37
ース	-38
ディ	-39
ラー	-40
した	-41
▁※	-42
くだ	-43
ナー	-44
br	-45
ント	-46
ポーチ	-47
る場合	-48
了承	-49
カラー	-50
ください	-51
ご了承	-52
ティ	-53
リー	-54
など	-55
ファス	-56
ファスナー	-57
トート	-58
ザー	-59
いた	-60
ップ	-61
がございます	-62
にも	-63
によ	-64
いて	-65
無料	-66
10	-67
使用	-68
ング	-69
バック	-70
キャ	-71
スト	-72
マチ	-73
×1	-74
レザー	-75
▁サイズ	-76
異な	-77
持ち	-78
.5	-79
20	-80
送料無料	-81
sp	-82
ませ	-83
使い	-84
があ	-85
メール	-86
--	-87
内側	-88
ショルダーバッグ	-89
▁●	-90
ター	-91
デザ	-92
パー	-93
te	-94
▁&	-95
下さい	-96
デザイン	-97
ブランド	-98
にな	-99
トートバッグ	-100
る場合がございます	-101
ギフ	-102
in	-103
から	-104
▁・	-105
nb	-106
nbsp	-107
多少	-108
ブラック	-109
ージ	-110
▁商品	-111
持ち手	-112
オー	-113
ご了承ください	-114
メール便	-115
レディ	-116
入れ	-117
▁素材	-118
ュー	-119
▁(	-120
付き	-121
12	-122
レディース	-123
ちら	-124
13	-125
キャン	-126
ーン	-127
祝い	-128
注意	-129
!!	-130
収納	-131
▁S	-132
ハンド	-133
こちら	-134
on	-135
▁B	-136
人気	-137
により	-138
15	-139
タイ	-140
でき	-141
対応	-142
部分	-143
ません	-144
あり	-145
カー	-146
いただ	-147
には	-148
ンク	-149
▁\	-150
おります	-151
します	-152
オープ	-153
として	-154
オープン	-155
ロン	-156
され	-157
の商品	-158
ステ	-159
いる	-160
とな	-161
100	-162
▁バッグ	-163
ない	-164
▁2	-165
った	-166
ビュー	-167
バス	-168
or	-169
プレ	-170
▁コ	-171
注文	-172
レビュー	-173
せて	-174
高さ	-175
▁★	-176
11	-177
▁C	-178
30	-179
■【	-180
スメ	-181
▁お	-182
▁P	-183
可能	-184
50	-185
発送	-186
大き	-187
▁フ	-188
at	-189
er	-190
付属	-191
ッチ	-192
仕様	-193
BR	-194
リュ	-195
オープンポケット	-196
ポリ	-197
キャンバス	-198
開閉	-199
ナイ	-200
リュック	-201
an	-202
実物	-203
ar	-204
取り	-205
もございます	-206
モニ	-207
ファスナーポケット	-208
14	-209
があります	-210
やす	-211
が異な	-212
ッピ	-213
ました	-214
では	-215
ラップ	-216
ナイロン	-217
▁*	-218
ヴィ	-219
ウン	-220
アイ	-221
パーティ	-222
でも	-223
クリ	-224
させて	-225
le	-226
トン	-227
ベル	-228
詳細	-229
での	-230
便利	-231
楽ギフ	-232
RC	-233
もの	-234
▁持ち手	-235
られ	-236
▁ショルダー	-237
▁A	-238
見え	-239
ご注文	-240
マル	-241
ある	-242
ミニ	-243
▁W	-244
をご	-245
プレゼ	-246
モニター	-247
▁M	-248
・・	-249
プレゼント	-250
掛け	-251
----	-252
可愛	-253
包装	-254
いい	-255
長さ	-256
16	-257
ON	-258
新品	-259
×2	-260
チェ	-261
ション	-262
ッピング	-263
イト	-264
ステル	-265
▁レディース	-266
の色	-267
こと	-268
ため	-269
本体	-270
ポリエ	-271
▁<	-272
携帯	-273
若干	-274
する	-275
AC	-276
▁約	-277
につ	-278
ケース	-279
生地	-280
価格	-281
あす	-282
エコ	-283
ブル	-284
と実物	-285
ポリエステル	-286
25	-287
▁◇	-288
画像	-289
ットン	-290
ージュ	-291
al	-292
▁カラー	-293
在庫	-294
あす楽	-295
40	-296
となります	-297
19	-298
デイ	-299
いただけ	-300
アル	-301
▁内側	-302
▁D	-303
レー	-304
ギフト	-305
シャ	-306
ヴィトン	-307
co	-308
▁メ	-309
ッド	-310
ブラウン	-311
予め	-312
ay	-313
==	-314
斜め	-315
>【	-316
ご了承下さい	-317
また	-318
よう	-319
日本	-320
ag	-321
バッグです	-322
】<	-323
18	-324
FF	-325
その	-326
をお	-327
プル	-328
ロー	-329
環境	-330
▁ス	-331
状態	-332
によって	-333
っと	-334
かわ	-335
ェイ	-336
しい	-337
あす楽対応	-338
テム	-339
アイテム	-340
イル	-341
合わ	-342
フォ	-343
なので	-344
ピンク	-345
TE	-346
のお	-347
小物	-348
販売	-349
やすい	-350
ンジ	-351
付属品	-352
シュ	-353
当店	-354
▁マチ	-355
100%	-356
使え	-357
っても	-358
RCP	-359
きます	-360
人気の	-361
沖縄	-362
を使用	-363
ーク	-364
外側	-365
させて頂	-366
サック	-367
▁L	-368
まで	-369
パーティー	-370
はこちら	-371
イント	-372
AY	-373
ストラップ	-374
アク	-375
グネ	-376
AN	-377
ベージュ	-378
ルイ	-379
▁ショルダーバッグ	-380
機能	-381
プリ	-382
et	-383
sm	-384
レス	-385
の場合	-386
結婚	-387
ちょ	-388
を書	-389
具合	-390
グラ	-391
▁通	-392
アクセ	-393
ポイント	-394
17	-395
レビューを書	-396
汚れ	-397
バー	-398
OFF	-399
かわいい	-400
コン	-401
可愛い	-402
としても	-403
アン	-404
ハンドバッグ	-405
UI	-406
▁材	-407
タン	-408
tb	-409
この	-410
お使い	-411
チャ	-412
▁ラ	-413
as	-414
かな	-415
旅行	-416
って見え	-417
ter	-418
コー	-419
smtb	-420
35	-421
入り	-422
WAY	-423
付いて	-424
中古	-425
▁シ	-426
実際	-427
客様	-428
:2	-429
▁ブラック	-430
かけ	-431
入荷	-432
買い	-433
合わせ	-434
▁I	-435
出来	-436
しく	-437
説明	-438
クラ	-439
配送	-440
キズ	-441
プリント	-442
っております	-443
▁G	-444
の日	-445
写真	-446
ッズ	-447
の商品は	-448
コーチ	-449
のでご了承ください	-450
CO	-451
ード	-452
女性	-453
シェ	-454
願い	-455
サイド	-456
ススメ	-457
he	-458
▁3	-459
タイプ	-460
る場合もございます	-461
中国	-462
異なる場合がございます	-463
LE	-464
ンプル	-465
ッシュ	-466
▁トートバッグ	-467
とっても	-468
合い	-469
裏地	-470
チェーン	-471
fs	-472
・・・	-473
しました	-474
画面	-475
▁◆	-476
ac	-477
のため	-478
購入	-479
▁ブランド	-480
si	-481
ロゴ	-482
ご注意	-483
ンテ	-484
誤差	-485
ジュ	-486
多少の	-487
オススメ	-488
受け	-489
ても	-490
ACH	-491
コットン	-492
ッション	-493
ho	-494
金具	-495
ホワ	-496
ホワイト	-497
70	-498
ボン	-499
参考	-500
▁マ	-501
▁横	-502
ンチ	-503
パック	-504
28	-505
▁H	-506
■■	-507
北海	-508
北海道	-509
ビー	-510
ジップ	-511
AR	-512
地域	-513
について	-514
はお	-515
スタイ	-516
ts	-517
▁カ	-518
く場合	-519
グネット	-520
;&	-521
mm	-522
▁ボ	-523
AG	-524
ベルト	-525
▁b	-526
ライ	-527
産国	-528
多少色	-529
希望	-530
エコバッグ	-531
ストン	-532
製品	-533
am	-534
画面上	-535
▁☆	-536
しております	-537
ライン	-538
加工	-539
ちょっと	-540
皮革	-541
違い	-542
いたします	-543
32	-544
▁:	-545
ぷり	-546
スマ	-547
ion	-548
es	-549
キュ	-550
限定	-551
っぷり	-552
モニターの	-553
以上	-554
柄の	-555
いただけます	-556
リーズ	-557
px	-558
内ポケット	-559
になって	-560
メル	-561
最適	-562
荷物	-563
たっぷり	-564
▁ア	-565
クト	-566
のある	-567
26	-568
▁K	-569
と実物では	-570
27	-571
画面上と実物では	-572
33	-573
ールド	-574
ハンドル	-575
がけ	-576
スタ	-577
ze	-578
ーカー	-579
引き	-580
なデザイン	-581
▁エ	-582
ティング	-583
80	-584
▁○	-585
▁/	-586
ェイク	-587
デル	-588
id	-589
お客様	-590
日本製	-591
▁リュック	-592
チュ	-593
財布	-594
▁レザー	-595
キュート	-596
24	-597
re	-598
▁重	-599
より	-600
ランク	-601
が異なって見え	-602
▁縦	-603
なし	-604
収納力	-605
ウト	-606
シリーズ	-607
宅配	-608
ーム	-609
多少色具合	-610
る場合があります	-611
.0	-612
23	-613
▁T	-614
スタイル	-615
特徴	-616
調節	-617
合成	-618
登場	-619
ルイヴィトン	-620
にて	-621
ロント	-622
活躍	-623
使える	-624
ic	-625
の上	-626
化粧	-627
▁商品詳細	-628
ポケットが	-629
▁F	-630
不可	-631
ちゃ	-632
ックス	-633
通常	-634
なく	-635
▁R	-636
ろん	-637
モノ	-638
正規	-639
宅配便	-640
×1、	-641
ソン	-642
合皮	-643
▁N	-644
牛革	-645
された	-646
ゴールド	-647
se	-648
セレ	-649
ad	-650
ig	-651
ジュアル	-652
他の	-653
ou	-654
くれ	-655
方は	-656
▁斜め	-657
ER	-658
を入れ	-659
などの	-660
ッパー	-661
マグネット	-662
il	-663
かり	-664
レビューを書いて	-665
ビゾ	-666
リボン	-667
ビゾンテ	-668
しています	-669
画面上と実物では多少色具合	-670
のみ	-671
入る	-672
コスメ	-673
モデル	-674
合成皮革	-675
IN	-676
クロ	-677
お願い	-678
カード	-679
使用感	-680
致します	-681
メイ	-682
29	-683
ています	-684
キー	-685
雑貨	-686
size	-687
th	-688
タリ	-689
EL	-690
している	-691
シェット	-692
ジャ	-693
出かけ	-694
未使用	-695
が異なって見える場合もございます	-696
対象	-697
レット	-698
グラム	-699
st	-700
ワン	-701
楽天	-702
まして	-703
▁付属品	-704
ポシェット	-705
way	-706
の為	-707
▁レ	-708
すす	-709
よこ	-710
海外	-711
ブルー	-712
▁バック	-713
環境により	-714
すすめ	-715
便利な	-716
離島	-717
ラル	-718
)、	-719
色の	-720
ドット	-721
商品です	-722
セール	-723
商品は	-724
60	-725
できる	-726
らか	-727
カメ	-728
プラ	-729
シワ	-730
選択	-731
ing	-732
22	-733
▁V	-734
の際	-735
ファッション	-736
通学	-737
col	-738
グレー	-739
ディー	-740
内祝い	-741
あります	-742
もち	-743
店舗	-744
頂け	-745
させて頂く場合	-746
少し	-747
誕生	-748
のバッグ	-749
しっ	-750
上げ	-751
--------	-752
..	-753
ol	-754
000	-755
デイリー	-756
折り	-757
ショッピング	-758
たて	-759
方法	-760
モノグラム	-761
gm	-762
▁外側	-763
新作	-764
ーマル	-765
さん	-766
別途	-767
====	-768
多少の誤差	-769
▁◎	-770
おり	-771
アウト	-772
ポート	-773
ること	-774
ったり	-775
38	-776
▁また	-777
ナチュ	-778
イルビゾンテ	-779
こちらの商品は	-780
OL	-781
小さ	-782
利用	-783
だけ	-784
▁送料無料	-785
になります	-786
gt	-787
ェイクレザー	-788
バン	-789
しっかり	-790
ですので	-791
▁大	-792
テン	-793
採寸	-794
420	-795
ボタン	-796
21	-797
45	-798
かご	-799
できます	-800
TT	-801
もちろん	-802
▁[	-803
シル	-804
容量	-805
to	-806
確認	-807
シンプル	-808
ちょっとした	-809
SA	-810
保存	-811
作り	-812
指定	-813
が多少	-814
付け	-815
背面	-816
500	-817
▁この	-818
参考価格	-819
▁サ	-820
ラン	-821
結婚式	-822
クリック	-823
ファスナー式	-824
表示	-825
COACH	-826
color	-827
ナチュラル	-828
▁様	-829
にお	-830
備考	-831
風合い	-832
税込	-833
——	-834
内部	-835
———	-836
hear	-837
▁ト	-838
▁コーチ	-839
予めご了承下さい	-840
im	-841
保存袋	-842
en	-843
届け	-844
外し	-845
安心	-846
の長さ	-847
OK	-848
丈夫	-849
程度	-850
▁その	-851
ku	-852
ボストン	-853
hearts	-854
ですが	-855
ほど	-856
31	-857
36	-858
▁1	-859
必ず	-860
▁高さ	-861
▁c	-862
ペン	-863
使いやすい	-864
IS	-865
の中	-866
一覧	-867
追加	-868
かば	-869
くて	-870
かばん	-871
とした	-872
サリー	-873
離島は	-874
カジュアル	-875
ンズ	-876
オシャ	-877
通勤	-878
オシャレ	-879
AD	-880
OU	-881
...	-882
大きさ	-883
沖縄県	-884
買い物	-885
パーティーバッグ	-886
ht	-887
理解	-888
マルチ	-889
ジッパー	-890
通常送料	-891
▁キャンバス	-892
ウエ	-893
der	-894
定番	-895
普段	-896
パクト	-897
▁ポーチ	-898
れた	-899
そう	-900
レン	-901
到着	-902
まち	-903
ッセ	-904
ten	-905
ついて	-906
37	-907
生産国	-908
▁プレゼント	-909
上部	-910
▁在庫	-911
があり	-912
素材の	-913
へは	-914
アクセサリー	-915
ip	-916
ラッピング	-917
IL	-918
生じ	-919
▁トート	-920
しゃ	-921
スレ	-922
34	-923
高級	-924
しゃれ	-925
ニック	-926
が多少異なる場合がございます	-927
じめ	-928
▁仕様	-929
OR	-930
んな	-931
デジ	-932
ack	-933
ial	-934
誕生日	-935
取り外し	-936
デイパック	-937
はご了承ください	-938
部分は	-939
ro	-940
全体	-941
とい	-942
パン	-943
番号	-944
ご利用	-945
いるので	-946
▁ハンドバッグ	-947
▁タ	-948
▁リ	-949
ルム	-950
状況	-951
OUI	-952
TTON	-953
レッド	-954
なら	-955
が生じ	-956
ドレス	-957
商品名	-958
や環境により	-959
お出かけ	-960
ートート	-961
化粧ポーチ	-962
ファスナー開閉	-963
刺繍	-964
▁ミニ	-965
ご購入	-966
OUIS	-967
の商品と	-968
ation	-969
できません	-970
CH	-971
ot	-972
▁m	-973
フル	-974
手提	-975
代引き	-976
ズバッグ	-977
品物	-978
良い	-979
ジアン	-980
▁コットン	-981
させて頂きます	-982
東海	-983
返品	-984
▁メール便	-985
たく	-986
わず	-987
上品	-988
カル	-989
機能的	-990
UITTON	-991
42	-992
かか	-993
ネイ	-994
BAG	-995
可能です	-996
▁VUITTON	-997
▁オープンポケット	-998
ft	-999
▁北	-1000
がま	-1001
sho	-1002
とても	-1003
▁商品説明	-1004
にもお	-1005
シーン	-1006
クラッチ	-1007
**	-1008
問い	-1009
完売	-1010
.5×	-1011
レスポート	-1012
レスポートサック	-1013
四国	-1014
オリ	-1015
フィ	-1016
チー	-1017
本革	-1018
ont	-1019
▁20	-1020
▁PC	-1021
してくれ	-1022
▁斜めがけ	-1023
▁ご	-1024
ヨコ	-1025
120	-1026
1】【	-1027
大きめ	-1028
デジカメ	-1029
▁ポケット	-1030
▁ビ	-1031
入学	-1032
メイン	-1033
別途送料	-1034
el	-1035
いの	-1036
出産	-1037
たた	-1038
トル	-1039
手提げ	-1040
若干の	-1041
っておりますので	-1042
チラ	-1043
グッチ	-1044
-0	-1045
ホルダー	-1046
▁ナイロン	-1047
)【	-1048
EN	-1049
マー	-1050
tem	-1051
▁通学	-1052
ござい	-1053
るので	-1054
多少の誤差はご了承ください	-1055
につき	-1056
VC	-1057
it	-1058
関西	-1059
▁北陸	-1060
ネイビー	-1061
への	-1062
一部	-1063
ニール	-1064
アクセント	-1065
フラ	-1066
ページ	-1067
▁【15	-1068
▁品	-1069
時迄	-1070
落ち	-1071
サテン	-1072
時迄あす楽対応	-1073
▁↓	-1074
撮影	-1075
のもの	-1076
スマス	-1077
携帯ポケット	-1078
39	-1079
デー	-1080
プチ	-1081
and	-1082
等の	-1083
の色味	-1084
ような	-1085
コーティング	-1086
卒業	-1087
様に	-1088
箇所	-1089
terial	-1090
48	-1091
;}	-1092
▁J	-1093
▁重さ	-1094
コチラ	-1095
リング	-1096
ぴったり	-1097
クリスマス	-1098
出し	-1099
▁キャ	-1100
ダーク	-1101
▁番	-1102
自然	-1103
センチ	-1104
異なります	-1105
画質	-1106
が若干	-1107
ですね	-1108
当店は	-1109
写真と実物	-1110
OP	-1111
らしい	-1112
正規品	-1113
フォルム	-1114
フォーマル	-1115
ジップポケット	-1116
モニターの画質	-1117
写真と実物の色味	-1118
が異なる場合がございます	-1119
モニターの画質や環境により	-1120
リカ	-1121
表面	-1122
▁注意	-1123
問い合わせ	-1124
離島は別途送料	-1125
▁こ	-1126
重量	-1127
▁本体	-1128
ている	-1129
マザー	-1130
font	-1131
いただきます	-1132
▁イ	-1133
ように	-1134
サイズの	-1135
><	-1136
ウェ	-1137
全て	-1138
商品到着	-1139
りの	-1140
男女	-1141
ath	-1142
CI	-1143
くな	-1144
肩掛け	-1145
でも販売	-1146
AL	-1147
キラ	-1148
抜群	-1149
ペット	-1150
気にな	-1151
いただける	-1152
41	-1153
AP	-1154
を行	-1155
▁in	-1156
▁幅	-1157
ケア	-1158
ight	-1159
予めご了承ください	-1160
クエ	-1161
ーズ	-1162
アウトレット	-1163
one	-1164
▁通勤	-1165
お使いいただけます	-1166
▁5	-1167
▁バ	-1168
がら	-1169
ナル	-1170
▁】<	-1171
型番	-1172
的な	-1173
▁CO	-1174
▁ルイヴィトン	-1175
ul	-1176
交換	-1177
帆布	-1178
魅力	-1179
ISON	-1180
がま口	-1181
)・	-1182
ヌメ	-1183
折りたた	-1184
▁円	-1185
★★	-1186
しま	-1187
囲気	-1188
奥行	-1189
寄せ	-1190
シック	-1191
メリカ	-1192
雰囲気	-1193
シルバー	-1194
▁パ	-1195
キル	-1196
切れ	-1197
少々	-1198
待ち	-1199
ボトル	-1200
メイド	-1201
shop	-1202
ユニ	-1203
合計	-1204
hin	-1205
ソコン	-1206
入ります	-1207
ct	-1208
070	-1209
られる	-1210
画像を	-1211
たくさん	-1212
がある場合がございます	-1213
)<	-1214
▁内	-1215
ープ	-1216
大人	-1217
頂く	-1218
詳しく	-1219
を使用した	-1220
ISONTE	-1221
切り	-1222
▁裏地	-1223
レーム	-1224
▁ギフト	-1225
メール便対応	-1226
▁BISONTE	-1227
と色	-1228
スキ	-1229
セット	-1230
▁商品名	-1231
普段使い	-1232
800	-1233
による	-1234
メージ	-1235
レンジ	-1236
母の日	-1237
ポーチです	-1238
店舗でも販売	-1239
90	-1240
ET	-1241
lo	-1242
130	-1243
RO	-1244
ニー	-1245
に最適	-1246
オリジ	-1247
ナップ	-1248
ナメル	-1249
▁色	-1250
サブ	-1251
リア	-1252
レガ	-1253
愛用	-1254
ail	-1255
_070	-1256
ございません	-1257
_0701】【	-1258
最大	-1259
目立	-1260
金額	-1261
円以上	-1262
られます	-1263
商品状態	-1264
頂けます	-1265
状況により	-1266
▁毎	-1267
タグ	-1268
変更	-1269
天然	-1270
お届け	-1271
調節可能	-1272
44	-1273
ご遠	-1274
週間	-1275
aku	-1276
ご遠慮	-1277
送料は	-1278
▁メンズ	-1279
▁フロント	-1280
オリジナル	-1281
出荷	-1282
洒落	-1283
大活躍	-1284
▁Bag	-1285
斜め掛け	-1286
はもちろん	-1287
ると	-1288
れい	-1289
国内	-1290
性質	-1291
輸入	-1292
ペーン	-1293
機能性	-1294
メーカー	-1295
取り寄せ	-1296
キャンペーン	-1297
ランク商品状態	-1298
▁「	-1299
必要	-1300
ながら	-1301
チャーム	-1302
っています	-1303
巾着	-1304
UC	-1305
▁ノ	-1306
の場合は	-1307
都合	-1308
お待ち	-1309
になっています	-1310
▁画面上と実物では多少色具合	-1311
:5	-1312
カゴ	-1313
モン	-1314
加算	-1315
出来る	-1316
が付いて	-1317
便利です	-1318
実際のもの	-1319
ハンドメイド	-1320
断り	-1321
かごバッグ	-1322
▁ポリエステル	-1323
▁リュックサック	-1324
▁考	-1325
クル	-1326
中に	-1327
広い	-1328
快気	-1329
案内	-1330
軽量	-1331
OUT	-1332
リーン	-1333
軽くて	-1334
ブランド名	-1335
xD	-1336
▁#	-1337
♪♪	-1338
性質上	-1339
自然な	-1340
のサイズ	-1341
を行っておりますので	-1342
▁-	-1343
▁オ	-1344
実寸	-1345
きれい	-1346
チーフ	-1347
小さな	-1348
ディバッグ	-1349
べて	-1350
フェ	-1351
位置	-1352
身長	-1353
はコチラ	-1354
一部地域	-1355
43	-1356
ES	-1357
掲載	-1358
次会	-1359
原産国	-1360
モチーフ	-1361
▁シンプル	-1362
▁チェーン	-1363
ありません	-1364
▁▼	-1365
ご理解	-1366
etail	-1367
商品到着後	-1368
ネル	-1369
感じ	-1370
的に	-1371
▁沖縄	-1372
お品物	-1373
ご希望	-1374
を追加	-1375
ファー	-1376
発色の	-1377
パソコン	-1378
フロント	-1379
▁の	-1380
高級感	-1381
グリーン	-1382
ベルティ	-1383
とは	-1384
れる	-1385
ネン	-1386
上記	-1387
ハート	-1388
をお受け	-1389
ファスナー付き	-1390
",	-1391
46	-1392
▁p	-1393
さる	-1394
フリ	-1395
好き	-1396
mar	-1397
▁こちら	-1398
アメリカ	-1399
ウエスト	-1400
メッシュ	-1401
小物入れ	-1402
▁ベージュ	-1403
キュートな	-1404
されています	-1405
たる	-1406
リス	-1407
▁10	-1408
カバン	-1409
■■■■	-1410
チェック	-1411
広く	-1412
ローズ	-1413
▁メーカー	-1414
させて頂く場合がございます	-1415
んで	-1416
スペ	-1417
ーツ	-1418
兼用	-1419
時点	-1420
直営	-1421
▁かわいい	-1422
にもおすすめ	-1423
コスメポーチ	-1424
AM	-1425
ap	-1426
に関	-1427
シワや	-1428
気になさる	-1429
▁ファスナーポケット	-1430
ピッ	-1431
激安	-1432
ade	-1433
ストーン	-1434
バッグの	-1435
▁ラッピング	-1436
具合によって	-1437
させて頂く場合もございます	-1438
ab	-1439
★☆	-1440
にく	-1441
わり	-1442
事項	-1443
▁旅行	-1444
すべて	-1445
ヌメ革	-1446
メッセ	-1447
ない場合	-1448
order	-1449
画像をクリック	-1450
断りさせて頂く場合がございます	-1451
いろ	-1452
ムの	-1453
時間	-1454
替え	-1455
ブラウ	-1456
フェイクレザー	-1457
のに	-1458
デニ	-1459
即納	-1460
受付	-1461
レース	-1462
時点での	-1463
▁在庫状況により	-1464
モニターの発色の	-1465
お断りさせて頂く場合がございます	-1466
ユース	-1467
大人気	-1468
革製品	-1469
レガント	-1470
はこちらです	-1471
実際のものと色	-1472
========	-1473
モニターの発色の具合によって	-1474
UR	-1475
ec	-1476
。)	-1477
セレブ	-1478
頂くか	-1479
▁■■【	-1480
少々お待ち	-1481
当店は他の	-1482
akuten	-1483
した時点での	-1484
注文をお受け	-1485
少々お待ち頂くか	-1486
商品ランク商品状態	-1487
離島は別途送料を追加	-1488
当店は他の店舗でも販売	-1489
注文をお受けした時点での	-1490
一部地域離島は別途送料を追加	-1491
EE	-1492
クレ	-1493
マン	-1494
110	-1495
ネート	-1496
ショップ	-1497
ッドソン	-1498
男女兼用	-1499
ファスナー付	-1500
お願い致します	-1501
▁あ	-1502
中の	-1503
書き	-1504
表記	-1505
▁COACH	-1506
ry	-1507
▁8	-1508
になり	-1509
職祝い	-1510
▁商品の	-1511
おしゃれ	-1512
スニック	-1513
ペットボトル	-1514
ご使用	-1515
チャー	-1516
デニム	-1517
リアル	-1518
入って	-1519
後ほど	-1520
▁日本製	-1521
コンパクト	-1522
▁イルビゾンテ	-1523
ご遠慮ください	-1524
気になさる方は	-1525
日時	-1526
▁楽天	-1527
メント	-1528
サイズも	-1529
ブラウザ	-1530
さら	-1531
っぽ	-1532
ネス	-1533
一つ	-1534
贈り	-1535
▁19	-1536
たて約	-1537
やかな	-1538
サブバッグ	-1539
実際の商品と	-1540
AT	-1541
PC	-1542
ma	-1543
れば	-1544
ガー	-1545
ンス	-1546
525	-1547
▁タテ	-1548
マチ約	-1549
部分に	-1550
らかじめ	-1551
折りたたみ	-1552
いたしました	-1553
デイリーユース	-1554
▁×	-1555
ネコ	-1556
勝手	-1557
▁12	-1558
▁fs	-1559
が登場	-1560
left	-1561
シャネル	-1562
ピッタリ	-1563
外ポケット	-1564
トートバッグです	-1565
ty	-1566
▁黒	-1567
美品	-1568
PVC	-1569
▁In	-1570
カーキ	-1571
贈り物	-1572
となりますが	-1573
させていただきます	-1574
電話	-1575
取り扱	-1576
▁ピンク	-1577
使えます	-1578
グラディー	-1579
ブランドの	-1580
アイテムです	-1581
▁当	-1582
円を	-1583
情報	-1584
楽し	-1585
クエア	-1586
ロック	-1587
▁モノグラム	-1588
47	-1589
▁6	-1590
綺麗	-1591
▁重量	-1592
ちゃん	-1593
システ	-1594
大きな	-1595
にオススメ	-1596
円となります	-1597
ボストンバッグ	-1598
▁フェイクレザー	-1599
ひと	-1600
本物	-1601
oun	-1602
アップ	-1603
ジネス	-1604
ベント	-1605
都合上	-1606
キルティング	-1607
----------------	-1608
ハン	-1609
開口	-1610
お買い	-1611
キャメル	-1612
合計金額	-1613
ご了承の上	-1614
▁エコバッグ	-1615
レビューキャンペーン	-1616
が生じる場合がございます	-1617
どう	-1618
まれ	-1619
横幅	-1620
くだけ	-1621
コール	-1622
タリア	-1623
ston	-1624
▁———	-1625
アジアン	-1626
商品説明	-1627
発送の場合	-1628
▁ストラップ	-1629
メール便不可	-1630
ダークブラウン	-1631
od	-1632
シア	-1633
円が	-1634
品質	-1635
表地	-1636
wid	-1637
▁女性	-1638
ガール	-1639
キティ	-1640
はお受け	-1641
パープル	-1642
width	-1643
▁ハンドル	-1644
ご注文の際	-1645
もあります	-1646
対象商品です	-1647
PM	-1648
▁ミ	-1649
ボー	-1650
計算	-1651
目立つ	-1652
限定で	-1653
内側にも	-1654
▁7	-1655
生産	-1656
着用	-1657
ARC	-1658
ipp	-1659
が少し	-1660
柔らか	-1661
▁内ポケット	-1662
No	-1663
柄が	-1664
自動	-1665
▁フォ	-1666
▁状態	-1667
▁発送	-1668
付きで	-1669
生地の	-1670
▁BAG	-1671
▁ボストン	-1672
お品物です	-1673
開け	-1674
lect	-1675
イメージ	-1676
エナメル	-1677
▁LOUIS	-1678
お問い合わせ	-1679
の画像をクリック	-1680
メール便送料無料	-1681
ファスナー式ポケット	-1682
でご	-1683
組み	-1684
)■【	-1685
for	-1686
お洒落	-1687
の高さ	-1688
グッズ	-1689
▁OUT	-1690
使い勝手	-1691
円を加算	-1692
未使用品	-1693
クラッチバッグ	-1694
こだ	-1695
やか	-1696
方が	-1697
ACK	-1698
される	-1699
の方は	-1700
仕切り	-1701
スタッズ	-1702
フラップ	-1703
出し入れ	-1704
ております	-1705
▁x	-1706
カラ	-1707
印象	-1708
敬老	-1709
her	-1710
▁ルイ	-1711
▁毎月	-1712
手作り	-1713
▁生産国	-1714
セックス	-1715
敬老の日	-1716
表示となりますが	-1717
52	-1718
▁s	-1719
これ	-1720
の子	-1721
素敵	-1722
見た	-1723
160	-1724
bag	-1725
詳しくは	-1726
グネチャー	-1727
ユニセックス	-1728
オープンポケットが	-1729
ワイ	-1730
多数	-1731
正面	-1732
ick	-1733
当たる	-1734
のバック	-1735
携帯電話	-1736
にぴったり	-1737
idston	-1738
ショッピングバッグ	-1739
!】	-1740
)×	-1741
af	-1742
ころ	-1743
ッキ	-1744
予定	-1745
売り	-1746
▁新品	-1747
パール	-1748
1050	-1749
をご案内	-1750
自動計算	-1751
自動計算のため	-1752
をご案内させて頂きます	-1753
BL	-1754
NO	-1755
OT	-1756
▁定	-1757
洗い	-1758
置き	-1759
▁人気	-1760
やすく	-1761
名様に	-1762
ましては	-1763
▁当商品は	-1764
システムの	-1765
システムの都合上	-1766
レビューを書くだけ	-1767
66	-1768
▁d	-1769
ポン	-1770
同梱	-1771
735	-1772
ダブル	-1773
プラダ	-1774
仕上げ	-1775
再入荷	-1776
▁bag	-1777
送料はお	-1778
名様に必ず	-1779
沖縄県への	-1780
した合計金額	-1781
いただけるお客様	-1782
名様に必ず当たる	-1783
お客様レビューを書くだけ	-1784
om	-1785
込み	-1786
まち約	-1787
マーク	-1788
リネン	-1789
丈夫な	-1790
包装選択	-1791
円表示となりますが	-1792
円を加算した合計金額	-1793
沖縄県への発送の場合	-1794
自動計算のため送料は	-1795
けて	-1796
のご	-1797
まま	-1798
上質	-1799
世界	-1800
限り	-1801
雑誌	-1802
からの	-1803
ンター	-1804
大きく	-1805
嬉しい	-1806
◎———	-1807
▁———◎	-1808
▁サイズ約	-1809
▁男女兼用	-1810
が送料無料	-1811
予めご了承	-1812
北海道へは	-1813
沖縄県へは	-1814
の対象商品です	-1815
沖縄県へは通常送料	-1816
いただけるお客様限定で	-1817
も自動計算のため送料は	-1818
▁当商品はレビューキャンペーン	-1819
KG	-1820
ch	-1821
に近	-1822
めの	-1823
という	-1824
父の日	-1825
SALE	-1826
▁母の日	-1827
▁レスポートサック	-1828
05	-1829
SE	-1830
^)	-1831
un	-1832
間違い	-1833
出産祝い	-1834
YD	-1835
々な	-1836
国際	-1837
:12	-1838
ジャン	-1839
ンジャ	-1840
あるので	-1841
デザインが	-1842
スキッドソン	-1843
リュックサック	-1844
Ar	-1845
ZE	-1846
▁中	-1847
▁底	-1848
営業	-1849
設定	-1850
ask	-1851
内側に	-1852
イベント	-1853
エレガント	-1854
クッション	-1855
を使用しています	-1856
▁今	-1857
パイ	-1858
遠足	-1859
300	-1860
lin	-1861
ところ	-1862
▁セール	-1863
su	-1864
▁E	-1865
▁】	-1866
整理	-1867
注目	-1868
縫製	-1869
YDKG	-1870
それ	-1871
ドア	-1872
フト	-1873
多く	-1874
▁cl	-1875
の際は	-1876
別送料	-1877
キズなど	-1878
サイズは	-1879
両サイド	-1880
最適です	-1881
▁ブラウン	-1882
によって異なります	-1883
でお使いいただけます	-1884
49	-1885
;【	-1886
上が	-1887
por	-1888
日出荷	-1889
荷物の	-1890
▁斜め掛け	-1891
仕様カラー	-1892
付いています	-1893
BK	-1894
au	-1895
▁キ	-1896
アフ	-1897
ウォ	-1898
違う	-1899
IZE	-1900
▁保存袋	-1901
しやすい	-1902
ートートバッグ	-1903
左の画像をクリック	-1904
1】	-1905
UP	-1906
\\	-1907
たい	-1908
のが	-1909
ジェ	-1910
パス	-1911
決済	-1912
-->	-1913
よこ約	-1914
平置き	-1915
持って	-1916
正規店	-1917
注意点	-1918
見た目	-1919
ジャンル	-1920
大人気の	-1921
程度かか	-1922
のモニター	-1923
組み合わせ	-1924
IG	-1925
すぎ	-1926
ェル	-1927
ピー	-1928
住ま	-1929
入力	-1930
編み	-1931
いの地域	-1932
のカラー	-1933
を入れる	-1934
イタリア	-1935
オレンジ	-1936
・・・・	-1937
askas	-1938
▁詳しくは	-1939
一覧ページ	-1940
地域別送料	-1941
住まいの地域	-1942
取り外し可能	-1943
しておりますが	-1944
地域別送料一覧ページ	-1945
送料はお住まいの地域	-1946
:1	-1947
いま	-1948
バラ	-1949
多い	-1950
押し	-1951
までの	-1952
カーフ	-1953
荷物が	-1954
オーダー	-1955
フレーム	-1956
、2	-1957
マイ	-1958
ムラ	-1959
卒業式	-1960
の自然な	-1961
ビニール	-1962
出来ません	-1963
▁Kidston	-1964
▁詳しくは左の画像をクリック	-1965
とも	-1966
をは	-1967
んだ	-1968
民族	-1969
▁詳細	-1970
ビーズ	-1971
hipp	-1972
対象商品	-1973
select	-1974
くださいませ	-1975
hipping	-1976
55	-1977
ふわ	-1978
人式	-1979
保冷	-1980
大変	-1981
横約	-1982
フリー	-1983
上品な	-1984
成人式	-1985
長財布	-1986
いただき	-1987
セレクト	-1988
出来ます	-1989
etails	-1990
IC	-1991
。【	-1992
保管	-1993
出店	-1994
品番	-1995
展開	-1996
底部	-1997
特有	-1998
留め	-1999
管理	-2000
質屋	-2001
質感	-2002
▁備考	-2003
どうぞ	-2004
UCCI	-2005
センター	-2006
質屋出店	-2007
マザーズバッグ	-2008
円以上送料無料	-2009
シー	-2010
ンで	-2011
時に	-2012
だから	-2013
をご覧	-2014
ランチ	-2015
女の子	-2016
▁コスメ	-2017
アフター	-2018
▁Item	-2019
で送料無料	-2020
サイズです	-2021
入荷しました	-2022
まだ	-2023
クー	-2024
製造	-2025
ate	-2026
▁15	-2027
▁特徴	-2028
▁遠足	-2029
になる	-2030
られた	-2031
中古品	-2032
頂ける	-2033
▁マザー	-2034
をご希望	-2035
◆◆	-2036
さを	-2037
ゴレ	-2038
ッコ	-2039
トロ	-2040
ルメ	-2041
▁イン	-2042
ピース	-2043
ヨゴレ	-2044
here	-2045
きれいな	-2046
をお願い	-2047
コーディ	-2048
キーホルダー	-2049
if	-2050
ママ	-2051
リエ	-2052
ワー	-2053
後の	-2054
商品を	-2055
ディング	-2056
が異なります	-2057
ショルダーバッグです	-2058
75	-2059
▁小	-2060
やお	-2061
を施	-2062
マト	-2063
中身	-2064
ニュー	-2065
収納力も	-2066
ショルダーストラップ	-2067
IT	-2068
MM	-2069
jp	-2070
ur	-2071
▁素	-2072
▁綿	-2073
シミ	-2074
祝儀	-2075
紹介	-2076
終了	-2077
Way	-2078
さらに	-2079
ハロー	-2080
大容量	-2081
form	-2082
そうです	-2083
バッグに	-2084
ハローキティ	-2085
ed	-2086
ew	-2087
お年	-2088
どんな	-2089
ひとつ	-2090
フライ	-2091
ェイラー	-2092
がとっても	-2093
material	-2094
formation	-2095
WE	-2096
is	-2097
ルー	-2098
-00	-2099
の採寸	-2100
オール	-2101
クール	-2102
場合は	-2103
を入れて	-2104
合わせて	-2105
国際配送	-2106
が可能です	-2107
のポケット	-2108
ジッパー付	-2109
らかな	-2110
エード	-2111
ライト	-2112
金具に	-2113
1000	-2114
tern	-2115
▁人気の	-2116
お買い物	-2117
下さいませ	-2118
ちょっとしたお出かけ	-2119
99	-2120
ly	-2121
が見	-2122
まり	-2123
よい	-2124
サー	-2125
前面	-2126
披露	-2127
30×	-2128
OLD	-2129
OTE	-2130
お年玉	-2131
ッピー	-2132
バレン	-2133
pack	-2134
日時指定	-2135
間違いなし	-2136
分に	-2137
申し	-2138
▁当店	-2139
の良い	-2140
スマホ	-2141
品です	-2142
披露宴	-2143
色合い	-2144
がついて	-2145
インバッグ	-2146
のプレゼント	-2147
アフターケア	-2148
オススメです	-2149
iv	-2150
▁裏	-2151
★【	-2152
つき	-2153
ーの	-2154
選べ	-2155
150	-2156
ソフト	-2157
マチ幅	-2158
入学式	-2159
商品の	-2160
****	-2161
▁リボン	-2162
お取り寄せ	-2163
ノベルティ	-2164
パンコール	-2165
aypack	-2166
してくれます	-2167
▁Details	-2168
となっております	-2169
▁名	-2170
縦約	-2171
衣料	-2172
にして	-2173
キング	-2174
付属の	-2175
綺麗な	-2176
tion	-2177
▁グッチ	-2178
▁here	-2179
▁click	-2180
はありません	-2181
ational	-2182
▁Intern	-2183
▁Rakuten	-2184
国際配送対象商品	-2185
▁Shipping	-2186
▁International	-2187
ia	-2188
▁□	-2189
▁ブ	-2190
すぐ	-2191
コレ	-2192
ルダ	-2193
レイ	-2194
婦人	-2195
持つ	-2196
用途	-2197
ite	-2198
のプチ	-2199
スター	-2200
奥行き	-2201
ドット柄	-2202
全体的に	-2203
海外配送	-2204
LOUIS	-2205
▁合成皮革	-2206
フォーマルバッグ	-2207
のも	-2208
サン	-2209
代金	-2210
その他	-2211
テント	-2212
出掛け	-2213
素材で	-2214
部分の	-2215
すること	-2216
のような	-2217
スクエア	-2218
などにより	-2219
VA	-2220
のし	-2221
カン	-2222
ベー	-2223
引越	-2224
最長	-2225
重さ	-2226
!!!	-2227
400	-2228
50%	-2229
内側は	-2230
メッセ入力	-2231
95	-2232
xH	-2233
▁w	-2234
▁↑	-2235
手数	-2236
▁ワン	-2237
▁新作	-2238
ホック	-2239
ワーク	-2240
Cath	-2241
コメント	-2242
サイズで	-2243
▁アジアン	-2244
ge	-2245
▁ポ	-2246
ギャ	-2247
チョ	-2248
急便	-2249
型押し	-2250
画像は	-2251
開口部	-2252
▁可愛い	-2253
アンティ	-2254
スナップ	-2255
が少しあり	-2256
商品のため	-2257
▁ナチュラル	-2258
▁フォーマル	-2259
▁border	-2260
コーディネート	-2261
ご了承くださいませ	-2262
xW	-2263
させ	-2264
なん	-2265
3.5	-2266
▁CH	-2267
してい	-2268
シャル	-2269
ディア	-2270
ボディ	-2271
,800	-2272
hone	-2273
サイズが	-2274
斜めがけ	-2275
アウトドア	-2276
週間程度かか	-2277
65	-2278
OD	-2279
UE	-2280
を使	-2281
トラ	-2282
品は	-2283
開始	-2284
:16	-2285
や汚れ	-2286
らない	-2287
テープ	-2288
している為	-2289
▁askas	-2290
してください	-2291
しか	-2292
光沢	-2293
時の	-2294
LAD	-2295
▁コン	-2296
▁スタ	-2297
問わず	-2298
大きい	-2299
引き出	-2300
エスニック	-2301
×3	-2302
さと	-2303
たり	-2304
無地	-2305
oly	-2306
▁★★	-2307
が必要	-2308
ライプ	-2309
中国製	-2310
3000	-2311
ANEL	-2312
hoku	-2313
▁かばん	-2314
取り扱い	-2315
-----	-2316
LADEE	-2317
olyes	-2318
異なって見え	-2319
▁ボディバッグ	-2320
完売いたしました	-2321
▁4	-2322
▁猫	-2323
っぱ	-2324
ヨレ	-2325
使う	-2326
全長	-2327
洋服	-2328
連絡	-2329
選び	-2330
×2、	-2331
がある	-2332
柄の出	-2333
etsu	-2334
shin	-2335
▁サイド	-2336
なバッグ	-2337
シーンで	-2338
▁ホワイト	-2339
ませんので	-2340
用ポケット	-2341
をお気になさる方は	-2342
GG	-2343
▁細	-2344
ぶり	-2345
セル	-2346
一緒	-2347
個性	-2348
特別	-2349
:15	-2350
が魅力	-2351
スウェ	-2352
タイン	-2353
ヤマト	-2354
ルメス	-2355
手数料	-2356
みのある	-2357
されている	-2358
▁付属品保存袋	-2359
hokushin	-2360
▁ボストンバッグ	-2361
ファスナー開閉式	-2362
ご利用いただけます	-2363
hokushinetsu	-2364
IM	-2365
ko	-2366
たち	-2367
ちり	-2368
ゆう	-2369
ルト	-2370
中央	-2371
口は	-2372
形外	-2373
段階	-2374
▁合皮	-2375
ができ	-2376
メイク	-2377
ラウン	-2378
SOLD	-2379
▁女性用	-2380
をはじめ	-2381
キラキラ	-2382
シックな	-2383
ショルダ	-2384
ポケットも	-2385
tention	-2386
hs	-2387
ウィ	-2388
文字	-2389
書類	-2390
pfs	-2391
在庫が	-2392
持ち歩	-2393
ティック	-2394
快気祝い	-2395
結婚祝い	-2396
▁SIZE	-2397
▁とっても	-2398
バックです	-2399
ご注意下さい	-2400
バレンタイン	-2401
ラインフレーム	-2402
olyester	-2403
はお受けできません	-2404
シンプルなデザイン	-2405
コラ	-2406
人様	-2407
勧め	-2408
提供	-2409
発生	-2410
開く	-2411
Arr	-2412
だけで	-2413
カスタ	-2414
カート	-2415
コーデ	-2416
rArr	-2417
▁結婚式	-2418
の風合い	-2419
ジフライ	-2420
ビジネス	-2421
願います	-2422
革製品特有	-2423
▁カジュアル	-2424
ございますが	-2425
の自然なシワや	-2426
ラウンジフライ	-2427
の自然なシワやキズなど	-2428
革製品特有の自然なシワやキズなど	-2429
:(	-2430
▁《	-2431
▁即	-2432
とき	-2433
よく	-2434
ッス	-2435
ビス	-2436
:20	-2437
gin	-2438
のロゴ	-2439
ギリス	-2440
色落ち	-2441
ディター	-2442
デザインで	-2443
ホワイトデー	-2444
IP	-2445
SH	-2446
ST	-2447
ie	-2448
▁9	-2449
▁U	-2450
▁商	-2451
ュウ	-2452
擦れ	-2453
秋冬	-2454
郵便	-2455
▁13	-2456
こだわ	-2457
ージャ	-2458
レビューで	-2459
margin	-2460
▁この部分は	-2461
▁ファスナー	-2462
▁ポシェット	-2463
クッション入り	-2464
1(	-2465
TK	-2466
og	-2467
▁ハ	-2468
えて	-2469
アニ	-2470
出す	-2471
600	-2472
:10	-2473
ART	-2474
などが	-2475
などを	-2476
アイボ	-2477
フォン	-2478
プライ	-2479
カラフル	-2480
ネパール	-2481
バスケット	-2482
attention	-2483
NA	-2484
ky	-2485
uc	-2486
▁a	-2487
うど	-2488
ノー	-2489
及び	-2490
同じ	-2491
最安	-2492
移り	-2493
種類	-2494
贈答	-2495
▁Gi	-2496
の違い	-2497
マチが	-2498
二次会	-2499
国内の	-2500
ちょうど	-2501
なります	-2502
ゴージャ	-2503
天然素材	-2504
がポイント	-2505
アイボリー	-2506
▁フロントに	-2507
お願いします	-2508
アンティーク	-2509
マグネット式	-2510
インラインフレーム	-2511
が若干異なる場合がございます	-2512
。(	-2513
」。	-2514
成分	-2515
料金	-2516
新築	-2517
裁断	-2518
となり	-2519
プラス	-2520
写真は	-2521
定形外	-2522
といった	-2523
にも対応	-2524
ステッチ	-2525
柄の位置	-2526
カスタマー	-2527
ゴージャス	-2528
ストライプ	-2529
ご注意ください	-2530
お問い合わせ下さい	-2531
0;	-2532
PU	-2533
cd	-2534
、1	-2535
ょう	-2536
らせ	-2537
分け	-2538
同様	-2539
小銭	-2540
花柄	-2541
複数	-2542
cdn	-2543
sed	-2544
なもの	-2545
コイン	-2546
プリー	-2547
楽しみ	-2548
ーション	-2549
がアクセント	-2550
79	-2551
AB	-2552
kg	-2553
we	-2554
いつ	-2555
れて	-2556
ボル	-2557
店頭	-2558
払い	-2559
:14	-2560
RAD	-2561
まれに	-2562
全体に	-2563
在庫を	-2564
▁原産国	-2565
での発送	-2566
クルート	-2567
の採寸方法	-2568
カゴバッグ	-2569
デザインの	-2570
3,	-2571
:4	-2572
▁柄	-2573
▁肩	-2574
▁鞄	-2575
お色	-2576
くり	-2577
不良	-2578
楽々	-2579
洗濯	-2580
現在	-2581
粗品	-2582
▁送料	-2583
の収納	-2584
の色は	-2585
リッチ	-2586
幅広い	-2587
旅行や	-2588
最安値	-2589
知らせ	-2590
贈答品	-2591
itty	-2592
っており	-2593
シリアル	-2594
状態です	-2595
▁詳細はこちらです	-2596
▁楽天国際配送対象商品	-2597
):	-2598
51	-2599
59	-2600
:#	-2601
:3	-2602
RE	-2603
ak	-2604
qu	-2605
▁"	-2606
▁モ	-2607
アー	-2608
タル	-2609
展示	-2610
重宝	-2611
▁sp	-2612
ですよ	-2613
ッキリ	-2614
幅広く	-2615
▁カバン	-2616
▁北海道	-2617
▁手提げ	-2618
フリンジ	-2619
ゆうパック	-2620
▁あらかじめ	-2621
ウエディング	-2622
キャンバス地	-2623
としても最適です	-2624
キャスキッドソン	-2625
バレンタインデー	-2626
EW	-2627
LO	-2628
との	-2629
参照	-2630
len	-2631
▁30	-2632
▁クロ	-2633
▁材質	-2634
お祝い	-2635
にくい	-2636
ーパー	-2637
▁ご注文	-2638
スエード	-2639
入学祝い	-2640
柔らかな	-2641
デザインです	-2642
▁こちらの商品は	-2643
▁information	-2644
GO	-2645
lu	-2646
。。	-2647
かに	-2648
なる	-2649
年の	-2650
引換	-2651
▁婦人	-2652
▁本革	-2653
ミング	-2654
ロング	-2655
が可愛い	-2656
サイズ約	-2657
代金引換	-2658
があるので	-2659
などの贈り物	-2660
までのご注文	-2661
▁持ち手の長さ	-2662
しておりますので	-2663
ms	-2664
かさ	-2665
スポ	-2666
優れ	-2667
御祝	-2668
手に	-2669
調整	-2670
進級	-2671
700	-2672
Rec	-2673
ティー	-2674
仕上が	-2675
様々な	-2676
Item	-2677
▁Pro	-2678
が入って	-2679
に使える	-2680
る場合が	-2681
バッグが	-2682
新築祝い	-2683
通学など	-2684
違う場合	-2685
にピッタリ	-2686
キャンセル	-2687
ワンピース	-2688
若干の誤差	-2689
ItemRec	-2690
▁斜めがけバッグ	-2691
▁レディースバッグ	-2692
予めご了承下さいませ	-2693
レビューを書いて送料無料	-2694
▁この部分はインラインフレーム	-2695
▁ド	-2696
▁新	-2697
ねこ	-2698
挑戦	-2699
理由	-2700
目安	-2701
豊富	-2702
001	-2703
▁無料	-2704
つあり	-2705
アート	-2706
ジャー	-2707
レンド	-2708
落ち着	-2709
used	-2710
な雰囲気	-2711
クーポン	-2712
サイクル	-2713
セレモニ	-2714
ヤマト屋	-2715
レザーの	-2716
BLACK	-2717
▁マグネット	-2718
▁アクセサリー	-2719
はございません	-2720
ラインストーン	-2721
▁Daypack	-2722
お願いいたします	-2723
LA	-2724
▁ヒ	-2725
▁全	-2726
ッグ	-2727
ブリ	-2728
幅約	-2729
検討	-2730
250	-2731
れます	-2732
法人様	-2733
▁レッド	-2734
ることが	-2735
サイドの	-2736
モデルの	-2737
ンジャー	-2738
内側には	-2739
注意事項	-2740
▁円シリアル	-2741
一覧はこちら	-2742
▁トートバック	-2743
がございますが	-2744
デジカメケース	-2745
▁円シリアル番号	-2746
としてもご利用いただけます	-2747
68	-2748
。※	-2749
える	-2750
の品	-2751
めて	-2752
らし	-2753
御礼	-2754
▁11	-2755
▁to	-2756
▁携帯	-2757
ケイト	-2758
ースト	-2759
付いた	-2760
素材は	-2761
▁ご注意	-2762
いろいろ	-2763
しており	-2764
ンテージ	-2765
就職祝い	-2766
セレモニーの	-2767
のプレゼントや	-2768
xt	-2769
▁『	-2770
▁ガ	-2771
きり	-2772
ご覧	-2773
ご進	-2774
中元	-2775
崩れ	-2776
特性	-2777
用意	-2778
際は	-2779
▁小物	-2780
ご進物	-2781
テリア	-2782
持ち運	-2783
など祝儀	-2784
には粗品	-2785
の引き出	-2786
卒業祝い	-2787
引越祝い	-2788
海外輸入	-2789
退職祝い	-2790
進級祝い	-2791
▁Gift	-2792
。3000	-2793
お年玉など	-2794
の引き出物	-2795
出産内祝い	-2796
定番ギフト	-2797
快気内祝い	-2798
次会のプチ	-2799
結婚内祝い	-2800
結婚披露宴	-2801
など祝儀の品	-2802
▁このアイテム	-2803
▁コスメポーチ	-2804
時までのご注文	-2805
法人様には粗品	-2806
セレモニーの御祝	-2807
次会のプチギフト	-2808
退職祝いといった	-2809
内祝いなど祝儀の品	-2810
定番ギフトイベント	-2811
結婚内祝いをはじめ	-2812
▁ラッピングにも対応	-2813
ウエディングパーティ	-2814
引越祝いなどの贈り物	-2815
結婚披露宴の引き出物	-2816
のプレゼントや入学祝い	-2817
ご進物としてもご利用いただけます	-2818
退職祝いといったセレモニーの御祝	-2819
*^	-2820
2-	-2821
RA	-2822
イヤ	-2823
ジー	-2824
デュ	-2825
マラ	-2826
午後	-2827
小売	-2828
張り	-2829
当日	-2830
心配	-2831
次第	-2832
独特	-2833
記載	-2834
?、2	-2835
age	-2836
▁軽量	-2837
▁開閉	-2838
モン族	-2839
開閉式	-2840
高さ約	-2841
ANAP	-2842
っている	-2843
をご理解	-2844
を使った	-2845
を施した	-2846
エコバック	-2847
シグネチャー	-2848
プレゼントにも	-2849
く場合もございます	-2850
ルイヴィトン商品名	-2851
▁f	-2852
▁ベ	-2853
ヴァ	-2854
織り	-2855
200	-2856
9.5	-2857
▁14	-2858
▁日本	-2859
スカル	-2860
レッス	-2861
底部分	-2862
lack	-2863
▁がま口	-2864
お出掛け	-2865
クション	-2866
フラワー	-2867
小売価格	-2868
承ります	-2869
見え方が	-2870
-----☆	-2871
ポケット付き	-2872
活躍してくれ	-2873
▁持ち手の高さ	-2874
時までのご注文は	-2875
▁このアイテムの採寸方法	-2876
01	-2877
MA	-2878
MI	-2879
av	-2880
eS	-2881
▁価	-2882
が施	-2883
とう	-2884
オン	-2885
宛書	-2886
差異	-2887
弁当	-2888
恩会	-2889
時は	-2890
▁ST	-2891
▁ロゴ	-2892
▁通販	-2893
が発生	-2894
そんな	-2895
に近い	-2896
メンズ	-2897
型崩れ	-2898
謝恩会	-2899
tsac	-2900
▁New	-2901
▁PVC	-2902
のし宛書	-2903
ニューヨ	-2904
eSpor	-2905
height	-2906
▁フェイラー	-2907
お使い頂けます	-2908
パーティードレス	-2909
eSportsac	-2910
ファスナー付ポケット	-2911
>(	-2912
▁ダ	-2913
が出	-2914
の方	-2915
演出	-2916
fly	-2917
しょう	-2918
Loun	-2919
▁ブルー	-2920
コーチの	-2921
タイプの	-2922
バッグは	-2923
▁おしゃれ	-2924
キーリング	-2925
Lounge	-2926
収納できます	-2927
アウトレット品	-2928
異なる場合があります	-2929
が異なる場合があります	-2930
53	-2931
98	-2932
▁手	-2933
オル	-2934
タテ	-2935
ヘア	-2936
店長	-2937
:30	-2938
add	-2939
▁ネコ	-2940
にスレ	-2941
リーム	-2942
素材感	-2943
▁グレー	-2944
イギリス	-2945
ボーダー	-2946
特別価格	-2947
brand	-2948
とショルダー	-2949
)/	-2950
BE	-2951
▁も	-2952
▁超	-2953
円の	-2954
御座	-2955
破損	-2956
立ち	-2957
職人	-2958
RAN	-2959
ini	-2960
▁シル	-2961
▁財布	-2962
かなり	-2963
かわい	-2964
っきり	-2965
バリエ	-2966
上質な	-2967
華やか	-2968
▁レース	-2969
コーナー	-2970
世界中の	-2971
小銭入れ	-2972
Kitty	-2973
シンプルな	-2974
ママバッグ	-2975
▁付属品なし	-2976
■■■■■■■■	-2977
Loungefly	-2978
56	-2979
78	-2980
ir	-2981
▁O	-2982
を選	-2983
修正	-2984
毎日	-2985
気軽	-2986
水玉	-2987
納期	-2988
記入	-2989
軽く	-2990
20×	-2991
▁クリ	-2992
▁収納	-2993
ウンド	-2994
エロー	-2995
ジェイ	-2996
ビット	-2997
▁メイン	-2998
本体のみ	-2999
確認の上	-3000
ulder	-3001
に合わせて	-3002
のパソコン	-3003
スパンコール	-3004
ブランドです	-3005
ボディバッグ	-3006
ヴィンテージ	-3007
ブランド名ルイヴィトン商品名	-3008
82	-3009
▁n	-3010
なめ	-3011
コタ	-3012
ッフ	-3013
丁寧	-3014
処分	-3015
長く	-3016
除く	-3017
ILL	-3018
INK	-3019
Nov	-3020
old	-3021
▁IN	-3022
っぽり	-3023
に関し	-3024
生地に	-3025
パテント	-3026
目立つ傷	-3027
等の環境	-3028
▁ウエスト	-3029
▁ネイビー	-3030
カード入れ	-3031
adding	-3032
になりました	-3033
RI	-3034
gr	-3035
▁程	-3036
ーー	-3037
上で	-3038
充実	-3039
大切	-3040
存在	-3041
最短	-3042
目が	-3043
面に	-3044
try	-3045
▁Ro	-3046
▁これ	-3047
▁横幅	-3048
ご安心	-3049
されて	-3050
ちゃう	-3051
ってい	-3052
定番の	-3053
長さ約	-3054
10.5	-3055
text	-3056
発送方法	-3057
オシャレな	-3058
モデル身長	-3059
トートバック	-3060
atterial	-3061
する場合がございます	-3062
▁斜め掛けショルダーバッグ	-3063
)(	-3064
使わ	-3065
承諾	-3066
春夏	-3067
求め	-3068
用の	-3069
25×	-3070
ent	-3071
ありが	-3072
せます	-3073
の中に	-3074
の詳細	-3075
を取り	-3076
フリル	-3077
小さめ	-3078
▁アウト	-3079
▁ビトン	-3080
▁代引き	-3081
お知らせ	-3082
のお客様	-3083
ストロー	-3084
マラソン	-3085
▁商品番号	-3086
あらかじめ	-3087
オーダー会	-3088
モデルの身長	-3089
ご了承下さいませ	-3090
ショルダーベルト	-3091
ることがございます	-3092
LeSportsac	-3093
デイリーユースにもおすすめ	-3094
(^	-3095
54	-3096
OY	-3097
▁ズ	-3098
☆:	-3099
が届	-3100
ぞれ	-3101
で作	-3102
めに	-3103
下部	-3104
内装	-3105
地に	-3106
変わ	-3107
外寸	-3108
外部	-3109
日常	-3110
福袋	-3111
簡単	-3112
7】【	-3113
ann	-3114
ple	-3115
▁**	-3116
ご連絡	-3117
にある	-3118
の設定	-3119
キッズ	-3120
コロン	-3121
ダコタ	-3122
ポップ	-3123
多機能	-3124
楽しく	-3125
調節可	-3126
それぞれ	-3127
に合わせ	-3128
ットソン	-3129
売り切れ	-3130
▁普段使い	-3131
▁注意事項	-3132
いますので	-3133
インテリア	-3134
メールにて	-3135
円のところ	-3136
可愛らしい	-3137
承諾メール	-3138
weight	-3139
しているため	-3140
つあり機能的	-3141
にオススメな	-3142
▁付属品保存袋型番	-3143
にはクッション入り	-3144
SS	-3145
VE	-3146
ける	-3147
ッと	-3148
内容	-3149
型の	-3150
左右	-3151
撥水	-3152
特価	-3153
(*^	-3154
ame	-3155
くなり	-3156
などに	-3157
コンビ	-3158
ジック	-3159
ワール	-3160
一緒に	-3161
画像と	-3162
▁COL	-3163
▁その他	-3164
おすすめ	-3165
すっきり	-3166
ましても	-3167
ヒッピー	-3168
フェイク	-3169
プライス	-3170
プレート	-3171
受付開始	-3172
▁こちらは	-3173
▁デザイン	-3174
▁大人気の	-3175
ありがとう	-3176
padding	-3177
▁ショッピング	-3178
をご覧ください	-3179
▁ショルダーバック	-3180
差異が生じる場合がございます	-3181
(0	-3182
58	-3183
ED	-3184
うれ	-3185
むら	-3186
マリ	-3187
ミエ	-3188
ヤケ	-3189
以外	-3190
実用	-3191
sty	-3192
▁BL	-3193
しまう	-3194
などで	-3195
にした	-3196
エット	-3197
フック	-3198
モール	-3199
化粧品	-3200
小ぶり	-3201
選べる	-3202
11.5	-3203
coun	-3204
▁内側は	-3205
シワなど	-3206
スクール	-3207
フォルムが	-3208
▁ブランド名	-3209
▁GLADEE	-3210
につきましては	-3211
1-	-3212
57	-3213
um	-3214
▁0	-3215
▁く	-3216
▁詳	-3217
と思	-3218
アト	-3219
ピア	-3220
恐れ	-3221
感が	-3222
摩擦	-3223
次回	-3224
非売	-3225
音楽	-3226
116	-3227
;}.	-3228
ITE	-3229
yam	-3230
▁クラ	-3231
▁着用	-3232
クレド	-3233
パッチ	-3234
ルシア	-3235
直営店	-3236
▁大きめ	-3237
すっぽり	-3238
わずかに	-3239
スマート	-3240
ニシャル	-3241
プリーツ	-3242
柔らかい	-3243
ウォッシュ	-3244
クレドラン	-3245
▁ノベルティ	-3246
マルチカラー	-3247
しっかりとした	-3248
となりますので	-3249
ご了承の上ご注文	-3250
をお願い致します	-3251
================	-3252
まと	-3253
前に	-3254
日の	-3255
是非	-3256
立て	-3257
触り	-3258
28×	-3259
nig	-3260
ure	-3261
×1/	-3262
▁フリ	-3263
▁ペン	-3264
▁激安	-3265
っちり	-3266
カバー	-3267
コラボ	-3268
デート	-3269
バッチ	-3270
少なく	-3271
,000	-3272
13.5	-3273
▁-->	-3274
フラット	-3275
柄の出方	-3276
登場です	-3277
もたっぷり	-3278
キャンパス	-3279
ティッシュ	-3280
一覧はコチラ	-3281
と実物のカラー	-3282
になっております	-3283
ショルダーバック	-3284
ショルダートートバッグ	-3285
//	-3286
▁X	-3287
】(	-3288
らず	-3289
イズ	-3290
ジョ	-3291
プロ	-3292
含む	-3293
手の	-3294
配達	-3295
103	-3296
▁Su	-3297
イスト	-3298
RADA	-3299
さいます	-3300
ものです	-3301
配送方法	-3302
▁たっぷり	-3303
新品ですが	-3304
▁あす楽対応	-3305
▁ギフト対応	-3306
によりまして	-3307
country	-3308
としても使える	-3309
▁マザーズバッグ	-3310
(1	-3311
KE	-3312
WN	-3313
iP	-3314
▁▲	-3315
▁付	-3316
▁売	-3317
いか	-3318
まる	-3319
める	-3320
ホー	-3321
予約	-3322
年齢	-3323
方の	-3324
有名	-3325
cmx	-3326
lue	-3327
rep	-3328
▁18	-3329
チョコ	-3330
ブラン	-3331
十分に	-3332
きました	-3333
や汚れが	-3334
トラベル	-3335
ボックス	-3336
感じられ	-3337
におすすめ	-3338
のアイテム	-3339
シルエット	-3340
収納できる	-3341
アジアン雑貨	-3342
サイズも入り	-3343
ディーバッグ	-3344
マルチポーチ	-3345
▁携帯ポケット	-3346
カラーブラック	-3347
メインポケット	-3348
62	-3349
74	-3350
:9	-3351
▁な	-3352
しら	-3353
つけ	-3354
取っ	-3355
気に	-3356
ALE	-3357
ant	-3358
tim	-3359
ver	-3360
×11	-3361
▁SV	-3362
▁牛革	-3363
お中元	-3364
しても	-3365
ケアー	-3366
可能な	-3367
携帯や	-3368
12.5	-3369
ound	-3370
rand	-3371
わずかな	-3372
をご選択	-3373
クリーム	-3374
商品詳細	-3375
実際の色	-3376
本体内部	-3377
style	-3378
▁100%	-3379
▁MARC	-3380
▁ポイント	-3381
▁即日出荷	-3382
をご理解頂	-3383
コーチ直営	-3384
メイン収納	-3385
上シワなど	-3386
検討下さい	-3387
落ち着いた	-3388
▁かごバッグ	-3389
▁クリスマス	-3390
▁旅行バッグ	-3391
コレクション	-3392
センターにて	-3393
ランチバッグ	-3394
国内のコーチ	-3395
▁シグネチャー	-3396
サイドポケット	-3397
アフターケアが可能です	-3398
カスタマーセンターにて	-3399
コーチ直営アウトレット品	-3400
異なって見える場合がございます	-3401
ne	-3402
▁→	-3403
▁各	-3404
▁和	-3405
お手	-3406
ツグ	-3407
ニュ	-3408
ピク	-3409
事が	-3410
6.5	-3411
:00	-3412
PER	-3413
▁IL	-3414
▁ディ	-3415
〜12	-3416
いかが	-3417
お財布	-3418
がかか	-3419
で表示	-3420
やすさ	-3421
シカル	-3422
シーズ	-3423
バツグ	-3424
入れて	-3425
細かな	-3426
back	-3427
▁プラダ	-3428
お洒落な	-3429
ながらも	-3430
のレザー	-3431
税込価格	-3432
▁シルバー	-3433
▁スタッズ	-3434
ご購入をご	-3435
された上で	-3436
で承ります	-3437
リサイクル	-3438
上記注意点	-3439
ground	-3440
▁この商品は	-3441
▁コンパクト	-3442
されるカラー	-3443
サイズなので	-3444
スタイルにも	-3445
上シワなど付	-3446
環境によって	-3447
バリエーション	-3448
等の環境の違い	-3449
お気になさる方は	-3450
ご了承された上で	-3451
と実物のカラーに	-3452
保管上シワなど付	-3453
▁ファスナー開閉式	-3454
をご理解頂いただき	-3455
ご購入をご検討下さい	-3456
アジアンファッション	-3457
ブラウザ等の環境の違い	-3458
予めご了承くださいませ	-3459
されるカラーと実物のカラーに	-3460
上記注意点をご理解頂いただき	-3461
*)	-3462
4/	-3463
OB	-3464
▁Z	-3465
▁l	-3466
▁型	-3467
▁度	-3468
」「	-3469
や傷	-3470
カリ	-3471
ドラ	-3472
保温	-3473
個体	-3474
内に	-3475
強い	-3476
材質	-3477
","	-3478
ily	-3479
rap	-3480
▁RO	-3481
▁内部	-3482
を選択	-3483
ガード	-3484
ミラー	-3485
リップ	-3486
▁外側に	-3487
★★★★	-3488
その他の	-3489
などにも	-3490
サービス	-3491
スペード	-3492
マジック	-3493
商品画像	-3494
持ち運び	-3495
▁シャネル	-3496
マーケット	-3497
CHANEL	-3498
▁GUCCI	-3499
▁エスニック	-3500
加工を施した	-3501
モニターで表示	-3502
違う場合があります	-3503
▁ショルダーストラップ	-3504
!★	-3505
1.	-3506
85	-3507
UN	-3508
×4	-3509
】[	-3510
えた	-3511
さり	-3512
まず	-3513
みの	-3514
や色	-3515
ソー	-3516
修理	-3517
全国	-3518
感を	-3519
材料	-3520
模様	-3521
目を	-3522
肩に	-3523
自分	-3524
2.5	-3525
out	-3526
per	-3527
▁午後	-3528
いろん	-3529
お持ち	-3530
ご愛用	-3531
クロス	-3532
個まで	-3533
hite	-3534
ならでは	-3535
も付いて	-3536
スポーツ	-3537
ターンで	-3538
ファイル	-3539
GUCCI	-3540
ather	-3541
times	-3542
▁size	-3543
ークレーム	-3544
大きく開く	-3545
小ポケット	-3546
▁デイパック	-3547
マザーバッグ	-3548
がありますので	-3549
きれいなお品物です	-3550
background	-3551
背面ファスナーポケット	-3552
ID	-3553
VY	-3554
ei	-3555
▁¥	-3556
▁ン	-3557
▁属	-3558
ケス	-3559
デン	-3560
モコ	-3561
工房	-3562
心地	-3563
色は	-3564
!】<	-3565
WEB	-3566
ood	-3567
oth	-3568
▁AB	-3569
▁AN	-3570
▁ラン	-3571
に変更	-3572
よりも	-3573
ノーリ	-3574
ランス	-3575
SHOP	-3576
になった	-3577
シーズン	-3578
抜群です	-3579
▁ゴールド	-3580
お買い上げ	-3581
モニターや	-3582
▁使いやすい	-3583
ておりますが	-3584
リュックです	-3585
▁ノークレーム	-3586
になりますので	-3587
スナップボタン	-3588
ノーリターンで	-3589
ポケットが付いて	-3590
ノーリターンでお願いします	-3591
77	-3592
ml	-3593
▁口	-3594
バイ	-3595
ラク	-3596
リッ	-3597
ヶ所	-3598
一律	-3599
保証	-3600
半額	-3601
発表	-3602
115	-3603
24×	-3604
ale	-3605
ign	-3606
▁大人	-3607
▁表面	-3608
スプレ	-3609
セリー	-3610
個体差	-3611
翌営業	-3612
▁ケース	-3613
▁ドット	-3614
▁奥行き	-3615
そのまま	-3616
イエロー	-3617
キャリー	-3618
クリップ	-3619
ニール織	-3620
マルケス	-3621
販売番号	-3622
amily	-3623
れています	-3624
▁brand	-3625
▁メーカー名	-3626
▁保存袋付属	-3627
▁折りたたみ	-3628
シュニール織	-3629
メール便発送	-3630
▁商品販売番号	-3631
ルシアマルケス	-3632
しくお願い致します	-3633
EI	-3634
▁♪	-3635
、「	-3636
かい	-3637
の柄	-3638
シカ	-3639
ナス	-3640
下の	-3641
土産	-3642
本店	-3643
直径	-3644
直接	-3645
等は	-3646
軽い	-3647
送り	-3648
防水	-3649
:24	-3650
ING	-3651
^*)	-3652
its	-3653
ote	-3654
▁参考	-3655
▁定価	-3656
ことを	-3657
ビッグ	-3658
ファン	-3659
ワイン	-3660
優れた	-3661
宅急便	-3662
対象外	-3663
高品質	-3664
▁ハンド	-3665
▁宅配便	-3666
でご提供	-3667
での撮影	-3668
アナップ	-3669
nigat	-3670
toyam	-3671
▁オープン	-3672
▁ビジネス	-3673
▁内側には	-3674
のプリント	-3675
デザインは	-3676
定形外郵便	-3677
持ちやすい	-3678
とっても便利	-3679
デジカメポーチ	-3680
モデルの身長は	-3681
ではございません	-3682
ファスナー式開閉	-3683
▁ショルダーベルト	-3684
of	-3685
tp	-3686
▁表	-3687
。▼	-3688
が一	-3689
きの	-3690
エン	-3691
ニア	-3692
取扱	-3693
合せ	-3694
期間	-3695
記念	-3696
350	-3697
://	-3698
INE	-3699
ark	-3700
ith	-3701
▁Le	-3702
▁サブ	-3703
▁上部	-3704
▁使用	-3705
★】【	-3706
クラク	-3707
個購入	-3708
取っ手	-3709
素敵な	-3710
http	-3711
▁肩掛け	-3712
▁軽くて	-3713
ふわふわ	-3714
バツグン	-3715
ンバッグ	-3716
ーちゃん	-3717
上げます	-3718
使用感が	-3719
入るので	-3720
収納可能	-3721
商品情報	-3722
女性から	-3723
感のある	-3724
OTOTE	-3725
align	-3726
▁ヤマト屋	-3727
りますので	-3728
エディター	-3729
rakuten	-3730
モニターにより	-3731
バッグインバッグ	-3732
フロントポケット	-3733
のショルダーバッグ	-3734
!【	-3735
1、	-3736
87	-3737
MS	-3738
ri	-3739
▁t	-3740
▁外	-3741
トナ	-3742
ロッ	-3743
仕事	-3744
会社	-3745
引っ	-3746
数量	-3747
明る	-3748
焼け	-3749
色味	-3750
8.5	-3751
ADE	-3752
ATE	-3753
Com	-3754
ace	-3755
▁海外	-3756
すると	-3757
または	-3758
シート	-3759
スキン	-3760
タオル	-3761
チーバ	-3762
ティエ	-3763
ネーム	-3764
ルーム	-3765
レード	-3766
ーチェ	-3767
に関して	-3768
の色合い	-3769
ギャザー	-3770
リッシュ	-3771
仕上がり	-3772
クラシカル	-3773
はできません	-3774
セレクトショップ	-3775
離島は別途送料が必要	-3776
エスニックファッション	-3777
!<	-3778
SK	-3779
オフ	-3780
値下	-3781
共有	-3782
喜ば	-3783
濡れ	-3784
特に	-3785
話題	-3786
ARD	-3787
QUE	-3788
▁Sp	-3789
▁フェ	-3790
▁フラ	-3791
▁金具	-3792
▁限定	-3793
そして	-3794
な印象	-3795
アルミ	-3796
ズニー	-3797
デザイ	-3798
ニット	-3799
ランド	-3800
ロゴが	-3801
出した	-3802
可能性	-3803
含まず	-3804
当店で	-3805
縫製の	-3806
お使いの	-3807
できない	-3808
での返品	-3809
に便利な	-3810
サージュ	-3811
▁TOTE	-3812
▁bags	-3813
▁フラップ	-3814
】【★】【	-3815
いただいた	-3816
が登場です	-3817
この商品は	-3818
シリーズの	-3819
メール便は	-3820
受付開始分	-3821
実際の商品	-3822
border	-3823
family	-3824
世界中の女性から	-3825
ので予めご了承下さい	-3826
はこちらをご覧ください	-3827
5,	-3828
×6	-3829
カ所	-3830
ジル	-3831
レザ	-3832
レジ	-3833
光の	-3834
散歩	-3835
設立	-3836
頻度	-3837
SON	-3838
eat	-3839
ica	-3840
ork	-3841
▁タイ	-3842
▁通常	-3843
、00	-3844
〜13	-3845
あしら	-3846
いっぱ	-3847
からも	-3848
ジット	-3849
span	-3850
▁お届け	-3851
▁大人気	-3852
うれしい	-3853
こちらは	-3854
まだまだ	-3855
アニマル	-3856
クエスト	-3857
バッチリ	-3858
多少の色	-3859
100%(	-3860
annan	-3861
▁【100	-3862
できるので	-3863
に最適です	-3864
インポート	-3865
iphone	-3866
▁ランキング	-3867
希望小売価格	-3868
のトートバッグ	-3869
・・・・・・・・	-3870
:7	-3871
▁革	-3872
くら	-3873
カイ	-3874
タ鼻	-3875
ッテ	-3876
創業	-3877
国の	-3878
季節	-3879
定価	-3880
必需	-3881
持て	-3882
時代	-3883
無く	-3884
薔薇	-3885
負担	-3886
配色	-3887
馴染	-3888
112	-3889
Pro	-3890
×14	-3891
▁th	-3892
▁よこ	-3893
▁全て	-3894
や携帯	-3895
を付け	-3896
ウール	-3897
マチも	-3898
リンク	-3899
レトロ	-3900
ワード	-3901
好きな	-3902
表面に	-3903
▁lin	-3904
▁大容量	-3905
くれます	-3906
はすべて	-3907
キズあり	-3908
ッチェル	-3909
バックは	-3910
追加料金	-3911
inter	-3912
itson	-3913
▁メッシュ	-3914
でのお届け	-3915
ないように	-3916
ならではの	-3917
クレジット	-3918
デザイナー	-3919
丸みのある	-3920
見た目以上	-3921
違って見え	-3922
▁COLOR	-3923
▁シンプルな	-3924
▁商品の詳細	-3925
は出来ません	-3926
を入れるのに	-3927
在庫がない場合	-3928
マグネットボタン	-3929
*■	-3930
88	-3931
:6	-3932
LT	-3933
ai	-3934
▁一	-3935
】2	-3936
つれ	-3937
ダム	-3938
余裕	-3939
気分	-3940
目の	-3941
繊維	-3942
長い	-3943
開き	-3944
:11	-3945
:13	-3946
ies	-3947
tom	-3948
ねます	-3949
の中で	-3950
ほつれ	-3951
クリル	-3952
スタル	-3953
ターン	-3954
異なる	-3955
ARCI	-3956
QUEZ	-3957
port	-3958
▁Mar	-3959
▁Sho	-3960
▁スウェ	-3961
▁ベルト	-3962
▁女の子	-3963
★☆★☆	-3964
ジェット	-3965
部分には	-3966
othic	-3967
▁エナメル	-3968
のブランド	-3969
ジャガード	-3970
ミニポーチ	-3971
ARQUEZ	-3972
ちょうどいい	-3973
商品について	-3974
長さ調節可能	-3975
▁商品の性質上	-3976
パテントレザー	-3977
マジックテープ	-3978
レディースバッグ	-3979
いる場合がございます	-3980
ファスナー付きポケット	-3981
注意画面上と実物では多少色具合	-3982
1【	-3983
96	-3984
SP	-3985
▁最	-3986
なり	-3987
ウレ	-3988
ブス	-3989
久性	-3990
何卒	-3991
底角	-3992
樹脂	-3993
通販	-3994
部屋	-3995
.0×	-3996
:0;	-3997
BRO	-3998
HER	-3999
ino	-4000
▁IB	-4001
にくく	-4002
ポスト	-4003
耐久性	-4004
こだわり	-4005
のポーチ	-4006
カメリア	-4007
カラーは	-4008
サイズ幅	-4009
ショート	-4010
スタート	-4011
ダメージ	-4012
テイスト	-4013
マーブル	-4014
ラクラク	-4015
レジャー	-4016
ントート	-4017
取り出し	-4018
大人っぽ	-4019
▁エルメス	-4020
モデル着用	-4021
手作りの為	-4022
沖縄離島は	-4023
import	-4024
のバッグです	-4025
コロンとした	-4026
ワンポイント	-4027
▁アジアン雑貨	-4028
レビューを書く	-4029
次回オーダー会	-4030
important	-4031
▁コットンキャンバス	-4032
Du	-4033
gl	-4034
▁k	-4035
▁{	-4036
▁ロ	-4037
い物	-4038
ふく	-4039
トゥ	-4040
ラミ	-4041
塩化	-4042
常に	-4043
技術	-4044
投函	-4045
支持	-4046
欄に	-4047
老舗	-4048
製作	-4049
規格	-4050
27×	-4051
:25	-4052
Jul	-4053
TEL	-4054
kko	-4055
ota	-4056
▁コー	-4057
▁マリ	-4058
すぎず	-4059
を選ば	-4060
コブス	-4061
ハワイ	-4062
ボール	-4063
可愛く	-4064
注目の	-4065
素材に	-4066
100-	-4067
12】【	-4068
plex	-4069
にこだわ	-4070
カラーの	-4071
スペック	-4072
デュプレ	-4073
トレンド	-4074
バッグを	-4075
一つ一つ	-4076
安心です	-4077
akota	-4078
ちゃいます	-4079
にも使える	-4080
やデザイン	-4081
ピクニック	-4082
ヘアアクセ	-4083
ミニトート	-4084
ルートート	-4085
他の商品と	-4086
Duplex	-4087
ジェイコブス	-4088
かわいいポーチ	-4089
ケイトスペード	-4090
デュプレックス	-4091
する場合があります	-4092
ちょっとしたお出掛け	-4093
内ポケットジッパー付	-4094
沖縄離島はゆうパック	-4095
が若干違う場合があります	-4096
02	-4097
1,	-4098
GM	-4099
][	-4100
rp	-4101
▁ペ	-4102
▁本	-4103
いく	-4104
トリ	-4105
合う	-4106
格安	-4107
流行	-4108
避け	-4109
:17	-4110
NEW	-4111
ink	-4112
jpg	-4113
▁使い	-4114
が特徴	-4115
でかけ	-4116
に挑戦	-4117
オーガ	-4118
パンツ	-4119
パーク	-4120
リーブ	-4121
展示品	-4122
早めに	-4123
独特の	-4124
素材が	-4125
豊富な	-4126
ello	-4127
お祝い等	-4128
の商品が	-4129
カラーで	-4130
フィット	-4131
華やかな	-4132
▁2010	-4133
にもお勧め	-4134
によっては	-4135
のショップ	-4136
ゴールドの	-4137
ターパック	-4138
生地の裁断	-4139
ARCIAM	-4140
最安値に挑戦	-4141
最適商品です	-4142
目立つ傷汚れ	-4143
ワンショルダー	-4144
▁Leather	-4145
ガルシアマルケス	-4146
▁アクセサリーポーチ	-4147
活躍してくれそうです	-4148
る場合もございますので	-4149
ARCIAMARQUEZ	-4150
1)	-4151
2,	-4152
CM	-4153
EC	-4154
WA	-4155
▁後	-4156
▁足	-4157
うち	-4158
もこ	-4159
バニ	-4160
ョウ	-4161
リオ	-4162
代表	-4163
基準	-4164
子供	-4165
寸法	-4166
差し	-4167
羊革	-4168
考え	-4169
35×	-4170
980	-4171
:21	-4172
OBS	-4173
afb	-4174
flo	-4175
▁16	-4176
▁カラ	-4177
▁カル	-4178
▁バー	-4179
▁長さ	-4180
がない	-4181
ご確認	-4182
そうな	-4183
などは	-4184
なんと	-4185
のタイ	-4186
まれた	-4187
られて	-4188
ウッド	-4189
ッタン	-4190
バイル	-4191
丈夫で	-4192
使って	-4193
個性的	-4194
実物と	-4195
必需品	-4196
見受け	-4197
訳あり	-4198
部分を	-4199
14.5	-4200
▁【05	-4201
▁ランチ	-4202
していた	-4203
ウレタン	-4204
新品同様	-4205
点セット	-4206
ACOBS	-4207
afafb	-4208
float	-4209
▁着用した	-4210
ない場合は	-4211
のマーブル	-4212
▁化粧ポーチ	-4213
いております	-4214
により若干の	-4215
デイリー使い	-4216
ニューヨーク	-4217
▁Winter	-4218
▁アジアン衣料	-4219
取り外し可能な	-4220
▁ご了承ください	-4221
▁ワンショルダー	-4222
▁無料で承ります	-4223
お使いいただける	-4224
のマーブルマーケット	-4225
アフターケアについて	-4226
が生じる場合があります	-4227
(2	-4228
kb	-4229
▁Y	-4230
▁注	-4231
ただ	-4232
んど	-4233
ヨン	-4234
以来	-4235
佐川	-4236
冠婚	-4237
場所	-4238
年に	-4239
整頓	-4240
有り	-4241
欠品	-4242
準備	-4243
続け	-4244
耐荷	-4245
葬祭	-4246
還元	-4247
関連	-4248
:59	-4249
ans	-4250
com	-4251
ize	-4252
▁Di	-4253
▁St	-4254
▁表地	-4255
カメラ	-4256
キルト	-4257
グレン	-4258
ベット	-4259
商品が	-4260
実店舗	-4261
式開閉	-4262
日発送	-4263
本物の	-4264
番広い	-4265
UART	-4266
line	-4267
none	-4268
ring	-4269
▁USA	-4270
▁カード	-4271
としてお	-4272
ハッタン	-4273
ファブリ	-4274
ラウンド	-4275
ラクター	-4276
佐川急便	-4277
冠婚葬祭	-4278
最短当日	-4279
風合いを	-4280
BROWN	-4281
ITSON	-4282
▁ドット柄	-4283
▁ビニール	-4284
▁ヴィトン	-4285
のお出かけ	-4286
ショッパー	-4287
収納力抜群	-4288
式ポケット	-4289
最長翌営業	-4290
通学などの	-4291
ファブリック	-4292
感じられない	-4293
のペットボトル	-4294
の一覧はコチラ	-4295
環境などにより	-4296
綺麗な状態です	-4297
********	-4298
最長翌営業日出荷	-4299
▁キャスキッドソン	-4300
ビニールコーティング	-4301
09	-4302
2【	-4303
RU	-4304
VI	-4305
】●	-4306
にし	-4307
スリ	-4308
ヴェ	-4309
久留	-4310
刻印	-4311
厚み	-4312
味わ	-4313
布袋	-4314
漂う	-4315
等が	-4316
答え	-4317
背負	-4318
色や	-4319
29×	-4320
LAP	-4321
MES	-4322
TOP	-4323
bot	-4324
spw	-4325
▁23	-4326
▁26	-4327
▁Co	-4328
▁まち	-4329
▁シャ	-4330
▁ヨコ	-4331
▁美品	-4332
▁雑貨	-4333
が見え	-4334
は別途	-4335
らしく	-4336
ネイト	-4337
バティ	-4338
ボルサ	-4339
ミュウ	-4340
上記の	-4341
久留米	-4342
付きの	-4343
新登場	-4344
特性上	-4345
色展開	-4346
触りの	-4347
質感等	-4348
開け口	-4349
×1■【	-4350
しやすく	-4351
の収納力	-4352
ロゴ入り	-4353
使用頻度	-4354
収納でき	-4355
取り付け	-4356
持ち歩く	-4357
spwrp	-4358
▁その他の	-4359
▁サイズは	-4360
カラフルな	-4361
ミニバッグ	-4362
出し入れも	-4363
御座います	-4364
▁White	-4365
しっかりした	-4366
が入荷しました	-4367
はご了承下さい	-4368
プリントされた	-4369
ダブルファスナー	-4370
柄の位置やデザイン	-4371
▁即日出荷いたします	-4372
ありがとうございます	-4373
とさせていただきます	-4374
宜しくお願い致します	-4375
レザーショルダーバッグ	-4376
▁フロントにジップポケット	-4377
▁GARCIAMARQUEZ	-4378
週間程度かかる場合があります	-4379
76	-4380
Co	-4381
ck	-4382
fo	-4383
▁)	-4384
▁ケ	-4385
〜5	-4386
かぶ	-4387
をこ	-4388
ギー	-4389
ッケ	-4390
ッツ	-4391
テゴ	-4392
代引	-4393
保障	-4394
円分	-4395
物の	-4396
発売	-4397
遊び	-4398
:27	-4399
ION	-4400
OPP	-4401
int	-4402
×12	-4403
▁CL	-4404
▁メイ	-4405
▁容量	-4406
が入る	-4407
さりげ	-4408
せない	-4409
の人気	-4410
の目安	-4411
タリー	-4412
ピアノ	-4413
ピング	-4414
ラージ	-4415
優しい	-4416
生地を	-4417
色移り	-4418
荷物も	-4419
高還元	-4420
Glen	-4421
NAVY	-4422
ouch	-4423
park	-4424
▁ハート	-4425
▁中国製	-4426
▁内側に	-4427
の革製品	-4428
エルメス	-4429
セリーヌ	-4430
マルシェ	-4431
レボルサ	-4432
出せます	-4433
安心して	-4434
right	-4435
▁お出かけ	-4436
▁キャメル	-4437
▁バッグの	-4438
られますが	-4439
スウェード	-4440
ップバッグ	-4441
LAPPER	-4442
▁商品写真は	-4443
▁外ポケット	-4444
にもぴったり	-4445
のアクセント	-4446
グレンパーク	-4447
天ファスナー	-4448
▁アウトレット	-4449
っておりません	-4450
Glenpark	-4451
▁Winters	-4452
にもオススメです	-4453
スレはありません	-4454
ポケットがついて	-4455
64	-4456
oh	-4457
▁ク	-4458
お得	-4459
かつ	-4460
さが	-4461
ずつ	-4462
っこ	-4463
を得	-4464
んと	-4465
イチ	-4466
ェ門	-4467
ココ	-4468
パロ	-4469
ラギ	-4470
ラブ	-4471
京都	-4472
儀右	-4473
間に	-4474
50×	-4475
all	-4476
amp	-4477
ton	-4478
×15	-4479
▁29	-4480
▁An	-4481
▁デイ	-4482
▁型番	-4483
▁洋服	-4484
かぶせ	-4485
と特徴	-4486
なども	-4487
に左右	-4488
もので	-4489
クロコ	-4490
ッセル	-4491
可能で	-4492
小さい	-4493
少ない	-4494
美しい	-4495
18.5	-4496
▁ライト	-4497
▁使用感	-4498
でしょう	-4499
にお答え	-4500
をお書き	-4501
をご参照	-4502
スッキリ	-4503
久留米絣	-4504
儀右ェ門	-4505
愛される	-4506
▁スクエア	-4507
がある場合	-4508
リクエスト	-4509
平置き採寸	-4510
斜め掛けも	-4511
荷物の多い	-4512
▁color	-4513
▁持ち手長さ	-4514
▁材合成皮革	-4515
しているので	-4516
になっている	-4517
マンハッタン	-4518
レザーバッグ	-4519
素材の性質上	-4520
▁JACOBS	-4521
▁キルティング	-4522
▁サイズと特徴	-4523
▁洋服のサイズ	-4524
となっています	-4525
ジェットケース	-4526
チェーンバッグ	-4527
内側にも便利な	-4528
のトートバッグです	-4529
▁polyester	-4530
若干異なる場合がございます	-4531
81	-4532
DE	-4533
LY	-4534
kd	-4535
ss	-4536
おく	-4537
やわ	-4538
カチ	-4539
ドー	-4540
ラメ	-4541
下記	-4542
値段	-4543
厚さ	-4544
古布	-4545
呼ば	-4546
変化	-4547
学生	-4548
容赦	-4549
感覚	-4550
温泉	-4551
等に	-4552
解説	-4553
140	-4554
15×	-4555
23×	-4556
32×	-4557
60%	-4558
:28	-4559
ANT	-4560
LED	-4561
LET	-4562
×13	-4563
▁:2	-4564
▁■■	-4565
▁たて	-4566
▁ブル	-4567
▁内容	-4568
▁内装	-4569
かさば	-4570
に近づ	-4571
ッキー	-4572
2012	-4573
adee	-4574
olid	-4575
▁sho	-4576
▁お使い	-4577
▁とても	-4578
▁まれに	-4579
いただく	-4580
ご注意点	-4581
されます	-4582
アクリル	-4583
ケースも	-4584
ティール	-4585
バックル	-4586
以上購入	-4587
本体外部	-4588
▁tote	-4589
▁インナー	-4590
】100-	-4591
だけでなく	-4592
ランキング	-4593
出し入れが	-4594
LEDRAN	-4595
▁spade	-4596
▁商品の解説	-4597
ショルダーは	-4598
国内参考価格	-4599
▁STUART	-4600
▁メーカー品番	-4601
ご安心ください	-4602
スクールバッグ	-4603
メッセンジャー	-4604
▁パーティーバッグ	-4605
▁ショッピングバッグ	-4606
3.	-4607
>★	-4608
DO	-4609
SV	-4610
▁>	-4611
▽▼	-4612
♪<	-4613
♪【	-4614
さも	-4615
と同	-4616
と言	-4617
ほと	-4618
加減	-4619
図書	-4620
底面	-4621
比較	-4622
表情	-4623
裏側	-4624
込む	-4625
高い	-4626
33×	-4627
Hir	-4628
low	-4629
▁他の	-4630
▁品番	-4631
▁巾着	-4632
ご容赦	-4633
ご紹介	-4634
させる	-4635
しかも	-4636
の女性	-4637
の発送	-4638
ひもの	-4639
カワイ	-4640
ビーチ	-4641
万が一	-4642
生地は	-4643
直輸入	-4644
購入の	-4645
通勤や	-4646
DOOR	-4647
▁▼▽▼	-4648
▁サテン	-4649
▁スカル	-4650
▁今なら	-4651
▁内側も	-4652
▁当店は	-4653
されない	-4654
で商品を	-4655
ほとんど	-4656
を問わず	-4657
プチプラ	-4658
ラビット	-4659
大きめの	-4660
新品です	-4661
▁Rose	-4662
▁チェック	-4663
▁参考価格	-4664
▁未使用品	-4665
クリスタル	-4666
シンプルで	-4667
ボタンより	-4668
ラミネート	-4669
使いやすさ	-4670
使用感や傷	-4671
bottom	-4672
iPhone	-4673
▁linen	-4674
▁パーティー	-4675
▁足のサイズ	-4676
ございました	-4677
aterial	-4678
っておりますが	-4679
感じられない品	-4680
▁クラッチバッグ	-4681
のでご了承下さい	-4682
誕生日プレゼント	-4683
polyester	-4684
▁ちょっとしたお出かけ	-4685
Ra	-4686
Ya	-4687
▁グ	-4688
▁参	-4689
いが	-4690
くる	-4691
とに	-4692
なた	-4693
ジム	-4694
ナナ	-4695
ハー	-4696
作業	-4697
急ぎ	-4698
無し	-4699
5.5	-4700
:19	-4701
ULT	-4702
asu	-4703
avy	-4704
eau	-4705
ryo	-4706
ser	-4707
▁BY	-4708
▁SH	-4709
▁エコ	-4710
▁カゴ	-4711
▁スマ	-4712
▁タグ	-4713
▁多数	-4714
▁耐荷	-4715
いもの	-4716
オパー	-4717
ジルス	-4718
スーツ	-4719
ハンプ	-4720
ヒラギ	-4721
マッチ	-4722
ループ	-4723
品切れ	-4724
角擦れ	-4725
able	-4726
etty	-4727
▁もとも	-4728
▁メッセ	-4729
しまった	-4730
オパード	-4731
ストール	-4732
ハンガー	-4733
ヒラギノ	-4734
メイリオ	-4735
モバイル	-4736
円分図書	-4737
大きさで	-4738
施された	-4739
Hirag	-4740
eiryo	-4741
serif	-4742
▁2011	-4743
▁フリンジ	-4744
ありますが	-4745
ご理解の上	-4746
サイズ違い	-4747
ジルスチュ	-4748
女性らしい	-4749
たっぷり入る	-4750
なデザインで	-4751
はこちらから	-4752
られています	-4753
シリーズです	-4754
ベーシックな	-4755
ポリウレタン	-4756
店長コメント	-4757
日時指定不可	-4758
▁Gothic	-4759
クルートバッグ	-4760
円分図書カード	-4761
Hiragino	-4762
▁FLAPPER	-4763
▁商品詳細サイズ	-4764
になっているので	-4765
ジッパーポケット	-4766
ジルスチュアート	-4767
の場合もございます	-4768
/0	-4769
2.	-4770
69	-4771
IR	-4772
ha	-4773
vo	-4774
▁!	-4775
▁山	-4776
▁着	-4777
しゅ	-4778
つの	-4779
エル	-4780
ツレ	-4781
レア	-4782
優雅	-4783
加え	-4784
多目	-4785
小傷	-4786
早く	-4787
相性	-4788
自由	-4789
菓子	-4790
表現	-4791
26×	-4792
4.5	-4793
IDS	-4794
IGE	-4795
Mar	-4796
agn	-4797
ifr	-4798
img	-4799
▁27	-4800
▁34	-4801
▁定番	-4802
かれた	-4803
させた	-4804
の書き	-4805
カテゴ	-4806
コット	-4807
ロンズ	-4808
包装は	-4809
呼ばれ	-4810
小物を	-4811
支払い	-4812
申し訳	-4813
確認後	-4814
税込み	-4815
Chin	-4816
に大活躍	-4817
のように	-4818
の性質上	-4819
らしさを	-4820
ガーリー	-4821
サイドに	-4822
ディアム	-4823
ポーチは	-4824
レディス	-4825
帆布工房	-4826
持ち手に	-4827
持ち手は	-4828
lower	-4829
▁キャリー	-4830
については	-4831
のブラウザ	-4832
の場合でも	-4833
スウェット	-4834
フラッパー	-4835
ブランドを	-4836
ペンケース	-4837
重宝します	-4838
iframe	-4839
▁BLACK	-4840
▁ございます	-4841
▁キットソン	-4842
メイクアップ	-4843
円のところを	-4844
商品到着まで	-4845
マンハッタンで	-4846
レビューの書き	-4847
間違いなしです	-4848
ヴィトンのバック	-4849
背面とショルダー	-4850
頂けるお品物です	-4851
▁shoulder	-4852
がとってもキュート	-4853
予めご了承願います	-4854
目立つ傷汚れスレはありません	-4855
.3	-4856
CA	-4857
nt	-4858
】★	-4859
ひも	-4860
みを	-4861
めた	-4862
やさ	-4863
ゆる	-4864
を致	-4865
スパ	-4866
一点	-4867
好評	-4868
専用	-4869
底鋲	-4870
数の	-4871
染め	-4872
無い	-4873
現物	-4874
発行	-4875
社の	-4876
立体	-4877
納品	-4878
良く	-4879
豪華	-4880
40%	-4881
40×	-4882
70%	-4883
:35	-4884
aRa	-4885
ard	-4886
ime	-4887
▁28	-4888
▁SP	-4889
▁ねこ	-4890
ことも	-4891
ご用意	-4892
しない	-4893
ちょこ	-4894
っくり	-4895
ですか	-4896
どちら	-4897
の店舗	-4898
クリア	-4899
コキズ	-4900
ジュー	-4901
フィア	-4902
ベース	-4903
ューム	-4904
号帆布	-4905
多くの	-4906
製品に	-4907
amel	-4908
▁さらに	-4909
▁ランク	-4910
▁大きな	-4911
お買い得	-4912
に仕上げ	-4913
のご紹介	-4914
アレンジ	-4915
サイズ感	-4916
ッドパイ	-4917
ヌメ革に	-4918
ングッズ	-4919
人気です	-4920
使用感は	-4921
実物の色	-4922
aRaYa	-4923
space	-4924
▁SALE	-4925
▁Tote	-4926
▁work	-4927
▁その際は	-4928
おしゃれな	-4929
オススメの	-4930
キーワード	-4931
ディズニー	-4932
下さいます	-4933
商品の色は	-4934
大きさです	-4935
複数ご購入	-4936
gladee	-4937
imekko	-4938
▁ミニバッグ	-4939
こちらの商品	-4940
になっていて	-4941
コンパクトに	-4942
承諾メールを	-4943
▁CHANEL	-4944
▁Dakota	-4945
▁ちょっとした	-4946
が付いています	-4947
に関しましては	-4948
ビジネスバッグ	-4949
が付いているので	-4950
できないケースも	-4951
で商品を確認の上	-4952
リクエストにお答え	-4953
▁発送させていただきます	-4954
在庫がない場合もあります	-4955
▁その際はリクエストにお答え	-4956
で商品を確認の上承諾メールを	-4957
.2	-4958
73	-4959
os	-4960
▁g	-4961
▁同	-4962
】⇒	-4963
たせ	-4964
でお	-4965
ビニ	-4966
ヨー	-4967
兼ね	-4968
勝ち	-4969
裏面	-4970
読み	-4971
間口	-4972
-10	-4973
180	-4974
20%	-4975
230	-4976
31×	-4977
38×	-4978
VOL	-4979
▁前面	-4980
。。。	-4981
いても	-4982
ほどに	-4983
ウェイ	-4984
カーボ	-4985
コース	-4986
タンニ	-4987
パーツ	-4988
メッコ	-4989
ングラ	-4990
不良品	-4991
以内に	-4992
出品物	-4993
同様に	-4994
多目的	-4995
当方の	-4996
程よい	-4997
袋包装	-4998
飽きの	-4999
19.5	-5000
2011	-5001
Wrap	-5002
▁Kat	-5003
いっぱい	-5004
お早めに	-5005
が必要な	-5006
で仕上げ	-5007
カラーに	-5008
カワイイ	-5009
ガールズ	-5010
ホーボー	-5011
リバティ	-5012
当店では	-5013
気軽にお	-5014
風合いの	-5015
▁Cath	-5016
▁もともと	-5017
▁グリーン	-5018
インパクト	-5019
プリントが	-5020
ポリカーボ	-5021
可愛いです	-5022
正規品です	-5023
購入の本物	-5024
eature	-5025
▁エディター	-5026
▁メイン収納	-5027
▁持ち手高さ	-5028
したものです	-5029
としてご理解	-5030
にはもちろん	-5031
にも便利です	-5032
のタイミング	-5033
カジュアルな	-5034
キャラクター	-5035
コインケース	-5036
チャーム付き	-5037
時受付開始分	-5038
申し上げます	-5039
▁材合成皮革仕	-5040
ウエストポーチ	-5041
パーティバッグ	-5042
▁ROOTOTE	-5043
▁メッセンジャー	-5044
アクセサリーなど	-5045
正規店購入の本物	-5046
をお願いいたします	-5047
コットンキャンバス	-5048
に使えるマルチポーチ	-5049
ItemRecWrap	-5050
斜め掛けショルダーバッグ	-5051
正規店購入の本物になっております	-5052
)。	-5053
,5	-5054
03	-5055
67	-5056
:"	-5057
="	-5058
OM	-5059
▁ネ	-5060
☆☆	-5061
およ	-5062
な物	-5063
ひら	-5064
ふん	-5065
ほか	-5066
コム	-5067
ゴム	-5068
ダル	-5069
ダン	-5070
ボア	-5071
マガ	-5072
ーカ	-5073
以下	-5074
休日	-5075
影響	-5076
招待	-5077
最高	-5078
詰め	-5079
17×	-5080
450	-5081
650	-5082
:23	-5083
DEL	-5084
IES	-5085
INA	-5086
IVE	-5087
UCA	-5088
ody	-5089
▁22	-5090
▁LA	-5091
▁正面	-5092
かなか	-5093
これら	-5094
に便利	-5095
キレイ	-5096
チャン	-5097
バリー	-5098
ベルタ	-5099
ョウ柄	-5100
レスポ	-5101
ロール	-5102
ーター	-5103
上品で	-5104
今すぐ	-5105
底マチ	-5106
採寸は	-5107
発行中	-5108
素材綿	-5109
金具が	-5110
非常に	-5111
頂いた	-5112
ELLE	-5113
GOOD	-5114
▁15%	-5115
▁お客様	-5116
お届けが	-5117
を使用し	-5118
ポップな	-5119
備考欄に	-5120
入らない	-5121
店頭販売	-5122
表記を致	-5123
裏地あり	-5124
非売品は	-5125
▁2012	-5126
▁Mini	-5127
▁スタッフ	-5128
▁ビゾンテ	-5129
がかわいい	-5130
になるので	-5131
のナイロン	-5132
のバッグは	-5133
のポイント	-5134
コサージュ	-5135
コスメ等の	-5136
シワや素材	-5137
フェイラー	-5138
ーチェーン	-5139
付属品の為	-5140
取り扱い店	-5141
手数料無料	-5142
番広い部分	-5143
▁20:59	-5144
▁スウェット	-5145
ご希望の方は	-5146
なデザインに	-5147
今すぐ使える	-5148
個プレゼント	-5149
合わせやすい	-5150
当方の出品物	-5151
材料合成皮革	-5152
はすべて正規品	-5153
クーポン発行中	-5154
スマートフォン	-5155
海外輸入による	-5156
▁ウエストバッグ	-5157
の場合でもすべて	-5158
コスメ等のギフト	-5159
ポリカーボネイト	-5160
▁ショルダーの長さ	-5161
エディターズバッグ	-5162
非売品は付属品の為	-5163
表記を致しております	-5164
により若干のサイズ違い	-5165
未使用の場合でもすべて	-5166
▁もともと海外輸入による	-5167
にオススメなかわいいポーチ	-5168
ブランドのコスメ等のギフト	-5169
当方の出品物はすべて正規品	-5170
シワや素材により若干のサイズ違い	-5171
(5	-5172
86	-5173
89	-5174
AU	-5175
BU	-5176
KH	-5177
MC	-5178
WH	-5179
YL	-5180
ud	-5181
▁両	-5182
〜♪	-5183
かす	-5184
よろ	-5185
セカ	-5186
ハイ	-5187
バル	-5188
リケ	-5189
ワッ	-5190
前後	-5191
強く	-5192
感性	-5193
提案	-5194
歳暮	-5195
解れ	-5196
質は	-5197
銀行	-5198
風呂	-5199
118	-5200
19×	-5201
:22	-5202
:32	-5203
ama	-5204
apu	-5205
ity	-5206
ted	-5207
top	-5208
▁PV	-5209
▁\\	-5210
▁an	-5211
▁など	-5212
▁国内	-5213
および	-5214
お選び	-5215
と同じ	-5216
の指定	-5217
ヒット	-5218
マット	-5219
使用で	-5220
写真と	-5221
色ムラ	-5222
ARRA	-5223
▁50%	-5224
▁キャン	-5225
▁レトロ	-5226
▁高さ約	-5227
での配送	-5228
ではなく	-5229
と在庫を	-5230
に関する	-5231
ふんわり	-5232
をご確認	-5233
セカンド	-5234
タイプで	-5235
タリック	-5236
ハンカチ	-5237
フェルト	-5238
ポーチの	-5239
使っても	-5240
光の加減	-5241
全国一律	-5242
当店にて	-5243
数量限定	-5244
柔らかく	-5245
次第終了	-5246
気に入り	-5247
無くなり	-5248
秋冬新作	-5249
image	-5250
▁両サイド	-5251
▁出産祝い	-5252
▁山ガール	-5253
いろいろな	-5254
による返品	-5255
スタイルに	-5256
当店で撮影	-5257
致しました	-5258
ARRAULT	-5259
クレジット決済	-5260
スタイリッシュ	-5261
使い勝手の良い	-5262
▁ボディーバッグ	-5263
レビューの書き方	-5264
楽天最安値に挑戦	-5265
ようお願い致します	-5266
や環境により実際の色	-5267
▁商品写真は当店で撮影	-5268
ありますのでご了承ください	-5269
などがある場合がございます	-5270
のモニターや環境により実際の色	-5271
)2	-5272
-2	-5273
BB	-5274
CU	-5275
KI	-5276
SB	-5277
TD	-5278
]<	-5279
]【	-5280
zi	-5281
▁⇒	-5282
▁い	-5283
の程	-5284
マウ	-5285
モワ	-5286
上の	-5287
変え	-5288
就職	-5289
年代	-5290
形状	-5291
新色	-5292
時期	-5293
機会	-5294
確立	-5295
象徴	-5296
面白	-5297
風の	-5298
21×	-5299
7.5	-5300
BIG	-5301
cab	-5302
×17	-5303
▁17	-5304
▁BE	-5305
▁Pr	-5306
▁■【	-5307
▁エン	-5308
▁付属	-5309
いつも	-5310
お弁当	-5311
お時間	-5312
すれば	-5313
とって	-5314
のみの	-5315
を開け	-5316
クシカ	-5317
クロエ	-5318
トップ	-5319
ラック	-5320
巾着式	-5321
心がけ	-5322
手作業	-5323
発表会	-5324
見える	-5325
間口は	-5326
1202	-5327
13】【	-5328
KEUP	-5329
etto	-5330
inet	-5331
▁NEW	-5332
▁お買い	-5333
▁キャス	-5334
▁ポピー	-5335
▁超美品	-5336
▁送料は	-5337
▁開口部	-5338
いてから	-5339
お客様の	-5340
かっちり	-5341
をあしら	-5342
をお選び	-5343
アイコン	-5344
インナー	-5345
クシカタ	-5346
ヤージュ	-5347
レザーに	-5348
円高還元	-5349
正規店に	-5350
等により	-5351
管理番号	-5352
背負った	-5353
逸品です	-5354
hinzi	-5355
▁JILL	-5356
▁spec	-5357
▁もちろん	-5358
▁カラフル	-5359
▁キュート	-5360
▁久留米絣	-5361
▁取り寄せ	-5362
のお買い物	-5363
はメール便	-5364
アトラップ	-5365
ンジャック	-5366
傷や汚れが	-5367
があり機能的	-5368
ペンホルダー	-5369
嬉しいですね	-5370
cabinet	-5371
アトラップモワ	-5372
他の商品と同梱	-5373
▁ビジネスバッグ	-5374
場合がございます	-5375
お知らせいたします	-5376
▁取り寄せ商品のため	-5377
交換はお受けできません	-5378
アクセントになっています	-5379
内側にもオープンポケットが	-5380
正規店に在庫がない場合もあります	-5381
.4	-5382
が決	-5383
じゃ	-5384
どこ	-5385
の革	-5386
は承	-5387
ッカ	-5388
マ口	-5389
・5	-5390
今回	-5391
十分	-5392
単位	-5393
広告	-5394
拡大	-5395
照明	-5396
物を	-5397
総柄	-5398
色が	-5399
閉め	-5400
関東	-5401
:38	-5402
ALL	-5403
AND	-5404
Col	-5405
^^)	-5406
×1(	-5407
▁MI	-5408
▁ボー	-5409
▁マイ	-5410
▁光沢	-5411
▁背面	-5412
ことが	-5413
つけて	-5414
つ折り	-5415
に限り	-5416
ふくさ	-5417
ものを	-5418
カット	-5419
ショナ	-5420
ダミエ	-5421
ニング	-5422
ミリー	-5423
ラベル	-5424
レンチ	-5425
分かり	-5426
大切に	-5427
存在感	-5428
)・・・	-5429
15.5	-5430
RIAL	-5431
ROSE	-5432
cmxH	-5433
item	-5434
▁...	-5435
▁ブタ鼻	-5436
▁マチが	-5437
▁ライン	-5438
▁リネン	-5439
▁大きい	-5440
▁高品質	-5441
のお届け	-5442
のご指定	-5443
スタード	-5444
スチャン	-5445
ズバック	-5446
タッセル	-5447
ランダム	-5448
リボンが	-5449
優れもの	-5450
勧めです	-5451
商品の為	-5452
在庫切れ	-5453
払い決済	-5454
細かな傷	-5455
雑誌掲載	-5456
雰囲気を	-5457
PRADA	-5458
agnes	-5459
▁たくさん	-5460
▁ちょっと	-5461
▁シリアル	-5462
▁ボーダー	-5463
▁新品同様	-5464
が施された	-5465
により柄の	-5466
のデザイン	-5467
のフラップ	-5468
のモチーフ	-5469
アメリカの	-5470
イニシャル	-5471
サイズ高さ	-5472
サテン生地	-5473
タイプです	-5474
ディション	-5475
パイピング	-5476
出来るだけ	-5477
招待メール	-5478
detail	-5479
▁Katoh	-5480
▁Pouch	-5481
▁solid	-5482
▁カルティエ	-5483
お使い下さい	-5484
なデザインが	-5485
にもなります	-5486
の際はご容赦	-5487
高級感のある	-5488
▁Flower	-5489
▁スパンコール	-5490
に左右されない	-5491
を使用しており	-5492
レッスンバッグ	-5493
販売されている	-5494
にもおすすめです	-5495
ボディバッグです	-5496
無くなり次第終了	-5497
▁予めご了承ください	-5498
通学などにもおすすめ	-5499
あらかじめご了承ください	-5500
97	-5501
An	-5502
ce	-5503
la	-5504
ut	-5505
▁他	-5506
▁質	-5507
せる	-5508
ちな	-5509
イツ	-5510
ガリ	-5511
コミ	-5512
スム	-5513
ヒモ	-5514
ビュ	-5515
ビロ	-5516
丁度	-5517
並行	-5518
明な	-5519
特殊	-5520
現地	-5521
返し	-5522
配置	-5523
!!】	-5524
1.5	-5525
30%	-5526
:18	-5527
:29	-5528
:40	-5529
ARM	-5530
Bag	-5531
ice	-5532
▁25	-5533
▁40	-5534
▁co	-5535
▁●【	-5536
▁アン	-5537
▁サン	-5538
▁奥行	-5539
〜10	-5540
あって	-5541
が入荷	-5542
くなる	-5543
である	-5544
で使用	-5545
の環境	-5546
シザー	-5547
ッフル	-5548
ナスイ	-5549
ミニン	-5550
リティ	-5551
ートン	-5552
中でも	-5553
内側の	-5554
内張り	-5555
小さく	-5556
手持ち	-5557
溢れる	-5558
銀行振	-5559
長めの	-5560
0000	-5561
▁500	-5562
▁TEL	-5563
▁ついて	-5564
▁ダミエ	-5565
▁耐荷重	-5566
と一緒に	-5567
に最適な	-5568
サイズ縦	-5569
サックス	-5570
スタッフ	-5571
スーパー	-5572
チャート	-5573
デルーカ	-5574
バッグや	-5575
レーヨン	-5576
ーーーー	-5577
使い分け	-5578
変更され	-5579
春夏新作	-5580
▁3000	-5581
▁KIDS	-5582
▁MATE	-5583
▁フラワー	-5584
▁携帯電話	-5585
▁発送方法	-5586
と思います	-5587
に使えます	-5588
はアメリカ	-5589
ポスト投函	-5590
メイン開閉	-5591
付きなので	-5592
最安値挑戦	-5593
金具にキズ	-5594
DELUCA	-5595
▁エレガント	-5596
いかがですか	-5597
ご購入下さい	-5598
すべて未使用	-5599
に関しまして	-5600
わずかにあり	-5601
個購入につき	-5602
色の見え方が	-5603
以上で送料無料	-5604
▁ジップポケット	-5605
レビューをお書き	-5606
本物のノベルティ	-5607
▁MATERIAL	-5608
▁完売いたしました	-5609
どんなスタイルにも	-5610
る場合が御座います	-5611
マークジェイコブス	-5612
プレゼントにもどうぞ	-5613
▁ルイヴィトンのバッグ	-5614
異なることがございます	-5615
本物のノベルティですので	-5616
色の見え方が実際の商品と	-5617
色味が異なる場合があります	-5618
&#	-5619
93	-5620
aw	-5621
▁、	-5622
▁ゴ	-5623
▁入	-5624
あわ	-5625
お品	-5626
お花	-5627
けば	-5628
そこ	-5629
ほぼ	-5630
をも	-5631
を生	-5632
オマ	-5633
キン	-5634
ケツ	-5635
タバ	-5636
ツイ	-5637
フワ	-5638
ヤー	-5639
ョン	-5640
レル	-5641
企画	-5642
名前	-5643
基本	-5644
底板	-5645
手帳	-5646
支店	-5647
株式	-5648
見逃	-5649
訂正	-5650
醸し	-5651
125	-5652
:36	-5653
===	-5654
ARA	-5655
Hel	-5656
ROO	-5657
SAX	-5658
div	-5659
ear	-5660
ede	-5661
▁cm	-5662
▁チャ	-5663
▁ママ	-5664
▁用途	-5665
▁製造	-5666
★★★	-5667
いまや	-5668
が多く	-5669
くれる	-5670
たため	-5671
たちの	-5672
でのお	-5673
の裏地	-5674
や旅行	-5675
ゥーク	-5676
キュー	-5677
タグは	-5678
チック	-5679
ラスト	-5680
使えて	-5681
取扱い	-5682
営業日	-5683
実用性	-5684
時には	-5685
札入れ	-5686
比較的	-5687
濡れた	-5688
留め具	-5689
発送は	-5690
_^*)	-5691
▁120	-5692
▁そんな	-5693
▁メイク	-5694
▁上質な	-5695
▁付属の	-5696
お誕生日	-5697
ただいま	-5698
にも最適	-5699
ガジップ	-5700
スムーズ	-5701
チェリー	-5702
ツイード	-5703
ユニーク	-5704
整理整頓	-5705
時間指定	-5706
期間限定	-5707
株式会社	-5708
森ガール	-5709
製品洗い	-5710
rande	-5711
▁オレンジ	-5712
▁代金引換	-5713
お買い求め	-5714
があるもの	-5715
を入れても	-5716
アイテムは	-5717
スタイルは	-5718
ベーシック	-5719
ペンポーチ	-5720
マイバッグ	-5721
メーカーの	-5722
ルトゥーク	-5723
使い勝手も	-5724
取り外し可	-5725
喜ばれます	-5726
小さなキズ	-5727
GLADEE	-5728
▁Black	-5729
▁イニシャル	-5730
▁ジッパー付	-5731
おしゃれです	-5732
になっており	-5733
コーチ商品名	-5734
ナイロン素材	-5735
違いますので	-5736
repetto	-5737
▁Grande	-5738
もありますので	-5739
バッグとしても	-5740
幅広いシーンで	-5741
をご希望のお客様	-5742
複数ご購入の場合	-5743
▁ショルダーひもの	-5744
▁バッグインバッグ	-5745
ちょっとした旅行や	-5746
▁当店はすべて未使用	-5747
がある場合があります	-5748
カラーバリエーション	-5749
===========	-5750
▁ありがとうございます	-5751
ご愛用頂けるお品物です	-5752
▁ショルダートートバッグ	-5753
スマホに使えるマルチポーチ	-5754
.8	-5755
:0	-5756
KO	-5757
LD	-5758
NV	-5759
na	-5760
×5	-5761
▁デ	-5762
▁ナ	-5763
▁早	-5764
▁袋	-5765
が溢	-5766
さま	-5767
の手	-5768
もん	-5769
りが	-5770
ケー	-5771
シリ	-5772
ダイ	-5773
トウ	-5774
ネロ	-5775
バリ	-5776
ブー	-5777
マグ	-5778
メン	-5779
伝統	-5780
全く	-5781
共に	-5782
女優	-5783
少量	-5784
帯び	-5785
度の	-5786
引く	-5787
数回	-5788
有料	-5789
洗練	-5790
瞬く	-5791
等で	-5792
約束	-5793
級品	-5794
薄い	-5795
貴重	-5796
道具	-5797
鍵盤	-5798
VER	-5799
are	-5800
ida	-5801
ine	-5802
×16	-5803
×24	-5804
▁CI	-5805
▁時代	-5806
いくつ	-5807
の刺繍	-5808
オイル	-5809
オマケ	-5810
スティ	-5811
センス	-5812
タウン	-5813
ティア	-5814
トーン	-5815
仕立て	-5816
問合せ	-5817
機能面	-5818
気軽に	-5819
水洗い	-5820
生産品	-5821
2010	-5822
:160	-5823
:450	-5824
SIZE	-5825
ZARA	-5826
いません	-5827
お呼ばれ	-5828
のための	-5829
のベルト	-5830
ラックス	-5831
ローニュ	-5832
作られた	-5833
優雅さと	-5834
大注目の	-5835
瞬く間に	-5836
ICARD	-5837
OLIVE	-5838
▁PINK	-5839
▁お買い物	-5840
▁アメリカ	-5841
▁カラーは	-5842
▁ガールズ	-5843
▁小物入れ	-5844
たっぷりの	-5845
にフィット	-5846
をお楽しみ	-5847
を入れるの	-5848
ディオール	-5849
レーション	-5850
急ぎの方は	-5851
状態の良い	-5852
などによって	-5853
のオリジナル	-5854
カードケース	-5855
ゴージャスな	-5856
ターンロック	-5857
ファスナーの	-5858
メインルーム	-5859
使用感少なく	-5860
多少の色むら	-5861
見た目以上に	-5862
▁ショルダー紐	-5863
▁ハンドメイド	-5864
は別途追加料金	-5865
も付いています	-5866
好きにオススメ	-5867
▁ダークブラウン	-5868
包装はラッピング	-5869
▁Shoulder	-5870
▁スタッフコメント	-5871
アクセサリーポーチ	-5872
ブランド名コーチ商品名	-5873
包装はラッピングコーナー	-5874
等がある場合がございます	-5875
汚れがある場合がございます	-5876
▁あらかじめご了承の上ご注文	-5877
,"	-5878
1/	-5879
4,	-5880
94	-5881
:8	-5882
IA	-5883
PH	-5884
ey	-5885
op	-5886
↓↓	-5887
▁”	-5888
▁地	-5889
▁白	-5890
▁顔	-5891
かく	-5892
かも	-5893
がれ	-5894
すご	-5895
の良	-5896
エス	-5897
シン	-5898
セミ	-5899
ゾン	-5900
ロア	-5901
一切	-5902
丸い	-5903
丸ゴ	-5904
品名	-5905
問題	-5906
土曜	-5907
女子	-5908
子様	-5909
形の	-5910
後ろ	-5911
沢山	-5912
淡い	-5913
秘密	-5914
細な	-5915
隠し	-5916
難い	-5917
277	-5918
37×	-5919
733	-5920
ELE	-5921
Luc	-5922
ONY	-5923
SED	-5924
TER	-5925
URE	-5926
vet	-5927
×10	-5928
▁中国	-5929
▁今回	-5930
あなた	-5931
あまり	-5932
かった	-5933
たかさ	-5934
なのに	-5935
に付け	-5936
に使用	-5937
の上品	-5938
の状態	-5939
もあり	-5940
もしく	-5941
よう努	-5942
をつけ	-5943
シャン	-5944
ッテガ	-5945
ビニル	-5946
プール	-5947
ベッカ	-5948
マンジ	-5949
リット	-5950
ーチャ	-5951
丸みを	-5952
値下げ	-5953
収納も	-5954
外側に	-5955
持てる	-5956
菓子や	-5957
虜にし	-5958
送料を	-5959
遊び心	-5960
16.5	-5961
4","	-5962
ORSA	-5963
kate	-5964
sans	-5965
▁HER	-5966
▁Ste	-5967
▁div	-5968
▁カーキ	-5969
▁モン族	-5970
▁レスポ	-5971
▁見た目	-5972
で使える	-5973
なかなか	-5974
やわらか	-5975
ッケージ	-5976
ハッピー	-5977
ポーチや	-5978
仕様開閉	-5979
在庫処分	-5980
型崩れし	-5981
広いので	-5982
持ち歩き	-5983
画像です	-5984
5,250	-5985
Arial	-5986
▁Maru	-5987
▁サイズ横	-5988
▁プリント	-5989
▁レディス	-5990
▁冠婚葬祭	-5991
▁参考定価	-5992
▁商品状態	-5993
しっかりと	-5994
に近づける	-5995
の革製品を	-5996
られません	-5997
ポケットは	-5998
ポーチ付き	-5999
マンジュウ	-6000
メール便可	-6001
丸みを帯び	-6002
持ち手部分	-6003
Helvet	-6004
Lucida	-6005
Meiryo	-6006
NaRaYa	-6007
▁PRADA	-6008
▁Suede	-6009
▁ストライプ	-6010
にもオススメ	-6011
のポケットが	-6012
ヒラギノ丸ゴ	-6013
マンティック	-6014
レターパック	-6015
付きポケット	-6016
段階調節可能	-6017
▁iframe	-6018
ご注文いただき	-6019
つ付いています	-6020
の詳細はコチラ	-6021
無料ラッピング	-6022
▁CLEDRAN	-6023
▁Flowers	-6024
一覧はこちらから	-6025
Helvetica	-6026
▁リクルートバッグ	-6027
▁matterial	-6028
となっておりますので	-6029
▁プレゼントにもお勧め	-6030
お誕生日プレゼントにもどうぞ	-6031
)】	-6032
bd	-6033
ux	-6034
▁ジ	-6035
▁ル	-6036
▁尚	-6037
、(	-6038
あら	-6039
いち	-6040
お揃	-6041
きら	-6042
なお	-6043
の鋭	-6044
を与	-6045
オム	-6046
ネタ	-6047
ペア	-6048
ボリ	-6049
ラム	-6050
個人	-6051
入金	-6052
売れ	-6053
年月	-6054
揺る	-6055
文責	-6056
本柱	-6057
派手	-6058
済み	-6059
生活	-6060
確固	-6061
調の	-6062
122	-6063
190	-6064
AGE	-6065
COM	-6066
koh	-6067
oga	-6068
ond	-6069
×19	-6070
×23	-6071
▁(※	-6072
▁GG	-6073
▁JJ	-6074
▁ジュ	-6075
▁スポ	-6076
▁トゥ	-6077
▁レジ	-6078
▁・・	-6079
▁各種	-6080
が溢れ	-6081
こない	-6082
ちんと	-6083
の鋭い	-6084
タッチ	-6085
ドクロ	-6086
フィン	-6087
レジ袋	-6088
ワーズ	-6089
丁寧に	-6090
会など	-6091
入れる	-6092
受付分	-6093
商品に	-6094
基準を	-6095
大特価	-6096
御了承	-6097
旅行の	-6098
本質は	-6099
機会に	-6100
水濡れ	-6101
海外の	-6102
移りの	-6103
素材と	-6104
荷物を	-6105
記念品	-6106
金具の	-6107
WEET	-6108
okoh	-6109
▁81-	-6110
▁再入荷	-6111
から長い	-6112
すぎない	-6113
たる魅力	-6114
っとした	-6115
ても揺る	-6116
で宅配便	-6117
の中でも	-6118
はご利用	-6119
もしくは	-6120
スペース	-6121
ディソン	-6122
ランティ	-6123
ーカーを	-6124
切り替え	-6125
多少色味	-6126
大容量で	-6127
年の創業	-6128
年月を得	-6129
広告文責	-6130
機能性も	-6131
発送まで	-6132
目を引く	-6133
見られる	-6134
:23.5	-6135
BEIGE	-6136
cooga	-6137
▁1941	-6138
くなります	-6139
してくれる	-6140
により確立	-6141
はこちらを	-6142
カゴバック	-6143
キットソン	-6144
パスケース	-6145
ファミリー	-6146
フェミニン	-6147
マッドパイ	-6148
使いやすく	-6149
優れた技術	-6150
天然素材の	-6151
感性の鋭い	-6152
表記サイズ	-6153
▁エコバック	-6154
▁サイズ本体	-6155
▁シンプルで	-6156
▁承諾メール	-6157
が届いてから	-6158
が届きました	-6159
が違って見え	-6160
していきます	-6161
ストラップは	-6162
代引き手数料	-6163
優雅さと確固	-6164
最安値挑戦中	-6165
特別価格にて	-6166
誕生しました	-6167
軽くて丈夫な	-6168
okohama	-6169
▁OUTLET	-6170
がないコーチの	-6171
たる魅力が溢れ	-6172
での撮影のため	-6173
クラッチバック	-6174
スタイルという	-6175
ストラップ付き	-6176
全て手作りの為	-6177
多目的ポケット	-6178
宅配便での発送	-6179
本柱により確立	-6180
様々なシーンで	-6181
瞬く間に虜にし	-6182
から長い年月を得	-6183
やデジカメポーチ	-6184
を使用している為	-6185
ガジェットケース	-6186
ニューヨーカーを	-6187
パーティーバック	-6188
愛されるブランド	-6189
折りたたみバッグ	-6190
素材ポリエステル	-6191
▁コーチはアメリカ	-6192
▁高品質の革製品を	-6193
コーチのスタイルは	-6194
ブランドをスタート	-6195
優れた技術で仕上げ	-6196
▁ジッパー付ポケット	-6197
▁時代に左右されない	-6198
がないコーチの本質は	-6199
いまや世界中の女性から	-6200
についての詳細はコチラ	-6201
中にファスナーポケット	-6202
菓子やアクセサリーなど	-6203
週間程度かかりますので	-6204
▁承諾メールが届いてから	-6205
から長い年月を得ても揺る	-6206
優雅さと確固たる魅力が溢れ	-6207
感性の鋭いニューヨーカーを	-6208
本柱により確立されています	-6209
愛されるブランドになりました	-6210
コーチのスタイルは誕生しました	-6211
マンハッタンでブランドをスタート	-6212
年の創業から長い年月を得ても揺る	-6213
!」	-6214
2(	-6215
2)	-6216
BO	-6217
Cr	-6218
NY	-6219
pr	-6220
▁〜	-6221
▁前	-6222
▁国	-6223
、3	-6224
いに	-6225
ぐち	-6226
ぐる	-6227
じて	-6228
ぜひ	-6229
たま	-6230
に行	-6231
は見	-6232
を持	-6233
アナ	-6234
アピ	-6235
デオ	-6236
ビナ	-6237
ブロ	-6238
ベン	-6239
リン	-6240
レロ	-6241
上代	-6242
和柄	-6243
四角	-6244
学校	-6245
弊社	-6246
縫い	-6247
食事	-6248
422	-6249
ase	-6250
ast	-6251
ier	-6252
man	-6253
oct	-6254
spc	-6255
▁1.	-6256
▁DE	-6257
▁ココ	-6258
いたり	-6259
のミニ	-6260
の色と	-6261
ものも	-6262
やっぱ	-6263
を代表	-6264
オムツ	-6265
シアガ	-6266
シブル	-6267
シンジ	-6268
スリム	-6269
ゾート	-6270
フォグ	-6271
ポピー	-6272
ンドル	-6273
丁寧な	-6274
交換は	-6275
参考に	-6276
大丈夫	-6277
当店へ	-6278
時より	-6279
準備を	-6280
色目が	-6281
24.5	-6282
26.5	-6283
3150	-6284
ANWA	-6285
▁ZIP	-6286
▁ご使用	-6287
▁上品な	-6288
がまぐち	-6289
こちらで	-6290
する恐れ	-6291
っちゃう	-6292
などでは	-6293
アピール	-6294
オックス	-6295
サイズ横	-6296
ディーン	-6297
仕様内側	-6298
愛らしい	-6299
愛用して	-6300
時は直接	-6301
気になる	-6302
若干誤差	-6303
頂きます	-6304
鮮やかな	-6305
:100%	-6306
about	-6307
▁当店では	-6308
かかります	-6309
からの季節	-6310
でしょうか	-6311
の商品とは	-6312
を代表する	-6313
ウォレット	-6314
キッドソン	-6315
サイズ対応	-6316
デザイン性	-6317
フォルムに	-6318
プーちゃん	-6319
ムクリーム	-6320
ヨゴレあり	-6321
付属品布袋	-6322
分かり難い	-6323
実物に近い	-6324
▁PELLE	-6325
▁後払い決済	-6326
がありますが	-6327
させていただ	-6328
つのポケット	-6329
ギャランティ	-6330
ショルダー紐	-6331
パッチワーク	-6332
フォグリネン	-6333
付属のタグは	-6334
手に入らない	-6335
持ち手の長さ	-6336
持ち手含まず	-6337
画像を参考に	-6338
素材ナイロン	-6339
色や風合いの	-6340
▁ファッション	-6341
▁メール便発送	-6342
につきましても	-6343
により変更され	-6344
をご希望の方は	-6345
フェイクファー	-6346
ラビットファー	-6347
ラミネート加工	-6348
yokohama	-6349
▁無料ラッピング	-6350
マグネットホック	-6351
レザーを使用した	-6352
支持されています	-6353
色目が分かり難い	-6354
▁楽天最安値挑戦中	-6355
フォグリネンワーク	-6356
商品画像に関しまして	-6357
色や風合いの見え方が	-6358
▁内側も綺麗な状態です	-6359
▁外側にジップポケット	-6360
となる場合がございます	-6361
モニターや環境によって	-6362
大変きれいなお品物です	-6363
違いますのでご理解の上	-6364
▁Information	-6365
色目が分かり難い時は直接	-6366
▁あらかじめご了承ください	-6367
材料合成皮革カラーブラック	-6368
ラウンジフライにより変更され	-6369
(4	-6370
,.	-6371
92	-6372
TY	-6373
ff	-6374
ov	-6375
▁%	-6376
▁]	-6377
〜3	-6378
が品	-6379
が広	-6380
なの	-6381
に愛	-6382
イナ	-6383
トー	-6384
ラガ	-6385
他店	-6386
余剰	-6387
元々	-6388
内祝	-6389
奏会	-6390
定期	-6391
星柄	-6392
更新	-6393
気性	-6394
活動	-6395
猫の	-6396
畳み	-6397
白化	-6398
等を	-6399
色と	-6400
!】【	-6401
113	-6402
390	-6403
60〜	-6404
900	-6405
:26	-6406
DEN	-6407
hop	-6408
lfs	-6409
sic	-6410
×28	-6411
▁21	-6412
▁24	-6413
▁33	-6414
▁35	-6415
▁45	-6416
▁AR	-6417
▁Bo	-6418
▁↓↓	-6419
▁くま	-6420
▁上質	-6421
▁実寸	-6422
▁撥水	-6423
▁最終	-6424
▁縦約	-6425
☆☆:	-6426
お受け	-6427
が付属	-6428
が品切	-6429
が多い	-6430
すぐに	-6431
ついた	-6432
ときに	-6433
の予定	-6434
の部分	-6435
まった	-6436
を加え	-6437
ガニー	-6438
シルク	-6439
ダード	-6440
メロン	-6441
ロッコ	-6442
ンドン	-6443
使われ	-6444
入った	-6445
年齢層	-6446
欲しい	-6447
演奏会	-6448
生地で	-6449
直営の	-6450
祝儀袋	-6451
素材を	-6452
色々な	-6453
製品は	-6454
開口は	-6455
23.5	-6456
34.5	-6457
ELLO	-6458
MARC	-6459
PINK	-6460
cmxD	-6461
▁dot	-6462
▁ソフト	-6463
▁マルチ	-6464
▁旅行や	-6465
▁父の日	-6466
い物勝ち	-6467
が魅力的	-6468
きちんと	-6469
され続け	-6470
してしま	-6471
とは多少	-6472
などのお	-6473
まります	-6474
クーラー	-6475
スモール	-6476
ブロンズ	-6477
ポッキリ	-6478
ポリ塩化	-6479
リットル	-6480
ワッペン	-6481
ージョン	-6482
入荷予定	-6483
展示中に	-6484
楽天支店	-6485
等に修理	-6486
管理には	-6487
箱ご希望	-6488
▁など他店	-6489
▁ストロー	-6490
▁天然素材	-6491
〜1300	-6492
があること	-6493
が入ります	-6494
しかねます	-6495
しまった物	-6496
とそれぞれ	-6497
の商品です	-6498
も出せます	-6499
オシャレで	-6500
スタイルを	-6501
タンダード	-6502
チェック柄	-6503
バーシブル	-6504
プリントと	-6505
モチーフの	-6506
上記の理由	-6507
両サイドに	-6508
余剰生産品	-6509
使うほどに	-6510
全体にヨレ	-6511
同様に日本	-6512
在庫を管理	-6513
大人っぽい	-6514
定形外のみ	-6515
新品ですし	-6516
直営店及び	-6517
通勤や通学	-6518
KITSON	-6519
MAKEUP	-6520
▁その場合は	-6521
▁カゴバッグ	-6522
▁キュートな	-6523
▁商品ランク	-6524
いろんなもの	-6525
が入っている	-6526
が品切中でも	-6527
していること	-6528
でございます	-6529
などでは在庫	-6530
につきまして	-6531
にもピッタリ	-6532
をあしらった	-6533
をご確認の上	-6534
グッチ商品名	-6535
ゴールド金具	-6536
ショップにて	-6537
レビュー記入	-6538
丸みを帯びた	-6539
交換はお受け	-6540
商品ですので	-6541
日時のご指定	-6542
的なデザイン	-6543
組み合わせが	-6544
▁エルトゥーク	-6545
▁ヴィンテージ	-6546
▁全ての商品が	-6547
▁各ブランドの	-6548
▁手提げバッグ	-6549
していますので	-6550
にあるブランド	-6551
のハンドバッグ	-6552
ウォッシュ加工	-6553
フラットポーチ	-6554
BARRAULT	-6555
▁小物用ポケット	-6556
▁携帯用ポケット	-6557
としても使えます	-6558
の性質上細かな傷	-6559
サービスセンター	-6560
同様に日本国内の	-6561
未使用新品ですし	-6562
本店などでは在庫	-6563
▁ついてしまった物	-6564
コーナーの商品とは	-6565
小さなキズや汚れが	-6566
▁ブランドメーカーの	-6567
とそれぞれ在庫を管理	-6568
にあるブランド直営の	-6569
クリスマスパーティー	-6570
楽天支店が品切中でも	-6571
ご注文いただきましても	-6572
のショルダーバッグです	-6573
正規品同様に日本国内の	-6574
販売されている商品です	-6575
▁各ブランドのカスタマー	-6576
サービスセンター等に修理	-6577
当店へお問い合わせ下さい	-6578
▁アウトレットショップにて	-6579
包装はラッピングコーナーへ	-6580
展示中に小さなキズや汚れが	-6581
▁ノベルティの性質上細かな傷	-6582
ポリカーボネイトコーティング	-6583
▁ブランドメーカーの余剰生産品	-6584
▁全ての商品が未使用新品ですし	-6585
まだまだご愛用頂けるお品物です	-6586
アウトレットコーナーの商品とは	-6587
とそれぞれ在庫を管理しているため	-6588
正規品同様に日本国内の直営店及び	-6589
/2	-6590
8/	-6591
La	-6592
Re	-6593
bb	-6594
}#	-6595
×7	-6596
×8	-6597
▁|	-6598
★(	-6599
☆<	-6600
あた	-6601
こで	-6602
しな	-6603
もり	-6604
ベア	-6605
ホヌ	-6606
予告	-6607
分か	-6608
動物	-6609
友達	-6610
変身	-6611
布製	-6612
意味	-6613
擦り	-6614
日は	-6615
日程	-6616
楽譜	-6617
止め	-6618
用に	-6619
筆箱	-6620
細部	-6621
記号	-6622
通し	-6623
過ぎ	-6624
邪魔	-6625
開催	-6626
随時	-6627
革の	-6628
馬革	-6629
1-0	-6630
840	-6631
850	-6632
BER	-6633
EAT	-6634
IMG	-6635
ONE	-6636
PET	-6637
ain	-6638
off	-6639
ree	-6640
×18	-6641
×2/	-6642
×25	-6643
▁SM	-6644
▁by	-6645
▁いま	-6646
▁和柄	-6647
▁少し	-6648
▁必ず	-6649
▁毎日	-6650
▁見え	-6651
」■【	-6652
】【2	-6653
お読み	-6654
が出て	-6655
のない	-6656
を感じ	-6657
アリス	-6658
カトウ	-6659
タイム	-6660
バロー	-6661
ファッ	-6662
フラン	-6663
ベティ	-6664
ボレロ	-6665
メタル	-6666
ユニオ	-6667
作りを	-6668
使いが	-6669
使い易	-6670
保証書	-6671
入れた	-6672
分けて	-6673
味わい	-6674
書いて	-6675
着替え	-6676
表示と	-6677
17.5	-6678
Beau	-6679
CUTE	-6680
JILL	-6681
Lapu	-6682
▁SRC	-6683
▁and	-6684
▁mar	-6685
▁オイル	-6686
▁クリア	-6687
▁個性的	-6688
いている	-6689
いろんな	-6690
ってくれ	-6691
にもなる	-6692
ばっちり	-6693
もついて	-6694
れません	-6695
エスベー	-6696
スプレー	-6697
スレあり	-6698
ディアス	-6699
パイソン	-6700
ファスナ	-6701
ブロック	-6702
レザーで	-6703
レペット	-6704
中古程度	-6705
入れても	-6706
実寸表記	-6707
描かれた	-6708
肩にかけ	-6709
開閉口は	-6710
10312	-6711
▁キラキラ	-6712
▁コメント	-6713
▁ジャンル	-6714
▁パソコン	-6715
▁パテント	-6716
▁パープル	-6717
▁敬老の日	-6718
▁株式会社	-6719
して下さい	-6720
そうですね	-6721
ちょこっと	-6722
てください	-6723
にも便利な	-6724
もポイント	-6725
カテゴリー	-6726
サッチェル	-6727
ナイロント	-6728
フロントの	-6729
ブティック	-6730
ペレボルサ	-6731
メタリック	-6732
丈夫なので	-6733
必要なもの	-6734
汚れにくく	-6735
洗練された	-6736
生地を使用	-6737
男女問わず	-6738
荷物を取り	-6739
▁オリジナル	-6740
▁モデル着用	-6741
できない場合	-6742
にこだわった	-6743
エレガントな	-6744
内部ポケット	-6745
持ち手の高さ	-6746
背負ったまま	-6747
(*^_^*)	-6748
TOPSHOP	-6749
feature	-6750
▁HERMES	-6751
お使いください	-6752
が登場しました	-6753
たくさん入って	-6754
をご参照下さい	-6755
をご確認下さい	-6756
キャンペーン中	-6757
マグネット開閉	-6758
ルーショッパー	-6759
▁ショルダー長さ	-6760
とってもキュート	-6761
ユニオンジャック	-6762
円以上で送料無料	-6763
活躍してくれます	-6764
行っておりますが	-6765
レザートートバッグ	-6766
annanannan	-6767
いろんなものを入れて	-6768
ブランド名グッチ商品名	-6769
予めご了承いただきます	-6770
商品ランク商品状態外側	-6771
▁ついてしまった物などを	-6772
が発生する場合があります	-6773
ご注文をお願いいたします	-6774
が発生する場合がございます	-6775
週間程度かかる場合がございます	-6776
レビューを書いてメール便送料無料	-6777
-4	-6778
63	-6779
7,	-6780
72	-6781
83	-6782
CK	-6783
GE	-6784
TH	-6785
TS	-6786
eb	-6787
ep	-6788
▁ニ	-6789
▁夏	-6790
▁紐	-6791
】■	-6792
くま	-6793
さげ	-6794
っぴ	-6795
のは	-6796
の有	-6797
ほん	-6798
内の	-6799
効果	-6800
四隅	-6801
普通	-6802
更に	-6803
望の	-6804
物が	-6805
融合	-6806
送信	-6807
際に	-6808
12×	-6809
333	-6810
:37	-6811
TTY	-6812
ady	-6813
ash	-6814
han	-6815
ock	-6816
res	-6817
▁Sm	-6818
▁mc	-6819
▁si	-6820
▁カー	-6821
▁ライ	-6822
▁化粧	-6823
▁帆布	-6824
いたい	-6825
えもん	-6826
しなく	-6827
っぴり	-6828
に対応	-6829
のお供	-6830
のほど	-6831
の定番	-6832
は全て	-6833
は随時	-6834
も楽々	-6835
やシミ	-6836
を除く	-6837
キズが	-6838
ステラ	-6839
ダイル	-6840
テカリ	-6841
ネック	-6842
ハード	-6843
ビュレ	-6844
フラー	-6845
ューズ	-6846
ラガモ	-6847
ラバー	-6848
ヴァー	-6849
上がり	-6850
不明な	-6851
使いの	-6852
入りの	-6853
兼ね備	-6854
小物の	-6855
日本の	-6856
気持ち	-6857
生まれ	-6858
等でご	-6859
貴重品	-6860
非売品	-6861
>277	-6862
Size	-6863
aire	-6864
blue	-6865
▁ピアノ	-6866
▁買い物	-6867
】500	-6868
】600	-6869
が付いた	-6870
が新登場	-6871
この商品	-6872
でご確認	-6873
やさしい	-6874
やすくな	-6875
やっぱり	-6876
カラーが	-6877
シフォン	-6878
ジップは	-6879
ソーホー	-6880
バックに	-6881
バニティ	-6882
レザーが	-6883
使い込む	-6884
好きには	-6885
持ち手の	-6886
注意書き	-6887
若干の色	-6888
誕生以来	-6889
100%、	-6890
Black	-6891
SWEET	-6892
ringe	-6893
▁Dior	-6894
▁POPP	-6895
▁ジッパー	-6896
★★★★★	-6897
お勧めです	-6898
かみのある	-6899
が異なって	-6900
さりげなく	-6901
まで幅広く	-6902
られるので	-6903
を入れたり	-6904
アトレード	-6905
カード付き	-6906
キャメロン	-6907
ストーンが	-6908
スペシャル	-6909
デイリーに	-6910
パッケージ	-6911
マスタード	-6912
レオパード	-6913
ヴァーフル	-6914
ーチャーム	-6915
中身が見え	-6916
心配の方は	-6917
結婚式など	-6918
食事会など	-6919
PICARD	-6920
kitson	-6921
▁サッチェル	-6922
▁早い物勝ち	-6923
ができ機能的	-6924
と在庫を共有	-6925
のアイテムは	-6926
のデイパック	-6927
をご覧下さい	-6928
アイテムの為	-6929
レザー部分に	-6930
華やかシーン	-6931
配送に関して	-6932
Daypack	-6933
▁Fringe	-6934
▁ヒップバッグ	-6935
マチがたっぷり	-6936
レッスングッズ	-6937
ロマンティック	-6938
大きく開くので	-6939
実寸表記ですが	-6940
▁ファスナー付き	-6941
★☆★☆★☆★☆	-6942
の自然な風合いを	-6943
ジップポケットと	-6944
ハンドメイドの為	-6945
プリント柄の位置	-6946
matterial	-6947
お願い申し上げます	-6948
イギリスブランドの	-6949
ペットボトルホルダー	-6950
キャンバストートバッグ	-6951
ポケットが付いているので	-6952
プリント柄の位置が異なります	-6953
61	-6954
RY	-6955
SM	-6956
Sp	-6957
em	-6958
mi	-6959
▁;	-6960
▁特	-6961
▁花	-6962
すみ	-6963
せば	-6964
の一	-6965
びに	-6966
ふち	-6967
りと	-6968
を外	-6969
を見	-6970
を誇	-6971
を通	-6972
キシ	-6973
テー	-6974
フタ	-6975
世代	-6976
側面	-6977
出品	-6978
度な	-6979
当該	-6980
折れ	-6981
拭き	-6982
日祝	-6983
検索	-6984
構造	-6985
用達	-6986
簡易	-6987
紛失	-6988
迷子	-6989
運動	-6990
009	-6991
111	-6992
127	-6993
13【	-6994
16×	-6995
17】	-6996
22×	-6997
:33	-6998
ENT	-6999
RES	-7000
VOY	-7001
anv	-7002
fog	-7003
uca	-7004
▁(^	-7005
▁42	-7006
▁LO	-7007
▁is	-7008
▁st	-7009
▁かご	-7010
▁アニ	-7011
▁到着	-7012
▁底面	-7013
▁格安	-7014
▁横約	-7015
▁無地	-7016
▁現在	-7017
▁生地	-7018
▁若干	-7019
▁裏面	-7020
お洋服	-7021
かした	-7022
が広く	-7023
ご発送	-7024
たちが	-7025
つくり	-7026
なめし	-7027
の古布	-7028
は選べ	-7029
みたい	-7030
インド	-7031
サイト	-7032
サッと	-7033
シース	-7034
ステー	-7035
ティブ	-7036
トンズ	-7037
ドイツ	-7038
ブラシ	-7039
モニタ	-7040
ントン	-7041
変わり	-7042
大人の	-7043
定休日	-7044
小旅行	-7045
引越し	-7046
待望の	-7047
目が離	-7048
色です	-7049
調節が	-7050
通気性	-7051
部分も	-7052
-006	-7053
2000	-7054
2013	-7055
ATUR	-7056
ENVI	-7057
JONY	-7058
MADE	-7059
▁あまり	-7060
▁そして	-7061
▁なんと	-7062
▁コロン	-7063
▁ページ	-7064
▁ローズ	-7065
▁多機能	-7066
の部分は	-7067
を取り扱	-7068
チェンジ	-7069
ビジュー	-7070
プアート	-7071
メルマガ	-7072
ロベルタ	-7073
保障なし	-7074
北海道は	-7075
ROSAX	-7076
adies	-7077
anvas	-7078
erman	-7079
under	-7080
▁font	-7081
▁おすすめ	-7082
▁こちらの	-7083
▁ネパール	-7084
▁ラウンド	-7085
▁儀右ェ門	-7086
が若干あり	-7087
することが	-7088
ちょっぴり	-7089
できるだけ	-7090
でください	-7091
でも使える	-7092
とても軽く	-7093
ひとつです	-7094
もバッチリ	-7095
られている	-7096
アイテムも	-7097
ノクシカタ	-7098
ハワイアン	-7099
バージョン	-7100
フォルムで	-7101
プリントの	-7102
付いている	-7103
以上購入で	-7104
地域により	-7105
式イベント	-7106
当該商品は	-7107
必ずお読み	-7108
成人式など	-7109
素材等でご	-7110
EATHER	-7111
▁【1000	-7112
▁【1202	-7113
▁フォション	-7114
お食事会など	-7115
が見られます	-7116
くださいます	-7117
その他サイズ	-7118
となりました	-7119
にも最適です	-7120
アファミリー	-7121
サイズの書類	-7122
ショルダーの	-7123
シンジカトウ	-7124
ハンプトンズ	-7125
ビロサックス	-7126
ーストリッチ	-7127
以上で宅配便	-7128
商品によって	-7129
商品保障なし	-7130
売れています	-7131
成分ナイロン	-7132
旅行やコスメ	-7133
点以上購入で	-7134
高級合成皮革	-7135
OUTDOOR	-7136
▁Shinzi	-7137
▁いま大注目の	-7138
▁コーチバッグ	-7139
▁ハンドバック	-7140
▁メール便不可	-7141
▁ランチバッグ	-7142
▁内側ポケット	-7143
かつヘアアクセ	-7144
ご確認ください	-7145
にオススメです	-7146
アナップキッズ	-7147
レビュー書いて	-7148
商品はアメリカ	-7149
対応いたします	-7150
対応のブラウザ	-7151
▁キャンバス素材	-7152
▁着用したカラー	-7153
こちらの商品は革	-7154
コーチカード付き	-7155
ショルダートート	-7156
取り扱いセレクト	-7157
地域により異なる	-7158
大切にしている為	-7159
ENVIROSAX	-7160
▁予めご了承下さい	-7161
ちょこっとオシャレ	-7162
プリントとイメージ	-7163
定形外郵便送料無料	-7164
▁商品ランク商品状態	-7165
の風合いとしてご理解	-7166
ブランドのひとつです	-7167
ポケットが付いていて	-7168
心配の方はメールにて	-7169
様にお願いいたします	-7170
配送に関してはこちら	-7171
countryChin	-7172
▁■■■■■■■■■■	-7173
ポケットが付いています	-7174
沖縄離島はゆうパックで	-7175
▁予めご了承いただきます	-7176
■■■■■■■■■■■■	-7177
仕切りファスナーポケット	-7178
若干の誤差はご了承下さい	-7179
つプリント柄の位置が異なります	-7180
点以上購入で定形外郵便送料無料	-7181
素材等でご心配の方はメールにて	-7182
▁いま大注目のイギリスブランドの	-7183
こちらの商品は革の自然な風合いを	-7184
ご注意画面上と実物では多少色具合	-7185
)」	-7186
04	-7187
>2	-7188
BG	-7189
NT	-7190
bs	-7191
▁ウ	-7192
▁ワ	-7193
◆【	-7194
〜)	-7195
あの	-7196
うえ	-7197
づつ	-7198
まけ	-7199
れも	-7200
を頂	-7201
シボ	-7202
スチ	-7203
ッタ	-7204
ハゲ	-7205
プト	-7206
ミィ	-7207
ミン	-7208
代理	-7209
会員	-7210
優勝	-7211
優秀	-7212
割れ	-7213
勿論	-7214
工場	-7215
工程	-7216
必見	-7217
揃え	-7218
残り	-7219
永く	-7220
独自	-7221
現品	-7222
用品	-7223
目指	-7224
真ん	-7225
能人	-7226
英国	-7227
計測	-7228
007	-7229
13_	-7230
188	-7231
21・	-7232
330	-7233
880	-7234
:31	-7235
ANC	-7236
ARI	-7237
Apr	-7238
INT	-7239
MEI	-7240
OCO	-7241
UNN	-7242
ina	-7243
iny	-7244
ney	-7245
ren	-7246
sie	-7247
ute	-7248
×1・	-7249
▁2.	-7250
▁38	-7251
▁PU	-7252
▁al	-7253
▁上記	-7254
▁中綿	-7255
▁保冷	-7256
▁入荷	-7257
▁単位	-7258
▁大き	-7259
▁普段	-7260
】★【	-7261
いない	-7262
うちに	-7263
かっこ	-7264
ご提供	-7265
すごく	-7266
でした	-7267
で販売	-7268
の際の	-7269
は多少	-7270
を変え	-7271
を演出	-7272
エレガ	-7273
エール	-7274
カイロ	-7275
シワ感	-7276
スピー	-7277
テッド	-7278
フォル	-7279
ベビー	-7280
ベリー	-7281
ライフ	-7282
ロッパ	-7283
下記の	-7284
代理店	-7285
個人差	-7286
取り外	-7287
手書き	-7288
手触り	-7289
時まで	-7290
楽しめ	-7291
民族物	-7292
画像の	-7293
紙タグ	-7294
細かい	-7295
肌触り	-7296
芸能人	-7297
豊かな	-7298
違った	-7299
部屋の	-7300
開閉は	-7301
限定品	-7302
雨の日	-7303
1101	-7304
32.5	-7305
:1.4	-7306
ever	-7307
navy	-7308
▁001	-7309
▁お願い	-7310
▁キッズ	-7311
▁セレブ	-7312
▁ドレス	-7313
▁ヌメ革	-7314
▁大きさ	-7315
▁婦人用	-7316
★☆☆:	-7317
おでかけ	-7318
するのに	-7319
その素材	-7320
としては	-7321
にしても	-7322
のお色は	-7323
やデート	-7324
ェルマン	-7325
ジャスト	-7326
スカーフ	-7327
スレキズ	-7328
ピンクの	-7329
リゾート	-7330
人の採寸	-7331
品物です	-7332
商品の色	-7333
国の生産	-7334
申し込み	-7335
背面部分	-7336
買い付け	-7337
通常価格	-7338
開くので	-7339
isney	-7340
▁1974	-7341
▁LURE	-7342
▁サイズ縦	-7343
▁スエード	-7344
▁トラベル	-7345
▁国内参考	-7346
▁広告文責	-7347
▁店頭販売	-7348
お気に入り	-7349
なプリント	-7350
をモチーフ	-7351
エレガンス	-7352
ショナリー	-7353
パロディー	-7354
フォルニア	-7355
モチーフが	-7356
ヨーロッパ	-7357
リボン付き	-7358
入りますが	-7359
入れられる	-7360
出来る限り	-7361
取り出した	-7362
持っている	-7363
日程度かか	-7364
見逃しなく	-7365
設立された	-7366
UNNING	-7367
▁ご了承の上	-7368
▁アウトドア	-7369
★★★★★:	-7370
いま大人気の	-7371
お使い頂ける	-7372
からも目が離	-7373
しくなります	-7374
その他の複数	-7375
キャンバスに	-7376
ナチュラルな	-7377
ファスナーで	-7378
ンジェルマン	-7379
年の誕生以来	-7380
手提げバッグ	-7381
水洗いができ	-7382
移りの可能性	-7383
見受けられる	-7384
飽きのこない	-7385
>277-00	-7386
forever	-7387
▁★★★☆☆:	-7388
▁マザーバッグ	-7389
▁原産国の指定	-7390
かっちりとした	-7391
により柄の入り	-7392
めておりますが	-7393
エコバッグです	-7394
ショルダー長さ	-7395
ポリエステル仕	-7396
ントートバッグ	-7397
▁ファスナー開閉	-7398
▁多目的ポケット	-7399
お品物になります	-7400
としてはもちろん	-7401
のナイロン素材は	-7402
ることがあります	-7403
ることができます	-7404
をご希望の場合は	-7405
をご選択ください	-7406
スクエアアニマル	-7407
ステーショナリー	-7408
マルチに使えます	-7409
収納力があるので	-7410
実際の商品と若干	-7411
▁ファスナー式開閉	-7412
▁フロントポケット	-7413
いただけませんので	-7414
からも目が離せない	-7415
以上かつヘアアクセ	-7416
位置により柄の入り	-7417
▁普段使いに最適です	-7418
その他の複数国の生産	-7419
▁ファスナー式ポケット	-7420
▁メーカー希望小売価格	-7421
▁レスポのナイロン素材は	-7422
レスポートサックの商品は	-7423
レスポートサック商品はアメリカ	-7424
▁原産国の指定はお受けできません	-7425
世界中の女性から支持されています	-7426
若干誤差が生じる場合がございます	-7427
/(	-7428
>[	-7429
>〔	-7430
AS	-7431
DU	-7432
GR	-7433
HE	-7434
LV	-7435
OS	-7436
XD	-7437
ow	-7438
td	-7439
▁水	-7440
▁赤	-7441
〜4	-7442
こみ	-7443
に決	-7444
は約	-7445
ふた	-7446
もう	-7447
ウム	-7448
ゲン	-7449
ダマ	-7450
チン	-7451
テキ	-7452
ドル	-7453
ブレ	-7454
人の	-7455
働く	-7456
出て	-7457
劣化	-7458
品薄	-7459
専門	-7460
式で	-7461
形が	-7462
支払	-7463
斬新	-7464
日曜	-7465
本来	-7466
柄は	-7467
満点	-7468
現代	-7469
男性	-7470
絶対	-7471
衝撃	-7472
遅れ	-7473
飾り	-7474
!!【	-7475
-14	-7476
10×	-7477
34×	-7478
39×	-7479
42×	-7480
45×	-7481
SLY	-7482
lia	-7483
ord	-7484
×26	-7485
▁Ch	-7486
▁◆◆	-7487
▁オー	-7488
▁バイ	-7489
▁バニ	-7490
▁子供	-7491
▁新色	-7492
▁販売	-7493
お散歩	-7494
が良い	-7495
ごとに	-7496
ご入金	-7497
ななめ	-7498
ほんの	-7499
んです	-7500
クオリ	-7501
ゼブラ	-7502
タック	-7503
ップリ	-7504
ドラマ	-7505
上げた	-7506
代わり	-7507
全長約	-7508
厚手の	-7509
女性の	-7510
女性用	-7511
当店の	-7512
状態で	-7513
独自の	-7514
職人が	-7515
背面に	-7516
色の服	-7517
製品の	-7518
説明文	-7519
超有名	-7520
軽量で	-7521
送料が	-7522
2882	-7523
Crou	-7524
Mite	-7525
Revo	-7526
asia	-7527
asic	-7528
bold	-7529
▁top	-7530
▁お洒落	-7531
▁ご指定	-7532
▁しかも	-7533
▁クロコ	-7534
▁グッズ	-7535
▁フリル	-7536
▁モデル	-7537
▁卒業式	-7538
▁税込み	-7539
あらゆる	-7540
が見られ	-7541
きのある	-7542
こで確認	-7543
これらは	-7544
たくなる	-7545
としての	-7546
はかなり	-7547
りとした	-7548
る場合は	-7549
をお送り	-7550
アナスタ	-7551
イントレ	-7552
スプレイ	-7553
タンドル	-7554
タンニン	-7555
ティスト	-7556
ティーン	-7557
プリング	-7558
ホガニー	-7559
マウジー	-7560
マークが	-7561
ヴェネタ	-7562
丈夫です	-7563
人気商品	-7564
大きさの	-7565
小ぶりな	-7566
撮影環境	-7567
楽天優勝	-7568
的に使用	-7569
肩に掛け	-7570
裏地無地	-7571
重宝する	-7572
/0100	-7573
1117】	-7574
333;}	-7575
7338/	-7576
Anast	-7577
BORSA	-7578
asual	-7579
ition	-7580
▁1000	-7581
▁COCO	-7582
▁この商品	-7583
▁イタリア	-7584
▁クラッチ	-7585
▁商品情報	-7586
▁最終値下	-7587
▁管理番号	-7588
おりません	-7589
お出かけに	-7590
かさばらず	-7591
この機会に	-7592
たまらない	-7593
でなかなか	-7594
で使えます	-7595
としてなど	-7596
に便利です	-7597
のおしゃれ	-7598
やわらかい	-7599
を選ばない	-7600
エコトート	-7601
デザインと	-7602
デザインに	-7603
ドット柄の	-7604
ファイルも	-7605
フラワーズ	-7606
マリメッコ	-7607
ミディアム	-7608
モノトーン	-7609
ランダムに	-7610
人気の秘密	-7611
代引き及び	-7612
使用感です	-7613
年春夏新作	-7614
素材なので	-7615
000000	-7616
Croute	-7617
VOYAGE	-7618
▁Betty	-7619
▁OLIVE	-7620
▁camel	-7621
▁シリアルは	-7622
▁ディオール	-7623
▁デイバック	-7624
▁色について	-7625
いただく場合	-7626
すっぽり入る	-7627
なバッグです	-7628
のエコバッグ	-7629
をここで確認	-7630
アナスタシア	-7631
アニエスベー	-7632
オーガニック	-7633
スタイリング	-7634
メール便可能	-7635
メール便配送	-7636
優れています	-7637
大きめサイズ	-7638
幅広い年齢層	-7639
後レビューで	-7640
折りたたんで	-7641
:#333;}	-7642
▁dotted	-7643
がついています	-7644
ことがあります	-7645
プレゼントの柄	-7646
恐れ入りますが	-7647
携帯やパソコン	-7648
楽天ランキング	-7649
楽天優勝セール	-7650
荷物を取り出す	-7651
▁着用したサイズ	-7652
いかがでしょうか	-7653
クリスタルボール	-7654
ジップポケットが	-7655
ティッシュケース	-7656
マグネット開閉式	-7657
商品画像について	-7658
様お願い致します	-7659
環境によって多少	-7660
Anastasia	-7661
▁レビューの書き方	-7662
▁到着日時のご指定	-7663
はご了承下さいませ	-7664
ギャランティカード	-7665
フェイクスウェード	-7666
気軽にお問い合わせ	-7667
/01007338/	-7668
▁ショッピングカート	-7669
させて頂いております	-7670
のモニター環境により	-7671
コンパクトになるので	-7672
代引きは別途追加料金	-7673
ありがとうございました	-7674
ご了承の上ご注文下さい	-7675
ショルダーストラップは	-7676
人の採寸になりますので	-7677
民族物の風合いとしてご理解	-7678
▁レビューの書き方をここで確認	-7679
離島は別途送料が必要となります	-7680
2、	-7681
PP	-7682
Ro	-7683
so	-7684
▁.	-7685
▁e	-7686
▁み	-7687
▁ヘ	-7688
、5	-7689
。2	-7690
おう	-7691
がみ	-7692
しわ	-7693
つに	-7694
のコ	-7695
ふか	-7696
る事	-7697
ザル	-7698
ゼル	-7699
ツヤ	-7700
パリ	-7701
ヒル	-7702
ポケ	-7703
作る	-7704
再現	-7705
変色	-7706
好み	-7707
抜き	-7708
控え	-7709
新柄	-7710
日々	-7711
柄で	-7712
検品	-7713
満た	-7714
片面	-7715
特集	-7716
自転	-7717
良質	-7718
色々	-7719
蛍光	-7720
衣類	-7721
製の	-7722
-13	-7723
10%	-7724
511	-7725
:45	-7726
BOX	-7727
ETA	-7728
PLE	-7729
Red	-7730
che	-7731
cmX	-7732
dec	-7733
ian	-7734
let	-7735
mal	-7736
ore	-7737
rey	-7738
uck	-7739
▁00	-7740
▁32	-7741
▁39	-7742
▁Ol	-7743
▁PO	-7744
▁】【	-7745
▁サイ	-7746
▁フィ	-7747
▁モダ	-7748
▁予め	-7749
▁汚れ	-7750
▁雑誌	-7751
▁黒猫	-7752
かない	-7753
したい	-7754
すぎて	-7755
つ付き	-7756
にまと	-7757
に強い	-7758
の欠品	-7759
の注意	-7760
の色が	-7761
までに	-7762
グリッ	-7763
ストロ	-7764
メッキ	-7765
リペア	-7766
ロータ	-7767
ングル	-7768
使い方	-7769
便利で	-7770
取外し	-7771
土産袋	-7772
安心の	-7773
小分け	-7774
役立ち	-7775
御用達	-7776
日から	-7777
特殊な	-7778
自転車	-7779
返品は	-7780
音記号	-7781
1310	-7782
1941	-7783
FFFF	-7784
Kate	-7785
PHEN	-7786
USED	-7787
YLON	-7788
atur	-7789
hina	-7790
▁クロエ	-7791
▁マーク	-7792
いつもの	-7793
が特徴の	-7794
しません	-7795
を選ばず	-7796
アルファ	-7797
イラスト	-7798
チケット	-7799
デジタル	-7800
ベルギー	-7801
レザーは	-7802
ロンドン	-7803
不明な点	-7804
天然皮革	-7805
底鋲付き	-7806
手触りの	-7807
持ち手が	-7808
mment	-7809
ormal	-7810
quare	-7811
▁Anna	-7812
▁info	-7813
▁ただいま	-7814
▁アナスイ	-7815
▁ノワール	-7816
▁フェイク	-7817
▁モダンで	-7818
▁持ち手は	-7819
▁森ガール	-7820
できる限り	-7821
な雰囲気の	-7822
に近いお色	-7823
をクリック	-7824
を付けると	-7825
クラシック	-7826
コットン製	-7827
シワやキズ	-7828
ジェシース	-7829
フォション	-7830
ベルベット	-7831
メガジップ	-7832
何卒ご理解	-7833
十分に注意	-7834
変わります	-7835
多少の違い	-7836
折りたため	-7837
未使用品で	-7838
設定により	-7839
ATURAL	-7840
FFFFFF	-7841
TEPHEN	-7842
▁キーリング	-7843
▁クラシック	-7844
▁クレドラン	-7845
▁フロントの	-7846
でのお支払い	-7847
にぴったりな	-7848
のワンピース	-7849
オイルクロス	-7850
コンパクトな	-7851
デイリーから	-7852
バックパック	-7853
プレゼント中	-7854
ボンディング	-7855
メイン開閉部	-7856
モールの店舗	-7857
レザーを使用	-7858
収納出来ます	-7859
完売してしま	-7860
柄が人気です	-7861
活躍すること	-7862
縫製のほつれ	-7863
送料について	-7864
配達日時指定	-7865
開閉しやすい	-7866
▁キャンバス地	-7867
▁商品について	-7868
▁在庫管理には	-7869
▁希望小売価格	-7870
なデザインです	-7871
になってしまう	-7872
はお問い合わせ	-7873
マイバッグです	-7874
仕切りポケット	-7875
携帯用ポケット	-7876
▁コーチのバック	-7877
▁サイドポケット	-7878
▁次回オーダー会	-7879
は選べませんので	-7880
ミニトートバッグ	-7881
▁エンビロサックス	-7882
▁レビューを書いて	-7883
を使用しております	-7884
ジェシースティール	-7885
マグネットポケット	-7886
全体的に状態の良い	-7887
の際はご容赦ください	-7888
中にオープンポケット	-7889
商品一覧はこちらから	-7890
▁メッセンジャーバッグ	-7891
ちょっとしたお出かけや	-7892
▁レザーショルダーバッグ	-7893
▁在庫管理には十分に注意	-7894
たくさん入って使いやすい	-7895
ショッピングモールの店舗	-7896
フェイクレザーを使用した	-7897
方が異なる場合がございます	-7898
ダマ等がある場合がございます	-7899
・・・・・・・・・・・・・・・・	-7900
1・	-7901
2】	-7902
>>	-7903
>☆	-7904
Am	-7905
LG	-7906
LS	-7907
US	-7908
XY	-7909
\(	-7910
ny	-7911
↑↑	-7912
▁ム	-7913
▁代	-7914
▁体	-7915
▁薄	-7916
☆*	-7917
。●	-7918
あせ	-7919
かし	-7920
かた	-7921
が低	-7922
きん	-7923
しの	-7924
で行	-7925
で見	-7926
の間	-7927
はず	-7928
りに	-7929
イイ	-7930
イス	-7931
ガン	-7932
ビア	-7933
上昇	-7934
作品	-7935
側に	-7936
全般	-7937
処理	-7938
型で	-7939
官山	-7940
実に	-7941
小花	-7942
屋本	-7943
平日	-7944
微妙	-7945
手頃	-7946
服装	-7947
東京	-7948
柄に	-7949
検針	-7950
着脱	-7951
稽古	-7952
贅沢	-7953
近日	-7954
近畿	-7955
逸品	-7956
過程	-7957
飛び	-7958
.10	-7959
170	-7960
360	-7961
512	-7962
:43	-7963
>10	-7964
ERO	-7965
UMI	-7966
aly	-7967
kan	-7968
loe	-7969
×27	-7970
▁31	-7971
▁50	-7972
▁60	-7973
▁HE	-7974
▁MA	-7975
▁No	-7976
▁be	-7977
▁それ	-7978
▁なし	-7979
▁プレ	-7980
▁福袋	-7981
▁袋付	-7982
が低く	-7983
が破損	-7984
こんな	-7985
したり	-7986
であり	-7987
ともに	-7988
の前に	-7989
も入る	-7990
を融合	-7991
を象徴	-7992
ェイス	-7993
コード	-7994
ダイヤ	-7995
テリー	-7996
ネット	-7997
ノート	-7998
バース	-7999
パンチ	-8000
ピレン	-8001
ルット	-8002
仕分け	-8003
付け根	-8004
会員様	-8005
余裕で	-8006
土日祝	-8007
女性に	-8008
小物も	-8009
屋本舗	-8010
簡単に	-8011
納品日	-8012
肩から	-8013
込んだ	-8014
運動会	-8015
避けて	-8016
1209	-8017
980(	-8018
apan	-8019
odel	-8020
ream	-8021
ross	-8022
taly	-8023
▁100	-8024
▁BIG	-8025
▁※1.	-8026
▁※2.	-8027
▁※3.	-8028
▁★★★	-8029
▁お祝い	-8030
▁どんな	-8031
▁コイン	-8032
▁ジップ	-8033
▁ファー	-8034
▁ボディ	-8035
▁マチも	-8036
▁マチ約	-8037
▁ラージ	-8038
▁代官山	-8039
▁申し訳	-8040
▁荷物が	-8041
▁長財布	-8042
が決まり	-8043
くったり	-8044
ご希望の	-8045
などを着	-8046
にも売れ	-8047
はお避け	-8048
やローズ	-8049
をご用意	-8050
をご記入	-8051
をプラス	-8052
アクセソ	-8053
アーメン	-8054
カラビナ	-8055
キャット	-8056
グラフィ	-8057
ゴブラン	-8058
サイズに	-8059
スカル柄	-8060
タータン	-8061
ダッフル	-8062
ドロック	-8063
ノワール	-8064
ペーパー	-8065
ボルドー	-8066
ポリプロ	-8067
リタリー	-8068
仕様外側	-8069
個性的な	-8070
個購入で	-8071
入荷です	-8072
多く劣化	-8073
大きさが	-8074
撥水加工	-8075
数回程度	-8076
検針済み	-8077
汚れあり	-8078
目立つ品	-8079
肌触りの	-8080
色になる	-8081
銀行振込	-8082
魅力的な	-8083
!!!★(	-8084
URPLE	-8085
assic	-8086
▁Name	-8087
▁Size	-8088
▁オシャレ	-8089
▁オリーブ	-8090
▁キャット	-8091
▁ギャザー	-8092
▁素材本体	-8093
▁配送方法	-8094
あの海外の	-8095
が愛用して	-8096
きれいです	-8097
たくさんの	-8098
にも在庫が	-8099
やお土産袋	-8100
や収納可能	-8101
よう心がけ	-8102
を象徴する	-8103
アップリケ	-8104
イタリア製	-8105
シリーズに	-8106
ステファン	-8107
ナイロン製	-8108
バッテリー	-8109
マホガニー	-8110
使用頻度大	-8111
光の加減で	-8112
外寸サイズ	-8113
宅配便指定	-8114
年秋冬新作	-8115
感覚を融合	-8116
柄の出方が	-8117
淡い色の服	-8118
確認メール	-8119
!!!★★★	-8120
▁Smith	-8121
▁Spade	-8122
▁agnes	-8123
▁カード入れ	-8124
▁リサイクル	-8125
▁発送サイズ	-8126
がま口ポーチ	-8127
っちゃいます	-8128
での撮影の為	-8129
になりません	-8130
やローズなど	-8131
カバンの中で	-8132
キッドソンは	-8133
ヌメ革部分に	-8134
ファスナーが	-8135
ワインレッド	-8136
万が一の欠品	-8137
事が出来ます	-8138
仕上がりです	-8139
使用感がほぼ	-8140
使用感が全く	-8141
参考画像です	-8142
収納力も抜群	-8143
在庫について	-8144
携帯電話入れ	-8145
日常的に使用	-8146
雑貨ブランド	-8147
▁ココカメリア	-8148
▁フォーマルな	-8149
▁メイクポーチ	-8150
▁旅行やコスメ	-8151
が必要な中古品	-8152
していたような	-8153
などが目立つ品	-8154
にも在庫が品薄	-8155
にも売れすぎて	-8156
は見られますが	-8157
アクセソワール	-8158
フリーポケット	-8159
ラッピング無料	-8160
使用頻度が低く	-8161
女優キャメロン	-8162
後のキャンセル	-8163
数回程度使用で	-8164
見受けられる品	-8165
STUNNING	-8166
▁海外のショップ	-8167
がついているので	-8168
きれいな状態です	-8169
こともございます	-8170
させたインテリア	-8171
イントレチャート	-8172
サブバッグとして	-8173
ショルダーの長さ	-8174
ポーチやバックは	-8175
使用感や傷が多く	-8176
急ぎの方は納品日	-8177
手に入らないです	-8178
詳細はこちらです	-8179
▁camellia	-8180
▁モダンでポップな	-8181
▁代官山のショップ	-8182
ご注文くださいませ	-8183
のモニターによって	-8184
イギリスを象徴する	-8185
サブバッグとしても	-8186
傷や汚れが多く劣化	-8187
取り外しや収納可能	-8188
完売してしまってい	-8189
荷物を取り出すこと	-8190
▁ドットやローズなど	-8191
に変更させて頂きます	-8192
る場合もございますが	-8193
アウトドアやお土産袋	-8194
キズなどが入っている	-8195
メッセンジャーバッグ	-8196
リペアが必要な中古品	-8197
全体的に状態の良い品	-8198
楽天国際配送対象商品	-8199
違う場合がございます	-8200
▁PELLEBORSA	-8201
▁あまりにも売れすぎて	-8202
なプリント柄が人気です	-8203
もしくは数回程度使用で	-8204
よう心がけておりますが	-8205
を使用しておりますので	-8206
クラシカルなデザインに	-8207
リュックの一覧はコチラ	-8208
他の商品と同梱可能です	-8209
加工を施したコットン製	-8210
にも在庫が品薄でなかなか	-8211
使用感や傷は見られますが	-8212
▁海外のショップはもちろん	-8213
使用感がほぼ感じられない品	-8214
使用感が全く感じられない品	-8215
感覚を融合させたインテリア	-8216
日常的に使用していたような	-8217
としても使えるマイバッグです	-8218
アメリカにあるブランド直営の	-8219
急ぎの方は納品日をご確認の上	-8220
詳しくはこちらをご覧ください	-8221
▁目立つ傷汚れスレはありません	-8222
使用感や傷が多く見受けられる品	-8223
****************	-8224
万が一の欠品の際はご容赦ください	-8225
傷や汚れが多く劣化などが目立つ品	-8226
84	-8227
8】	-8228
He	-8229
TV	-8230
▁ソ	-8231
▁ホ	-8232
▁箱	-8233
▁背	-8234
☆★	-8235
】※	-8236
〜!	-8237
〜。	-8238
いは	-8239
いれ	-8240
しげ	-8241
とご	-8242
なが	-8243
ぬい	-8244
の時	-8245
の様	-8246
はい	-8247
ぶれ	-8248
むつ	-8249
クツ	-8250
スッ	-8251
ソリ	-8252
ブン	-8253
ンタ	-8254
・2	-8255
中綿	-8256
付で	-8257
以内	-8258
信越	-8259
光る	-8260
割引	-8261
単品	-8262
困難	-8263
場面	-8264
工芸	-8265
市場	-8266
心を	-8267
手が	-8268
濱野	-8269
立つ	-8270
肩紐	-8271
迅速	-8272
通帳	-8273
部に	-8274
)10	-8275
***	-8276
*14	-8277
079	-8278
10/	-8279
137	-8280
14×	-8281
154	-8282
2-9	-8283
480	-8284
5】【	-8285
750	-8286
950	-8287
Cot	-8288
MIX	-8289
WBK	-8290
\(◎	-8291
ber	-8292
ele	-8293
end	-8294
ill	-8295
ley	-8296
×21	-8297
×29	-8298
▁80	-8299
▁pr	-8300
▁re	-8301
▁シー	-8302
▁刺繍	-8303
▁最大	-8304
▁編み	-8305
◎)/	-8306
〜14	-8307
いです	-8308
けない	-8309
しっと	-8310
だけど	-8311
ちりめ	-8312
と思い	-8313
のおも	-8314
のお色	-8315
のほか	-8316
の方に	-8317
もなく	-8318
らしさ	-8319
インク	-8320
カレン	-8321
ゲット	-8322
ゲーム	-8323
シアン	-8324
シャツ	-8325
ダクツ	-8326
パンダ	-8327
ブライ	-8328
ブリー	-8329
マンサ	-8330
モード	-8331
ラブク	-8332
リアン	-8333
ンジー	-8334
ーンズ	-8335
上部に	-8336
中身を	-8337
人気で	-8338
位置は	-8339
個あた	-8340
専門店	-8341
小物が	-8342
待たせ	-8343
最長約	-8344
正面に	-8345
現在の	-8346
甲信越	-8347
繊細な	-8348
通常の	-8349
配送料	-8350
頂くと	-8351
鮮やか	-8352
21.5	-8353
Pres	-8354
aman	-8355
imal	-8356
reen	-8357
▁SER	-8358
▁かなり	-8359
▁ご了承	-8360
▁ご理解	-8361
▁デニム	-8362
▁ミラー	-8363
▁小さい	-8364
▁小さめ	-8365
▁注意点	-8366
▁素材は	-8367
▁詳しい	-8368
ができる	-8369
での販売	-8370
で高級感	-8371
には必ず	-8372
ぬいぐる	-8373
のロゴが	-8374
りの重量	-8375
をご利用	-8376
カンボン	-8377
コンテン	-8378
スッポリ	-8379
セールス	-8380
チュール	-8381
ナスカン	-8382
バランス	-8383
バルーン	-8384
バングラ	-8385
ヒョウ柄	-8386
ポンポン	-8387
メディア	-8388
モコモコ	-8389
ヨレあり	-8390
収納力は	-8391
国際格安	-8392
売り違い	-8393
変更にな	-8394
持って行	-8395
特徴です	-8396
生まれた	-8397
綺麗です	-8398
ISELE	-8399
WHITE	-8400
ashop	-8401
kyuca	-8402
▁Lady	-8403
▁\\3,	-8404
▁body	-8405
▁sale	-8406
▁ご注文後	-8407
▁カラー黒	-8408
▁スナップ	-8409
▁スポーツ	-8410
▁バケット	-8411
▁ブルガリ	-8412
▁全体的に	-8413
。(^^)	-8414
おしゃれに	-8415
が生じます	-8416
しない場合	-8417
たっぷりと	-8418
った場合は	-8419
で作られた	-8420
ならレジ袋	-8421
にこだわる	-8422
にスレあり	-8423
のチェーン	-8424
のバッグに	-8425
のレビュー	-8426
の登場です	-8427
やバッグに	-8428
られる際は	-8429
サイズ幅約	-8430
サイズ表記	-8431
プロダクツ	-8432
ベージュの	-8433
付いていて	-8434
商品により	-8435
小物の収納	-8436
平置きでの	-8437
革の風合い	-8438
風合いなど	-8439
▁おしゃれな	-8440
▁バッグの中	-8441
▁ミニトート	-8442
▁ワンピース	-8443
▁素材サテン	-8444
かばんの中に	-8445
が決まり次第	-8446
ご招待メール	-8447
していますが	-8448
で設立された	-8449
のようなもの	-8450
の環境により	-8451
また若干の色	-8452
オリジナルの	-8453
ショルダーに	-8454
スマホケース	-8455
テキスタイル	-8456
プラスチック	-8457
ポーチは付属	-8458
国際格安配送	-8459
大きいサイズ	-8460
温かみのある	-8461
画像について	-8462
買い物バック	-8463
防水スプレー	-8464
Present	-8465
lection	-8466
▁Herman	-8467
▁お問い合わせ	-8468
▁アンティーク	-8469
▁キャンディー	-8470
▁マルチカラー	-8471
▁ユニセックス	-8472
▁一覧はこちら	-8473
されております	-8474
などによっても	-8475
のワンポイント	-8476
アルファベット	-8477
セカンドバッグ	-8478
ポリプロピレン	-8479
個あたりの重量	-8480
斜めがけバッグ	-8481
本体外寸サイズ	-8482
色移りの可能性	-8483
ondition	-8484
▁ネコマンジュウ	-8485
あの海外の超有名	-8486
としてお使っても	-8487
また若干の色落ち	-8488
セールスポイント	-8489
ハンドバッグです	-8490
予めご了承のほど	-8491
力しておりますが	-8492
収納力もあるので	-8493
組み合わせ下さい	-8494
▁\\3,980(	-8495
▁ミニトートバッグ	-8496
▁多数のワンピース	-8497
ご使用いただけます	-8498
などを着られる際は	-8499
ディアスが愛用して	-8500
ブランドエコバッグ	-8501
ボストンバッグです	-8502
販売していますので	-8503
▁ブラック仕様カラー	-8504
ある場合がございます	-8505
を使用していますので	-8506
ジャンルトートバッグ	-8507
▁内ファスナーポケット	-8508
が出る場合がございます	-8509
ジャンルショルダーバッグ	-8510
ならレジ袋としてお使っても	-8511
個プレゼントキャンペーン中	-8512
淡い色の服などを着られる際は	-8513
色移りの可能性もありますので	-8514
あの海外の超有名女優キャメロン	-8515
プレゼントの柄は選べませんので	-8516
が異なって見える場合がございます	-8517
!(	-8518
2:	-8519
5(	-8520
SD	-8521
SL	-8522
UT	-8523
▁+	-8524
▁←	-8525
▁が	-8526
▁ツ	-8527
▁角	-8528
あふ	-8529
おき	-8530
ずみ	-8531
に伴	-8532
に重	-8533
の先	-8534
べく	-8535
もし	-8536
ガイ	-8537
キテ	-8538
クタ	-8539
シテ	-8540
スや	-8541
スピ	-8542
スミ	-8543
ネオ	-8544
フチ	-8545
ボス	-8546
モス	-8547
一枚	-8548
一番	-8549
九州	-8550
京錠	-8551
人々	-8552
伸縮	-8553
何か	-8554
安全	-8555
完全	-8556
日頃	-8557
染色	-8558
格好	-8559
毛羽	-8560
活用	-8561
理想	-8562
的で	-8563
筒型	-8564
規定	-8565
輝く	-8566
透け	-8567
重視	-8568
音符	-8569
-16	-8570
014	-8571
135	-8572
167	-8573
323	-8574
36×	-8575
65%	-8576
:50	-8577
ACE	-8578
BUD	-8579
ICE	-8580
LER	-8581
LOR	-8582
ank	-8583
les	-8584
ory	-8585
▁36	-8586
▁BA	-8587
▁SA	-8588
▁no	-8589
▁☆☆	-8590
▁【2	-8591
▁モコ	-8592
▁ラム	-8593
▁営業	-8594
▁少量	-8595
▁水玉	-8596
おけば	-8597
お手頃	-8598
お送り	-8599
くすぐ	-8600
けます	-8601
しゅう	-8602
っぽい	-8603
てしま	-8604
ならず	-8605
に修正	-8606
の使用	-8607
の新作	-8608
の状況	-8609
や書類	-8610
ゆがみ	-8611
を醸し	-8612
アルマ	-8613
イニー	-8614
クロー	-8615
シティ	-8616
チュー	-8617
チレン	-8618
ドラム	-8619
マゾン	-8620
モダン	-8621
中央部	-8622
仕様で	-8623
全面に	-8624
内装に	-8625
出来て	-8626
到着後	-8627
南京錠	-8628
可愛さ	-8629
和雑貨	-8630
商品も	-8631
引っ張	-8632
抜群の	-8633
新しい	-8634
横幅約	-8635
注目を	-8636
生産地	-8637
目立ち	-8638
超美品	-8639
輸入品	-8640
隠し底	-8641
11.0	-8642
20.5	-8643
30.5	-8644
AMEL	-8645
ANTB	-8646
LDER	-8647
Made	-8648
good	-8649
info	-8650
▁30%	-8651
▁ARM	-8652
▁may	-8653
▁↓↓↓	-8654
▁ガマ口	-8655
▁チーバ	-8656
▁ロック	-8657
▁便利な	-8658
▁内ポケ	-8659
▁手作り	-8660
▁本体の	-8661
▁本品は	-8662
▁札入れ	-8663
▁演奏会	-8664
】240	-8665
お化粧品	-8666
お時間を	-8667
かねます	-8668
した場合	-8669
していて	-8670
ちりめん	-8671
としてや	-8672
にて採寸	-8673
の注意を	-8674
ましたら	-8675
をこめて	-8676
を選んで	-8677
ウィーク	-8678
ガーデン	-8679
キレイな	-8680
コレート	-8681
タップリ	-8682
トゥシェ	-8683
フィルム	-8684
ベルトで	-8685
モロッコ	-8686
ラフィア	-8687
使わない	-8688
問い合せ	-8689
在庫限り	-8690
大ヒット	-8691
希望する	-8692
感があり	-8693
撮影状況	-8694
毛羽立ち	-8695
素敵です	-8696
素材です	-8697
音楽雑貨	-8698
100%・	-8699
enter	-8700
essie	-8701
▁ANNA	-8702
▁BLUE	-8703
▁Blue	-8704
▁DEAN	-8705
▁also	-8706
▁こちらも	-8707
▁イギリス	-8708
▁トゥシェ	-8709
▁モコモコ	-8710
▁持ち手約	-8711
▁期間限定	-8712
▁猫グッズ	-8713
さりげない	-8714
しますので	-8715
でのご使用	-8716
といっても	-8717
についての	-8718
にもこだわ	-8719
やデジカメ	-8720
カルティエ	-8721
クリックで	-8722
コンテンツ	-8723
ストリング	-8724
バッグ本体	-8725
パンチング	-8726
ビアスキン	-8727
ボタン開閉	-8728
ボリューム	-8729
付ポケット	-8730
兼ね備えた	-8731
小さな汚れ	-8732
日時指定は	-8733
箇所により	-8734
裏地ドット	-8735
週間以内に	-8736
OULDER	-8737
Square	-8738
lassic	-8739
▁NYLON	-8740
▁サブバッグ	-8741
▁ジャガード	-8742
▁マディソン	-8743
▁メール便は	-8744
▁光沢のある	-8745
が異なる場合	-8746
になりますが	-8747
のデザインが	-8748
をいたします	-8749
アーティスト	-8750
オフホワイト	-8751
サイズも楽々	-8752
ダブルジップ	-8753
ポリエチレン	-8754
使用感があり	-8755
入っています	-8756
内側ポケット	-8757
実際のサイズ	-8758
手作りのため	-8759
異なる場合が	-8760
素材コットン	-8761
間違いなしの	-8762
ROSEBUD	-8763
▁KITSON	-8764
▁SERIES	-8765
▁Steele	-8766
▁claire	-8767
▁エディターズ	-8768
▁クリスチャン	-8769
▁ショルダーの	-8770
▁店頭販売店舗	-8771
▁当店通常価格	-8772
しくなりますね	-8773
にこだわる老舗	-8774
にぴったりです	-8775
によりましては	-8776
の良いメッシュ	-8777
サンジェルマン	-8778
デザインされた	-8779
メイン収納部分	-8780
不可となります	-8781
何卒ご理解の程	-8782
隠し底ポケット	-8783
▁しっかりとした	-8784
▁コンディション	-8785
▁取り外し可能な	-8786
いただいた商品が	-8787
ご使用のパソコン	-8788
をモチーフにした	-8789
便利なバッグです	-8790
荷物の出し入れも	-8791
marimekko	-8792
▁お使いのパソコン	-8793
かばんの中にいくつ	-8794
は完売いたしました	-8795
ポケットティッシュ	-8796
▁ヤマト屋のブランド	-8797
フェイクレザーを使用	-8798
画像をクリックすると	-8799
▁エンビロサックス社の	-8800
▁カラーバリエーション	-8801
▁予めご了承下さいませ	-8802
▁日本製にこだわる老舗	-8803
様宜しくお願い致します	-8804
している場合がございます	-8805
ショルダーバッグとしても	-8806
オープンポケットがあり機能的	-8807
ショルダーにはクッション入り	-8808
ご使用のパソコン環境などにより	-8809
になってしまうこともございます	-8810
)★	-8811
3:	-8812
8-	-8813
9,	-8814
=)	-8815
=^	-8816
IE	-8817
JJ	-8818
NI	-8819
PE	-8820
RD	-8821
li	-8822
oc	-8823
sa	-8824
ti	-8825
}.	-8826
×9	-8827
▁v	-8828
▁“	-8829
▁≪	-8830
▁は	-8831
▁丸	-8832
▁初	-8833
▁原	-8834
』。	-8835
うさ	-8836
お泊	-8837
つと	-8838
なじ	-8839
に出	-8840
のあ	-8841
みて	-8842
イロ	-8843
エピ	-8844
エベ	-8845
ガム	-8846
デコ	-8847
デナ	-8848
ナニ	-8849
ハリ	-8850
ポピ	-8851
ポー	-8852
ミュ	-8853
中は	-8854
付近	-8855
以降	-8856
低限	-8857
保護	-8858
個口	-8859
内布	-8860
各種	-8861
回り	-8862
基布	-8863
外装	-8864
広め	-8865
柄を	-8866
浴び	-8867
滑り	-8868
習い	-8869
老若	-8870
葬式	-8871
衣服	-8872
買付	-8873
長め	-8874
際の	-8875
-15	-8876
..^	-8877
13】	-8878
290	-8879
310	-8880
35%	-8881
4】【	-8882
777	-8883
CHE	-8884
OMO	-8885
ORK	-8886
RED	-8887
VLG	-8888
ZIP	-8889
ang	-8890
ita	-8891
max	-8892
tha	-8893
×30	-8894
▁05	-8895
▁1、	-8896
▁37	-8897
▁DI	-8898
▁京都	-8899
▁女子	-8900
▁持つ	-8901
▁星柄	-8902
▁注文	-8903
▁花柄	-8904
▁返品	-8905
◆◆◆	-8906
が付き	-8907
くらく	-8908
する事	-8909
できて	-8910
なって	-8911
にかけ	-8912
に少し	-8913
の有無	-8914
は製造	-8915
まとめ	-8916
もち手	-8917
ものは	-8918
も充実	-8919
われた	-8920
をして	-8921
を予定	-8922
を出す	-8923
イルス	-8924
ウォー	-8925
ゴート	-8926
ステキ	-8927
タイル	-8928
タバサ	-8929
ダウン	-8930
パニー	-8931
ブタ鼻	-8932
ボーイ	-8933
ライム	-8934
ーデン	-8935
中身が	-8936
手困難	-8937
掛けて	-8938
最低限	-8939
涼しげ	-8940
目立た	-8941
程よく	-8942
程度の	-8943
話題の	-8944
込んで	-8945
部分が	-8946
22.5	-8947
Mini	-8948
OTTE	-8949
etic	-8950
hael	-8951
▁Dot	-8952
▁Eco	-8953
▁pie	-8954
▁◆◆◆	-8955
▁★☆☆	-8956
▁お弁当	-8957
▁シック	-8958
▁ダーク	-8959
▁フェル	-8960
▁ポップ	-8961
▁実店舗	-8962
▁選べる	-8963
いち早く	-8964
お手入れ	-8965
くなって	-8966
ご祝儀袋	-8967
する事が	-8968
となって	-8969
との相性	-8970
エンダー	-8971
オーバー	-8972
コロール	-8973
セール品	-8974
フランス	-8975
ボタンで	-8976
ボンボン	-8977
マチなし	-8978
レザーを	-8979
ロータス	-8980
付きです	-8981
大きくて	-8982
持ち手を	-8983
新品本物	-8984
機能性と	-8985
見えます	-8986
覧下さい	-8987
開け閉め	-8988
飾っても	-8989
..^=)	-8990
1101【	-8991
Color	-8992
EILER	-8993
Italy	-8994
▁81-0	-8995
▁Made	-8996
▁left	-8997
▁made	-8998
▁★★★★	-8999
▁カーリー	-9000
▁トレンド	-9001
▁柔らかな	-9002
お買い物に	-9003
が多少あり	-9004
にしている	-9005
ぬいぐるみ	-9006
もラクラク	-9007
インバック	-9008
カラーなど	-9009
グリッター	-9010
セレブ愛用	-9011
チェーンは	-9012
ットポーチ	-9013
デイバック	-9014
バッグの中	-9015
ブライダル	-9016
ブランシェ	-9017
メール便で	-9018
モンイルス	-9019
リーライン	-9020
ワンランク	-9021
円追加料金	-9022
可能ですが	-9023
楽しめます	-9024
生地の使用	-9025
立ち上がり	-9026
荷物が多い	-9027
13】【\\	-9028
HERMES	-9029
VLGARI	-9030
VOLCOM	-9031
ashion	-9032
ichael	-9033
ickies	-9034
▁POPPY	-9035
▁インパクト	-9036
▁ペレボルサ	-9037
▁ペンポーチ	-9038
▁ポケットが	-9039
▁落ち着いた	-9040
からの直輸入	-9041
がかかります	-9042
が付いていて	-9043
くなるように	-9044
ちょうど良い	-9045
にぴったりの	-9046
キャンパス地	-9047
スタンダード	-9048
チョコレート	-9049
ヒップバッグ	-9050
ブランドロゴ	-9051
マンサタバサ	-9052
メイクポーチ	-9053
写真ですので	-9054
収納力があり	-9055
普段使いにも	-9056
素材の特性上	-9057
考えられます	-9058
=^..^=)	-9059
NATURAL	-9060
ROOTOTE	-9061
amantha	-9062
▁ladies	-9063
▁★☆☆☆☆:	-9064
▁コーティング	-9065
▁ニューヨーク	-9066
▁レターパック	-9067
▁商品詳細素材	-9068
ございますので	-9069
ご利用頂けます	-9070
で見てください	-9071
をご了承下さい	-9072
をご覧頂けます	-9073
ウエストバッグ	-9074
デジタルカメラ	-9075
パーティドレス	-9076
レビュー記入で	-9077
付いているので	-9078
出来るだけ現物	-9079
▁カードポケット	-9080
▁商品詳細商品名	-9081
がございますので	-9082
がプリントされた	-9083
にも合わせやすい	-9084
のモニターにより	-9085
キャンバストート	-9086
デイリーユースに	-9087
ポケットもついて	-9088
ポーチのスペック	-9089
メール便対応不可	-9090
小物を入れるのに	-9091
綺麗な使用感です	-9092
▁SHOULDER	-9093
▁フォーマルバッグ	-9094
▁代引き手数料無料	-9095
▁誕生日プレゼント	-9096
ご注文のタイミング	-9097
のフォーマルバッグ	-9098
以上購入で送料無料	-9099
便利なアイテムです	-9100
実物に近い色になる	-9101
▁エディターズバッグ	-9102
マグネット式ポケット	-9103
柄の出方が異なります	-9104
通気性の良いメッシュ	-9105
13】【\\5,250	-9106
がある場合が御座います	-9107
しない場合がございます	-9108
にはファスナーポケット	-9109
交換はお受け出来ません	-9110
修正させていただきます	-9111
▁内側ファスナーポケット	-9112
お使いのモニターによって	-9113
レビューを書いて防水スプレー	-9114
違って見えることがございます	-9115
異なって見える場合もございます	-9116
荷物を取り出すことができ機能的	-9117
countryChinashop	-9118
内側にも便利なオープンポケットが	-9119
(3	-9120
(9	-9121
3/	-9122
4.	-9123
5%	-9124
9)	-9125
:【	-9126
>■	-9127
Ch	-9128
FR	-9129
IV	-9130
Qu	-9131
hi	-9132
iu	-9133
ki	-9134
ll	-9135
wn	-9136
××	-9137
▁j	-9138
▁三	-9139
▁仕	-9140
、【	-9141
。&	-9142
きた	-9143
こな	-9144
さに	-9145
そろ	-9146
た時	-9147
つは	-9148
で来	-9149
ぬれ	-9150
ねて	-9151
の下	-9152
の原	-9153
は全	-9154
ばっ	-9155
を押	-9156
ドゥ	-9157
ドロ	-9158
バコ	-9159
ピン	-9160
ブセ	-9161
ミア	-9162
リと	-9163
ルコ	-9164
ーガ	-9165
乱れ	-9166
今年	-9167
入賞	-9168
出張	-9169
太陽	-9170
字に	-9171
安定	-9172
完成	-9173
実施	-9174
志向	-9175
忘れ	-9176
感触	-9177
扱い	-9178
散ら	-9179
方も	-9180
最新	-9181
染料	-9182
横長	-9183
機器	-9184
混紡	-9185
漂わ	-9186
火気	-9187
物も	-9188
結構	-9189
縦幅	-9190
装い	-9191
親子	-9192
誠に	-9193
質な	-9194
部は	-9195
重要	-9196
順次	-9197
18×	-9198
210	-9199
280	-9200
380	-9201
55×	-9202
:34	-9203
ASE	-9204
IME	-9205
ISS	-9206
MOU	-9207
POP	-9208
QUI	-9209
STY	-9210
any	-9211
ery	-9212
mud	-9213
oom	-9214
ran	-9215
spb	-9216
×3、	-9217
↓↓↓	-9218
▁44	-9219
▁54	-9220
▁GU	-9221
▁LI	-9222
▁【★	-9223
▁アイ	-9224
▁カン	-9225
▁ヴィ	-9226
▁中は	-9227
▁厚さ	-9228
▁折り	-9229
▁楽譜	-9230
▁派手	-9231
▁納期	-9232
▁裏側	-9233
▁配送	-9234
☆*。	-9235
あわせ	-9236
お子様	-9237
お得な	-9238
くまで	-9239
ことな	-9240
ごちゃ	-9241
してご	-9242
たびに	-9243
ときは	-9244
と同梱	-9245
に伴う	-9246
に行く	-9247
のよう	-9248
の無い	-9249
は商品	-9250
わった	-9251
を受け	-9252
アリー	-9253
カデナ	-9254
コート	-9255
サンド	-9256
シェル	-9257
デシュ	-9258
トッズ	-9259
バケツ	-9260
ピッチ	-9261
ホツレ	-9262
マリン	-9263
全般に	-9264
向けて	-9265
含まれ	-9266
四角い	-9267
小キズ	-9268
必要な	-9269
忠実に	-9270
擦り傷	-9271
楽しい	-9272
楽チン	-9273
気分に	-9274
済みの	-9275
特有の	-9276
箱等が	-9277
綺麗に	-9278
色むら	-9279
適度な	-9280
馴染む	-9281
1980	-9282
8400	-9283
AUCH	-9284
DEAN	-9285
Line	-9286
ades	-9287
bita	-9288
free	-9289
list	-9290
repE	-9291
rown	-9292
▁DOT	-9293
▁cot	-9294
▁out	-9295
▁【11	-9296
▁お受け	-9297
▁これら	-9298
▁エトナ	-9299
▁スマホ	-9300
▁タバコ	-9301
▁ダブル	-9302
▁ビーズ	-9303
▁リトル	-9304
▁入学式	-9305
▁定番の	-9306
。-->	-9307
かわいく	-9308
がとても	-9309
が画像と	-9310
していく	-9311
してます	-9312
その日の	-9313
だけじゃ	-9314
ちゃんの	-9315
で来ます	-9316
どこでも	-9317
などから	-9318
に入れて	-9319
の中にも	-9320
の大人気	-9321
の持ち手	-9322
まれに傷	-9323
よろしく	-9324
を通して	-9325
アマゾン	-9326
グネチャ	-9327
ハーマン	-9328
パターン	-9329
メジャー	-9330
リコット	-9331
レッスン	-9332
丁度いい	-9333
中身が見	-9334
印象的な	-9335
収納部分	-9336
型ポーチ	-9337
就職活動	-9338
本商品は	-9339
決済方法	-9340
沖縄離島	-9341
爽やかな	-9342
理想的な	-9343
白化合皮	-9344
素材牛革	-9345
込まれた	-9346
違います	-9347
関連商品	-9348
風合いが	-9349
10:00	-9350
Betty	-9351
DENIM	-9352
ITION	-9353
kanmi	-9354
▁LOVE	-9355
▁MADE	-9356
▁Pink	-9357
▁アニマル	-9358
▁サイズ幅	-9359
▁シリーズ	-9360
▁トリップ	-9361
▁バッグを	-9362
▁ヒョウ柄	-9363
▁フェルト	-9364
▁フレンチ	-9365
▁奥行き約	-9366
▁素材表地	-9367
お申し込み	-9368
がたくさん	-9369
されており	-9370
という意味	-9371
とても便利	-9372
などの違い	-9373
のチャーム	-9374
のハンドル	-9375
のバッグで	-9376
ストレット	-9377
スムーズに	-9378
パスポート	-9379
ブラウザや	-9380
ミニケース	-9381
入っちゃう	-9382
商品サイズ	-9383
基準を満た	-9384
多少の汚れ	-9385
大活躍です	-9386
掲載商品は	-9387
撮影の状況	-9388
替えシート	-9389
本革バッグ	-9390
機能的です	-9391
箱等が元々	-9392
荷物を入れ	-9393
調節可能で	-9394
頂いている	-9395
AUCHON	-9396
maxlen	-9397
▁ARMEN	-9398
▁CHINA	-9399
▁キャンセル	-9400
▁コサージュ	-9401
▁サイズは約	-9402
▁バスケット	-9403
▁ポーチ付き	-9404
▁ミディアム	-9405
▁出来る限り	-9406
▁送料は無料	-9407
】100-5	-9408
ご希望の場合	-9409
しているお品	-9410
のご紹介です	-9411
の内ポケット	-9412
はお取り寄せ	-9413
オシャレです	-9414
ディスプレイ	-9415
フィンランド	-9416
リコット基布	-9417
ロンハーマン	-9418
小ぶりながら	-9419
生地を使った	-9420
致しかねます	-9421
Comment	-9422
oration	-9423
shopper	-9424
▁iPhone	-9425
▁★★★★☆:	-9426
▁グッチバッグ	-9427
▁サイズサイズ	-9428
▁ナチュラルな	-9429
▁ペットボトル	-9430
▁詳しい画像は	-9431
いただけません	-9432
ことができます	-9433
ご発送致します	-9434
として飾っても	-9435
などから個人差	-9436
はございますが	-9437
サイズですので	-9438
トラベルポーチ	-9439
ノアファミリー	-9440
ポリエステル製	-9441
使いやすいです	-9442
取り出しやすい	-9443
実店舗でも販売	-9444
物の出し入れが	-9445
異なりますので	-9446
▁OUTDOOR	-9447
▁この商品は午後	-9448
▁ウエストポーチ	-9449
▁マチもたっぷり	-9450
▁モデルの身長は	-9451
▁恐れ入りますが	-9452
お買い求め下さい	-9453
でご確認で来ます	-9454
とさせて頂きます	-9455
に近いお色を出す	-9456
ショルダータイプ	-9457
ナイロンオックス	-9458
メール便での配送	-9459
ラインストーンが	-9460
レザーは天然素材	-9461
大きく開く巾着式	-9462
必ずお読み下さい	-9463
等は画像を参考に	-9464
荷物の出し入れが	-9465
販売しております	-9466
▁メール便発送不可	-9467
ことをご了承下さい	-9468
することがあります	-9469
の場合がございます	-9470
はございませんので	-9471
はご利用できません	-9472
色合いが異なります	-9473
▁シンプルなデザイン	-9474
の環境などから個人差	-9475
アウトレット商品の為	-9476
ウォッシュキャンバス	-9477
商品は出来るだけ現物	-9478
▁ショルダーひもの長さ	-9479
▁詳しい画像はパソコン	-9480
あらかじめご了承下さい	-9481
デジカメでの撮影のため	-9482
ナイロントリコット基布	-9483
バイマークジェイコブス	-9484
光の加減で実際の商品と	-9485
基準を満たしているお品	-9486
箱等が元々ございません	-9487
をご希望のお客様はこちら	-9488
レザーは天然素材ですので	-9489
レビューを書いて特別価格	-9490
レザーを使用していますので	-9491
内側にはオープンポケットが	-9492
などがある場合がございますが	-9493
傷などがある場合がございます	-9494
商品ランク商品状態全体にヨレ	-9495
等は画像を参考にお願い致します	-9496
擦れなどがある場合がございますが	-9497
*【	-9498
.【	-9499
/【	-9500
2・	-9501
6(	-9502
6*	-9503
6-	-9504
HT	-9505
LW	-9506
OE	-9507
^^	-9508
be	-9509
ug	-9510
us	-9511
ww	-9512
×(	-9513
▁h	-9514
▁す	-9515
▁不	-9516
▁別	-9517
▁心	-9518
▁有	-9519
☆2	-9520
☆【	-9521
♪】	-9522
。*	-9523
【3	-9524
〜2	-9525
〜7	-9526
えば	-9527
げ茶	-9528
ここ	-9529
じれ	-9530
ずに	-9531
ずれ	-9532
たら	-9533
に限	-9534
の出	-9535
の大	-9536
やや	-9537
イー	-9538
グマ	-9539
ケル	-9540
サギ	-9541
スの	-9542
ダカ	-9543
ヌー	-9544
ハラ	-9545
マテ	-9546
ユー	-9547
ラヤ	-9548
・4	-9549
乳瓶	-9550
事由	-9551
二つ	-9552
但し	-9553
個々	-9554
先の	-9555
内外	-9556
受注	-9557
外と	-9558
希少	-9559
形や	-9560
必須	-9561
思議	-9562
投稿	-9563
散り	-9564
数は	-9565
期や	-9566
本当	-9567
東北	-9568
楕円	-9569
歴史	-9570
登録	-9571
白の	-9572
目で	-9573
糸の	-9574
自慢	-9575
薦め	-9576
装飾	-9577
買物	-9578
送る	-9579
通り	-9580
部の	-9581
鉛筆	-9582
開店	-9583
間隔	-9584
革は	-9585
韓国	-9586
!!★	-9587
-02	-9588
-11	-9589
01*	-9590
102	-9591
107	-9592
11】	-9593
185	-9594
29;	-9595
304	-9596
ANO	-9597
BUR	-9598
HLS	-9599
LAY	-9600
LOE	-9601
ico	-9602
ive	-9603
ove	-9604
www	-9605
×20	-9606
▁)<	-9607
▁1◎	-9608
▁NA	-9609
▁de	-9610
▁こだ	-9611
▁スペ	-9612
▁パロ	-9613
▁保温	-9614
▁切れ	-9615
▁小銭	-9616
▁洗濯	-9617
▁肩紐	-9618
▁説明	-9619
えない	-9620
お揃い	-9621
お泊り	-9622
からは	-9623
がちな	-9624
くすみ	-9625
ことで	-9626
ご検討	-9627
ちゃく	-9628
つずつ	-9629
つまで	-9630
てなし	-9631
で行な	-9632
に変身	-9633
に影響	-9634
に活躍	-9635
のうえ	-9636
も安心	-9637
や雑誌	-9638
れてい	-9639
わない	-9640
を中国	-9641
を誇る	-9642
イヤー	-9643
カフェ	-9644
キャラ	-9645
コイズ	-9646
シープ	-9647
スカー	-9648
チェロ	-9649
テール	-9650
トナム	-9651
トレー	-9652
ネオン	-9653
ネロピ	-9654
バンク	-9655
バンド	-9656
フィー	-9657
プラプ	-9658
プレー	-9659
リッジ	-9660
リーフ	-9661
ージー	-9662
中身は	-9663
仕様は	-9664
倍対象	-9665
刺繍が	-9666
卸売り	-9667
収まる	-9668
哺乳瓶	-9669
大切な	-9670
実施中	-9671
寸法は	-9672
手入れ	-9673
散らば	-9674
方のみ	-9675
旅行用	-9676
期不良	-9677
点ずつ	-9678
点づつ	-9679
環境や	-9680
生地が	-9681
留める	-9682
畳んで	-9683
真ん中	-9684
着後の	-9685
立てて	-9686
習い事	-9687
自分の	-9688
袋入り	-9689
送料別	-9690
透け感	-9691
週間外	-9692
(500	-9693
,500	-9694
25.5	-9695
27.5	-9696
29.5	-9697
36.5	-9698
ACCI	-9699
ATCH	-9700
VOLA	-9701
gold	-9702
ouse	-9703
ping	-9704
quet	-9705
▁600	-9706
▁TOD	-9707
▁fog	-9708
▁お財布	-9709
▁アップ	-9710
▁インド	-9711
▁オール	-9712
▁クロス	-9713
▁シェル	-9714
▁スウィ	-9715
▁ハワイ	-9716
▁名入れ	-9717
▁手持ち	-9718
▁誕生日	-9719
▁贈り物	-9720
▁送料込	-9721
▁非売品	-9722
▁高級感	-9723
〜125	-9724
あくまで	-9725
があって	-9726
ぎえもん	-9727
だけでも	-9728
でお届け	-9729
にも是非	-9730
のライン	-9731
の必需品	-9732
の発送で	-9733
は付いて	-9734
もこもこ	-9735
やお友達	-9736
やカラー	-9737
ることも	-9738
をご指定	-9739
を生かす	-9740
クレール	-9741
クロネコ	-9742
サンダル	-9743
ジョーズ	-9744
ドイツ製	-9745
バッグと	-9746
パステル	-9747
ペネロピ	-9748
ラックマ	-9749
ラプラプ	-9750
万円以上	-9751
上記事由	-9752
個口分に	-9753
円に修正	-9754
即日発送	-9755
喜ばれる	-9756
外側にも	-9757
多数愛用	-9758
底板付き	-9759
携帯入れ	-9760
数の更新	-9761
柄の配置	-9762
目安です	-9763
等がある	-9764
老若男女	-9765
色合いと	-9766
若干あり	-9767
通勤通学	-9768
9829;	-9769
Heure	-9770
IESEL	-9771
ocket	-9772
▁Grey	-9773
▁SHOP	-9774
▁ふわふわ	-9775
▁スーパー	-9776
▁チャーム	-9777
▁ト音記号	-9778
▁バニティ	-9779
▁ボッテガ	-9780
▁即日発送	-9781
▁実物の色	-9782
▁数量限定	-9783
いています	-9784
お届けまで	-9785
が魅力的な	-9786
このページ	-9787
ご提供価格	-9788
されますが	-9789
ったいない	-9790
つ折り財布	-9791
でとっても	-9792
どうしても	-9793
にならない	-9794
にまとめる	-9795
にも合わせ	-9796
に施された	-9797
のお客様は	-9798
のが嬉しい	-9799
のみならず	-9800
のロゴ入り	-9801
の注意を払	-9802
サイズ縦約	-9803
サイドには	-9804
スエード調	-9805
スピーディ	-9806
ターコイズ	-9807
トートです	-9808
ネックレス	-9809
ネーション	-9810
ファッショ	-9811
フォルムと	-9812
ブラックの	-9813
プリントで	-9814
ボヤージュ	-9815
マチが広く	-9816
モデルです	-9817
作りを目指	-9818
円ポッキリ	-9819
出来るので	-9820
大人っぽく	-9821
宅配便発送	-9822
平置き実寸	-9823
正規代理店	-9824
段階調節可	-9825
荷物の整理	-9826
通勤バッグ	-9827
面白ポーチ	-9828
BRACCI	-9829
center	-9830
▁Brand	-9831
▁China	-9832
▁HEART	-9833
▁Print	-9834
▁こちらの点	-9835
▁またコーチ	-9836
▁サイズ高さ	-9837
▁ボヤージュ	-9838
▁切れてしま	-9839
▁携帯ケース	-9840
がない場合は	-9841
での買い付け	-9842
と同梱の商品	-9843
なくなります	-9844
などのお祝い	-9845
にも使えます	-9846
は製造を中国	-9847
もありますが	-9848
を入れておく	-9849
インパクト大	-9850
カラーリング	-9851
クロコダイル	-9852
コーチ正規店	-9853
サブバッグに	-9854
シルバー金具	-9855
ストラップで	-9856
ナチュラルで	-9857
ヌメ革にヤケ	-9858
ミュウミュウ	-9859
ユニーク商品	-9860
ライトブルー	-9861
リバーシブル	-9862
ーストラップ	-9863
予めご了承を	-9864
出しています	-9865
包装が必要な	-9866
大きさなので	-9867
当店にて送料	-9868
当店は卸売り	-9869
心の注意を払	-9870
新品本物です	-9871
母の日ギフト	-9872
表面にテカリ	-9873
Kidston	-9874
fashion	-9875
▁なんと税込み	-9876
▁ファスナー式	-9877
▁ボディバック	-9878
▁今なら着後の	-9879
これからの季節	-9880
っていることも	-9881
と実物のサイズ	-9882
に合わせやすい	-9883
の送料について	-9884
はお避け下さい	-9885
やコスメポーチ	-9886
オーストリッチ	-9887
キャンバス地に	-9888
クラムクリーム	-9889
サテンプリーツ	-9890
ポシェットです	-9891
ポリ塩化ビニル	-9892
マザーズバック	-9893
マチがあるので	-9894
マルシェバッグ	-9895
ラッピングは承	-9896
全体的に使用感	-9897
売り切れの場合	-9898
御座いますので	-9899
活躍してくれる	-9900
設定などにより	-9901
週間外の発送で	-9902
避けてください	-9903
避けられません	-9904
Material	-9905
▁お願い致します	-9906
▁ございますので	-9907
▁しておりますが	-9908
▁カラーブラック	-9909
▁パテントレザー	-9910
▁本品はイギリス	-9911
▁着後レビューで	-9912
▁通常ご提供価格	-9913
すっぽり入ります	-9914
による正規品です	-9915
クレジットカード	-9916
ーーーーーーーー	-9917
上記事由での返品	-9918
出し入れしやすい	-9919
提案していきます	-9920
現地アウトレット	-9921
自然なシワやキズ	-9922
▁全て新品本物です	-9923
▁送料無料アイテム	-9924
かわいいオススメの	-9925
が違って見えること	-9926
で行なっております	-9927
のパーティーバッグ	-9928
ポリエステルなので	-9929
個体差がございます	-9930
円に修正いたします	-9931
包装が必要な場合は	-9932
見た目以上の収納力	-9933
通学などにおすすめ	-9934
decoration	-9935
▁marimekko	-9936
▁こちらのアイテムは	-9937
▁ご注文のタイミング	-9938
▁トゥシェオリジナル	-9939
▁ナイロンキャンバス	-9940
▁使いやすいサイズで	-9941
お取り寄せになります	-9942
によりましては在庫が	-9943
ること間違いなしです	-9944
バッグが入荷しました	-9945
生地の使用箇所により	-9946
▁現在キャスキッドソン	-9947
不良品ではございません	-9948
商品を複数ご購入の場合	-9949
安心してお使いください	-9950
する場合がございますので	-9951
インテリアとして飾っても	-9952
外側ファスナー付ポケット	-9953
▁こちらの点につきましても	-9954
▁ご指定いただけませんので	-9955
▁切れてしまっていることも	-9956
と同梱の商品につきましては	-9957
になる場合もございますので	-9958
多少異なる場合がございます	-9959
多少色味が違って見えること	-9960
かわいいオススメの面白ポーチ	-9961
が入っている場合がございます	-9962
ご注文のタイミングによっては	-9963
での買い付けによる正規品です	-9964
▁出来る限り実物に近い色になる	-9965
は製造を中国で行なっております	-9966
個口分に修正させていただきます	-9967
複数ご購入の場合の送料について	-9968
▁送料は無料とさせていただきます	-9969
当店は卸売りを行っておりますので	-9970
)4	-9971
)◆	-9972
2』	-9973
5_	-9974
;※	-9975
DA	-9976
DI	-9977
FL	-9978
KC	-9979
KM	-9980
UM	-9981
YS	-9982
bg	-9983
lt	-9984
▁に	-9985
▁を	-9986
▁ピ	-9987
▁主	-9988
▁目	-9989
▁耳	-9990
▁茶	-9991
▁鍵	-9992
◇【	-9993
★】	-9994
。☆	-9995
】☆	-9996
〕『	-9997
かげ	-9998
かせ	-9999
がで	-10000
さわ	-10001
とめ	-10002
ぬく	-10003
の物	-10004
も行	-10005
アタ	-10006
コツ	-10007
サビ	-10008
ズム	-10009
チロ	-10010
トレ	-10011
ナシ	-10012
パラ	-10013
マス	-10014
ミテ	-10015
メモ	-10016
モカ	-10017
ラス	-10018
ロビ	-10019
ーブ	-10020
万全	-10021
仕切	-10022
先着	-10023
再開	-10024
北欧	-10025
区分	-10026
売切	-10027
家具	-10028
度に	-10029
形を	-10030
後に	-10031
手間	-10032
振り	-10033
放出	-10034
新鮮	-10035
時計	-10036
柄も	-10037
添え	-10038
濃い	-10039
濃淡	-10040
相談	-10041
米軍	-10042
系の	-10043
評判	-10044
負荷	-10045
近い	-10046
金属	-10047
閉じ	-10048
関係	-10049
10)	-10050
117	-10051
119	-10052
15-	-10053
156	-10054
580	-10055
:42	-10056
API	-10057
Car	-10058
GAL	-10059
INI	-10060
NAM	-10061
ORE	-10062
ROD	-10063
SKH	-10064
asa	-10065
etc	-10066
hea	-10067
ior	-10068
ipe	-10069
ise	-10070
key	-10071
lax	-10072
umn	-10073
×22	-10074
×2・	-10075
▁(3	-10076
▁43	-10077
▁46	-10078
▁LV	-10079
▁td	-10080
▁ul	-10081
▁↑↑	-10082
▁バラ	-10083
▁ミテ	-10084
▁中の	-10085
▁入園	-10086
▁可愛	-10087
▁品質	-10088
▁国産	-10089
▁専用	-10090
▁秋冬	-10091
♪】【	-10092
あすラ	-10093
いのも	-10094
ぐっと	-10095
ご記入	-10096
さっと	-10097
と言う	-10098
なしの	-10099
に在庫	-10100
のいい	-10101
の柄も	-10102
ばせて	-10103
よじれ	-10104
を与え	-10105
を楽し	-10106
カッコ	-10107
ガマ口	-10108
キッチ	-10109
クシー	-10110
サート	-10111
セキュ	-10112
ゼンタ	-10113
ドライ	-10114
ニッコ	-10115
ネシア	-10116
バッジ	-10117
ピアス	-10118
ブーケ	-10119
プラン	-10120
ベロア	-10121
メコミ	-10122
ラッセ	-10123
リーナ	-10124
ロウィ	-10125
ヴェル	-10126
作りで	-10127
個以上	-10128
全体の	-10129
写真の	-10130
出して	-10131
思議の	-10132
急上昇	-10133
散りば	-10134
明るく	-10135
替える	-10136
来ない	-10137
枚まで	-10138
柄です	-10139
残り布	-10140
気分や	-10141
独特な	-10142
直径約	-10143
肩がけ	-10144
金具を	-10145
開閉口	-10146
馴染み	-10147
黒ずみ	-10148
3230	-10149
:140	-10150
:154	-10151
:2.5	-10152
:500	-10153
ANKC	-10154
BLUE	-10155
TRAD	-10156
alen	-10157
auto	-10158
body	-10159
hane	-10160
rell	-10161
▁280	-10162
▁Bou	-10163
▁Che	-10164
▁SKH	-10165
▁Sui	-10166
▁カバー	-10167
▁ゴーガ	-10168
▁シーン	-10169
▁ジバン	-10170
▁バケツ	-10171
▁バナナ	-10172
▁フリー	-10173
▁マチ幅	-10174
▁・・・	-10175
▁丈夫な	-10176
▁取っ手	-10177
▁商品は	-10178
▁小ぶり	-10179
▁材本革	-10180
▁素材綿	-10181
▁長めの	-10182
▁風合い	-10183
〜120	-10184
〜130	-10185
が楽しく	-10186
が見受け	-10187
ざっくり	-10188
なくても	-10189
にて発送	-10190
に仕上が	-10191
に向けて	-10192
のリボン	-10193
ましょう	-10194
まとめて	-10195
められた	-10196
も可愛い	-10197
カンサン	-10198
ガイコツ	-10199
キューカ	-10200
コチラも	-10201
シワ加工	-10202
スルット	-10203
タイプと	-10204
チャック	-10205
ッキング	-10206
ニーカー	-10207
バックを	-10208
フェイス	-10209
フレンド	-10210
マチ幅が	-10211
ミッキー	-10212
ミックス	-10213
ルーヴィ	-10214
レイヤー	-10215
・・・。	-10216
ートップ	-10217
再現する	-10218
大きさと	-10219
学生さん	-10220
機能性に	-10221
滑らかな	-10222
簡易包装	-10223
素材表地	-10224
肩掛けも	-10225
裏地付き	-10226
通常販売	-10227
防水加工	-10228
魅力です	-10229
2882;	-10230
:1.4;	-10231
:12.5	-10232
Amina	-10233
ComKM	-10234
ELINE	-10235
SANWA	-10236
SPACE	-10237
STYLE	-10238
avasa	-10239
ipper	-10240
▁GUYS	-10241
▁Oliv	-10242
▁Pale	-10243
▁その場合	-10244
▁スクール	-10245
▁スマート	-10246
▁スモール	-10247
▁マフラー	-10248
▁紐の長さ	-10249
お客様のご	-10250
かっこいい	-10251
がキュート	-10252
が魅力です	-10253
このバッグ	-10254
されました	-10255
しなやかな	-10256
っている為	-10257
でキュート	-10258
のかわいい	-10259
へのお届け	-10260
もあるので	-10261
も入ります	-10262
や携帯電話	-10263
を取り付け	-10264
アイテムを	-10265
カンパニー	-10266
ガーリーな	-10267
クオリティ	-10268
コムブルー	-10269
ジーニング	-10270
センターの	-10271
タンニンで	-10272
デイバッグ	-10273
トリミング	-10274
フェラガモ	-10275
フック付き	-10276
ブラッシュ	-10277
取り外しが	-10278
必要最低限	-10279
掲載の商品	-10280
携帯などの	-10281
新品未使用	-10282
本体サイズ	-10283
注目を浴び	-10284
画像は照明	-10285
箱ご希望は	-10286
長く使って	-10287
------	-10288
ComRed	-10289
GISELE	-10290
ayhane	-10291
laxing	-10292
normal	-10293
▁model	-10294
▁お買い上げ	-10295
▁エコベティ	-10296
▁ゴーガイズ	-10297
▁ディズニー	-10298
▁バッグ本体	-10299
▁ポケットは	-10300
▁マリメッコ	-10301
▁ミリタリー	-10302
▁レオパード	-10303
▁実店舗でも	-10304
▁持ち手部分	-10305
▁材ナイロン	-10306
▁通販だから	-10307
◎)/!】<	-10308
お届けまで約	-10309
がま口タイプ	-10310
が付いている	-10311
ご安心下さい	-10312
ご注文下さい	-10313
っていきます	-10314
で使いやすい	-10315
に愛され続け	-10316
のショルダー	-10317
カジュアルに	-10318
キャンディー	-10319
キャンバスと	-10320
クリスチャン	-10321
ショルダー付	-10322
シルエットに	-10323
ジッパー開閉	-10324
タウンバッグ	-10325
バレンシアガ	-10326
ポーチとして	-10327
ラッピングも	-10328
ロッカンサン	-10329
予定ですので	-10330
使われている	-10331
入れられます	-10332
対応ブラウザ	-10333
差し上げます	-10334
店頭でも販売	-10335
披露宴などの	-10336
持ちやすい方	-10337
未使用品です	-10338
環境等により	-10339
画像のお色は	-10340
送料無料です	-10341
重宝しますよ	-10342
ComLine	-10343
▁Disney	-10344
▁キーホルダー	-10345
▁コロンとした	-10346
▁ターンロック	-10347
▁ペンホルダー	-10348
▁内ファスナー	-10349
▁結婚式ドレス	-10350
お取り寄せ商品	-10351
がございました	-10352
がわずかにあり	-10353
が見られますが	-10354
この機会に是非	-10355
している特殊な	-10356
できませんので	-10357
ることが出来る	-10358
をご選択された	-10359
アイコンに対応	-10360
イタリア製牛革	-10361
カリフォルニア	-10362
クリックで詳細	-10363
コーチのバッグ	-10364
スクエアポーチ	-10365
ドレスを取り扱	-10366
ナイロン素材で	-10367
ピンクベージュ	-10368
フェアトレード	-10369
フラットなので	-10370
ポケットも充実	-10371
下のボタンより	-10372
収納力バツグン	-10373
取り出したい物	-10374
大人気ブランド	-10375
数の更新は随時	-10376
発表会にも是非	-10377
若干異なります	-10378
開始いたします	-10379
000000;}	-10380
▁Classic	-10381
▁ラインストーン	-10382
▁何卒ご理解の程	-10383
▁各種パーティー	-10384
▁多数お取り寄せ	-10385
▁持ち手の長さ約	-10386
★★★★★★★★	-10387
かさばらずきれい	-10388
この商品は下記の	-10389
とっても便利です	-10390
の古布を使用した	-10391
はございませんが	-10392
をご参照ください	-10393
ウィークエンダー	-10394
オムツ替えシート	-10395
コーティング加工	-10396
バッグの登場です	-10397
フェイクレザーの	-10398
ブルーコムブルー	-10399
個体差があります	-10400
全体的に綺麗です	-10401
写真と実際の商品	-10402
努めておりますが	-10403
完売となりました	-10404
underline	-10405
▁Olivades	-10406
▁material	-10407
▁メール便送料無料	-10408
▁材ポリエステル仕	-10409
▁通販だから豊富な	-10410
での発送となります	-10411
ることができるので	-10412
エレガントな雰囲気	-10413
ショッピングカート	-10414
リュックサックです	-10415
位置は持ちやすい方	-10416
必ずご確認ください	-10417
素材ナイロンサイズ	-10418
:#000000;}	-10419
ProComment	-10420
gmatterial	-10421
shopDuplex	-10422
お時間をいただく場合	-10423
ピクニックバスケット	-10424
ワンピースにおすすめ	-10425
等お問い合わせ下さい	-10426
▁出産祝いのプレゼント	-10427
にまとめる事が出来ます	-10428
よう努力しておりますが	-10429
クレジット決済の場合は	-10430
点づつハンドメイドの為	-10431
▁CathKidston	-10432
▁これからも目が離せない	-10433
▁リサイクルレザーを使用	-10434
▁予めご了承くださいませ	-10435
きれいなお品物になります	-10436
している特殊な商品のため	-10437
アイコンに対応しています	-10438
ドレスを取り扱っています	-10439
大きいサイズもございます	-10440
通学などのデイリーユース	-10441
▁斜めがけショルダーバッグ	-10442
お申し込みをお願い致します	-10443
が見られる場合がございます	-10444
フラットなのでカバンの中で	-10445
違いがある場合がございます	-10446
polyesterabout	-10447
▁各種パーティーにオススメな	-10448
クリックで詳細をご覧頂けます	-10449
ポリエステルなのでとても軽く	-10450
レスポートサック商品について	-10451
▁ポリカーボネイトコーティング	-10452
ショルダーバッグとしても使える	-10453
ワンショルダーボディバッグです	-10454
数の更新は随時行っておりますが	-10455
多少の誤差が生じる場合があります	-10456
表示と若干異なる場合がございます	-10457
.1	-10458
3【	-10459
4:	-10460
>*	-10461
>●	-10462
DW	-10463
HA	-10464
QU	-10465
by	-10466
cc	-10467
tk	-10468
vi	-10469
ya	-10470
yl	-10471
yr	-10472
≫【	-10473
▁。	-10474
▁具	-10475
▁壊	-10476
▁紺	-10477
▁量	-10478
。★	-10479
こそ	-10480
ささ	-10481
すと	-10482
て布	-10483
にち	-10484
に応	-10485
の幅	-10486
ばら	-10487
まし	-10488
や水	-10489
よさ	-10490
われ	-10491
ギュ	-10492
パフ	-10493
フレ	-10494
プー	-10495
ラフ	-10496
上陸	-10497
不織	-10498
伸び	-10499
刺し	-10500
北陸	-10501
厳選	-10502
向け	-10503
外に	-10504
外観	-10505
実現	-10506
層式	-10507
年中	-10508
年間	-10509
底は	-10510
愛着	-10511
数日	-10512
旅先	-10513
未定	-10514
楽に	-10515
殆ど	-10516
水曜	-10517
深さ	-10518
減少	-10519
満載	-10520
片側	-10521
縦型	-10522
繁忙	-10523
自在	-10524
良好	-10525
裁ち	-10526
装備	-10527
褒美	-10528
責任	-10529
車輪	-10530
返送	-10531
適用	-10532
針跡	-10533
鑑定	-10534
開封	-10535
高温	-10536
黒点	-10537
(40	-10538
(45	-10539
-50	-10540
132	-10541
138	-10542
470	-10543
48×	-10544
640	-10545
669	-10546
BOY	-10547
CHI	-10548
EEP	-10549
GRE	-10550
INS	-10551
IRL	-10552
IST	-10553
KRU	-10554
ORY	-10555
Sep	-10556
VAB	-10557
aby	-10558
bil	-10559
ids	-10560
mei	-10561
ola	-10562
ors	-10563
url	-10564
▁2、	-10565
▁DA	-10566
▁LU	-10567
▁NO	-10568
▁RE	-10569
▁SC	-10570
▁ci	-10571
▁of	-10572
▁vo	-10573
▁※「	-10574
▁トリ	-10575
▁プチ	-10576
▁中身	-10577
▁九州	-10578
▁具体	-10579
▁底板	-10580
▁程度	-10581
▁色味	-10582
▁顔料	-10583
、10	-10584
が使わ	-10585
が使用	-10586
が激安	-10587
ご指定	-10588
さり気	-10589
だって	-10590
っかけ	-10591
と共有	-10592
と迅速	-10593
と送信	-10594
の在庫	-10595
の多い	-10596
の実寸	-10597
も出て	-10598
やジム	-10599
よい物	-10600
より直	-10601
を施し	-10602
を終了	-10603
キズや	-10604
クラブ	-10605
ッカー	-10606
ナナメ	-10607
ナブル	-10608
ヌキテ	-10609
パッド	-10610
ビック	-10611
ブック	-10612
ベート	-10613
ポニー	-10614
マスト	-10615
ヤール	-10616
ユーズ	-10617
中にも	-10618
今回は	-10619
伸縮性	-10620
使えば	-10621
修理も	-10622
先着順	-10623
刺繍の	-10624
剥がれ	-10625
大文字	-10626
感じが	-10627
日程度	-10628
最大約	-10629
正しく	-10630
美しく	-10631
表面の	-10632
誤った	-10633
販売の	-10634
販売を	-10635
超軽量	-10636
通勤用	-10637
!!】【	-10638
)4〜5	-10639
)×1、	-10640
-033	-10641
:670	-10642
Good	-10643
ITEM	-10644
KAPI	-10645
Love	-10646
Rose	-10647
SKET	-10648
Spot	-10649
iPad	-10650
link	-10651
mara	-10652
ripe	-10653
ular	-10654
×2■【	-10655
▁the	-10656
▁お中元	-10657
▁お値段	-10658
▁お歳暮	-10659
▁お約束	-10660
▁ふくさ	-10661
▁カーフ	-10662
▁キュー	-10663
▁レッス	-10664
▁中には	-10665
▁今回は	-10666
▁内容量	-10667
▁内祝い	-10668
▁内装に	-10669
▁即日の	-10670
▁壊れた	-10671
▁展示品	-10672
▁様々な	-10673
▁発表会	-10674
▁肩から	-10675
▁限定品	-10676
】【10	-10677
から大人	-10678
が施され	-10679
ことなく	-10680
たたんで	-10681
てなしを	-10682
で下さい	-10683
となった	-10684
とにかく	-10685
なものを	-10686
に入れる	-10687
に若干の	-10688
ぬくもり	-10689
のお供に	-10690
のお洒落	-10691
のご負担	-10692
のインク	-10693
の素材感	-10694
はお断り	-10695
へギフト	-10696
りません	-10697
オーソリ	-10698
カラーも	-10699
カラーを	-10700
カードや	-10701
ギフトに	-10702
コーデュ	-10703
システム	-10704
ショナル	-10705
シングル	-10706
ジャパン	-10707
スポンジ	-10708
タフライ	-10709
ッコリー	-10710
ネームを	-10711
バックの	-10712
バッファ	-10713
ペンハー	-10714
ボッテガ	-10715
ポピーズ	-10716
レベッカ	-10717
ローラン	-10718
上品さも	-10719
使ったり	-10720
使用感の	-10721
写真とは	-10722
刺しゅう	-10723
半額以下	-10724
味わい深	-10725
場合でも	-10726
対応商品	-10727
数多くの	-10728
濡れても	-10729
用ポーチ	-10730
発送から	-10731
終了など	-10732
繁忙期や	-10733
調節不可	-10734
買い上げ	-10735
軽いです	-10736
選べます	-10737
開口部は	-10738
風合いと	-10739
1302【	-10740
20:00	-10741
Brand	-10742
RODUC	-10743
marie	-10744
▁2013	-10745
▁Beau	-10746
▁Case	-10747
▁Kors	-10748
▁SPEC	-10749
▁Shop	-10750
▁お引越し	-10751
▁ステッチ	-10752
▁セリーヌ	-10753
▁バーキン	-10754
▁ルシアン	-10755
▁具体的な	-10756
▁切り替え	-10757
▁持ち手が	-10758
お買いもの	-10759
こだわりの	-10760
ななめ掛け	-10761
にくいです	-10762
により商品	-10763
に合わせた	-10764
のお出掛け	-10765
のカラーと	-10766
ぷーちゃん	-10767
や携帯など	-10768
を開けると	-10769
イメージが	-10770
オプアート	-10771
カンボン風	-10772
コンサート	-10773
サイズ感が	-10774
ススメです	-10775
スマートに	-10776
ソフト合皮	-10777
デザインも	-10778
バンク決済	-10779
バーバリー	-10780
ビスケット	-10781
フォルムの	-10782
フロントに	-10783
ポケットの	-10784
マテリアル	-10785
マルチェロ	-10786
メール希望	-10787
一切お受け	-10788
保証と迅速	-10789
営業日程度	-10790
国のアリス	-10791
守ってくれ	-10792
小さな黒点	-10793
御覧下さい	-10794
控え下さい	-10795
最高のおも	-10796
生地の汚れ	-10797
等がある物	-10798
等によって	-10799
素敵ですね	-10800
良質の状態	-10801
送料を訂正	-10802
部屋の照明	-10803
鑑定済みの	-10804
Detail	-10805
LAYBOY	-10806
▁POINT	-10807
▁【2011	-10808
▁プーちゃん	-10809
▁マイバッグ	-10810
▁ママバッグ	-10811
▁予めご理解	-10812
▁傷や汚れが	-10813
▁即日の出荷	-10814
▁天然素材の	-10815
▁心をこめて	-10816
いない場合は	-10817
お見逃しなく	-10818
がオシャレな	-10819
がキュートな	-10820
しやすいので	-10821
すべて手作業	-10822
のお問い合せ	-10823
のほかにもお	-10824
をご記入の上	-10825
をできるだけ	-10826
オーダー受付	-10827
キュートです	-10828
コットン生地	-10829
サイズが楽々	-10830
サイズ感です	-10831
シザーバッグ	-10832
ディティール	-10833
ネヴァーフル	-10834
ハッピー価格	-10835
ハンドバック	-10836
ハンドル部分	-10837
バッファロー	-10838
バーチェーン	-10839
プライベート	-10840
プレゼントに	-10841
ポイントです	-10842
メール便では	-10843
モニタにより	-10844
リーズナブル	-10845
丁寧な修理も	-10846
中にオープン	-10847
中古程度説明	-10848
使いやすさも	-10849
取り出せます	-10850
女の子らしい	-10851
定休日を除く	-10852
用のチェーン	-10853
程度はかなり	-10854
素材合成皮革	-10855
▁Animal	-10856
▁BASKET	-10857
▁PRODUC	-10858
▁お届けします	-10859
▁ショルダー約	-10860
▁ファスナーが	-10861
▁使用感も出て	-10862
▁壊れたところ	-10863
▁持ち手高さ約	-10864
▁顔料プリント	-10865
かごバッグです	-10866
ご利用ください	-10867
ご希望の商品が	-10868
されているので	-10869
ではありません	-10870
にピッタリです	-10871
アンティーク調	-10872
オーソリ確認後	-10873
キャビアスキン	-10874
コスメティック	-10875
デザインなので	-10876
ボディーバッグ	-10877
メッシュレザー	-10878
レザーのコンビ	-10879
中古品としては	-10880
取扱い終了など	-10881
採寸しています	-10882
摩擦などにより	-10883
楽天バンク決済	-10884
無料で承ります	-10885
焼けがあるもの	-10886
焼け等がある物	-10887
繁忙期やご注文	-10888
見受けられます	-10889
あくまで目安です	-10890
お使いのパソコン	-10891
がとっても可愛い	-10892
ご検討下さいませ	-10893
ご注文確認メール	-10894
でお使い頂けます	-10895
にもお使い下さい	-10896
の実寸となります	-10897
やお友達へギフト	-10898
エコトートバッグ	-10899
ファッション小物	-10900
フォーマルバック	-10901
ボンディング加工	-10902
マルチポーチです	-10903
ヨゴレが少しあり	-10904
入荷いたしました	-10905
小さな黒点やシミ	-10906
平置き採寸につき	-10907
思議の国のアリス	-10908
正規店ならではの	-10909
汚れもありますが	-10910
VABBRACCI	-10911
▁おすすめポイント	-10912
▁お約束いたします	-10913
▁ガジェットケース	-10914
▁フェイクレザーの	-10915
▁使用感が多少あり	-10916
▁傷や汚れが少なく	-10917
お知らせメール希望	-10918
っておりませんので	-10919
と送信してください	-10920
を使用しているので	-10921
キルティングバッグ	-10922
引き出してくれます	-10923
最高のおもてなしを	-10924
程度はかなりよい物	-10925
▁かなり使用感があり	-10926
▁ご了承くださいませ	-10927
お使いのモニタにより	-10928
こちらの商品は実店舗	-10929
に関するお問い合わせ	-10930
はこちらを御覧下さい	-10931
シンプルなデザインで	-10932
不良ではございません	-10933
使用感はございますが	-10934
様々なシーンで大活躍	-10935
注意画面上と実物では	-10936
画面上と実物では多少	-10937
販売を開始いたします	-10938
▁即日の出荷が可能です	-10939
こちらの商品はメーカー	-10940
ポケットがついています	-10941
保証と迅速丁寧な修理も	-10942
異なる場合もございます	-10943
製品に小さな黒点やシミ	-10944
▁壊れたところがあるもの	-10945
があることをご了承下さい	-10946
させて頂いておりますので	-10947
中古品としては良質の状態	-10948
商品についてのお問い合せ	-10949
等がある場合が御座います	-10950
繁忙期やご注文状況により	-10951
表記サイズと実物のサイズ	-10952
通気性の良いメッシュ素材	-10953
開閉口は大きく開く巾着式	-10954
▁ラッピング無料で承ります	-10955
がアクセントになっています	-10956
こちらの商品は店頭でも販売	-10957
フロントファスナーポケット	-10958
売り切れの場合もございます	-10959
気軽にお問い合わせください	-10960
用のチェーンも付いています	-10961
針跡がある場合がございます	-10962
ご希望の商品が売り切れの場合	-10963
やお友達へギフトにオススメな	-10964
メールにてお知らせいたします	-10965
遅れが生じる場合がございます	-10966
開閉しやすいダブルファスナー	-10967
▁イルビゾンテ正規店ならではの	-10968
▁心をこめて最高のおもてなしを	-10969
が異なって見える場合があります	-10970
させていただく場合もございます	-10971
色落ちする場合がございますので	-10972
取扱い終了などの場合もございます	-10973
多少の誤差がある場合がございます	-10974
(7	-10975
)"	-10976
)〜	-10977
+<	-10978
.7	-10979
1*	-10980
6,	-10981
7(	-10982
;■	-10983
>3	-10984
GA	-10985
ME	-10986
oo	-10987
ta	-10988
va	-10989
▁二	-10990
▁就	-10991
▁弟	-10992
▁県	-10993
か所	-10994
が大	-10995
ぎ目	-10996
さむ	-10997
しさ	-10998
すれ	-10999
つく	-11000
でに	-11001
で補	-11002
に着	-11003
に黒	-11004
の差	-11005
は行	-11006
もら	-11007
を作	-11008
を活	-11009
を買	-11010
アラ	-11011
エイ	-11012
キキ	-11013
クセ	-11014
ッパ	-11015
ヤキ	-11016
ラグ	-11017
ロピ	-11018
ヴォ	-11019
一度	-11020
下げ	-11021
下辺	-11022
伸ば	-11023
修学	-11024
千鳥	-11025
取れ	-11026
口金	-11027
和里	-11028
圧縮	-11029
外出	-11030
多様	-11031
密着	-11032
干し	-11033
広げ	-11034
彩り	-11035
得な	-11036
性別	-11037
成り	-11038
手前	-11039
打ち	-11040
方に	-11041
横型	-11042
気品	-11043
水草	-11044
浴衣	-11045
湿気	-11046
物は	-11047
琴音	-11048
突破	-11049
等も	-11050
翌日	-11051
脇に	-11052
色で	-11053
語で	-11054
重ね	-11055
防止	-11056
頂き	-11057
頭へ	-11058
高く	-11059
黄色	-11060
!!<	-11061
-28	-11062
11_	-11063
13<	-11064
240	-11065
30)	-11066
66;	-11067
999	-11068
:41	-11069
:46	-11070
:47	-11071
Big	-11072
GET	-11073
Lux	-11074
New	-11075
POR	-11076
Ron	-11077
TPU	-11078
ani	-11079
ger	-11080
hat	-11081
iff	-11082
ile	-11083
ram	-11084
yen	-11085
×1)	-11086
×2(	-11087
▁BU	-11088
▁FR	-11089
▁ON	-11090
▁Re	-11091
▁Sc	-11092
▁ro	-11093
▁※※	-11094
▁※【	-11095
▁です	-11096
▁サー	-11097
▁ラメ	-11098
▁地球	-11099
▁弟子	-11100
▁後ろ	-11101
▁温泉	-11102
▁県外	-11103
▁米軍	-11104
▁縦型	-11105
▁薔薇	-11106
▁鍵盤	-11107
えます	-11108
お風呂	-11109
からず	-11110
が一つ	-11111
こげ茶	-11112
ご予約	-11113
ご褒美	-11114
ご負担	-11115
っぽく	-11116
とこの	-11117
とヨコ	-11118
の職人	-11119
の革は	-11120
は使用	-11121
まれる	-11122
も愛用	-11123
やミニ	-11124
わずか	-11125
を持つ	-11126
アール	-11127
ウェア	-11128
ォーツ	-11129
カブセ	-11130
グラス	-11131
コンセ	-11132
スパン	-11133
ソーダ	-11134
ッター	-11135
ナック	-11136
ハラコ	-11137
ムラグ	-11138
ヨコ約	-11139
ルティ	-11140
レート	-11141
ロード	-11142
ンジェ	-11143
ンディ	-11144
ヴィス	-11145
ールー	-11146
一人様	-11147
上部は	-11148
下部の	-11149
中には	-11150
中央の	-11151
交換等	-11152
入りで	-11153
円以下	-11154
加工の	-11155
十字に	-11156
収納性	-11157
取扱店	-11158
名入れ	-11159
好きに	-11160
定した	-11161
少々の	-11162
工程で	-11163
布和里	-11164
底部に	-11165
心配も	-11166
明るい	-11167
決まる	-11168
泊旅行	-11169
活躍し	-11170
現物と	-11171
環境に	-11172
留め金	-11173
目を惹	-11174
続けて	-11175
色あせ	-11176
色使い	-11177
色違い	-11178
製品化	-11179
豊富で	-11180
豪華な	-11181
軽やか	-11182
長さの	-11183
開催中	-11184
風呂敷	-11185
(*^-	-11186
(40)	-11187
(45)	-11188
17】【	-11189
810/	-11190
POPP	-11191
UMIU	-11192
asse	-11193
ince	-11194
lini	-11195
otes	-11196
pany	-11197
thum	-11198
umnw	-11199
ylon	-11200
▁70%	-11201
▁Lin	-11202
▁ROO	-11203
▁SUI	-11204
▁たかさ	-11205
▁クオン	-11206
▁ケリー	-11207
▁ディー	-11208
▁バレン	-11209
▁ミュウ	-11210
▁リアル	-11211
▁リズム	-11212
▁レギュ	-11213
▁上品で	-11214
▁中古品	-11215
▁外側は	-11216
▁小さく	-11217
▁採寸は	-11218
▁画像は	-11219
▁細かい	-11220
▁重ねて	-11221
あっても	-11222
お手持ち	-11223
お揃いの	-11224
がお洒落	-11225
しからず	-11226
そのため	-11227
たたんだ	-11228
での使用	-11229
なのです	-11230
につなが	-11231
にできる	-11232
にも便利	-11233
にも合う	-11234
のお散歩	-11235
のお洋服	-11236
のご注文	-11237
の先頭へ	-11238
の準備を	-11239
は持って	-11240
やお財布	-11241
やパッチ	-11242
より選択	-11243
りやすい	-11244
をつけて	-11245
をはさむ	-11246
カテゴリ	-11247
カラーや	-11248
キャンプ	-11249
クトリア	-11250
ケータイ	-11251
コーデに	-11252
サーモン	-11253
シミあり	-11254
シリコン	-11255
スマイル	-11256
ソフトな	-11257
ダカイン	-11258
チャイズ	-11259
チャイナ	-11260
ナニコラ	-11261
バラつき	-11262
パロディ	-11263
ヒルトン	-11264
ブルガリ	-11265
ボタン下	-11266
ポーチに	-11267
モノクロ	-11268
ヤキヌメ	-11269
ューシャ	-11270
ライン等	-11271
ラブリー	-11272
ルーキャ	-11273
ヴェルニ	-11274
一点一点	-11275
予告無く	-11276
付け替え	-11277
付属品は	-11278
全て新品	-11279
出来上が	-11280
即日出荷	-11281
取り扱う	-11282
取り揃え	-11283
実用的な	-11284
必要な物	-11285
採寸方法	-11286
数に限り	-11287
日以内に	-11288
日常使い	-11289
染めムラ	-11290
機能性を	-11291
機能的な	-11292
立体的な	-11293
華やかで	-11294
記載の上	-11295
販売予定	-11296
長さ調節	-11297
12.5×	-11298
18.5×	-11299
18:00	-11300
3,000	-11301
BERRY	-11302
BERTY	-11303
CHARM	-11304
COLOR	-11305
Carri	-11306
ELLOW	-11307
Kalen	-11308
after	-11309
eight	-11310
items	-11311
itter	-11312
sibil	-11313
stone	-11314
▁001:	-11315
▁おでかけ	-11316
▁お誕生日	-11317
▁これらは	-11318
▁そのまま	-11319
▁イエロー	-11320
▁イベント	-11321
▁コーディ	-11322
▁スカーフ	-11323
▁バービー	-11324
▁フランス	-11325
▁一つ一つ	-11326
▁在庫処分	-11327
▁小銭入れ	-11328
▁必ずフル	-11329
▁柔らかい	-11330
、002:	-11331
いいですね	-11332
いっぱいの	-11333
からお選び	-11334
が写真とは	-11335
さわやかな	-11336
していない	-11337
にも最適な	-11338
のお手入れ	-11339
のスペック	-11340
はこちらで	-11341
はしっかり	-11342
もしっかり	-11343
ように調整	-11344
をイメージ	-11345
をオススメ	-11346
アメリカン	-11347
カレンコム	-11348
シャイニー	-11349
ゼンタール	-11350
チャームが	-11351
チュニック	-11352
チロリアン	-11353
デオリーブ	-11354
トレンド感	-11355
バースデー	-11356
フリンジが	-11357
ポケットと	-11358
モンステラ	-11359
リクルート	-11360
入りません	-11361
多少色合い	-11362
抜き出した	-11363
携帯電話用	-11364
納期の目安	-11365
配送料詳細	-11366
.10312	-11367
543230	-11368
>10312	-11369
LoveQu	-11370
repeat	-11371
smetic	-11372
thumbs	-11373
yrrell	-11374
▁81-12	-11375
▁Chloe	-11376
▁SANWA	-11377
▁table	-11378
▁こだわった	-11379
▁アイボリー	-11380
▁キーワード	-11381
▁スウィング	-11382
▁タテとヨコ	-11383
▁ミニサイズ	-11384
▁レギュラー	-11385
▁日時指定は	-11386
▁県外の店舗	-11387
かわいいです	-11388
がありません	-11389
こちらで修正	-11390
ご入金確認後	-11391
ご注文日から	-11392
ご遠慮下さい	-11393
の組み合わせ	-11394
もったいない	-11395
るバッグです	-11396
アルミシート	-11397
エナメル素材	-11398
クロコ型押し	-11399
サンローラン	-11400
セキュリティ	-11401
ダージョーズ	-11402
バッグの中に	-11403
ブランド品は	-11404
ベルトループ	-11405
ラブクォーツ	-11406
交換はお断り	-11407
光沢感があり	-11408
再入荷の予定	-11409
商品のご紹介	-11410
喜ばれますよ	-11411
多少の色ぶれ	-11412
引っ張ったり	-11413
感があります	-11414
持ち手長さ約	-11415
撮影環境等で	-11416
発送まで数日	-11417
老舗ブランド	-11418
近日販売予定	-11419
頂ける方のみ	-11420
飽きの来ない	-11421
Columnw	-11422
Dickies	-11423
▁Stripe	-11424
▁アンナニコラ	-11425
▁カジュアルな	-11426
▁ハローキティ	-11427
▁ベーシックな	-11428
▁ミュウミュウ	-11429
▁具体的な日程	-11430
▁注文ボタン下	-11431
お早めにどうぞ	-11432
すぎないように	-11433
ているブランド	-11434
で作られている	-11435
におすすめです	-11436
の準備をすすめ	-11437
をお控え下さい	-11438
をお願いします	-11439
をしております	-11440
オールシーズン	-11441
コットンレース	-11442
サイズのカイロ	-11443
サイドのジップ	-11444
シェリーライン	-11445
ショルダー部分	-11446
フランチャイズ	-11447
ボストンバック	-11448
ポケット付きで	-11449
マグネット式で	-11450
メール便を選択	-11451
商品の色はご覧	-11452
多数ございます	-11453
実際のカラーと	-11454
小物入れとして	-11455
当店の取り扱う	-11456
散らばりやすい	-11457
生地の裁断部分	-11458
発表しています	-11459
落ち着きのある	-11460
Carriage	-11461
Kalencom	-11462
asselini	-11463
sibility	-11464
▁Bouquet	-11465
▁LEATHER	-11466
▁Michael	-11467
▁フェイクファー	-11468
▁フラットポーチ	-11469
▁斜め掛けバッグ	-11470
ご注文いただいた	-11471
ご覧いただけます	-11472
その他の発送方法	-11473
にスレが少しあり	-11474
に在庫がある場合	-11475
の発送となります	-11476
サイズも楽々入り	-11477
セレクトより選択	-11478
ネームを記載の上	-11479
ファスナーロック	-11480
メッシュポケット	-11481
平置き採寸のため	-11482
抜き出したものを	-11483
高級感があるので	-11484
▁PRODUCTS	-11485
▁キャンバス素材の	-11486
▁タテとヨコ十字に	-11487
▁フォーマルバック	-11488
▁マグネット式開閉	-11489
▁国内参考小売価格	-11490
▁採寸はランダムに	-11491
からの直輸入品です	-11492
く場合がございます	-11493
このページの先頭へ	-11494
ですので若干の誤差	-11495
はお取り寄せとなり	-11496
ようにしていますが	-11497
をお楽しみください	-11498
アイテムもスッキリ	-11499
パソコン等によって	-11500
レスポートサックで	-11501
上記の理由での返品	-11502
使うほどに味わい深	-11503
Columnwrap	-11504
LoveQuotes	-11505
▁オリーブデオリーブ	-11506
お取り寄せ商品のため	-11507
ない場合もございます	-11508
のみとさせて頂きます	-11509
ブランド品は全て新品	-11510
代引き手数料に関して	-11511
商品のラッピングは承	-11512
商品写真と実際の商品	-11513
実際の商品と多少色味	-11514
音楽雑貨はこちらです	-11515
familystone	-11516
▁外ファスナーポケット	-11517
▁着後レビューで宅配便	-11518
お時間をいただく場合が	-11519
と在庫を共有している為	-11520
になっているモニターや	-11521
まれに自然なシワやキズ	-11522
ようお願い申し上げます	-11523
クラシカルレザーバッグ	-11524
モニターの多少の色ぶれ	-11525
位置により柄の入り方が	-11526
汚れにくく軽くて丈夫な	-11527
決済方法楽天バンク決済	-11528
納期の目安ご入金確認後	-11529
▁キャンバストートバッグ	-11530
▁日時指定はご注文日から	-11531
の準備をすすめております	-11532
よろしくお願いいたします	-11533
サイズは平置き採寸のため	-11534
ハンドメイドアイテムの為	-11535
ポケットがついているので	-11536
モニターや環境などにより	-11537
便利なオープンポケットが	-11538
色移りすることがあります	-11539
▁お菓子やアクセサリーなど	-11540
▁具体的な日程が決まり次第	-11541
▁商品に関するお問い合わせ	-11542
▁必ずフルネームを記載の上	-11543
お使いいただけるお品物です	-11544
お買い上げいただいた商品が	-11545
ご希望の方は下のボタンより	-11546
ちょっとしたお出掛けや旅行	-11547
となりますのでご注意下さい	-11548
キルティングチェーンバッグ	-11549
レビューをお書き下さいませ	-11550
予めご了承をお願い致します	-11551
週間以内にお願いいたします	-11552
▁県外の店舗に在庫がある場合	-11553
商品写真と実際の商品の色合い	-11554
▁上記注意点をご理解頂いただき	-11555
▁注文ボタン下セレクトより選択	-11556
その他の発送方法をご希望の方は	-11557
抜き出したものを採寸しています	-11558
撮影環境等で色合いが異なります	-11559
配送料詳細はこちらを御覧下さい	-11560
detailColumnwrap	-11561
▁この商品はお取り寄せ商品のため	-11562
▁商品に関するお問い合わせの際は	-11563
が入っている場合がございますので	-11564
モニターの多少の色ぶれがある場合	-11565
未使用品で大変きれいなお品物です	-11566
若干の誤差が生じる場合があります	-11567
.】	-11568
/8	-11569
06	-11570
08	-11571
5:	-11572
5×	-11573
5】	-11574
6】	-11575
71	-11576
9(	-11577
?】	-11578
CC	-11579
CL	-11580
KU	-11581
OO	-11582
PA	-11583
SU	-11584
Su	-11585
XH	-11586
da	-11587
▁ま	-11588
▁わ	-11589
▁何	-11590
▁師	-11591
▁春	-11592
▁雨	-11593
♪&	-11594
が切	-11595
ごと	-11596
しみ	-11597
づく	-11598
てい	-11599
とお	-11600
はた	-11601
へと	-11602
み屋	-11603
や汗	-11604
らい	-11605
を連	-11606
アダ	-11607
エプ	-11608
オシ	-11609
ッジ	-11610
ナツ	-11611
ナリ	-11612
ネッ	-11613
ミル	-11614
一般	-11615
万能	-11616
上辺	-11617
中で	-11618
中心	-11619
今期	-11620
個数	-11621
充電	-11622
周り	-11623
完了	-11624
巻き	-11625
幾何	-11626
広が	-11627
底の	-11628
当社	-11629
後は	-11630
揃い	-11631
日間	-11632
曲げ	-11633
最終	-11634
柄と	-11635
梨花	-11636
概要	-11637
液晶	-11638
測定	-11639
特典	-11640
特筆	-11641
略で	-11642
発色	-11643
白い	-11644
着る	-11645
神経	-11646
素朴	-11647
興味	-11648
蒸着	-11649
補償	-11650
見舞	-11651
解決	-11652
試し	-11653
速達	-11654
進め	-11655
進化	-11656
飽き	-11657
-20	-11658
-25	-11659
050	-11660
060	-11661
105	-11662
109	-11663
10】	-11664
13×	-11665
143	-11666
2-7	-11667
20)	-11668
220	-11669
235	-11670
315	-11671
370	-11672
410	-11673
424	-11674
550	-11675
80%	-11676
926	-11677
>75	-11678
AIN	-11679
ANA	-11680
ARS	-11681
CAN	-11682
Cap	-11683
EUR	-11684
ODY	-11685
SET	-11686
USA	-11687
WIN	-11688
act	-11689
aka	-11690
ero	-11691
ilt	-11692
lor	-11693
ott	-11694
rom	-11695
sen	-11696
sof	-11697
ury	-11698
▁&#	-11699
▁3.	-11700
▁Fr	-11701
▁PG	-11702
▁am	-11703
▁do	-11704
▁エピ	-11705
▁クマ	-11706
▁ジャ	-11707
▁バス	-11708
▁バル	-11709
▁パイ	-11710
▁パー	-11711
▁ボル	-11712
▁ワイ	-11713
▁入学	-11714
▁北欧	-11715
▁区分	-11716
▁基準	-11717
▁外部	-11718
▁師匠	-11719
▁文字	-11720
▁濱野	-11721
▁特に	-11722
▁特価	-11723
▁破損	-11724
▁葬式	-11725
▁規格	-11726
▁軽く	-11727
【05	-11728
あると	-11729
おまけ	-11730
お歳暮	-11731
からお	-11732
が好き	-11733
くしゅ	-11734
ご相談	-11735
さんが	-11736
っちゃ	-11737
で補修	-11738
とケア	-11739
の世界	-11740
の刻印	-11741
の変更	-11742
は除く	-11743
まるで	-11744
や他の	-11745
らずに	-11746
われる	-11747
をもら	-11748
を収納	-11749
アンド	-11750
イチゴ	-11751
ウエア	-11752
ウサギ	-11753
エリー	-11754
オンス	-11755
カッツ	-11756
ギャラ	-11757
グロー	-11758
ジェン	-11759
スパイ	-11760
チロン	-11761
テーマ	-11762
ナイト	-11763
バブラ	-11764
ピッグ	-11765
フワリ	-11766
プード	-11767
ベスト	-11768
ベンジ	-11769
マチで	-11770
ムイー	-11771
ラタン	-11772
ロゴと	-11773
ロット	-11774
一カ所	-11775
不織布	-11776
今まで	-11777
以下の	-11778
以外の	-11779
似合う	-11780
価格別	-11781
保冷剤	-11782
個性を	-11783
円追加	-11784
前面に	-11785
厚めの	-11786
土曜日	-11787
夢み屋	-11788
大好き	-11789
天然の	-11790
宛て布	-11791
小物類	-11792
展開が	-11793
希望は	-11794
微妙に	-11795
方への	-11796
時にも	-11797
本来の	-11798
柄や色	-11799
正面の	-11800
現品と	-11801
現地で	-11802
理由は	-11803
生地と	-11804
移りや	-11805
継ぎ目	-11806
肩かけ	-11807
若干よ	-11808
袋から	-11809
見られ	-11810
規格外	-11811
質感は	-11812
配色で	-11813
雑誌や	-11814
魅力的	-11815
黒地に	-11816
(001	-11817
-024	-11818
.103	-11819
1308	-11820
22.0	-11821
2300	-11822
28.5	-11823
37.5	-11824
Cute	-11825
IGHT	-11826
LIME	-11827
OTAL	-11828
VOCO	-11829
earl	-11830
mini	-11831
over	-11832
▁DEL	-11833
▁IND	-11834
▁MAR	-11835
▁des	-11836
▁こんな	-11837
▁ご入学	-11838
▁ご出産	-11839
▁ご就職	-11840
▁ご用意	-11841
▁ご結婚	-11842
▁みんな	-11843
▁もち手	-11844
▁ウォー	-11845
▁ジェイ	-11846
▁スター	-11847
▁ドラム	-11848
▁プリー	-11849
▁プレイ	-11850
▁メッキ	-11851
▁ライム	-11852
▁ロイヤ	-11853
▁ロング	-11854
▁専門店	-11855
▁底マチ	-11856
▁待望の	-11857
▁材牛革	-11858
▁柔らか	-11859
▁正規品	-11860
▁自転車	-11861
▁訳あり	-11862
▁雰囲気	-11863
】【05	-11864
〜110	-11865
あふれる	-11866
あまり手	-11867
あわせて	-11868
いつでも	-11869
おきたい	-11870
お一人様	-11871
お問合せ	-11872
かせない	-11873
が魅力の	-11874
されても	-11875
するため	-11876
そこまで	-11877
たくない	-11878
でしたが	-11879
ですよね	-11880
などでも	-11881
にて掲載	-11882
に応じて	-11883
のお土産	-11884
の使用を	-11885
の可愛い	-11886
の商品に	-11887
の為完売	-11888
の良さと	-11889
の色移り	-11890
ひらひら	-11891
への投函	-11892
も大きく	-11893
やさしく	-11894
や交換等	-11895
ゆったり	-11896
を外すと	-11897
を持たせ	-11898
アラクリ	-11899
イチオシ	-11900
ガレット	-11901
コロンと	-11902
ゴヤール	-11903
スカート	-11904
セリーニ	-11905
ティレル	-11906
バッグで	-11907
パレード	-11908
ピアスも	-11909
フレンチ	-11910
プードル	-11911
ベンジン	-11912
ボディに	-11913
マチ付き	-11914
リシティ	-11915
リネンの	-11916
リボンと	-11917
ロウィン	-11918
ロゴ位置	-11919
ントリー	-11920
予告なく	-11921
仕様素材	-11922
修学旅行	-11923
充実した	-11924
入荷時期	-11925
写真は屋	-11926
品質表示	-11927
商品実物	-11928
在庫管理	-11929
小さめの	-11930
帆布生地	-11931
年の設立	-11932
心地よい	-11933
感じです	-11934
持っても	-11935
持つ感触	-11936
書き込み	-11937
本物志向	-11938
海外直営	-11939
涼しげな	-11940
特筆する	-11941
用バッグ	-11942
発売です	-11943
皮革工芸	-11944
直接買付	-11945
神経質な	-11946
等商品は	-11947
納品まで	-11948
良好です	-11949
色合いが	-11950
色合いに	-11951
裁断位置	-11952
誠に勝手	-11953
送料一律	-11954
金具部分	-11955
13.5×	-11956
:24.0	-11957
CHINA	-11958
inate	-11959
table	-11960
▁Navy	-11961
▁with	-11962
▁【70%	-11963
▁によって	-11964
▁シフォン	-11965
▁フレーム	-11966
▁ブロンズ	-11967
▁ボディー	-11968
▁ポップな	-11969
▁基準内の	-11970
▁帆布工房	-11971
▁快気祝い	-11972
▁本革小物	-11973
▁柄の出方	-11974
▁銀行振込	-11975
いただく為	-11976
お客様都合	-11977
お買い物や	-11978
が切られて	-11979
が収納可能	-11980
こちらから	-11981
ご希望は承	-11982
しまいます	-11983
すっきりと	-11984
たたんだ時	-11985
ってきます	-11986
として使用	-11987
なバッグは	-11988
にはジップ	-11989
にも大活躍	-11990
に付け替え	-11991
の商品では	-11992
は調節可能	-11993
やレジャー	-11994
ような内容	-11995
をお知らせ	-11996
を見つけて	-11997
アイテムの	-11998
アルミ蒸着	-11999
カラーです	-12000
キュートで	-12001
キーケース	-12002
コンセプト	-12003
シリーズは	-12004
セット内容	-12005
タイ現地で	-12006
チャコール	-12007
ディテール	-12008
ディントン	-12009
デーション	-12010
ネームタグ	-12011
ハリウッド	-12012
バブラッチ	-12013
プリーツが	-12014
マチがあり	-12015
マチも広く	-12016
ミニサイズ	-12017
ムイーアイ	-12018
メッセージ	-12019
メール便の	-12020
リンク切れ	-12021
レスレット	-12022
ワンサイズ	-12023
ングパッド	-12024
使用に伴う	-12025
保護ケース	-12026
収まります	-12027
取り付けて	-12028
可愛らしく	-12029
可能なので	-12030
品物は全て	-12031
型リュック	-12032
大人の女性	-12033
実寸サイズ	-12034
当店販売の	-12035
心をくすぐ	-12036
摩擦により	-12037
楽天会員様	-12038
準備を進め	-12039
生地の裁ち	-12040
素材カラー	-12041
縫製の乱れ	-12042
解れ部分を	-12043
買い物かご	-12044
Jessie	-12045
\\8400	-12046
▁Rober	-12047
▁SMALL	-12048
▁カラフルな	-12049
▁チェック柄	-12050
▁トレンドを	-12051
▁バーバリー	-12052
▁入荷時より	-12053
あらゆる世代	-12054
ありませんが	-12055
くなりました	-12056
ご利用の際は	-12057
ご注意お届け	-12058
だけではなく	-12059
っているため	-12060
で補修をして	-12061
としてお考え	-12062
などの必需品	-12063
なポーチです	-12064
にしている物	-12065
にて採寸を行	-12066
には必ず連絡	-12067
にピッタリな	-12068
のサイズです	-12069
のプチバッグ	-12070
の商品と画像	-12071
の革は自然な	-12072
も付いていて	-12073
を感じさせる	-12074
アイポケット	-12075
エディターズ	-12076
オススメ面白	-12077
サイズ表記は	-12078
スウェーデン	-12079
ストラップ付	-12080
チェーン付き	-12081
ディショナル	-12082
デザイン性を	-12083
デジカメ撮影	-12084
ナイロン裏地	-12085
ニックナック	-12086
バッグなので	-12087
プチプライス	-12088
ベボヤージュ	-12089
ペンハーゲン	-12090
マグネットで	-12091
ライトピンク	-12092
ランチトート	-12093
リスツイード	-12094
レードマーク	-12095
ロゴ位置など	-12096
予告無く完売	-12097
人気ブランド	-12098
優れものです	-12099
光の加減など	-12100
出来かねます	-12101
収納スペース	-12102
収納力もあり	-12103
実物の色合い	-12104
年の設立以来	-12105
御了承下さい	-12106
持つ風合いと	-12107
柄の出方等の	-12108
正面ポケット	-12109
画像とは多少	-12110
組み合わせた	-12111
結婚式ドレス	-12112
若干よれてい	-12113
表記サイズと	-12114
記載ください	-12115
調節可能です	-12116
送料はお客様	-12117
際に売り違い	-12118
15-17】【	-12119
CLEDRAN	-12120
ITIONAL	-12121
OTALITE	-12122
STEPHEN	-12123
VOCOEUR	-12124
\\3,000	-12125
cayhane	-12126
▁Kitson	-12127
▁anello	-12128
▁cotton	-12129
▁pocket	-12130
▁weight	-12131
▁こちらの商品	-12132
▁ございますが	-12133
▁ハンドル高さ	-12134
▁バレンシアガ	-12135
▁プレイボーイ	-12136
▁モデル着用の	-12137
▁人気ブランド	-12138
▁取り外し可能	-12139
▁商品説明品番	-12140
▁外側ポケット	-12141
▁大きいサイズ	-12142
▁少量のインク	-12143
あまり手を加え	-12144
いものを入れて	-12145
ご希望のお客様	-12146
ご購入ください	-12147
しておりません	-12148
とっても可愛い	-12149
などのお祝いに	-12150
にちょうどいい	-12151
による新品です	-12152
のアクセントに	-12153
のパソコン環境	-12154
をいたしますが	-12155
を生かすように	-12156
イメージに影響	-12157
キャリーカート	-12158
キャンバス地の	-12159
キャンバス素材	-12160
クーラーバッグ	-12161
スレがあります	-12162
ティレルカッツ	-12163
ヌメ革を使った	-12164
バングラデシュ	-12165
ポケットも多く	-12166
マチもたっぷり	-12167
メーカーと共有	-12168
メール便対応可	-12169
モロッカンサン	-12170
ークカンパニー	-12171
個プレゼント中	-12172
内側にポケット	-12173
商品となります	-12174
商品になります	-12175
宛て布やパッチ	-12176
当該商品は海外	-12177
本物の持つ感触	-12178
状態新品未使用	-12179
素材の裁断位置	-12180
素材を使用した	-12181
誠に勝手ながら	-12182
通常販売出来る	-12183
関連キーワード	-12184
▁PLAYBOY	-12185
▁このような内容	-12186
▁これからの季節	-12187
▁アクセサリーも	-12188
▁ギフト対応詳細	-12189
▁クラムクリーム	-12190
▁ケイトスペード	-12191
▁コーディネート	-12192
▁サイズチャート	-12193
▁サマンサタバサ	-12194
▁スクエアポーチ	-12195
▁スクールバッグ	-12196
▁バッグハンガー	-12197
▁マグネット開閉	-12198
▁対応のブラウザ	-12199
お買い上げの際は	-12200
がございましたら	-12201
が施されています	-12202
が見受けられます	-12203
くなっていきます	-12204
しっかりあるので	-12205
しないでください	-12206
での返品や交換等	-12207
にもぴったりです	-12208
にも合わせやすく	-12209
のお手入れとケア	-12210
はお受けする事が	-12211
も付いているので	-12212
る場合もあります	-12213
カラーはモニター	-12214
タンニンでなめし	-12215
ヌメ革部分にヤケ	-12216
メールにてご連絡	-12217
メール便はご利用	-12218
リバティプリント	-12219
収納力も抜群です	-12220
商品を長く使って	-12221
宅急便でのお届け	-12222
強く引っ張ったり	-12223
当該商品は在庫を	-12224
目安としてお考え	-12225
軽くて持ちやすい	-12226
邪魔になりません	-12227
▁マグネット開閉式	-12228
▁商品詳細ブランド	-12229
▁基準内の品物です	-12230
いただく為の革製品	-12231
お客様には必ず連絡	-12232
こちらの商品は民族	-12233
すぎないように加工	-12234
することができます	-12235
する恐れがあります	-12236
で補修をして製品化	-12237
の商品一覧はこちら	-12238
はメール便での発送	-12239
または近日販売予定	-12240
やすくなっています	-12241
や携帯などの必需品	-12242
アウトドアブランド	-12243
ダコタの革は自然な	-12244
チェンジングパッド	-12245
ハンドメイドのため	-12246
ブティック直接買付	-12247
ブラックフォーマル	-12248
メイン収納につなが	-12249
レビューを書かない	-12250
使用感はありません	-12251
取り揃えております	-12252
型ショルダーバッグ	-12253
実際の商品とは多少	-12254
当店実店舗でも販売	-12255
現品と異なる場合が	-12256
申し訳ございません	-12257
移りや縫製のほつれ	-12258
程よい光沢感があり	-12259
等は避けられません	-12260
頂ける方のみご注文	-12261
▁プレゼントギフトに	-12262
▁ミニボストンバッグ	-12263
▁使いやすい理想的な	-12264
に使えるオススメ面白	-12265
の為完売していること	-12266
の際はご容赦願います	-12267
はこちらをご覧下さい	-12268
アウトレットライン等	-12269
ショルダーを付けると	-12270
デジカメ撮影にて掲載	-12271
丸みのあるフォルムが	-12272
全体のイメージに影響	-12273
商品の在庫がない場合	-12274
外ポケットジッパー付	-12275
当店販売の品物は全て	-12276
掲載商品画像について	-12277
準備を進めております	-12278
老若男女あらゆる世代	-12279
若干よれている場合が	-12280
▁ご使用のパソコン環境	-12281
▁当店では柄の出方等の	-12282
かかる場合がございます	-12283
にて採寸を行っている為	-12284
のでご了承くださいませ	-12285
の商品と画像の商品では	-12286
よろしくお願い致します	-12287
リンク切れしていること	-12288
内側ファスナーポケット	-12289
画像とは多少異なります	-12290
素材の裁断位置によって	-12291
▁天然素材の持つ風合いと	-12292
▁敬老の日などのお祝いに	-12293
がアクセントになっている	-12294
が生じることがございます	-12295
と在庫を共有しているため	-12296
などがある場合があります	-12297
にしている物もございます	-12298
コーディネートのポイント	-12299
ロゴ位置などが異なります	-12300
商品実物の実寸となります	-12301
当店ではレスポートサック	-12302
携帯などの散らばりやすい	-12303
解れ部分を宛て布やパッチ	-12304
革の風合いを生かすように	-12305
これらはレスポートサックで	-12306
に愛され続けているブランド	-12307
はお受けする事が出来ません	-12308
海外直営ブティック直接買付	-12309
▁によって実際の商品とは多少	-12310
▁オリーブデオリーブスクール	-12311
▁見える場合もございますので	-12312
ご希望は承っておりませんので	-12313
ご注文いただいた際に売り違い	-12314
などによっても若干異なります	-12315
のお手入れとケア商品のご紹介	-12316
や傷等がある場合が御座います	-12317
を民族物の風合いとしてご理解	-12318
マークバイマークジェイコブス	-12319
結婚式ドレスパーティーバッグ	-12320
▁あらかじめご了承くださいませ	-12321
▁イルビゾンテ商品を長く使って	-12322
▁当店ではデジカメ撮影にて掲載	-12323
が切られている場合がございます	-12324
が違って見える場合がございます	-12325
アイテムもスッキリ収納できます	-12326
当店実店舗でも販売しております	-12327
当該商品は在庫をメーカーと共有	-12328
見え方が異なる場合がございます	-12329
▁このような内容での返品や交換等	-12330
▁少量のインク移りや縫製のほつれ	-12331
あまり手を加えすぎないように加工	-12332
お客様には必ず連絡をいたしますが	-12333
お買い上げの際は予めご了承のほど	-12334
がありますので予めご了承ください	-12335
カラーはモニター環境によって多少	-12336
予告無く完売の際はご容赦願います	-12337
当該商品は海外からの直輸入品です	-12338
現品と異なる場合が御座いますので	-12339
生地の裁断位置により柄の入り方が	-12340
!2	-12341
-5	-12342
-7	-12343
-8	-12344
."	-12345
07	-12346
3(	-12347
5.	-12348
BA	-12349
BN	-12350
CT	-12351
EX	-12352
LM	-12353
ND	-12354
PK	-12355
du	-12356
kt	-12357
me	-12358
oz	-12359
pe	-12360
tc	-12361
yn	-12362
→¥	-12363
→【	-12364
▁@	-12365
▁と	-12366
▁゚	-12367
▁再	-12368
▁煌	-12369
▁竹	-12370
▁艶	-12371
▁高	-12372
♪▼	-12373
。「	-12374
。・	-12375
かぼ	-12376
が増	-12377
ぎり	-12378
ぐに	-12379
こま	-12380
ざま	-12381
で売	-12382
なか	-12383
の花	-12384
ばあ	-12385
ぶら	-12386
まん	-12387
みや	-12388
ゆら	-12389
アソ	-12390
アパ	-12391
カノ	-12392
カバ	-12393
カミ	-12394
クマ	-12395
ゲリ	-12396
ジオ	-12397
ニエ	-12398
フカ	-12399
ホン	-12400
ミー	-12401
リム	-12402
ンダ	-12403
一味	-12404
一品	-12405
上り	-12406
両面	-12407
主張	-12408
予期	-12409
人に	-12410
公式	-12411
協力	-12412
名刺	-12413
周囲	-12414
周年	-12415
地の	-12416
地図	-12417
多彩	-12418
女の	-12419
完璧	-12420
快適	-12421
性用	-12422
探し	-12423
揮発	-12424
日光	-12425
曲線	-12426
月末	-12427
来夢	-12428
格子	-12429
極端	-12430
様で	-12431
機種	-12432
歩き	-12433
母子	-12434
決算	-12435
消し	-12436
熨斗	-12437
獲得	-12438
甘さ	-12439
程に	-12440
種別	-12441
納得	-12442
絶妙	-12443
縦長	-12444
美味	-12445
色欲	-12446
設計	-12447
豹柄	-12448
負え	-12449
起毛	-12450
近所	-12451
間違	-12452
革に	-12453
顧客	-12454
食品	-12455
黒の	-12456
)18	-12457
-12	-12458
-18	-12459
-29	-12460
0.5	-12461
101	-12462
114	-12463
145	-12464
212	-12465
270	-12466
30(	-12467
320	-12468
325	-12469
430	-12470
43×	-12471
44×	-12472
:39	-12473
:48	-12474
;3,	-12475
AGA	-12476
APS	-12477
AXY	-12478
CKS	-12479
Che	-12480
Feb	-12481
GOY	-12482
ITY	-12483
JOY	-12484
KKO	-12485
RCH	-12486
SKI	-12487
TTI	-12488
USB	-12489
VAS	-12490
XRU	-12491
Yes	-12492
ada	-12493
awk	-12494
edi	-12495
emo	-12496
feb	-12497
gar	-12498
ray	-12499
ush	-12500
ust	-12501
ven	-12502
yal	-12503
×2;	-12504
▁2』	-12505
▁69	-12506
▁70	-12507
▁78	-12508
▁Ar	-12509
▁BR	-12510
▁En	-12511
▁II	-12512
▁PE	-12513
▁SB	-12514
▁Sa	-12515
▁Tr	-12516
▁UP	-12517
▁di	-12518
▁fr	-12519
▁いざ	-12520
▁ウェ	-12521
▁オフ	-12522
▁キキ	-12523
▁ドゥ	-12524
▁ハイ	-12525
▁ボヤ	-12526
▁世界	-12527
▁中に	-12528
▁仕事	-12529
▁全長	-12530
▁口元	-12531
▁同系	-12532
▁完全	-12533
▁手紐	-12534
▁書類	-12535
▁欠品	-12536
▁生産	-12537
▁画像	-12538
▁総柄	-12539
▁縦幅	-12540
▁製品	-12541
【10	-12542
〜19	-12543
おかげ	-12544
お洗濯	-12545
お稽古	-12546
ぐちゃ	-12547
ければ	-12548
これは	-12549
ざまな	-12550
しっぽ	-12551
だけの	-12552
ちりば	-12553
で撮影	-12554
にもな	-12555
のよい	-12556
の一括	-12557
の中の	-12558
の中央	-12559
の同梱	-12560
の対象	-12561
の様子	-12562
の洗い	-12563
の略で	-12564
の色や	-12565
の象徴	-12566
は定期	-12567
は翌日	-12568
ぶりの	-12569
まかせ	-12570
もしろ	-12571
ものの	-12572
も簡単	-12573
を連想	-12574
アネロ	-12575
イルド	-12576
イング	-12577
エコロ	-12578
エブリ	-12579
キニー	-12580
グラン	-12581
ゲージ	-12582
ザル麻	-12583
シリコ	-12584
シーク	-12585
ストー	-12586
タバコ	-12587
ッテル	-12588
ナッツ	-12589
バイス	-12590
バナナ	-12591
ビルト	-12592
プトン	-12593
ペン跡	-12594
リッサ	-12595
ルシー	-12596
ルディ	-12597
ルメゲ	-12598
レアな	-12599
ンバン	-12600
予定分	-12601
仕様が	-12602
付けて	-12603
内側も	-12604
内装は	-12605
再製作	-12606
匂いが	-12607
化粧箱	-12608
取り出	-12609
受け継	-12610
口が広	-12611
同時に	-12612
容量が	-12613
小花柄	-12614
差し支	-12615
性用材	-12616
手さげ	-12617
手洗い	-12618
手頃な	-12619
日常に	-12620
普通の	-12621
最新作	-12622
極度の	-12623
段階で	-12624
点まで	-12625
点以上	-12626
爽やか	-12627
用途は	-12628
程良い	-12629
縫製が	-12630
自由が	-12631
質感が	-12632
購入分	-12633
重宝し	-12634
金額の	-12635
陰干し	-12636
香りが	-12637
(027	-12638
,200	-12639
,40%	-12640
,50%	-12641
,60%	-12642
.001	-12643
092-	-12644
1973	-12645
249)	-12646
31.5	-12647
5110	-12648
9975	-12649
:120	-12650
?】→【	-12651
AMIN	-12652
ANCE	-12653
BREE	-12654
COCO	-12655
KIKI	-12656
RICH	-12657
ROWN	-12658
URLA	-12659
VICE	-12660
amer	-12661
anan	-12662
andy	-12663
aper	-12664
aria	-12665
coal	-12666
como	-12667
ment	-12668
quot	-12669
spar	-12670
tran	-12671
uilt	-12672
unch	-12673
urse	-12674
weet	-12675
with	-12676
yage	-12677
▁200	-12678
▁CLE	-12679
▁Com	-12680
▁Equ	-12681
▁Fab	-12682
▁INC	-12683
▁MAT	-12684
▁Mes	-12685
▁Mil	-12686
▁OFF	-12687
▁Ron	-12688
▁THE	-12689
▁おばあ	-12690
▁などが	-12691
▁ひとつ	-12692
▁ウール	-12693
▁トリー	-12694
▁ドクロ	-12695
▁パッチ	-12696
▁ビーチ	-12697
▁全色欲	-12698
▁多少の	-12699
▁小さな	-12700
▁当店の	-12701
▁持って	-12702
▁未使用	-12703
▁海外製	-12704
▁若干の	-12705
▁開け口	-12706
おひとつ	-12707
お役立ち	-12708
かぼちゃ	-12709
からです	-12710
があれば	-12711
がコラボ	-12712
が大きく	-12713
きらきら	-12714
してもら	-12715
じゃない	-12716
ってます	-12717
てしまう	-12718
についた	-12719
の付いた	-12720
やプール	-12721
や色むら	-12722
を与えて	-12723
アソート	-12724
アナスイ	-12725
アパレル	-12726
カラバリ	-12727
カルダン	-12728
キラリと	-12729
クロファ	-12730
ケアベア	-12731
ゴシック	-12732
サイズや	-12733
サンプル	-12734
シンナー	-12735
ジェシカ	-12736
ジェンヌ	-12737
セレブや	-12738
ソーラー	-12739
タリアン	-12740
ッフィー	-12741
ティフル	-12742
トスカー	-12743
ニュート	-12744
ネオプレ	-12745
バラバラ	-12746
プロヴァ	-12747
ベルトは	-12748
ベースに	-12749
ペン差し	-12750
ポーチ付	-12751
メールで	-12752
リッチな	-12753
ローラル	-12754
ヴァイン	-12755
一緒にお	-12756
上品さを	-12757
並行輸入	-12758
予約商品	-12759
二次会や	-12760
伝統的な	-12761
使い易い	-12762
保冷機能	-12763
先の郵便	-12764
合わせた	-12765
大きさは	-12766
大サイズ	-12767
大切な物	-12768
太陽光の	-12769
好評です	-12770
実物と色	-12771
実物に近	-12772
幸いです	-12773
弊社から	-12774
後の発送	-12775
手書きで	-12776
数の減少	-12777
方は購入	-12778
極端に重	-12779
機能性や	-12780
母子手帳	-12781
汚れても	-12782
画像参照	-12783
等の揮発	-12784
素材感は	-12785
結婚式や	-12786
総ビーズ	-12787
翌日発送	-12788
自分への	-12789
製造時の	-12790
複数商品	-12791
詰め過ぎ	-12792
贅沢本革	-12793
金具等の	-12794
(*^^)	-12795
20130	-12796
640〜。	-12797
692-9	-12798
ARMEN	-12799
CAMEL	-12800
ETAIL	-12801
MOUNT	-12802
PMENT	-12803
STONE	-12804
acity	-12805
black	-12806
edium	-12807
endre	-12808
hover	-12809
softb	-12810
▁ANAP	-12811
▁EQUI	-12812
▁Kaku	-12813
▁Spec	-12814
▁good	-12815
▁item	-12816
▁kate	-12817
▁ぎえもん	-12818
▁そのため	-12819
▁それ以降	-12820
▁キューカ	-12821
▁シャロン	-12822
▁スカル柄	-12823
▁ブラウザ	-12824
▁ホーボー	-12825
▁モニター	-12826
▁レジャー	-12827
▁レビュー	-12828
▁上記理由	-12829
▁上質牛革	-12830
▁付属品箱	-12831
▁備考開閉	-12832
▁天然皮革	-12833
▁持つ人の	-12834
▁見た目は	-12835
▁送料込み	-12836
▁関連商品	-12837
▁魅力的な	-12838
、003:	-12839
お洒落なマ	-12840
からのささ	-12841
かわいくて	-12842
がお洒落な	-12843
がそれぞれ	-12844
が決定した	-12845
きんちゃく	-12846
さまざまな	-12847
さをプラス	-12848
したサイズ	-12849
その他表記	-12850
とのコラボ	-12851
との相性も	-12852
など様々な	-12853
にてお送り	-12854
に仕上げた	-12855
に愛される	-12856
のスタッズ	-12857
の在庫処分	-12858
の色合いが	-12859
の風合いを	-12860
は定期的に	-12861
まりません	-12862
をご購入分	-12863
を醸し出す	-12864
エコロジー	-12865
キシントン	-12866
ギフト対応	-12867
ギャザーが	-12868
ギャラリー	-12869
コキズあり	-12870
サブバック	-12871
シュリンク	-12872
チェーンで	-12873
ハンドルに	-12874
バニティー	-12875
ブラウンの	-12876
プレイヤー	-12877
ベルト通し	-12878
マイビュー	-12879
マトラッセ	-12880
ルーヴィー	-12881
一緒に入れ	-12882
人気急上昇	-12883
付属品なし	-12884
作る工程で	-12885
収納できて	-12886
取り外して	-12887
商品ごとに	-12888
塩化ビニル	-12889
小さすぎず	-12890
悪しからず	-12891
斜めがけも	-12892
極度の負荷	-12893
欠かせない	-12894
生産国中国	-12895
発送方法は	-12896
素材カバー	-12897
素材タイプ	-12898
職人手作り	-12899
肩から掛け	-12900
衝撃がかか	-12901
誤った使用	-12902
部分の長さ	-12903
60〜120	-12904
GALAXY	-12905
GOYARD	-12906
senger	-12907
▁(092-	-12908
▁Hello	-12909
▁Japan	-12910
▁Kitty	-12911
▁Natur	-12912
▁basic	-12913
▁bello	-12914
▁cream	-12915
▁style	-12916
▁お取り寄せ	-12917
▁などが半額	-12918
▁サンセット	-12919
▁デイバッグ	-12920
▁ハンドルは	-12921
▁バイカラー	-12922
▁ベーシック	-12923
▁可愛らしい	-12924
▁大きすぎず	-12925
▁超大ヒット	-12926
が人気の秘密	-12927
ご注文一カ所	-12928
しやすいです	-12929
すっきり収納	-12930
たくさんあり	-12931
たっぷり収納	-12932
でありながら	-12933
での販売も行	-12934
でキュートな	-12935
と一緒に同梱	-12936
にも持って行	-12937
にピッタリの	-12938
に合わせると	-12939
のお品物です	-12940
の色とは多少	-12941
へのお届けに	-12942
やデートなど	-12943
を連想させる	-12944
アクセントに	-12945
エコフレンド	-12946
オープン開閉	-12947
キーチェーン	-12948
グラフィティ	-12949
コスメケース	-12950
サイズも入る	-12951
シリコンジャ	-12952
シルエットが	-12953
スタイルには	-12954
ストロベリー	-12955
ノーブランド	-12956
ハードケース	-12957
パリジェンヌ	-12958
プラダ商品名	-12959
プレゼントや	-12960
プロヴァンス	-12961
ミッキーマウ	-12962
ミングにより	-12963
メイン収納の	-12964
メジャーでの	-12965
メール便無料	-12966
モデル着用色	-12967
ライムライン	-12968
ヴィスコース	-12969
付属品保存袋	-12970
個性を十分に	-12971
先の郵便受け	-12972
入力ください	-12973
再製作の予定	-12974
商品到着後に	-12975
土日祝含まず	-12976
性用材は使用	-12977
手作業が多い	-12978
素材ですので	-12979
背面ポケット	-12980
試しください	-12981
配送について	-12982
&#9829;	-12983
BVLGARI	-12984
ontaria	-12985
sparent	-12986
▁MATANO	-12987
▁canvas	-12988
▁casual	-12989
▁docomo	-12990
▁iphone	-12991
▁voyage	-12992
▁おばあちゃん	-12993
▁しっかりした	-12994
▁たっぷり入る	-12995
▁クリア袋入り	-12996
▁コンパクトに	-12997
▁ネヴァーフル	-12998
▁メインルーム	-12999
▁在庫が入って	-13000
▁完全送料無料	-13001
▁送料無料激安	-13002
いただけますか	-13003
お一人様につき	-13004
お取り寄せ納期	-13005
かぼちゃパンツ	-13006
が入っています	-13007
が破損する恐れ	-13008
くったりとした	-13009
ご注文数の減少	-13010
でご了承下さい	-13011
にもこだわった	-13012
にフィットする	-13013
はご遠慮下さい	-13014
を差し上げます	-13015
インポート商品	-13016
カジュアルにも	-13017
クーポン対象外	-13018
グレーベージュ	-13019
コンディション	-13020
ショルダー付き	-13021
スマホピアスも	-13022
ハンドメイドの	-13023
ボトルホルダー	-13024
ポーチカテゴリ	-13025
リーバッグです	-13026
万が一入荷予定	-13027
付属品は正しく	-13028
代引手数料無料	-13029
内ポケット付き	-13030
完売致しました	-13031
特徴内ポケット	-13032
用の保護ケース	-13033
発送方法宅配便	-13034
素材キャンバス	-13035
細心の注意を払	-13036
色々なシーンで	-13037
;3,640〜。	-13038
MOUNTAIN	-13039
RevoRevo	-13040
softbank	-13041
▁Company	-13042
▁FAUCHON	-13043
▁SHOPPER	-13044
▁それ以降は翌日	-13045
▁とっても可愛い	-13046
▁キャリーオール	-13047
▁ショルダー付き	-13048
▁デジカメケース	-13049
▁トラベルポーチ	-13050
▁ボディーバック	-13051
▁マザーズバック	-13052
▁他店舗でも販売	-13053
▁商品詳細素材綿	-13054
▁発送方法宅配便	-13055
お使い頂いている	-13056
からのささやかな	-13057
ご覧くださいませ	-13058
させたアイテムは	-13059
され続けています	-13060
たっぷり入るから	-13061
なデザイン展開が	-13062
の環境設定により	-13063
ものもございます	-13064
キティのプリント	-13065
クッション入りで	-13066
コチラもおすすめ	-13067
コメント在庫管理	-13068
シックなブラック	-13069
シンナー等の揮発	-13070
スタイリッシュな	-13071
ファスナー開閉で	-13072
ベーシックな中に	-13073
ポリ塩化ビニール	-13074
メール便対応商品	-13075
レターパック発送	-13076
レビューを書くと	-13077
ングッズタンドル	-13078
ヴィンテージ感を	-13079
他の商品との同梱	-13080
変更は出来ません	-13081
成分オイルクロス	-13082
柄の出方が写真と	-13083
汚れがございます	-13084
箱ご希望の場合は	-13085
軽くて丈夫なので	-13086
692-9249)	-13087
withCHARM	-13088
▁Cosmetic	-13089
▁ショルダー長さ約	-13090
▁ト音記号クリップ	-13091
▁携帯ケースが激安	-13092
▁携帯電話ポケット	-13093
▁破損しやすいので	-13094
お待ちしております	-13095
かわいいデザインで	-13096
の一括ご注文一カ所	-13097
はこちらからどうぞ	-13098
への投函となります	-13099
やミニコスメポーチ	-13100
シリコンジャケット	-13101
マイビューティフル	-13102
一緒に入れることが	-13103
人気のスマホケース	-13104
作りになっています	-13105
可能性がございます	-13106
撮影しておりますが	-13107
発送に関しましては	-13108
簡易包装にてお送り	-13109
Fattention	-13110
▁EQUIPMENT	-13111
▁お届け先の郵便受け	-13112
▁アクセサリーも激安	-13113
▁ショルダーベルト付	-13114
▁到着日時のご指定が	-13115
▁送料無料でのお届け	-13116
かわいいキーホルダー	-13117
ちょうどいい大きさで	-13118
でのお届けとなります	-13119
としてもオススメです	-13120
はご了承くださいませ	-13121
をご用意できない場合	-13122
をオススメいたします	-13123
オーガニックコットン	-13124
サイズにつきましても	-13125
セミショルダーバッグ	-13126
プレゼントをご購入分	-13127
ポケットがついていて	-13128
ミニショルダーバッグ	-13129
上記の理由による返品	-13130
人気のスマートフォン	-13131
可能でございますので	-13132
形がとってもキュート	-13133
異なることがあります	-13134
transparent	-13135
▁などが半額はもちろん	-13136
▁ビニールコーティング	-13137
▁ファスナー付ポケット	-13138
▁メイン収納のフラップ	-13139
▁上品でスタイリッシュ	-13140
▁全色欲しくなりますね	-13141
▁持つ人の個性を十分に	-13142
いものを入れての使用を	-13143
はご利用いただけません	-13144
スマホピアスもお買い得	-13145
ハンドメイド商品のため	-13146
ブランド名プラダ商品名	-13147
メール便では代引き及び	-13148
メール便発送出来ません	-13149
作る工程で手作業が多い	-13150
宅急便でのお届けとなり	-13151
実際の商品の色とは多少	-13152
方は購入をお控え下さい	-13153
活躍すること間違いなし	-13154
組み合わせラッピングも	-13155
通学など幅広いシーンで	-13156
金具等の付属品は正しく	-13157
▁おしゃれなパリジェンヌ	-13158
▁異なる場合がございます	-13159
▁財布や携帯などの必需品	-13160
がある場合もございますが	-13161
はメール便での発送となり	-13162
トゥシェからのささやかな	-13163
代引きは別途追加料金備考	-13164
内側にファスナーポケット	-13165
悪しからずご了承ください	-13166
持ち手を強く引っ張ったり	-13167
目安としてお考えください	-13168
表記サイズと実際のサイズ	-13169
離島は別途送料が必要です	-13170
▁お問い合わせくださいませ	-13171
▁その場合はご注文数の減少	-13172
▁他店舗でも販売している為	-13173
▁全体的に高級感があるので	-13174
▁在庫が入っていない場合は	-13175
▁納期等お問い合わせ下さい	-13176
が破損する恐れがございます	-13177
としてもお使いいただけます	-13178
と一緒に同梱させて頂きます	-13179
などはフェイクレザーを使用	-13180
は定期的に行っておりますが	-13181
エコフレンドリーバッグです	-13182
コンパクトになるのでビーチ	-13183
ファッショングッズタンドル	-13184
レビューキャンペーン実施中	-13185
万が一入荷予定がない場合は	-13186
▁シンプルでベーシックな中に	-13187
▁使いやすい理想的な大きさと	-13188
キティのプリントトートバッグ	-13189
シンナー等の揮発性用材は使用	-13190
パーティードレスに合わせると	-13191
フォーマルバッグ一覧はこちら	-13192
下さいますようお願い致します	-13193
他のショッピングモールの店舗	-13194
日程度かかる場合もございます	-13195
▁(092-692-9249)	-13196
▁それ以降は翌日ご発送致します	-13197
▁欠品が発生する場合があります	-13198
の一括ご注文一カ所へのお届けに	-13199
ましては宅急便でのお届けとなり	-13200
ディアスが愛用してるバッグです	-13201
レビューをお書きいただけますか	-13202
使用感少なくきれいなお品物です	-13203
極端に重いものを入れての使用を	-13204
▁お急ぎの方は納品日をご確認の上	-13205
▁ショルダーの位置は持ちやすい方	-13206
▁代金引換納期の目安ご入金確認後	-13207
お取り寄せとなる場合がございます	-13208
ワンピースにおすすめのプチバッグ	-13209
上記の理由による返品交換はお断り	-13210
簡易包装にてお送りをしております	-13211
)*	-13212
*2	-13213
++	-13214
,#	-13215
,9	-13216
1{	-13217
3】	-13218
4】	-13219
DC	-13220
FS	-13221
KD	-13222
LL	-13223
MR	-13224
MU	-13225
Ma	-13226
St	-13227
pt	-13228
~~	-13229
▁_	-13230
▁ら	-13231
▁セ	-13232
▁ー	-13233
▁上	-13234
▁期	-13235
▁神	-13236
▁面	-13237
▁麻	-13238
■*	-13239
★<	-13240
♪(	-13241
♪)	-13242
。1	-13243
。『	-13244
》[	-13245
】「	-13246
いで	-13247
い者	-13248
がつ	-13249
けど	-13250
ごろ	-13251
さず	-13252
さで	-13253
せず	-13254
っし	-13255
つつ	-13256
つで	-13257
どれ	-13258
のト	-13259
の新	-13260
は常	-13261
びら	-13262
みみ	-13263
や雨	-13264
ゅう	-13265
を含	-13266
んこ	-13267
イア	-13268
ウメ	-13269
カギ	-13270
ガネ	-13271
クチ	-13272
グレ	-13273
コフ	-13274
ズレ	-13275
テレ	-13276
ノン	-13277
バカ	-13278
ーニ	-13279
ーヌ	-13280
上蓋	-13281
中が	-13282
中敷	-13283
事も	-13284
以前	-13285
倒れ	-13286
又は	-13287
収書	-13288
口元	-13289
只今	-13290
増す	-13291
大な	-13292
安い	-13293
店主	-13294
店内	-13295
形に	-13296
役立	-13297
思い	-13298
急な	-13299
手で	-13300
指輪	-13301
振込	-13302
描き	-13303
最も	-13304
本格	-13305
梱包	-13306
水色	-13307
無漂	-13308
物と	-13309
犬の	-13310
白く	-13311
皆様	-13312
真鍮	-13313
競争	-13314
緩衝	-13315
自立	-13316
色に	-13317
補強	-13318
製で	-13319
角ゴ	-13320
買取	-13321
買得	-13322
質問	-13323
身を	-13324
転写	-13325
込め	-13326
返金	-13327
追求	-13328
配慮	-13329
(00	-13330
(19	-13331
)25	-13332
*13	-13333
-01	-13334
-23	-13335
12】	-13336
13(	-13337
158	-13338
168	-13339
1■【	-13340
3",	-13341
46%	-13342
475	-13343
540	-13344
615	-13345
7■【	-13346
910	-13347
990	-13348
:44	-13349
:49	-13350
ELL	-13351
ERY	-13352
Etc	-13353
HAR	-13354
LWB	-13355
Les	-13356
MAR	-13357
MOD	-13358
NCI	-13359
OBO	-13360
ONU	-13361
OOD	-13362
Our	-13363
SSY	-13364
SUI	-13365
bie	-13366
iel	-13367
iot	-13368
ish	-13369
mas	-13370
ous	-13371
raw	-13372
sia	-13373
ula	-13374
uoc	-13375
×34	-13376
×6、	-13377
▁2,	-13378
▁90	-13379
▁AD	-13380
▁LM	-13381
▁NY	-13382
▁Os	-13383
▁Sl	-13384
▁TE	-13385
▁To	-13386
▁VI	-13387
▁li	-13388
▁【3	-13389
▁ぜひ	-13390
▁スパ	-13391
▁プリ	-13392
▁下記	-13393
▁付き	-13394
▁共有	-13395
▁写真	-13396
▁動物	-13397
▁合成	-13398
▁名前	-13399
▁新着	-13400
▁横長	-13401
▁次回	-13402
▁液晶	-13403
▁片面	-13404
▁目玉	-13405
▁筒型	-13406
▁羊革	-13407
▁背中	-13408
▁馬革	-13409
」。2	-13410
〜48	-13411
お化粧	-13412
がいい	-13413
が取れ	-13414
が簡単	-13415
し送料	-13416
するの	-13417
その旨	-13418
づくり	-13419
で愛用	-13420
で検索	-13421
で見た	-13422
で話題	-13423
にちは	-13424
にとも	-13425
に収納	-13426
に掛け	-13427
に記載	-13428
のお花	-13429
のライ	-13430
の裏側	-13431
の選択	-13432
の高い	-13433
は日本	-13434
は無料	-13435
は自由	-13436
ばっぐ	-13437
も素敵	-13438
を作り	-13439
イズム	-13440
エンド	-13441
オーラ	-13442
クター	-13443
ゴウメ	-13444
サイフ	-13445
スウィ	-13446
タテ約	-13447
ッティ	-13448
テディ	-13449
デュー	-13450
バシテ	-13451
フィス	-13452
プター	-13453
ペール	-13454
ボアの	-13455
ポッケ	-13456
マグチ	-13457
ミルク	-13458
ミント	-13459
メート	-13460
ラッチ	-13461
ランダ	-13462
リック	-13463
リース	-13464
レイヤ	-13465
レター	-13466
レンツ	-13467
ロビタ	-13468
ロープ	-13469
ーティ	-13470
ーミン	-13471
今だけ	-13472
他にも	-13473
位獲得	-13474
使用時	-13475
価格等	-13476
処分品	-13477
分かる	-13478
別売り	-13479
加工が	-13480
印象が	-13481
印象的	-13482
口折れ	-13483
合計が	-13484
名付け	-13485
商品と	-13486
増えた	-13487
多様に	-13488
専用の	-13489
小物や	-13490
巾着型	-13491
巾着袋	-13492
微細な	-13493
心掛け	-13494
採寸表	-13495
揃いの	-13496
新入荷	-13497
方には	-13498
普段の	-13499
最大幅	-13500
未入荷	-13501
機能が	-13502
注文が	-13503
物です	-13504
物入れ	-13505
珍しい	-13506
生成り	-13507
的には	-13508
種類の	-13509
立上り	-13510
緩衝材	-13511
考えた	-13512
肩にも	-13513
色から	-13514
花模様	-13515
薄くて	-13516
蛍光灯	-13517
販売中	-13518
購入者	-13519
道具を	-13520
開いた	-13521
限りの	-13522
限定の	-13523
領収書	-13524
!!!!	-13525
(022	-13526
(240	-13527
-120	-13528
-2-0	-13529
-226	-13530
0323	-13531
1009	-13532
115×	-13533
1309	-13534
23.0	-13535
4880	-13536
9.5×	-13537
9999	-13538
:200	-13539
:350	-13540
:550	-13541
:8.5	-13542
ANTI	-13543
CIVA	-13544
ELEN	-13545
ENCH	-13546
FREE	-13547
Fold	-13548
LOAD	-13549
Lush	-13550
Moun	-13551
NERO	-13552
PETS	-13553
WEAR	-13554
duct	-13555
erut	-13556
etti	-13557
iday	-13558
iful	-13559
ikko	-13560
keyw	-13561
rist	-13562
tain	-13563
▁110	-13564
▁160	-13565
▁Col	-13566
▁Key	-13567
▁Lau	-13568
▁MEI	-13569
▁Mon	-13570
▁Ser	-13571
▁VEN	-13572
▁inc	-13573
▁off	-13574
▁■■■	-13575
▁◇2.	-13576
▁◇3.	-13577
▁◇4.	-13578
▁◇5.	-13579
▁お子様	-13580
▁お支払	-13581
▁どうぞ	-13582
▁スタイ	-13583
▁タイプ	-13584
▁タイヤ	-13585
▁チョコ	-13586
▁トップ	-13587
▁ナカノ	-13588
▁ネック	-13589
▁ベビー	-13590
▁ベルタ	-13591
▁ボタン	-13592
▁上部は	-13593
▁内側の	-13594
▁口開き	-13595
▁素材に	-13596
▁素材も	-13597
▁製造国	-13598
▁豊富な	-13599
▁金具は	-13600
お客様が	-13601
かわいさ	-13602
しなやか	-13603
ちゃおう	-13604
ちゃんと	-13605
でご案内	-13606
で人気の	-13607
で簡単に	-13608
と大活躍	-13609
と幅広く	-13610
などなど	-13611
な印象の	-13612
にお時間	-13613
にもなり	-13614
のお値段	-13615
のお名前	-13616
のご使用	-13617
のコバラ	-13618
のコラボ	-13619
の型押し	-13620
の場合も	-13621
べく近い	-13622
また商品	-13623
みたいな	-13624
みません	-13625
も出来る	-13626
るだけで	-13627
をお求め	-13628
をご紹介	-13629
を使って	-13630
んにちは	-13631
アルミニ	-13632
インター	-13633
エプロン	-13634
エンブレ	-13635
エンボス	-13636
オマケ付	-13637
オリーブ	-13638
カミンス	-13639
クラフト	-13640
シューズ	-13641
シーンに	-13642
ジーンズ	-13643
スリムな	-13644
ゼブラ柄	-13645
テンダー	-13646
トロリー	-13647
トータル	-13648
トート型	-13649
ハート型	-13650
ビーズが	-13651
ファント	-13652
プレミア	-13653
ヘアゴム	-13654
マザーズ	-13655
ミィーチ	-13656
ミンコフ	-13657
メートル	-13658
モチロン	-13659
モッテル	-13660
ヨーロピ	-13661
ラインの	-13662
リとした	-13663
リングが	-13664
レックス	-13665
レトロな	-13666
ンチーニ	-13667
予期無く	-13668
仕様です	-13669
付属品等	-13670
以外にも	-13671
作りです	-13672
使いやす	-13673
使い方が	-13674
価格競争	-13675
入れにも	-13676
全て無料	-13677
内部には	-13678
写真との	-13679
写真の色	-13680
出すため	-13681
分かれて	-13682
味のある	-13683
味わいが	-13684
型バッグ	-13685
少しあり	-13686
引っ掛け	-13687
心地よさ	-13688
拭き取り	-13689
旅行など	-13690
旅行時の	-13691
日間受付	-13692
早変わり	-13693
期不良は	-13694
樹脂加工	-13695
活躍する	-13696
生まれる	-13697
編みこみ	-13698
華やかに	-13699
触り心地	-13700
誕生した	-13701
雰囲気が	-13702
革製品の	-13703
-0000	-13704
0323_	-13705
32.5×	-13706
4,880	-13707
42230	-13708
:10.5	-13709
:12.0	-13710
CHEAL	-13711
RUTTI	-13712
super	-13713
ucket	-13714
▁Coin	-13715
▁Cost	-13716
▁Lace	-13717
▁NAVY	-13718
▁nico	-13719
▁sans	-13720
▁shop	-13721
▁あります	-13722
▁お待たせ	-13723
▁ふんわり	-13724
▁クリップ	-13725
▁シックな	-13726
▁スプレー	-13727
▁ソーホー	-13728
▁ダッフル	-13729
▁チャイナ	-13730
▁バックは	-13731
▁パステル	-13732
▁ポッキリ	-13733
▁ラビット	-13734
▁ロータス	-13735
▁中綿入り	-13736
▁使い勝手	-13737
▁使い込む	-13738
▁使わない	-13739
▁備考欄に	-13740
▁入手困難	-13741
▁大容量で	-13742
▁折りたた	-13743
▁詳細説明	-13744
▁送料全国	-13745
▁雑誌掲載	-13746
がいっぱい	-13747
この製品は	-13748
ご注文後の	-13749
ご祝儀袋は	-13750
ご紹介です	-13751
っぱなしの	-13752
つあります	-13753
つあるので	-13754
での使用も	-13755
で見た色と	-13756
と合わせて	-13757
と言う時に	-13758
と開くので	-13759
にとっても	-13760
にともない	-13761
になられる	-13762
に大人気の	-13763
のサイズは	-13764
のジップは	-13765
は商品代金	-13766
やパソコン	-13767
や学生さん	-13768
ように加工	-13769
をもらおう	-13770
イタリアン	-13771
オシャレに	-13772
クローバー	-13773
ココマーク	-13774
ゴウメット	-13775
シグネチャ	-13776
ショナブル	-13777
シワやヨレ	-13778
ジュアリー	-13779
ソローニュ	-13780
チェルシー	-13781
ナナメ掛け	-13782
ニューアル	-13783
ネイティブ	-13784
ハンドルは	-13785
バッグから	-13786
バッグにも	-13787
パドロック	-13788
ヒッコリー	-13789
ビーズ刺繍	-13790
ブローニュ	-13791
ベルギー製	-13792
ボストン型	-13793
マスコット	-13794
リーバッグ	-13795
ルディック	-13796
ワンタッチ	-13797
上記の実寸	-13798
人気を誇る	-13799
仕切りあり	-13800
入れやすい	-13801
商品の注意	-13802
大人気です	-13803
女性らしく	-13804
宅配便希望	-13805
密着させて	-13806
影響により	-13807
感たっぷり	-13808
持ち手付き	-13809
斜め掛けが	-13810
時間指定が	-13811
本体部分も	-13812
活躍します	-13813
深みのある	-13814
火気に近づ	-13815
生地に汚れ	-13816
男女兼用で	-13817
良いですね	-13818
色ブラック	-13819
長さ調節が	-13820
間違いナシ	-13821
ALENCI	-13822
Cotton	-13823
Dakota	-13824
IMPETS	-13825
Kitson	-13826
OTTEGA	-13827
PURPLE	-13828
Proper	-13829
Shinzi	-13830
ipment	-13831
▁BEIGE	-13832
▁BROWN	-13833
▁Candy	-13834
▁INDIA	-13835
▁KAMIN	-13836
▁Osaka	-13837
▁Price	-13838
▁SBWBK	-13839
▁front	-13840
▁kyuca	-13841
▁price	-13842
▁ご注文時の	-13843
▁アニマル柄	-13844
▁インテリア	-13845
▁オプアート	-13846
▁サイズ選択	-13847
▁ノクシカタ	-13848
▁パドロック	-13849
▁フェラガモ	-13850
▁メガジップ	-13851
▁リラックマ	-13852
▁初期不良は	-13853
▁前ポケット	-13854
▁定番人気の	-13855
▁斜めがけ可	-13856
▁本体サイズ	-13857
▁楽譜や書類	-13858
▁発送方法に	-13859
▁通勤バッグ	-13860
いただければ	-13861
お急ぎの方は	-13862
お選び下さい	-13863
がポイントの	-13864
ご連絡下さい	-13865
だけじゃなく	-13866
としてお使い	-13867
なデザインは	-13868
にした状態で	-13869
についている	-13870
になってます	-13871
ので便利です	-13872
のもうれしい	-13873
のコバラです	-13874
のファスナー	-13875
のプリントは	-13876
のレディース	-13877
ひとつひとつ	-13878
ものですので	-13879
をお書き添え	-13880
を入れるなど	-13881
アトレードの	-13882
アルミニウム	-13883
オーガンジー	-13884
カミンスキー	-13885
カメラケース	-13886
カラーバリエ	-13887
カーフレザー	-13888
キラリと光る	-13889
サイズサイズ	-13890
シザーケース	-13891
シリーズから	-13892
ジッパー付き	-13893
スポーツジム	-13894
スレキズあり	-13895
タイプなので	-13896
ダークグレー	-13897
バツグンです	-13898
ヒラギノ角ゴ	-13899
ピッグレザー	-13900
ミニポーチ付	-13901
モスグリーン	-13902
ヨーロピアン	-13903
レザートート	-13904
レビュー投稿	-13905
使用可能です	-13906
価格別で検索	-13907
価格競争の為	-13908
便利アイテム	-13909
備考チェーン	-13910
写真は屋内外	-13911
加算されます	-13912
商品の色具合	-13913
商品説明新品	-13914
存在感のある	-13915
実際のものと	-13916
年齢を問わず	-13917
当店管理番号	-13918
形や大きさが	-13919
手提げバック	-13920
手触りの良い	-13921
折りたたんだ	-13922
時間指定があ	-13923
普段持ち歩く	-13924
本物ですので	-13925
画像は蛍光灯	-13926
画面等の環境	-13927
発送は宅配便	-13928
見た目よりも	-13929
金具にキズや	-13930
金額の合計が	-13931
音楽好きには	-13932
>【5,250	-13933
Details	-13934
JOYRICH	-13935
Product	-13936
bodybag	-13937
erutuoc	-13938
iotiful	-13939
keyword	-13940
▁542230	-13941
▁DETAIL	-13942
▁Friday	-13943
▁Meiryo	-13944
▁PURPLE	-13945
▁VENETA	-13946
▁[18:00	-13947
▁[20:00	-13948
▁エレガントな	-13949
▁チェーン長さ	-13950
▁メール便でも	-13951
▁同シリーズの	-13952
▁国内のコーチ	-13953
▁国内参考上代	-13954
▁素材合成皮革	-13955
▁馬革を使った	-13956
いたしかねます	-13957
ご連絡ください	-13958
したご祝儀袋は	-13959
している場合は	-13960
としてお楽しみ	-13961
としても大活躍	-13962
としてオススメ	-13963
となりますため	-13964
にこちらで修正	-13965
について詳しく	-13966
になるべく近い	-13967
により柄の配置	-13968
のお客様は送料	-13969
のレビューです	-13970
は出来かねます	-13971
は取り外し可能	-13972
は持っていたい	-13973
ほんのわずかな	-13974
ウエストベルト	-13975
エレガントさを	-13976
カードポケット	-13977
スーパーセール	-13978
セミショルダー	-13979
タンニンゴート	-13980
ナイロンキルト	-13981
ネコマンジュウ	-13982
ノクシカタ刺繍	-13983
ビッグサイズの	-13984
ページはこちら	-13985
ミニショルダー	-13986
モデル写真との	-13987
ライトベージュ	-13988
ルーキャリッジ	-13989
予めご了承の上	-13990
予期無く価格等	-13991
事がございます	-13992
加工が施された	-13993
収納ポケットが	-13994
商品は実際の色	-13995
型崩れしにくく	-13996
大活躍すること	-13997
柄が異なります	-13998
発送の場合のみ	-13999
等ございますが	-14000
綺麗な商品です	-14001
自分へのご褒美	-14002
自然な色合いと	-14003
(=^..^=)	-14004
Mountain	-14005
Shipping	-14006
ordinate	-14007
▁LIBERTY	-14008
▁MICHEAL	-14009
▁PGothic	-14010
▁WEATHER	-14011
▁thavasa	-14012
▁いざと言う時に	-14013
▁ウォッシュ加工	-14014
▁オールシーズン	-14015
▁キャリーカート	-14016
▁クレジット決済	-14017
▁グッチのバック	-14018
▁スマートフォン	-14019
▁メッシュレザー	-14020
▁ルーショッパー	-14021
▁仕様メイン開閉	-14022
▁使用したサイズ	-14023
お急ぎの方は通常	-14024
が人気の秘密です	-14025
が入っているので	-14026
ぐっとおしゃれに	-14027
ご希望のお客様へ	-14028
たっぷり入ります	-14029
った場合は通常の	-14030
ですのでお早めに	-14031
とご記載ください	-14032
に近づけるように	-14033
は付いていません	-14034
をはさむだけでも	-14035
を追加いたします	-14036
を選んでください	-14037
インパクトのある	-14038
オマケをもらおう	-14039
キャンバスバッグ	-14040
キレイな状態です	-14041
コスメポーチです	-14042
コーディネートを	-14043
サイズのファイル	-14044
ショルダーポーチ	-14045
タータンチェック	-14046
トラディショナル	-14047
トートバックです	-14048
バックインバック	-14049
ファッショナブル	-14050
メインルーム内部	-14051
メジャーでの測定	-14052
メール便不可です	-14053
モノグラムライン	-14054
リクルートバッグ	-14055
使用感があります	-14056
保管してください	-14057
全てハンドメイド	-14058
外での撮影のため	-14059
多少のシワやヨレ	-14060
実際の商品と色味	-14061
店長のコバラです	-14062
当店にて発送から	-14063
演出してくれます	-14064
特筆するダメージ	-14065
異なって見えます	-14066
送料無料でお届け	-14067
ALENCIAGA	-14068
Condition	-14069
LOADSTONE	-14070
▁KAMINSKI	-14071
▁Material	-14072
▁Samantha	-14073
▁Shopping	-14074
▁インナーポケット	-14075
▁ディーバブラッチ	-14076
▁フェアトレードの	-14077
▁ユニオンジャック	-14078
▁レディースバック	-14079
▁共有しているため	-14080
▁場合がございます	-14081
▁素材ポリエステル	-14082
▁送料全国送料一律	-14083
お客様のモニターの	-14084
お箱ご希望の場合は	-14085
からは背負ったまま	-14086
かわいいポーチです	-14087
たまらないアイテム	-14088
どんなファッション	-14089
のでご注意ください	-14090
は行っておりません	-14091
をお送りいたします	-14092
オープンポケットと	-14093
キャンパスコットン	-14094
キュートなロゴ入り	-14095
ミニボストンバッグ	-14096
モデル写真は屋内外	-14097
モデル画像について	-14098
商品はメール便発送	-14099
太陽光の影響により	-14100
柄の位置が写真とは	-14101
気分やファッション	-14102
背面サイドのジップ	-14103
製造時の生地の裁断	-14104
RCPfashion	-14105
▁Equipment	-14106
▁その場合は備考欄に	-14107
▁キャンディーバッグ	-14108
▁クラッチポシェット	-14109
▁マークジェイコブス	-14110
▁レビューを書かない	-14111
▁代引き発送は宅配便	-14112
▁備考欄に組み合わせ	-14113
▁完売してしまってい	-14114
▁液晶モニターにより	-14115
さらにレビュー記入で	-14116
にこちらで修正し送料	-14117
のペットボトルが入る	-14118
また商品画像は蛍光灯	-14119
ようお願いいたします	-14120
をお書き添え願います	-14121
ショルダーバックです	-14122
デイリーに使いやすい	-14123
パーティーバッグです	-14124
ファスナーポケットの	-14125
採寸表をご確認下さい	-14126
日程度かかりますので	-14127
日間受付しております	-14128
未定となっております	-14129
申し訳ございませんが	-14130
自然な色合いと質感は	-14131
▁お客様のレビューです	-14132
▁オイルヌメ革を使った	-14133
▁撥水ナイロンオックス	-14134
しまう場合がございます	-14135
の環境設定により色合い	-14136
をお選びのお客様は送料	-14137
オススメのアイテムです	-14138
デイリー使いはもちろん	-14139
マンハッタンで生まれた	-14140
メール便は商品到着まで	-14141
モデル写真との見え方が	-14142
レビュー書いて送料無料	-14143
予期無く価格等変更にな	-14144
人気のショルダーバッグ	-14145
代引き手数料となります	-14146
商品ランク商品状態底角	-14147
変わる場合がございます	-14148
採寸はメジャーでの測定	-14149
週間外の発送で全て無料	-14150
▁WEATHERWEAR	-14151
▁ターンロック式ポケット	-14152
▁代引きをご希望のお客様	-14153
▁使いやすいサイズなので	-14154
▁異なる場合もございます	-14155
ぐっとおしゃれに見えます	-14156
ご注文お待ちしております	-14157
っている場合がございます	-14158
になるべく近いように加工	-14159
シンプルなデザインなので	-14160
ダークブラウン仕様カラー	-14161
時間指定が不可となります	-14162
色落ちする場合があります	-14163
▁サイズ選択に関しましては	-14164
モンイルスレディースバッグ	-14165
レビューでメール便送料無料	-14166
上記の実寸をご参照ください	-14167
多少のシワやヨレがあります	-14168
▁初期不良は当店にて発送から	-14169
▁楽譜や書類をはさむだけでも	-14170
あらかじめご了承くださいませ	-14171
お使いのモニタにより色合いに	-14172
さらにレビュー記入でオマケ付	-14173
ですので若干の誤差が生じます	-14174
キュートなロゴ入りカンボン風	-14175
時間指定があった場合は通常の	-14176
環境によって多少商品の色具合	-14177
発送の場合のみご利用頂けます	-14178
製造時の生地の裁断にともない	-14179
▁モニターの発色の具合によって	-14180
▁他のショッピングモールの店舗	-14181
お急ぎの方は通常宅配便での発送	-14182
ことをあらかじめご了承ください	-14183
はメール便のみとさせて頂きます	-14184
モデル写真は屋内外での撮影の為	-14185
モバイルの環境設定により色合い	-14186
再入荷の予定はございませんので	-14187
商品ランク商品状態表面にテカリ	-14188
組み合わせラッピングも承ります	-14189
頂けます様宜しくお願い致します	-14190
で見た色と実際の商品の色とは多少	-14191
また商品画像は蛍光灯での撮影の為	-14192
レビューを書くとメール便送料無料	-14193
商品はメール便発送となりますため	-14194
太陽光の影響により実際のカラーと	-14195
!/	-14196
,2	-14197
6.	-14198
8×	-14199
91	-14200
9×	-14201
;1	-14202
>≪	-14203
>・	-14204
Fl	-14205
In	-14206
MO	-14207
MT	-14208
Th	-14209
UX	-14210
kj	-14211
sb	-14212
sd	-14213
tu	-14214
up	-14215
”(	-14216
”・	-14217
※※	-14218
▁u	-14219
▁y	-14220
▁z	-14221
▁	-14222
▁つ	-14223
▁ザ	-14224
▁徴	-14225
▁貴	-14226
▁身	-14227
◎。	-14228
☆】	-14229
】“	-14230
ぁる	-14231
が約	-14232
ごし	-14233
たな	-14234
だと	-14235
ちく	-14236
で測	-14237
で織	-14238
とし	-14239
とり	-14240
にい	-14241
のだ	-14242
のミ	-14243
の紐	-14244
の角	-14245
ふっ	-14246
ほう	-14247
めな	-14248
ゆみ	-14249
る手	-14250
る服	-14251
ろう	-14252
を測	-14253
を除	-14254
アウ	-14255
アジ	-14256
アズ	-14257
カウ	-14258
ガレ	-14259
クス	-14260
グア	-14261
ズル	-14262
ゾリ	-14263
チナ	-14264
デス	-14265
プス	-14266
ベタ	-14267
ミラ	-14268
ムス	-14269
ムペ	-14270
ョー	-14271
ロイ	-14272
ワク	-14273
ヶ丘	-14274
ータ	-14275
ーフ	-14276
一層	-14277
上手	-14278
上着	-14279
乾燥	-14280
仲間	-14281
倉庫	-14282
傾向	-14283
優美	-14284
全面	-14285
別売	-14286
半月	-14287
台形	-14288
同士	-14289
同時	-14290
太さ	-14291
実測	-14292
家庭	-14293
寒い	-14294
岡山	-14295
幼稚	-14296
底幅	-14297
底辺	-14298
形で	-14299
所々	-14300
挿し	-14301
放置	-14302
易い	-14303
本の	-14304
横に	-14305
次元	-14306
比べ	-14307
決定	-14308
特記	-14309
状に	-14310
発信	-14311
登山	-14312
盗難	-14313
目に	-14314
直し	-14315
相違	-14316
着こ	-14317
着物	-14318
祝日	-14319
肌に	-14320
舟型	-14321
色を	-14322
袋付	-14323
請求	-14324
輸送	-14325
近づ	-14326
迷彩	-14327
透明	-14328
都会	-14329
重い	-14330
開発	-14331
!(^	-14332
-86	-14333
0;}	-14334
12(	-14335
126	-14336
128	-14337
18】	-14338
208	-14339
236	-14340
25)	-14341
299	-14342
327	-14343
3■【	-14344
3】【	-14345
45%	-14346
467	-14347
518	-14348
620	-14349
630	-14350
680	-14351
:70	-14352
>■<	-14353
ABY	-14354
AMO	-14355
CCA	-14356
Cau	-14357
DER	-14358
ECO	-14359
ELO	-14360
ERR	-14361
EVA	-14362
SEN	-14363
URF	-14364
aco	-14365
acr	-14366
ass	-14367
aya	-14368
cle	-14369
ess	-14370
ght	-14371
hel	-14372
ict	-14373
inn	-14374
roc	-14375
ses	-14376
tam	-14377
ucc	-14378
ves	-14379
▁4.	-14380
▁47	-14381
▁48	-14382
▁5,	-14383
▁>>	-14384
▁CU	-14385
▁De	-14386
▁ED	-14387
▁PI	-14388
▁Se	-14389
▁TR	-14390
▁at	-14391
▁it	-14392
▁sc	-14393
▁★【	-14394
▁【!	-14395
▁あの	-14396
▁なお	-14397
▁みみ	-14398
▁アフ	-14399
▁オン	-14400
▁シワ	-14401
▁ドラ	-14402
▁パピ	-14403
▁モン	-14404
▁レガ	-14405
▁今季	-14406
▁今年	-14407
▁但し	-14408
▁余裕	-14409
▁厚み	-14410
▁原産	-14411
▁同梱	-14412
▁国旗	-14413
▁大切	-14414
▁幅約	-14415
▁日常	-14416
▁東京	-14417
▁横型	-14418
▁流行	-14419
▁特長	-14420
▁細部	-14421
▁高級	-14422
。19	-14423
〜20	-14424
あおり	-14425
いつい	-14426
うさぎ	-14427
お仕事	-14428
お土産	-14429
お支払	-14430
お薦め	-14431
がらず	-14432
が注目	-14433
これで	-14434
しよう	-14435
すでに	-14436
ただし	-14437
た場合	-14438
つきで	-14439
て製作	-14440
ででき	-14441
とは思	-14442
ともい	-14443
とも言	-14444
と共に	-14445
と彩り	-14446
なさら	-14447
に登場	-14448
の生地	-14449
の画像	-14450
の返品	-14451
の際に	-14452
はなく	-14453
は常識	-14454
は終了	-14455
は花柄	-14456
ぱんだ	-14457
みては	-14458
みます	-14459
もある	-14460
もいい	-14461
も並行	-14462
も多い	-14463
や小物	-14464
んだか	-14465
んでの	-14466
アオリ	-14467
アルバ	-14468
カゴに	-14469
ケーキ	-14470
ゴム製	-14471
スミス	-14472
タリテ	-14473
タ使用	-14474
パリス	-14475
パート	-14476
ピュー	-14477
フォー	-14478
フルラ	-14479
フード	-14480
ベアー	-14481
ホース	-14482
ボンド	-14483
リデー	-14484
レゾリ	-14485
ロサン	-14486
・16	-14487
ークル	-14488
一年中	-14489
上部の	-14490
丘ベル	-14491
中です	-14492
中央に	-14493
予約品	-14494
何かと	-14495
使いた	-14496
使いで	-14497
使った	-14498
価格で	-14499
側面に	-14500
別れた	-14501
即完売	-14502
同じ柄	-14503
和小物	-14504
在庫の	-14505
型です	-14506
売切れ	-14507
多彩な	-14508
大き目	-14509
好評の	-14510
婦人用	-14511
年新作	-14512
幼稚園	-14513
急に出	-14514
情報は	-14515
意外と	-14516
感ある	-14517
手編み	-14518
振込み	-14519
描いた	-14520
本体に	-14521
本体の	-14522
樹脂面	-14523
汚れ等	-14524
洗って	-14525
演じて	-14526
男の子	-14527
皆様へ	-14528
立した	-14529
結んで	-14530
縫製国	-14531
色ヤケ	-14532
表面は	-14533
裏地は	-14534
裏面が	-14535
規定外	-14536
説明を	-14537
通りの	-14538
通学用	-14539
適した	-14540
部屋に	-14541
金具や	-14542
長さを	-14543
長時間	-14544
開けた	-14545
隠れた	-14546
,550	-14547
,650	-14548
0;}.	-14549
1112	-14550
1150	-14551
12.0	-14552
1207	-14553
:#81	-14554
:25×	-14555
:440	-14556
:700	-14557
ANCB	-14558
CHEL	-14559
ETON	-14560
GIRL	-14561
ISSI	-14562
LEIN	-14563
LINE	-14564
RCAL	-14565
SUKO	-14566
TRES	-14567
\\10	-14568
abul	-14569
acco	-14570
cola	-14571
come	-14572
mart	-14573
omew	-14574
oria	-14575
pers	-14576
rent	-14577
sday	-14578
vola	-14579
waku	-14580
×1」「	-14581
▁#66	-14582
▁***	-14583
▁548	-14584
▁9.5	-14585
▁BLO	-14586
▁DAY	-14587
▁LAR	-14588
▁LES	-14589
▁Ple	-14590
▁RED	-14591
▁VOL	-14592
▁mak	-14593
▁pos	-14594
▁wel	-14595
▁◇1.	-14596
▁★★☆	-14597
▁おそろ	-14598
▁おまけ	-14599
▁しっと	-14600
▁ななめ	-14601
▁アート	-14602
▁カイロ	-14603
▁グラム	-14604
▁サンタ	-14605
▁スノー	-14606
▁タオル	-14607
▁ナラヤ	-14608
▁ニット	-14609
▁ベロア	-14610
▁ヤマト	-14611
▁ラベン	-14612
▁レジ袋	-14613
▁ワイン	-14614
▁他にも	-14615
▁小学生	-14616
▁後ほど	-14617
▁爽やか	-14618
▁留め具	-14619
▁習い事	-14620
▁肩ひも	-14621
▁裏地は	-14622
▁記念品	-14623
▁間口は	-14624
いました	-14625
い者勝ち	-14626
おくと色	-14627
お品です	-14628
お好きな	-14629
お待たせ	-14630
お洒落で	-14631
がついた	-14632
ができて	-14633
が人気の	-14634
が可能な	-14635
くだけで	-14636
この価格	-14637
しければ	-14638
ついつい	-14639
ではない	-14640
ときでも	-14641
と思い出	-14642
なじみの	-14643
にしたり	-14644
には勿論	-14645
にも強い	-14646
にも役立	-14647
にも支持	-14648
にも興味	-14649
に優れた	-14650
に可愛い	-14651
のお弁当	-14652
の上品な	-14653
の大きさ	-14654
の大きな	-14655
の小さな	-14656
はお客様	-14657
ふかふか	-14658
ふっくら	-14659
ぷっくり	-14660
もののぐ	-14661
も並行で	-14662
ような跡	-14663
ることで	-14664
れた場合	-14665
を買った	-14666
アズール	-14667
カラーと	-14668
ケースや	-14669
サーカル	-14670
シュシュ	-14671
ショコラ	-14672
ジュリエ	-14673
スチール	-14674
ストック	-14675
ダウン風	-14676
ッとした	-14677
ドロップ	-14678
バケット	-14679
パーツが	-14680
ブロガー	-14681
プラチナ	-14682
ペイント	-14683
ホック式	-14684
ボディー	-14685
ポリシー	-14686
ムペッツ	-14687
ョーシカ	-14688
リエール	-14689
レシート	-14690
ワークス	-14691
ングラス	-14692
ヴァード	-14693
ーズデイ	-14694
一番広い	-14695
丁度良い	-14696
付属品箱	-14697
休日など	-14698
使用する	-14699
働く現代	-14700
右画像は	-14701
合皮製品	-14702
品につき	-14703
商品には	-14704
商品管理	-14705
問合わせ	-14706
外側仕様	-14707
大容量の	-14708
守ります	-14709
実物とは	-14710
底マチ約	-14711
底部四隅	-14712
心配なし	-14713
持ったり	-14714
持ってい	-14715
旅行まで	-14716
日頃出荷	-14717
明るく写	-14718
明るめに	-14719
柄の入り	-14720
楽しめる	-14721
楽天市場	-14722
注意して	-14723
洗濯表示	-14724
画面では	-14725
着こなし	-14726
箱が破損	-14727
素材合皮	-14728
結構です	-14729
縫製中国	-14730
美味しい	-14731
落ちない	-14732
表示する	-14733
計測した	-14734
調整可能	-14735
部分にも	-14736
/1000	-14737
1301*	-14738
1301【	-14739
30×30	-14740
:11.5	-14741
:1200	-14742
:3150	-14743
=1000	-14744
Built	-14745
CHOCO	-14746
China	-14747
ENCHY	-14748
GREEN	-14749
LaCot	-14750
SANTB	-14751
SBWBK	-14752
acobs	-14753
chain	-14754
ctang	-14755
herry	-14756
icola	-14757
iffer	-14758
rench	-14759
stand	-14760
tamor	-14761
tions	-14762
urple	-14763
▁CASE	-14764
▁Groc	-14765
▁Marc	-14766
▁More	-14767
▁NERO	-14768
▁VERY	-14769
▁York	-14770
▁bold	-14771
▁earl	-14772
▁situ	-14773
▁than	-14774
▁that	-14775
▁will	-14776
▁お出掛け	-14777
▁がまぐち	-14778
▁この時代	-14779
▁しっかり	-14780
▁すっきり	-14781
▁オススメ	-14782
▁ゴブラン	-14783
▁スキニー	-14784
▁ストール	-14785
▁バルーン	-14786
▁ビジュー	-14787
▁ブロック	-14788
▁プチプラ	-14789
▁プリーツ	-14790
▁ボルドー	-14791
▁ムーミン	-14792
▁メリッサ	-14793
▁円高還元	-14794
▁参考上代	-14795
▁取り外し	-14796
▁同系商品	-14797
▁商品概要	-14798
▁商品発送	-14799
▁持ち手の	-14800
▁日本でも	-14801
▁素材牛革	-14802
▁結婚祝い	-14803
▁製造番号	-14804
▁通勤通学	-14805
▁開口部は	-14806
◎———■	-14807
えるような	-14808
おかげ様で	-14809
および製品	-14810
おりますが	-14811
お出かけや	-14812
こちらのお	-14813
こちらを押	-14814
してご参照	-14815
だからこそ	-14816
できちゃう	-14817
できますよ	-14818
として上着	-14819
とも言える	-14820
などによる	-14821
などを入れ	-14822
にかわいい	-14823
にてお届け	-14824
になれます	-14825
により画像	-14826
のでご理解	-14827
のテイスト	-14828
の下で撮影	-14829
の中で迷子	-14830
は取り外し	-14831
は自由ヶ丘	-14832
ふと思い出	-14833
への色移り	-14834
までメール	-14835
も入るので	-14836
やわらかな	-14837
よりも早く	-14838
をおすすめ	-14839
をお使いの	-14840
アダプター	-14841
エンブレム	-14842
カイブルー	-14843
ガンチーニ	-14844
ギーバッグ	-14845
コーデュラ	-14846
サイズ本体	-14847
サックプラ	-14848
シガレット	-14849
スやベルト	-14850
スタイルも	-14851
スティッチ	-14852
ストバッグ	-14853
ストーリー	-14854
スパバッグ	-14855
セットです	-14856
セール販売	-14857
ダムたちの	-14858
ディッシュ	-14859
デザインを	-14860
ドット柄が	-14861
ハンドルが	-14862
バタフライ	-14863
パフューム	-14864
ブロックが	-14865
マイバック	-14866
マディソン	-14867
ロサンゼル	-14868
ヶ所ご注意	-14869
人のための	-14870
保冷バッグ	-14871
修正を加え	-14872
光沢のある	-14873
入っている	-14874
公式取扱店	-14875
別れた後の	-14876
刺しゅうが	-14877
同士や他の	-14878
商品に付き	-14879
女性の多く	-14880
好みの長さ	-14881
妹ブランド	-14882
実物の色に	-14883
実際のお色	-14884
小さなシミ	-14885
年齢問わず	-14886
底面が広く	-14887
当店からの	-14888
当店定休日	-14889
当日または	-14890
急に出る手	-14891
扱いやすさ	-14892
扱っている	-14893
持ちやすく	-14894
採寸のため	-14895
書き込みで	-14896
検品基準を	-14897
素材の無地	-14898
織り込んだ	-14899
見える傾向	-14900
選択なさら	-14901
金具部分に	-14902
BURDEN	-14903
FRUTTI	-14904
acrity	-14905
arcoal	-14906
atural	-14907
lesley	-14908
ucciny	-14909
ursday	-14910
▁Camel	-14911
▁Camer	-14912
▁Cross	-14913
▁Giada	-14914
▁KLEIN	-14915
▁Linda	-14916
▁Purse	-14917
▁SANTB	-14918
▁SPADE	-14919
▁Sugar	-14920
▁There	-14921
▁goods	-14922
▁order	-14923
▁sight	-14924
▁since	-14925
▁somew	-14926
▁stock	-14927
▁thing	-14928
▁under	-14929
▁この商品の	-14930
▁こんにちは	-14931
▁その理由は	-14932
▁アップリケ	-14933
▁オシャレな	-14934
▁コンピュー	-14935
▁サイズ実寸	-14936
▁サブバック	-14937
▁マッドパイ	-14938
▁ミニポーチ	-14939
▁メタリック	-14940
▁リクエスト	-14941
▁ロイヤルコ	-14942
▁商品到着後	-14943
▁持ち手間隔	-14944
▁素材に限り	-14945
▁色味の違い	-14946
▁高級感漂う	-14947
おくと色移り	-14948
お出かけにも	-14949
お風呂の洗い	-14950
がついていて	-14951
がついており	-14952
ができません	-14953
がコラボした	-14954
が付いており	-14955
が出てきます	-14956
が収納可能で	-14957
ご注文の場合	-14958
ご紹介を終了	-14959
たまりません	-14960
っているので	-14961
でのお買い物	-14962
でのご使用や	-14963
となっており	-14964
と彩りを与え	-14965
なので薄くて	-14966
ならメール便	-14967
なデザインの	-14968
にございます	-14969
になる可能性	-14970
のお出かけや	-14971
はコチラから	-14972
は常識ですが	-14973
も付いており	-14974
やパソコンの	-14975
を取り入れた	-14976
イメージ違い	-14977
カラーピンク	-14978
コンテンツは	-14979
サイズ対応で	-14980
ショップです	-14981
シークレット	-14982
ジュリエット	-14983
スッポリ入る	-14984
ストラップを	-14985
タイムセール	-14986
チャーミング	-14987
デザイナーズ	-14988
バックお揃い	-14989
バッグに付け	-14990
バラモチーフ	-14991
パスポートや	-14992
ポーチの中に	-14993
マイバックに	-14994
メール便選択	-14995
ランチタイム	-14996
リボンバッグ	-14997
ヴィクトリア	-14998
ーストライプ	-14999
何といっても	-15000
円かかります	-15001
出来るだけ近	-15002
出来上がった	-15003
口が広がらず	-15004
商品がご注文	-15005
商品はコチラ	-15006
商品を平置き	-15007
場所によって	-15008
女性にとって	-15009
女性らしさを	-15010
宅配送料無料	-15011
安心の正規品	-15012
完売しました	-15013
年間を通して	-15014
御座いません	-15015
心がけて製作	-15016
折りたたみ式	-15017
持ち手立上り	-15018
採寸ですので	-15019
旅行のお土産	-15020
日常に楽しみ	-15021
時までご注文	-15022
普段使いから	-15023
特に気になる	-15024
生産国日本製	-15025
画面上の色は	-15026
発送可能です	-15027
続けてくれる	-15028
自由が丘ベル	-15029
製品洗いを施	-15030
金具にコキズ	-15031
金具部分には	-15032
(*^-^*)	-15033
IVENCHY	-15034
Tyrrell	-15035
abulous	-15036
persand	-15037
▁BLOCKS	-15038
▁Canvas	-15039
▁DIESEL	-15040
▁FEILER	-15041
▁Please	-15042
▁VOLCOM	-15043
▁become	-15044
▁differ	-15045
▁making	-15046
▁screen	-15047
▁★★☆☆☆:	-15048
▁オイルクロス	-15049
▁キーチェーン	-15050
▁クロコダイル	-15051
▁グルーヴィー	-15052
▁スタンダード	-15053
▁パッチワーク	-15054
▁フェリシティ	-15055
▁プリーテッド	-15056
▁リバーシブル	-15057
▁上質なレザー	-15058
▁濱野皮革工芸	-15059
お客様のご都合	-15060
かわいらしさを	-15061
このグラディー	-15062
このコンテンツ	-15063
させてくれます	-15064
さんや学生さん	-15065
とショルダーの	-15066
などのゴブラン	-15067
なんといっても	-15068
なトートバッグ	-15069
に近づけるため	-15070
に関する情報は	-15071
のアイテムです	-15072
よりも明るめに	-15073
エールカルダン	-15074
オンス帆布生地	-15075
カゴバッグです	-15076
キャンバス生地	-15077
ステキなものを	-15078
センチメートル	-15079
デイパックです	-15080
デイリー使いに	-15081
デコレーション	-15082
デザインバッグ	-15083
トートバッグに	-15084
ナイロンポーチ	-15085
バックとしてや	-15086
バッグハンガー	-15087
バンドリエール	-15088
ポケットがあり	-15089
ポーチとしても	-15090
ライトゴールド	-15091
ラッピング不可	-15092
レザー仕様開閉	-15093
レゾリヴァード	-15094
ワンランク上の	-15095
付いているタグ	-15096
作られています	-15097
使い勝手も良く	-15098
公式取扱店のみ	-15099
各種パーティー	-15100
型崩れしにくい	-15101
多様に使えます	-15102
大きくなります	-15103
容量もたっぷり	-15104
当店の採寸方法	-15105
散りばめられた	-15106
日本製バッグや	-15107
日頃のお買い物	-15108
是非お気に入り	-15109
楽天会員様のみ	-15110
活躍しそうです	-15111
演じてくれます	-15112
牛革を使用した	-15113
立体的なものも	-15114
袋から取り出し	-15115
計測したもので	-15116
詳しくは製品に	-15117
非常に軽いです	-15118
=1000-->	-15119
Cautions	-15120
Foldable	-15121
LaCotone	-15122
TOTALITE	-15123
lettamor	-15124
▁Grocery	-15125
▁Laurent	-15126
▁Rectang	-15127
▁Roberta	-15128
▁STEPHEN	-15129
▁earlier	-15130
▁かっちりとした	-15131
▁アルファベット	-15132
▁バケットバッグ	-15133
▁パーティバッグ	-15134
▁フロント部分の	-15135
▁ポケットタイプ	-15136
▁メインポケット	-15137
▁ロックテイスト	-15138
▁商品発送の目安	-15139
▁宅配便をご利用	-15140
えるような目立た	-15141
および極度の負荷	-15142
がありますことを	-15143
が大きく開くので	-15144
けないでください	-15145
この商品を買った	-15146
で作られている為	-15147
とこの折りたたみ	-15148
ないように目立つ	-15149
にあるお洒落なマ	-15150
にも役立ってくれ	-15151
によってイメージ	-15152
のある商品のため	-15153
よりも早く品切れ	-15154
をお使いの皆様へ	-15155
をコーディネート	-15156
を選択して下さい	-15157
アクセサリー入れ	-15158
カジュアルバッグ	-15159
ギフトラッピング	-15160
コンパクトサイズ	-15161
ゴウメットバッグ	-15162
ショルダー付け根	-15163
シルバーチェーン	-15164
スペシャルなもの	-15165
タ使用環境により	-15166
ダムたちの御用達	-15167
パフュームボトル	-15168
フラップポケット	-15169
マチ幅が広いので	-15170
メール便配送不可	-15171
モニターによって	-15172
レンカミンスキー	-15173
上品なバッグです	-15174
使いやすく機能的	-15175
全て実物の色合い	-15176
再製作の予定はた	-15177
別れた後の印象が	-15178
卒業式にぴったり	-15179
収納力抜群なので	-15180
可愛いバッグです	-15181
同士や他の素材と	-15182
商品により若干の	-15183
対応ブラウザにて	-15184
店頭での販売も行	-15185
店頭販売も並行で	-15186
当店定休日は除く	-15187
心配もありません	-15188
披露宴はもちろん	-15189
未対応のブラウザ	-15190
物入れとしてなど	-15191
長財布や携帯など	-15192
Casselini	-15193
▁Camerino	-15194
▁Keychain	-15195
▁Moreover	-15196
▁Paleblue	-15197
▁somewhat	-15198
▁このコンテンツは	-15199
▁このショッピング	-15200
▁とても底面が広く	-15201
▁ひとつまでメール	-15202
▁ガルシアマルケス	-15203
▁ファスナータイプ	-15204
▁プレゼント父の日	-15205
▁付属品および製品	-15206
▁軽くて丈夫なので	-15207
▁関連商品はこちら	-15208
あっても大活躍です	-15209
が付いていますので	-15210
ご了承くださいます	-15211
してご参照ください	-15212
つずつ付いています	-15213
としてのマイバッグ	-15214
ならではの機能性や	-15215
なバッグは働く現代	-15216
なバッグインバッグ	-15217
のセレクトショップ	-15218
のバッグを見つけて	-15219
ふと思い出してもら	-15220
を醸し出すイタリア	-15221
エコバッグとしても	-15222
カジュアルな中にも	-15223
カラーに多少の違い	-15224
キャンバスコットン	-15225
コーティングポーチ	-15226
シングルファスナー	-15227
セール商品ですので	-15228
トレーダージョーズ	-15229
ポケットがあります	-15230
マグネットスナップ	-15231
不思議の国のアリス	-15232
人気のアイテムです	-15233
仕様ファスナー開閉	-15234
内側にもポケットが	-15235
合皮製品については	-15236
多少の色むらや汚れ	-15237
女性の多くにも支持	-15238
折りたたみバックは	-15239
楽天スーパーセール	-15240
気になさる神経質な	-15241
▁Selection	-15242
▁attention	-15243
▁condition	-15244
▁situation	-15245
▁wellesley	-15246
▁チェンジングパッド	-15247
▁撮影しておりますが	-15248
▁斜め掛けショルダー	-15249
お問い合わせください	-15250
お買い物にエコバッグ	-15251
がアクセントになった	-15252
がアクセントになって	-15253
くなるように注意して	-15254
での使用もお勧めです	-15255
のみならずカゴバック	-15256
をできるだけ表示する	-15257
エレガンスのテイスト	-15258
キャンバスを使用した	-15259
ショルダーベルト付き	-15260
シンプルなデザインに	-15261
スタイルにはモチロン	-15262
ストリングスやベルト	-15263
ナチュラルな雰囲気の	-15264
ファスナーポケットが	-15265
ブランシェは自由ヶ丘	-15266
レザーの組み合わせが	-15267
一年中大活躍すること	-15268
使用感がございますが	-15269
宅配便指定となります	-15270
急に出る手荷物を入れ	-15271
普段使いにぴったりな	-15272
機能性とデザイン性を	-15273
画像は照明の下で撮影	-15274
衝撃がかかった場合は	-15275
詳しくはお問い合わせ	-15276
選択なさらないように	-15277
間違いなしの逸品です	-15278
▁understand	-15279
▁カーリーコレクション	-15280
▁シンプルなデザインに	-15281
▁バックは女性にとって	-15282
▁ファスナー式小銭入れ	-15283
▁マチもたっぷりあって	-15284
▁付属品保存袋参考価格	-15285
として上着を入れるなど	-15286
によって柄が異なります	-15287
ることが出来るからです	-15288
クリスマスパーティーに	-15289
バックはポリエステル製	-15290
ファスナー付ポケットが	-15291
ベルギーなどのゴブラン	-15292
ポーチカテゴリートップ	-15293
マルチガジェットケース	-15294
修正を加えておりますが	-15295
口が広がらず機能的です	-15296
多少の誤差がございます	-15297
実物の色に出来るだけ近	-15298
密着させておくと色移り	-15299
年間を通してセール販売	-15300
時のサブバッグとしても	-15301
樹脂面同士や他の素材と	-15302
見える傾向がございます	-15303
軽くて使いやすく機能的	-15304
軽量ショッピングバッグ	-15305
長くお使いいただけます	-15306
lettamoretti	-15307
▁DIVABBRACCI	-15308
▁Rectangular	-15309
▁possibility	-15310
▁あらかじめご了承下さい	-15311
▁ちょっとしたお出かけや	-15312
▁内側は綺麗な使用感です	-15313
▁宅配便をご利用ください	-15314
▁折りたたみバッグなので	-15315
があることがございますが	-15316
がかかる場合がございます	-15317
こちらの商品はおかげ様で	-15318
このグラディーエコバッグ	-15319
させていただいております	-15320
と彩りを与え続けてくれる	-15321
になる可能性もございます	-15322
シンプルなデザインですが	-15323
マイバッグとしてオススメ	-15324
使い勝手の良いバッグです	-15325
入れても邪魔になりません	-15326
内側にもジップポケットと	-15327
商品を平置きにした状態で	-15328
実際のお色よりも明るめに	-15329
披露宴はもちろん二次会や	-15330
本物ですのでご安心下さい	-15331
発送に変更させて頂きます	-15332
shopAnastasia	-15333
▁ひとつまでメール可能です	-15334
▁ナイロンボンディング加工	-15335
が若干異なる場合があります	-15336
どんなスタイルにもぴったり	-15337
なので薄くて非常に軽いです	-15338
ほとんど使用感はありません	-15339
ステキなものを心がけて製作	-15340
メール便での発送となります	-15341
別れた後の印象がさわやかな	-15342
変更になる場合がございます	-15343
扱いやすさが人気の秘密です	-15344
撮影の状況によってイメージ	-15345
旅行のお土産バックとしてや	-15346
日頃のお買い物にも便利です	-15347
時より販売を開始いたします	-15348
注意デジカメでの撮影のため	-15349
火気に近づけないでください	-15350
誤った使用および極度の負荷	-15351
通勤や通学にもオススメです	-15352
▁コンピュータ使用環境により	-15353
▁同シリーズのマザーズバッグ	-15354
▁素材に限りのある商品のため	-15355
お風呂の洗い物入れとしてなど	-15356
が付いている場合がございます	-15357
こちらを押してご参照ください	-15358
このコンテンツに関する情報は	-15359
とこの折りたたみバックお揃い	-15360
をあしらった上品なバッグです	-15361
ダムたちの御用達ショップです	-15362
付いているタグをご確認下さい	-15363
商品がご注文よりも早く品切れ	-15364
店頭販売も並行でしております	-15365
▁対応のブラウザで見てください	-15366
いただきますようお願い致します	-15367
お急ぎの方は納品日をご確認の上	-15368
この機会に是非ご検討下さいませ	-15369
さんや学生さんにも役立ってくれ	-15370
とショルダーにはクッション入り	-15371
のバッグを見つけてくださいませ	-15372
スナップボタンが付いているので	-15373
ダマ等がある場合がございますが	-15374
フォルムにストリングスやベルト	-15375
マチ幅が広いので立体的なものも	-15376
モニターにより異なって見えます	-15377
全て実物の色合いに近づけるため	-15378
公式取扱店のみ販売しております	-15379
再製作の予定はたっておりません	-15380
折りたたみバックは買い物バック	-15381
老舗ブランドならではの機能性や	-15382
計測したものであくまで目安です	-15383
▁フォーマルスタイルにはモチロン	-15384
えるような目立たないように目立つ	-15385
お客様のモニターの設定などにより	-15386
お買い物にエコバッグは常識ですが	-15387
ヨーロピアンエレガンスのテイスト	-15388
全てハンドメイドで作られている為	-15389
多少の違いが生じる場合があります	-15390
天然素材のハンドメイド商品のため	-15391
対応ブラウザにてご覧いただけます	-15392
店頭での販売も行っておりますので	-15393
普段使いにぴったりなサイズ感です	-15394
未対応のブラウザをお使いの皆様へ	-15395
買い物バックのみならずカゴバック	-15396
!3	-15397
%、	-15398
(8	-15399
),	-15400
)5	-15401
)※	-15402
)▲	-15403
-6	-15404
-9	-15405
/3	-15406
2%	-15407
4【	-15408
6×	-15409
8.	-15410
:-	-15411
??	-15412
BI	-15413
BS	-15414
CB	-15415
CE	-15416
DS	-15417
EY	-15418
FI	-15419
FO	-15420
GY	-15421
HB	-15422
Hb	-15423
LU	-15424
Vi	-15425
ZG	-15426
de	-15427
ga	-15428
ka	-15429
my	-15430
sy	-15431
zy	-15432
””	-15433
▁き	-15434
▁さ	-15435
▁そ	-15436
▁だ	-15437
▁プ	-15438
▁ヨ	-15439
▁七	-15440
▁備	-15441
▁又	-15442
▁吉	-15443
▁学	-15444
▁屋	-15445
▁従	-15446
▁私	-15447
▁見	-15448
▁風	-15449
●【	-15450
★2	-15451
、、	-15452
】3	-15453
いだ	-15454
おみ	-15455
お気	-15456
かめ	-15457
きに	-15458
きる	-15459
ご了	-15460
ご自	-15461
さし	-15462
ぞ筋	-15463
っす	-15464
とぼ	-15465
ども	-15466
にご	-15467
にと	-15468
に新	-15469
に置	-15470
はん	-15471
ばこ	-15472
べる	-15473
もは	-15474
よし	-15475
らす	-15476
わる	-15477
アリ	-15478
アレ	-15479
エロ	-15480
カジ	-15481
カタ	-15482
カワ	-15483
キゾ	-15484
コト	-15485
コル	-15486
サテ	-15487
スイ	-15488
タナ	-15489
ツー	-15490
ハロ	-15491
ピタ	-15492
フス	-15493
ヘミ	-15494
ボニ	-15495
マカ	-15496
マミ	-15497
ヤン	-15498
リテ	-15499
リボ	-15500
リ島	-15501
ルズ	-15502
レギ	-15503
ロブ	-15504
ワロ	-15505
一に	-15506
上に	-15507
両方	-15508
事で	-15509
事に	-15510
事を	-15511
二重	-15512
今季	-15513
付の	-15514
代名	-15515
任せ	-15516
俣野	-15517
先で	-15518
入の	-15519
入園	-15520
全品	-15521
全部	-15522
内面	-15523
別注	-15524
前の	-15525
受信	-15526
右下	-15527
合金	-15528
味方	-15529
固定	-15530
字覚	-15531
家族	-15532
弾は	-15533
形は	-15534
抜け	-15535
探さ	-15536
探す	-15537
描か	-15538
損害	-15539
方形	-15540
日月	-15541
曜日	-15542
最初	-15543
条件	-15544
格の	-15545
椰子	-15546
正午	-15547
正月	-15548
段差	-15549
毛が	-15550
法事	-15551
洗面	-15552
消費	-15553
淡色	-15554
温度	-15555
無月	-15556
熊本	-15557
片方	-15558
甘い	-15559
用い	-15560
発泡	-15561
発注	-15562
発電	-15563
目と	-15564
確実	-15565
粗い	-15566
約横	-15567
者様	-15568
肩あ	-15569
自信	-15570
色番	-15571
芸会	-15572
装着	-15573
貴方	-15574
越し	-15575
軽減	-15576
輝き	-15577
迎会	-15578
近く	-15579
配信	-15580
配列	-15581
防犯	-15582
離党	-15583
類似	-15584
魅了	-15585
黒猫	-15586
(2)	-15587
)13	-15588
)20	-15589
)×1	-15590
-40	-15591
-80	-15592
015	-15593
106	-15594
123	-15595
142	-15596
15(	-15597
166	-15598
173	-15599
260	-15600
271	-15601
2■【	-15602
2】【	-15603
2〜3	-15604
3-0	-15605
31/	-15606
340	-15607
41×	-15608
440	-15609
449	-15610
520	-15611
590	-15612
660	-15613
704	-15614
9.0	-15615
BON	-15616
ELI	-15617
GER	-15618
IER	-15619
LOT	-15620
Lau	-15621
SEI	-15622
UNI	-15623
VIP	-15624
\\-	-15625
ach	-15626
art	-15627
con	-15628
est	-15629
hed	-15630
ife	-15631
mer	-15632
mim	-15633
ode	-15634
our	-15635
que	-15636
riv	-15637
ura	-15638
×32	-15639
×35	-15640
×4、	-15641
▁0;	-15642
▁51	-15643
▁67	-15644
▁73	-15645
▁Jo	-15646
▁Or	-15647
▁RI	-15648
▁Te	-15649
▁Th	-15650
▁Wu	-15651
▁※1	-15652
▁【1	-15653
▁【☆	-15654
▁お花	-15655
▁シェ	-15656
▁タン	-15657
▁デコ	-15658
▁トラ	-15659
▁フル	-15660
▁ミュ	-15661
▁メモ	-15662
▁リア	-15663
▁レア	-15664
▁保障	-15665
▁和装	-15666
▁四隅	-15667
▁大変	-15668
▁定期	-15669
▁寸法	-15670
▁就活	-15671
▁底幅	-15672
▁店舗	-15673
▁時計	-15674
▁洗い	-15675
▁職人	-15676
▁自然	-15677
▁飽き	-15678
☆☆☆	-15679
、19	-15680
ぁるい	-15681
あるが	-15682
いれて	-15683
おむつ	-15684
お値段	-15685
お名前	-15686
お返し	-15687
かあり	-15688
かもし	-15689
が便利	-15690
が広が	-15691
くらい	-15692
けた時	-15693
こまご	-15694
こもこ	-15695
さんも	-15696
じゅう	-15697
そうで	-15698
その際	-15699
ぞ筋店	-15700
ったか	-15701
で開閉	-15702
とぼけ	-15703
と同時	-15704
どこか	-15705
にする	-15706
にちな	-15707
にでも	-15708
にマイ	-15709
に付き	-15710
に強く	-15711
の代表	-15712
の整理	-15713
の時に	-15714
の為の	-15715
の素材	-15716
の限定	-15717
はじめ	-15718
ふわり	-15719
ほどの	-15720
もっと	-15721
ものと	-15722
も可能	-15723
も豊富	-15724
ゆみえ	-15725
り込み	-15726
ると思	-15727
れたり	-15728
をかけ	-15729
をする	-15730
をはず	-15731
を基本	-15732
を留め	-15733
を訂正	-15734
アイス	-15735
アンパ	-15736
キシー	-15737
キナリ	-15738
クーン	-15739
グレイ	-15740
コトネ	-15741
サマー	-15742
ジッパ	-15743
スージ	-15744
ゼット	-15745
ダンス	-15746
テレビ	-15747
トゥル	-15748
ネラル	-15749
ハガレ	-15750
バーチ	-15751
パイプ	-15752
パニエ	-15753
パネル	-15754
ヒール	-15755
ビロテ	-15756
ヘッド	-15757
ホルダ	-15758
ボーン	-15759
マリー	-15760
ムーン	-15761
ラフな	-15762
ラベン	-15763
ランプ	-15764
ロゴは	-15765
ロゴや	-15766
ワンピ	-15767
ーズー	-15768
一回り	-15769
一押し	-15770
付ける	-15771
付近に	-15772
代名詞	-15773
併せて	-15774
使い回	-15775
使い物	-15776
個突破	-15777
優しく	-15778
内側が	-15779
初上陸	-15780
刺し子	-15781
在庫は	-15782
地図柄	-15783
字覚悟	-15784
安心と	-15785
実用的	-15786
小脇に	-15787
山羊革	-15788
希少な	-15789
広めの	-15790
底には	-15791
底部の	-15792
役立つ	-15793
感じで	-15794
携帯用	-15795
新しく	-15796
方はお	-15797
明るさ	-15798
映える	-15799
時間差	-15800
最適な	-15801
有名な	-15802
末永く	-15803
本体を	-15804
染めの	-15805
気分を	-15806
特性や	-15807
用途が	-15808
祝日は	-15809
細かく	-15810
編みこ	-15811
繊維が	-15812
花びら	-15813
街歩き	-15814
袋付き	-15815
装いに	-15816
見えて	-15817
見舞い	-15818
身に着	-15819
軽量な	-15820
過程で	-15821
違って	-15822
醸し出	-15823
金具と	-15824
金額は	-15825
長さが	-15826
関係上	-15827
際には	-15828
,400	-15829
,700	-15830
0332	-15831
10.0	-15832
1200	-15833
1307	-15834
17.0	-15835
2980	-15836
33.5	-15837
38.5	-15838
5116	-15839
7950	-15840
:078	-15841
:1.5	-15842
:162	-15843
:900	-15844
>【10	-15845
BBON	-15846
CITY	-15847
ETIC	-15848
Flat	-15849
IMES	-15850
OODS	-15851
OUND	-15852
REAM	-15853
SURF	-15854
Sale	-15855
Thea	-15856
WKRU	-15857
Yves	-15858
hool	-15859
mail	-15860
spac	-15861
tomp	-15862
tyle	-15863
wood	-15864
▁(*^	-15865
▁137	-15866
▁BUR	-15867
▁CAR	-15868
▁KOU	-15869
▁Par	-15870
▁Zoo	-15871
▁etc	-15872
▁お色は	-15873
▁お風呂	-15874
▁きれい	-15875
▁くしゅ	-15876
▁ご希望	-15877
▁スパン	-15878
▁タウン	-15879
▁ダウン	-15880
▁ティア	-15881
▁バリ島	-15882
▁ビッグ	-15883
▁フィン	-15884
▁マギー	-15885
▁マリン	-15886
▁レディ	-15887
▁一度に	-15888
▁中生地	-15889
▁保障付	-15890
▁入れて	-15891
▁収納力	-15892
▁品切れ	-15893
▁問合せ	-15894
▁型押し	-15895
▁大きく	-15896
▁学芸会	-15897
▁幼稚園	-15898
▁新しい	-15899
▁楽しみ	-15900
▁毎日の	-15901
▁状態は	-15902
▁神無月	-15903
▁程よい	-15904
▁華やか	-15905
▁表には	-15906
▁長さ約	-15907
〜127	-15908
〜128	-15909
いたって	-15910
おススメ	-15911
かと思い	-15912
があしら	-15913
くらいの	-15914
こちらも	-15915
こなれた	-15916
しそうな	-15917
しっくり	-15918
するのが	-15919
ってから	-15920
つついて	-15921
での修理	-15922
でも並行	-15923
ときなど	-15924
ところも	-15925
なかった	-15926
なくなり	-15927
にすれば	-15928
になれる	-15929
にマイナ	-15930
に見える	-15931
のご案内	-15932
の選択肢	-15933
は全商品	-15934
ひっかけ	-15935
ますので	-15936
や色落ち	-15937
をさらに	-15938
を持って	-15939
を楽しむ	-15940
イズリー	-15941
ウェアー	-15942
ウェザー	-15943
オーバル	-15944
キャップ	-15945
グッチの	-15946
サンルイ	-15947
スティン	-15948
セクシー	-15949
セレブが	-15950
ソフィア	-15951
ゾンタル	-15952
チャンス	-15953
ッシェル	-15954
テーブル	-15955
ナチュレ	-15956
ニタリー	-15957
ニックス	-15958
ヌメ革の	-15959
ハゲあり	-15960
フリース	-15961
ヘミアン	-15962
ベトナム	-15963
ベルトが	-15964
ボルコム	-15965
ミュール	-15966
ライター	-15967
リッチー	-15968
リテージ	-15969
リボンで	-15970
ルージュ	-15971
レザーや	-15972
レースの	-15973
ローリー	-15974
ローレン	-15975
ワールド	-15976
ンターズ	-15977
一品です	-15978
上品さが	-15979
仕立てた	-15980
仲間入り	-15981
使い心地	-15982
使い方は	-15983
使うもの	-15984
使えない	-15985
入るから	-15986
入れられ	-15987
内側仕様	-15988
前に必ず	-15989
参考上代	-15990
収納力と	-15991
取り上げ	-15992
在庫確認	-15993
変更して	-15994
多少の傷	-15995
多数あり	-15996
女の子の	-15997
差し支え	-15998
差をつけ	-15999
底部分の	-16000
引き立て	-16001
当日発送	-16002
感溢れる	-16003
折り返し	-16004
持ち運ぶ	-16005
持てます	-16006
整理して	-16007
新色追加	-16008
有ります	-16009
横幅奥行	-16010
段階調節	-16011
毎日一緒	-16012
汚れたら	-16013
汚れなど	-16014
決算在庫	-16015
特記事項	-16016
申し付け	-16017
目を惹く	-16018
社より直	-16019
素材違い	-16020
綿レース	-16021
翌営業日	-16022
自由自在	-16023
芸能人も	-16024
製品の為	-16025
製品を作	-16026
製造時に	-16027
詰まった	-16028
販売開始	-16029
送料込み	-16030
通学にも	-16031
配送です	-16032
間ゆみえ	-16033
間違えて	-16034
離島など	-16035
雰囲気の	-16036
革本来の	-16037
順次発送	-16038
馴染みの	-16039
黒が好き	-16040
(027)	-16041
-5050	-16042
10.5)	-16043
15000	-16044
17.5×	-16045
30.5×	-16046
37.5×	-16047
49230	-16048
:14.5	-16049
ATION	-16050
BANCE	-16051
BECCA	-16052
Brown	-16053
Japan	-16054
arbie	-16055
arden	-16056
kouse	-16057
loral	-16058
nigma	-16059
nthel	-16060
×11.5	-16061
▁005:	-16062
▁Ball	-16063
▁COSM	-16064
▁FELI	-16065
▁HOBO	-16066
▁KINE	-16067
▁PACK	-16068
▁Star	-16069
▁USED	-16070
▁blue	-16071
▁deux	-16072
▁http	-16073
▁【50%	-16074
▁お支払い	-16075
▁アクリル	-16076
▁ウェット	-16077
▁エンボス	-16078
▁オーダー	-16079
▁ガーデン	-16080
▁コロンと	-16081
▁シェル型	-16082
▁スマイル	-16083
▁タッセル	-16084
▁デジカメ	-16085
▁ペーパー	-16086
▁ボックス	-16087
▁マイケル	-16088
▁マチ付き	-16089
▁モロッコ	-16090
▁ヤマトヤ	-16091
▁レベッカ	-16092
▁使い方は	-16093
▁問合せ先	-16094
▁営業時間	-16095
▁在庫限り	-16096
▁外側には	-16097
▁定期入れ	-16098
▁新色追加	-16099
▁素材違い	-16100
▁肩にかけ	-16101
▁開閉口は	-16102
、004:	-16103
いましょう	-16104
おみぞ筋店	-16105
お洒落です	-16106
が使われて	-16107
が感じられ	-16108
ける小さな	-16109
ご注文時は	-16110
ご購入して	-16111
ご遠慮なく	-16112
されません	-16113
たっとした	-16114
ちょこんと	-16115
でかわいい	-16116
でのご購入	-16117
で結構です	-16118
などの小物	-16119
な印象です	-16120
に分かれて	-16121
のお洒落な	-16122
のバックル	-16123
はゴールド	-16124
ひとまとめ	-16125
まんじゅう	-16126
もしやすい	-16127
も可能です	-16128
やすいので	-16129
をアピール	-16130
を付ければ	-16131
んでの圧縮	-16132
イラストが	-16133
ウォーター	-16134
カラー展開	-16135
キャンディ	-16136
キラキラの	-16137
ギフトにも	-16138
ケースです	-16139
コトネ琴音	-16140
サイズの為	-16141
サイズ誤差	-16142
システム上	-16143
ジェイウィ	-16144
ジュエリー	-16145
スタイルが	-16146
スタッズが	-16147
テイストの	-16148
ディーゼル	-16149
デニム地に	-16150
デラックス	-16151
トータリテ	-16152
ブラウン系	-16153
プチバッグ	-16154
ホワイトの	-16155
ポケット内	-16156
マチのある	-16157
マッチした	-16158
モバイルの	-16159
ライトフル	-16160
ラムスキン	-16161
レファント	-16162
ンクラッチ	-16163
ヴィバシテ	-16164
・1941	-16165
ーチェンジ	-16166
中の荷物が	-16167
事をご理解	-16168
付いてます	-16169
代金引換便	-16170
以前の裏地	-16171
作りなので	-16172
使用できる	-16173
入の正規品	-16174
収納出来る	-16175
収納力あり	-16176
商品写真は	-16177
問合せのみ	-16178
小物ポーチ	-16179
届きました	-16180
希望しない	-16181
愛らしさを	-16182
採寸方法は	-16183
掲載の画像	-16184
撮影で使用	-16185
撮影状況や	-16186
斜めがけと	-16187
注意事項を	-16188
直営店でも	-16189
粒ビジュー	-16190
素材レザー	-16191
貴重品等の	-16192
部分に少し	-16193
(18.5×	-16194
-862-9	-16195
03326*	-16196
ATSUKO	-16197
Disney	-16198
FEILER	-16199
SERCAL	-16200
UNIKKO	-16201
casual	-16202
kousei	-16203
▁BETTY	-16204
▁Brown	-16205
▁CHLOE	-16206
▁Roses	-16207
▁STORE	-16208
▁Saint	-16209
▁Slate	-16210
▁black	-16211
▁pouch	-16212
▁【2012	-16213
▁いろいろな	-16214
▁ご不明な点	-16215
▁ご理解の上	-16216
▁ウォッシュ	-16217
▁エコトート	-16218
▁スウェード	-16219
▁スプリング	-16220
▁チェーンを	-16221
▁ハワイアン	-16222
▁プロダクツ	-16223
▁ルートート	-16224
▁両サイドに	-16225
▁丸みのある	-16226
▁程度の目安	-16227
ありますので	-16228
いくつかあり	-16229
お買い物など	-16230
かさばらない	-16231
から普段使い	-16232
かわいらしい	-16233
ご注文の前に	-16234
つ折りにして	-16235
になりがちな	-16236
のお届けです	-16237
のみを取り扱	-16238
のアイテムを	-16239
のミニトート	-16240
のラッピング	-16241
の場合は送料	-16242
の女性たちの	-16243
やファスナー	-16244
を入れられる	-16245
アンパサンド	-16246
エールバッグ	-16247
オーダー会の	-16248
カジュアルで	-16249
クリップです	-16250
グローサリー	-16251
コンパクトで	-16252
サイズの誤差	-16253
サイズの雑誌	-16254
サブバッグや	-16255
サブポケット	-16256
ショルダーで	-16257
スージーズー	-16258
セットすれば	-16259
セレブバッグ	-16260
チューリップ	-16261
デザインした	-16262
ドラムバッグ	-16263
パディントン	-16264
フェミニンな	-16265
フォーマルな	-16266
ブギーバッグ	-16267
マザーバック	-16268
メールでのお	-16269
メール便送料	-16270
ライントート	-16271
リアルレザー	-16272
リストレット	-16273
リニューアル	-16274
ロゴプレート	-16275
ロサンゼルス	-16276
ローズポーチ	-16277
上品な雰囲気	-16278
使いのトート	-16279
内ファスナー	-16280
内側オープン	-16281
塩化ビニール	-16282
好みの長さに	-16283
宅配便のみの	-16284
抜群のバッグ	-16285
持ち手部分は	-16286
有名ブランド	-16287
無料商品です	-16288
独特の風合い	-16289
独特の香りが	-16290
現在は全商品	-16291
画像の特性や	-16292
素敵なバッグ	-16293
肌触りのいい	-16294
肌触りの良い	-16295
肩掛け可能で	-16296
致しますので	-16297
若干明るく写	-16298
製品について	-16299
誕生日ギフト	-16300
販売しており	-16301
銀行振り込み	-16302
頂いたお客様	-16303
頂いた場合は	-16304
高さ横幅奥行	-16305
079-226	-16306
TOPKAPI	-16307
VIMPETS	-16308
opacity	-16309
ristian	-16310
▁CELINE	-16311
▁Floral	-16312
▁KOUSEI	-16313
▁Medium	-16314
▁NaRaYa	-16315
▁ONLINE	-16316
▁School	-16317
▁Spring	-16318
▁Tendre	-16319
▁[10:00	-16320
▁オフホワイト	-16321
▁キャラクター	-16322
▁ゴージャスな	-16323
▁トリコロール	-16324
▁ハンプトンズ	-16325
▁バッファロー	-16326
▁ファスナー付	-16327
▁メール便対応	-16328
▁リストレット	-16329
▁リボンバッグ	-16330
▁レザーベルト	-16331
▁保障付の商品	-16332
▁店長コメント	-16333
▁日本での修理	-16334
▁母の日ギフト	-16335
からおしゃれな	-16336
が嬉しいですね	-16337
が少しあります	-16338
くなっています	-16339
こちらの商品を	-16340
つがあり機能的	-16341
できない場合は	-16342
できる数に限り	-16343
で使用できます	-16344
で測っています	-16345
などのお使い物	-16346
にいかがですか	-16347
にもお勧めです	-16348
のみとなります	-16349
のプチプライス	-16350
は花柄でしたが	-16351
は長さ調節可能	-16352
もすっぽり入る	-16353
を入れておくと	-16354
を持っています	-16355
キャリーオール	-16356
キラキラハート	-16357
グラデーション	-16358
ケースとしても	-16359
ショルダーです	-16360
ジャストサイズ	-16361
セキュリティも	-16362
セール品の返品	-16363
ダイヤストーン	-16364
チェーンが付属	-16365
ナチュラル雑貨	-16366
ニュートラベル	-16367
ネイビーブルー	-16368
ハゲが少しあり	-16369
ハリスツイード	-16370
バルーンバッグ	-16371
ファスナーなし	-16372
ファッションを	-16373
フラップバッグ	-16374
ミニバッグです	-16375
メイクボックス	-16376
ラウンドバッグ	-16377
ラグジュアリー	-16378
・543230	-16379
全般に見られる	-16380
及びモバイルの	-16381
取り外し可能の	-16382
型リュックです	-16383
変わってきます	-16384
安心と心地よさ	-16385
実物とカラーや	-16386
幅広く使えます	-16387
年にアメリカの	-16388
当店鑑定済みの	-16389
後の書き込みで	-16390
忠実に再現する	-16391
描かれています	-16392
日本正規代理店	-16393
日頃出荷予定分	-16394
本体部分も含む	-16395
柄のデイパック	-16396
柄トートバッグ	-16397
気分に合わせて	-16398
用途に合わせて	-16399
素材で作られた	-16400
販売が決定した	-16401
閉められるので	-16402
開閉ファスナー	-16403
音楽プレイヤー	-16404
頂いております	-16405
sizeinfo	-16406
▁country	-16407
▁repetto	-16408
▁このシリーズは	-16409
▁とっても便利な	-16410
▁オーストリッチ	-16411
▁キャリーバッグ	-16412
▁コスメティック	-16413
▁コットンレース	-16414
▁ショルダー紐約	-16415
▁フリンジバッグ	-16416
▁マチがたっぷり	-16417
▁メール便規格外	-16418
▁ヤマト屋カバン	-16419
▁ヤマト屋バッグ	-16420
▁ラビットファー	-16421
いただいた場合は	-16422
お知らせ致します	-16423
ご希望の場合には	-16424
ご相談下さいませ	-16425
ご確認下さいませ	-16426
ちょっとそこまで	-16427
になるのでビーチ	-16428
に仕上げています	-16429
に変更いたします	-16430
のが嬉しいですね	-16431
のワンポイントに	-16432
はスナップボタン	-16433
やすくなっており	-16434
をお求めの場合は	-16435
をしておりますが	-16436
キャンバス素材の	-16437
サイズも入ります	-16438
サイドのジップは	-16439
サテン素材の無地	-16440
ダイヤストーンが	-16441
ファスナーポーチ	-16442
プライスでご提供	-16443
ホークカンパニー	-16444
マグネット式開閉	-16445
マチがたっぷりで	-16446
メーカー取り寄せ	-16447
ロンドンシリーズ	-16448
仕様メイン開閉部	-16449
使いやすいですよ	-16450
充実しているので	-16451
写真は実際の商品	-16452
持っているだけで	-16453
日本製職人手作り	-16454
背負ったままでも	-16455
色ヤケしています	-16456
芸能人も多数愛用	-16457
開け口のジップは	-16458
-0061302【	-16459
-862-9669	-16460
>277-0012	-16461
▁BARRAULT	-16462
▁BURBERRY	-16463
▁FELICITY	-16464
▁fabulous	-16465
▁ジェイジェイウィ	-16466
▁セレクトショップ	-16467
▁メール便が可能な	-16468
▁モデル着用サイズ	-16469
▁リズムおみぞ筋店	-16470
▁外部ファスナー付	-16471
▁楽天最安値に挑戦	-16472
お買い上げの場合も	-16473
お買い求めください	-16474
がとってもかわいい	-16475
ご利用の環境により	-16476
してくれそうですね	-16477
できる限り実物の色	-16478
とってもキュートな	-16479
にマイナーチェンジ	-16480
に仕上がっています	-16481
をおすすめ致します	-16482
を入れるのに最適な	-16483
を選択してください	-16484
サイズが異なる場合	-16485
サイズ対応ですので	-16486
スーパーマーケット	-16487
デザインにこだわり	-16488
トートバッグが登場	-16489
ファイルもすっきり	-16490
ブランドをアピール	-16491
マグネットホック式	-16492
マジックテープ開閉	-16493
マルチなポーチです	-16494
上部ファスナー開閉	-16495
事をご理解いただき	-16496
何卒ご了承ください	-16497
使っていただけます	-16498
円追加料金発送方法	-16499
各種パーティーなど	-16500
大人気のバッグです	-16501
少々見受けられます	-16502
普段使いはもちろん	-16503
材料合成皮革カラー	-16504
楽天最安値に挑戦中	-16505
社より直入の正規品	-16506
素材感は実際のもの	-16507
送料無料となります	-16508
▁ショルダーひもの幅	-16509
▁屋外での撮影のため	-16510
▁普段使いはもちろん	-16511
お問合せ頂いたお客様	-16512
ご購入して下さいます	-16513
に個体差がございます	-16514
のペットボトルも入る	-16515
はもちろん商品到着後	-16516
ひとつは持っていたい	-16517
よう努めておりますが	-16518
シンプルなデザインは	-16519
フラップ付きポケット	-16520
メッセンジャーバック	-16521
メール便ご利用の際は	-16522
作りを目指しています	-16523
内ファスナーポケット	-16524
宅配便のみの配送です	-16525
独特の香りが致します	-16526
画像の特性やお使いの	-16527
(18.5×10.5)	-16528
▁BALENCIAGA	-16529
▁フラットポーチの詳細	-16530
▁ワンショルダーバッグ	-16531
▁内側オープンポケット	-16532
これからも目が離せない	-16533
ちょっとしたお出かけに	-16534
としてもお使い頂けます	-16535
のバッグが登場しました	-16536
を入れるのにも便利です	-16537
サテンパーティーバッグ	-16538
ショルダーバッグとして	-16539
パフュームボトルポーチ	-16540
ファスナーポケット付き	-16541
マザーズバッグとしても	-16542
メールでのお問合せのみ	-16543
並行輸入商品になります	-16544
使いのトートやバッグに	-16545
正面ファスナーポケット	-16546
素材キャンパスコットン	-16547
間口はマグネットボタン	-16548
079-226-5050	-16549
▁ショルダーベルトの長さ	-16550
▁ファスナー付きポケット	-16551
▁内側も綺麗な使用感です	-16552
ご了承をお願いいたします	-16553
ご連絡させていただきます	-16554
に変更させて頂きますので	-16555
フラットポーチのスペック	-16556
ポケットもついているので	-16557
ポシェットアクセソワール	-16558
マイビューティフルバッグ	-16559
以前の裏地は花柄でしたが	-16560
実物とカラーや風合いなど	-16561
掲載の画像につきましては	-16562
撮影で使用したご祝儀袋は	-16563
日本正規代理店でのご購入	-16564
若干明るく写っております	-16565
送料無料でお届け致します	-16566
:078-862-9669	-16567
▁キャンバスボストンバッグ	-16568
▁ジェイジェイウィンターズ	-16569
▁レビューを書いて送料無料	-16570
その日の気分やファッション	-16571
などで活躍してくれそうです	-16572
んでの圧縮の発送となります	-16573
キュートなパーティーバッグ	-16574
ピッタリなバッグインバッグ	-16575
▁コンパクトになるのでビーチ	-16576
▁仕様メイン開閉ファスナー式	-16577
▁付属のショルダーを付けると	-16578
▁日本での修理は出来かねます	-16579
できる限り実物の色に近づける	-16580
ディアスが愛用してバッグです	-16581
仕様は変わる場合がございます	-16582
及びモバイルの環境などにより	-16583
現在は全商品サテン素材の無地	-16584
生地の裁ち位置により柄の入り	-16585
革製品の独特の香りが致します	-16586
▁メール便規格外サイズですので	-16587
▁保障付の商品をお求めの場合は	-16588
などのお使い物にもオススメです	-16589
にマイナーチェンジされています	-16590
はもちろん商品到着後で結構です	-16591
内側にも便利なオープンポケット	-16592
内側にも便利なジップポケットと	-16593
天然素材を使用しておりますので	-16594
社より直入の正規品のみを取り扱	-16595
▁メール便が可能な商品となります	-16596
に近づけるように努めておりますが	-16597
を入れるのにちょうどいい大きさで	-16598
選択なさらないようにお願いします	-16599
!◆	-16600
(_	-16601
,0	-16602
.(	-16603
/5	-16604
/6	-16605
1』	-16606
2{	-16607
5/	-16608
5【	-16609
6)	-16610
9.	-16611
9】	-16612
:*	-16613
?→	-16614
?』	-16615
CY	-16616
GD	-16617
GN	-16618
II	-16619
KS	-16620
Kn	-16621
OC	-16622
OW	-16623
RT	-16624
TR	-16625
UK	-16626
VN	-16627
ZZ	-16628
bo	-16629
ok	-16630
ve	-16631
”。	-16632
▁,	-16633
▁=	-16634
▁́	-16635
▁‘	-16636
▁て	-16637
▁ど	-16638
▁兄	-16639
▁取	-16640
▁容	-16641
▁市	-16642
▁布	-16643
▁星	-16644
▁書	-16645
▁桐	-16646
▁毛	-16647
▁産	-16648
▁長	-16649
▁香	-16650
○】	-16651
◎!	-16652
◎【	-16653
♪2	-16654
。<	-16655
。→	-16656
】5	-16657
】:	-16658
】◆	-16659
】・	-16660
〜〜	-16661
いこ	-16662
お安	-16663
お金	-16664
かえ	-16665
たん	-16666
つま	-16667
で肩	-16668
どの	-16669
に沿	-16670
に箱	-16671
のめ	-16672
のを	-16673
の鞄	-16674
ひび	-16675
ぼろ	-16676
ぼん	-16677
むと	-16678
もお	-16679
り布	-16680
わけ	-16681
を両	-16682
を期	-16683
を歩	-16684
を編	-16685
アカ	-16686
イユ	-16687
イレ	-16688
ウオ	-16689
エド	-16690
エニ	-16691
エヌ	-16692
カモ	-16693
ギザ	-16694
ギン	-16695
グル	-16696
コネ	-16697
チチ	-16698
ツキ	-16699
ナ地	-16700
ネジ	-16701
バレ	-16702
ヒナ	-16703
ヒネ	-16704
ベロ	-16705
ミス	-16706
ラボ	-16707
リミ	-16708
ルフ	-16709
ロハ	-16710
・(	-16711
・1	-16712
・3	-16713
・【	-16714
不規	-16715
両端	-16716
中旬	-16717
丸底	-16718
五三	-16719
人が	-16720
低い	-16721
倉敷	-16722
偽物	-16723
傷み	-16724
元に	-16725
全開	-16726
公園	-16727
内観	-16728
再度	-16729
再販	-16730
制限	-16731
力派	-16732
動く	-16733
動画	-16734
反映	-16735
収容	-16736
各界	-16737
団体	-16738
地で	-16739
変形	-16740
多湿	-16741
大型	-16742
大幅	-16743
実は	-16744
布を	-16745
平置	-16746
廃棄	-16747
式の	-16748
従来	-16749
復刻	-16750
感と	-16751
挙げ	-16752
振袖	-16753
換え	-16754
時や	-16755
最小	-16756
本数	-16757
村上	-16758
様々	-16759
殺到	-16760
気を	-16761
水が	-16762
決め	-16763
沸騰	-16764
泊の	-16765
消臭	-16766
清楚	-16767
渡し	-16768
温子	-16769
湿度	-16770
満足	-16771
牛皮	-16772
状の	-16773
発の	-16774
百貨	-16775
真っ	-16776
短い	-16777
祭り	-16778
移動	-16779
紙袋	-16780
素人	-16781
結び	-16782
絵本	-16783
続出	-16784
綻び	-16785
繊細	-16786
美玲	-16787
耐え	-16788
背中	-16789
脱着	-16790
自社	-16791
良品	-16792
藍染	-16793
衣装	-16794
褪せ	-16795
見積	-16796
規約	-16797
言葉	-16798
販の	-16799
身の	-16800
送付	-16801
遣い	-16802
鍵が	-16803
防げ	-16804
革で	-16805
!★】	-16806
&#8	-16807
(^_	-16808
)15	-16809
)17	-16810
+++	-16811
---	-16812
-19	-16813
-27	-16814
-68	-16815
016	-16816
017	-16817
040	-16818
[...]
